{"version":"1.0","truncation":null,"padding":null,"added_tokens":[{"id":0,"special":true,"content":"[UNK]","single_word":false,"lstrip":false,"rstrip":false,"normalized":false},{"id":1,"special":true,"content":"[SEP]","single_word":false,"lstrip":false,"rstrip":false,"normalized":false}],"normalizer":null,"pre_tokenizer":{"type":"Metaspace","replacement":"▁","str_rep":"▁","add_prefix_space":true},"post_processor":{"type":"TemplateProcessing","single":[{"Sequence":{"id":"A","type_id":0}},{"SpecialToken":{"id":"[SEP]","type_id":0}}],"pair":[{"Sequence":{"id":"A","type_id":0}},{"Sequence":{"id":"B","type_id":1}}],"special_tokens":{"[SEP]":{"id":"[SEP]","ids":[1],"tokens":["[SEP]"]}}},"decoder":null,"model":{"type":"BPE","dropout":null,"unk_token":"[UNK]","continuing_subword_prefix":null,"end_of_word_suffix":null,"fuse_unk":false,"vocab":{"[UNK]":0,"[SEP]":1,"\n":2,"\r":3,"!":4,"\"":5,"#":6,"$":7,"&":8,"'":9,"(":10,")":11,",":12,"-":13,".":14,"/":15,"0":16,"1":17,"2":18,"3":19,"4":20,"5":21,"6":22,"7":23,"8":24,"9":25,":":26,";":27,"?":28,"_":29,"a":30,"b":31,"c":32,"d":33,"e":34,"f":35,"g":36,"h":37,"i":38,"j":39,"k":40,"l":41,"m":42,"n":43,"o":44,"p":45,"q":46,"r":47,"s":48,"t":49,"u":50,"v":51,"w":52,"x":53,"y":54,"z":55,"":56,"":57,"":58,"¡":59,"¿":60,"à":61,"á":62,"é":63,"í":64,"ñ":65,"ó":66,"ú":67,"ü":68,"е":69," ":70,"—":71,"‘":72,"‚":73,"…":74," ":75,"▁":76,"\r\n":77,"▁e":78,"▁m":79,"▁p":80,"ue":81,"▁s":82,"▁l":83,"▁c":84,"▁t":85,"▁d":86,"▁a":87,"▁q":88,"er":89,"en":90,"▁y":91,"▁n":92,"▁que":93,"▁es":94,"an":95,"ar":96,"os":97,"▁de":98,"as":99,"▁v":100,"on":101,"or":102,"do":103,"▁no":104,"▁\r\n":105,"▁la":106,"▁el":107,"▁h":108,"es":109,"▁en":110,"un":111,"a\r\n":112,"o\r\n":113,"▁me":114,"▁b":115,"te":116,"re":117,"▁mi":118,"al":119,"in":120,"ra":121,"▁f":122,"ta":123,"to":124,"▁lo":125,"▁un":126,"▁te":127,"om":128,"▁si":129,"▁con":130,"▁yo":131,"go":132,"am":133,"ro":134,"da":135,"ui":136,"▁se":137,"▁por":138,"▁ha":139,"lo":140,"ci":141,"▁g":142,"ri":143,"ero":144,"▁com":145,"ando":146,"oy":147,"le":148,"ien":149,"▁di":150,"▁o":151,"la":152,"ab":153,"▁tu":154,"▁pa":155,"ch":156,"▁to":157,"▁qui":158,"▁est":159,"▁par":160,"▁los":161,"o,":162,"mp":163,"▁como":164,"que":165,"de":166,"▁al":167,"a,":168,"ce":169,"▁ten":170,"ti":171,"ón":172,"▁cu":173,"us":174,"▁i":175,"▁re":176,"h\r\n":177,"di":178,"▁pero":179,"ás":180,"ca":181,"ol":182,"▁vi":183,"▁le":184,"me":185,"▁j":186,"h,":187,"▁esto":188,"res":189,"▁ya":190,"▁soy":191,"is":192,"ent":193,"▁ye":194,"▁ti":195,"e\r\n":196,"▁su":197,"o'":198,"▁des":199,"▁na":200,"▁las":201,"▁tengo":202,"co":203,"os\r\n":204,"▁ra":205,"as\r\n":206,"▁porque":207,"▁para":208,"ente":209,"▁una":210,"▁ma":211,"▁sab":212,"▁in":213,"emp":214,"▁ca":215,"uen":216,"▁del":217,"▁pa'":218,"ar\r\n":219,"do\r\n":220,"vi":221,"ll":222,"▁so":223,"▁per":224,"▁más":225,"ué":226,"▁esta":227,"▁ni":228,"▁ve":229,"▁ch":230,"▁w":231,"uer":232,"▁ver":233,"ma":234,"es\r\n":235,"ga":236,"▁pi":237,"ora":238,"y,":239,"▁tra":240,"▁pas":241,"▁ah":242,"to\r\n":243,"▁quier":244,"▁mu":245,"el":246,"cu":247,"▁an":248,"tr":249,"▁este":250,"▁pue":251,"▁va":252,"▁r":253,"pi":254,"▁voy":255,"▁mis":256,"mo":257,"▁¿":258,"ía":259,"pe":260,"dad":261,"bi":262,"tra":263,"▁cuando":264,"▁estoy":265,"aj":266,"cer":267,"y\r\n":268,"▁ri":269,"te\r\n":270,"▁yea":271,"▁está":272,"ta\r\n":273,"▁mí":274,"▁po":275,"mi":276,"▁as":277,"▁hab":278,"▁siemp":279,"▁siempre":280,"da\r\n":281,"▁sal":282,"mos":283,"?\r\n":284,"▁car":285,"▁quiero":286,"qui":287,"▁ven":288,"e,":289,"▁pu":290,"▁hi":291,"ón\r\n":292,"▁gan":293,"▁ser":294,"▁sin":295,"▁ent":296,"▁todo":297,"▁ar":298,"li":299,"▁son":300,"uel":301,"pa":302,"'\r\n":303,"▁pe":304,"▁sé":305,"▁tú":306,"▁lle":307,"dos":308,"per":309,"▁ac":310,"um":311,"ck":312,"▁vos":313,"▁man":314,"▁ll":315,"▁cam":316,"▁solo":317,"tro":318,"▁mal":319,"▁co":320,"ran":321,"ve":322,"..":323,"▁cal":324,"▁eso":325,"ari":326,"▁tien":327,"▁ahora":328,"der":329,"▁hay":330,"▁am":331,"▁k":332,"ba":333,"▁u":334,"ter":335,"tu":336,"▁cre":337,"tar":338,"▁tan":339,"én":340,"vo":341,"▁qué":342,"án":343,"gu":344,"▁nos":345,"▁pr":346,"to,":347,"▁esc":348,"▁ro":349,"▁can":350,"ras":351,"ing":352,"low":353,"▁dej":354,"▁ex":355,"▁mam":356,"',":357,"▁li":358,"iendo":359,"ces":360,"go\r\n":361,"par":362,"▁ne":363,"▁hacer":364,"▁bien":365,"▁ella":366,"il":367,"▁'":368,"▁ba":369,"ta,":370,"▁cl":371,"si":372,"▁así":373,"▁habl":374,"▁bus":375,"amos":376,"▁rap":377,"▁sa":378,"▁hace":379,"▁don":380,"cho":381,"▁fu":382,"▁mo":383,"▁cor":384,"▁he":385,"endo":386,"▁imp":387,"tas":388,"bre":389,"man":390,"po":391,"tan":392,"▁res":393,"ens":394,"das":395,"tes":396,"és":397,"ues":398,"ento":399,"▁pon":400,"▁bar":401,"ir":402,"▁flow":403,"!\r\n":404,"gar":405,"▁nun":406,"za":407,"ver":408,"▁todos":409,"ic":410,"▁fue":411,"▁has":412,"▁pro":413,"▁sol":414,"▁bo":415,"▁dis":416,"▁cos":417,"cen":418,"or\r\n":419,"os,":420,"▁th":421,"▁bab":422,"▁yeah\r\n":423,"▁nunca":424,"jo":425,"car":426,"▁buen":427,"da,":428,"▁pre":429,"▁dice":430,"h-":431,"mas":432,"lo,":433,"▁ci":434,"▁hago":435,"▁quiere":436,"▁hoy":437,"▁lu":438,"ru":439,"▁tiene":440,"▁fal":441,"▁ju":442,"den":443,"▁her":444,"era":445,"▁men":446,"▁sh":447,"gan":448,"▁cas":449,"qu":450,"bo":451,"fi":452,"▁vez":453,"▁hasta":454,"▁esa":455,"▁vol":456,"▁mira":457,"ke":458,"ra\r\n":459,"ca\r\n":460,"ren":461,"▁comp":462,"ado":463,"▁mej":464,"al\r\n":465,"s\r\n":466,"se":467,"ame":468,"▁verdad":469,"▁gu":470,"▁baj":471,"▁no,":472,"▁mon":473,"▁be":474,"▁ap":475,"▁mier":476,"tos":477,"▁pla":478,"te,":479,"▁mue":480,"des":481,"ble":482,"▁ey,":483,"▁ho":484,"▁yeah,":485,"er\r\n":486,"ty":487,"cion":488,"▁llam":489,"ez":490,"▁vien":491,"▁mami":492,"▁pal":493,"▁nadi":494,"ten":495,"▁escu":496,"▁sí":497,"co\r\n":498,"ina":499,"t\r\n":500,"▁tiemp":501,"no":502,"▁vas":503,"▁calle":504,".\r\n":505,"▁go":506,"tal":507,"▁du":508,"▁ol":509,"▁cab":510,"▁to'":511,"cha":512,"can":513,"▁mejor":514,"▁sabe":515,"▁herman":516,"▁noch":517,"lo\r\n":518,"vis":519,"▁aun":520,"arme":521,"es,":522,"▁tus":523,"▁bi":524,"as,":525,"rim":526,"ente\r\n":527,"ar,":528,"▁ese":529,"▁vuel":530,"va":531,"▁deci":532,"▁aunque":533,"▁donde":534,"▁sigo":535,"▁muy":536,"lan":537,"▁puedo":538,"▁ab":539,"▁nue":540,"▁vida":541,"▁mar":542,"▁sos":543,"▁pens":544,"▁otra":545,"ía\r\n":546,"ro\r\n":547,"▁perd":548,"▁pis":549,"▁you":550,"▁tam":551,"mb":552,"▁da":553,"ro,":554,"ómo":555,"gun":556,"▁sabes":557,"ando\r\n":558,"▁nada":559,"▁rom":560,"▁saben":561,"▁fr":562,"▁rape":563,"▁acá":564,"con":565,"enci":566,"mo'":567,"do,":568,"ón,":569,"ino":570,"go,":571,"▁tom":572,"la,":573,"quí":574,"▁us":575,"▁nadie":576,"▁pare":577,"▁escri":578,"an\r\n":579,"▁trap":580,"▁muer":581,"▁conmi":582,"▁mierda":583,"ana":584,"ción\r\n":585,"ub":586,"ún":587,"ad":588,"▁aquí":589,"▁fa":590,"▁for":591,"▁do":592,"é\r\n":593,"je":594,"▁barri":595,"▁-":596,"▁my":597,"▁esper":598,"▁ey\r\n":599,"▁toda":600,"ma\r\n":601,"▁fre":602,"▁mas":603,"▁or":604,"gui":605,"r\r\n":606,"▁estás":607,"d\r\n":608,"▁emp":609,"▁pien":610,"co,":611,"▁día":612,"so":613,"ño":614,"▁eres":615,"qué":616,"vo\r\n":617,"▁quer":618,"▁ah,":619,"▁mun":620,"▁vengo":621,"▁cuen":622,"de\r\n":623,"▁the":624,"ga\r\n":625,"▁dos":626,"amo'":627,"▁gus":628,"▁fl":629,"ciendo":630,"at":631,"▁quieren":632,"ja":633,"▁les":634,"▁contra":635,"▁exp":636,"ero\r\n":637,"▁rec":638,"▁and":639,"▁desp":640,"▁ter":641,"▁cambi":642,"na":643,"▁olvi":644,"▁cada":645,"▁ay":646,"la\r\n":647,"z\r\n":648,"▁prim":649,"▁pasa":650,"et":651,"ándo":652,"▁fuck":653,"tor":654,"arte":655,"▁mient":656,"▁real":657,"▁fin":658,"▁oh,":659,"▁val":660,"ce\r\n":661,"▁yeh\r\n":662,"gas":663,"▁mor":664,"▁siento":665,"▁dro":666,"▁no\r\n":667,"▁están":668,"▁viene":669,"▁é":670,"▁desde":671,"▁club":672,"▁pes":673,"▁neg":674,"ción":675,"ste":676,"▁busc":677,"▁gra":678,"▁estar":679,"▁cual":680,"▁gente":681,"▁puta":682,"▁entre":683,"▁otro":684,"dad\r\n":685,"gue":686,"▁ando":687,"▁cómo":688,"▁tran":689,"be":690,"▁dicen":691,"▁eh\r\n":692,"▁cara":693,"▁jue":694,"▁cono":695,"▁gua":696,"▁jo":697,"▁creo":698,"▁suen":699,"▁fe":700,"▁tiempo":701,"a'":702,"por":703,"▁san":704,"▁mucho":705,"ina\r\n":706,"▁quien":707,"▁amor":708,"▁e'":709,"▁ah\r\n":710,"▁¡":711,"▁sus":712,"▁dí":713,"ul":714,"enti":715,"▁qued":716,"▁lo'":717,"▁vo":718,"rovis":719,"▁improvis":720,"▁nen":721,"▁pues":722,"▁cha":723,"eron":724,"▁él":725,"▁cer":726,"▁cora":727,"▁hu":728,"▁fi":729,"▁we":730,"ec":731,"▁van":732,"rar":733,"▁z":734,",\r\n":735,"▁som":736,"...\r\n":737,"jos":738,"▁\"":739,"▁mil":740,"▁frees":741,"▁wh":742,"▁volver":743,"▁freesty":744,"en\r\n":745,"▁eh,":746,"▁medi":747,"▁puede":748,"▁ban":749,"ra,":750,"eli":751,"rr":752,"▁bl":753,"▁esti":754,"era\r\n":755,"▁dime":756,"ento\r\n":757,"los":758,"zo":759,"ia":760,"▁noche":761,"▁on":762,"▁uste":763,"bién":764,"tando":765,"▁igu":766,"▁haciendo":767,"▁escuch":768,"▁despué":769,"▁cla":770,"▁rimas":771,"▁'e":772,"▁din":773,"▁coraz":774,"▁af":775,"▁cuer":776,"le\r\n":777,"▁chi":778,"▁clar":779,"▁también":780,"ca,":781,"ín":782,"▁suel":783,"amente":784,"▁decir":785,"ólo":786,"▁mundo":787,"▁ami":788,"▁pap":789,"ó\r\n":790,"▁bes":791,"▁col":792,"ís":793,"▁sue":794,"▁yeh,":795,"▁ins":796,"▁wa":797,"lla":798,"za\r\n":799,"▁mientras":800,"ven":801,"▁mami,":802,"entro":803,"▁ta":804,"▁bri":805,"▁dar":806,"mo\r\n":807,"▁2":808,"▁baby,":809,"▁tal":810,"▁sólo":811,"cil":812,"on\r\n":813,"▁mí\r\n":814,"▁arri":815,"▁tanto":816,"re\r\n":817,"▁tener":818,"me\r\n":819,"▁¿qué":820,"ya":821,"dor":822,"▁queda":823,"▁ga":824,"pp":825,"▁pan":826,"t,":827,"▁matar":828,"▁fui":829,"▁impor":830,"▁beb":831,"ónde":832,"▁coscu":833,"▁gi":834,"▁fum":835,"llo":836,"▁pres":837,"▁senti":838,"▁ahí":839,"▁antes":840,"ario\r\n":841,"cuen":842,"▁después":843,"yo":844,"▁encon":845,"o'\r\n":846,"▁nada\r\n":847,"▁cri":848,"▁ob":849,"▁pier":850,"fer":851,"▁1":852,"▁tar":853,"▁quién":854,"▁gusta":855,"▁tr":856,"▁veo":857,"▁bail":858,"cas":859,"i\r\n":860,"▁gran":861,"▁vis":862,"ero,":863,"▁much":864,"▁ton":865,"▁ir":866,"▁pregun":867,"▁estilo":868,"mm":869,"▁proble":870,"▁parece":871,"tar\r\n":872,"▁pus":873,"▁doy":874,"▁barrio":875,"s,":876,"th":877,"vel":878,"▁dem":879,"▁gri":880,"▁mone":881,"das\r\n":882,"▁all":883,"ur":884,"▁era":885,"▁tri":886,"▁enci":887,"lex":888,"▁hip":889,"▁igual":890,"▁todas":891,"dr":892,"ve\r\n":893,"▁reg":894,"▁min":895,"▁hijo":896,"▁conmigo":897,"tch":898,"▁rep":899,"▁wo":900,"▁poder":901,"▁esos":902,"tin":903,"▁mill":904,"▁agu":905,"cia":906,"▁inter":907,"▁respe":908,"▁falta":909,"▁palab":910,"cí":911,"▁pun":912,"▁au":913,"▁nues":914,"▁algo":915,"▁pen":916,"▁guer":917,"in'":918,"é,":919,"▁pren":920,"▁sho":921,"mente":922,"aste":923,"toy":924,"tros":925,"▁tranqui":926,"io":927,"ito":928,"▁baby":929,"▁poco":930,"▁pienso":931,"▁term":932,"jer":933,"▁rapero":934,"▁cabr":935,"▁vamos":936,"ale":937,"▁ad":938,"▁sale":939,"cto":940,"ki":941,"▁mismo":942,"▁rima":943,"ando,":944,"▁nig":945,"▁veces":946,"▁mom":947,"▁estamos":948,"▁encontr":949,"tas\r\n":950,"▁má":951,"▁papi":952,"p\r\n":953,"▁dentro":954,"enta":955,"▁cualqui":956,"▁bas":957,"▁amor\r\n":958,"ma,":959,"w\r\n":960,"or,":961,"▁'toy":962,"cos":963,"ga,":964,"sa":965,"▁enten":966,"ones":967,"▁loco":968,"▁i'":969,"▁jun":970,"▁ke":971,"ka":972,"▁cul":973,"e'":974,"▁fuer":975,"dos\r\n":976,"▁pol":977,"▁sea":978,"du":979,"▁mer":980,"▁vivo":981,"▁tienen":982,"l\r\n":983,"tos\r\n":984,"▁tumb":985,"▁neces":986,"p,":987,"▁fam":988,"▁freestyle":989,"baj":990,"▁perdi":991,"▁uh,":992,"▁dispar":993,"tre":994,"▁cin":995,"▁dónde":996,"▁mic":997,"▁estu":998,"▁dejo":999,"▁mañ":1000,"▁mí,":1001,"▁sí,":1002,"▁droga":1003,"dí":1004,"ut":1005,"▁flex":1006,"mbre":1007,"▁hermano":1008,"▁menos":1009,"▁bitch":1010,"dar":1011,"▁dol":1012,"▁uno":1013,"▁yo,":1014,"▁quieres":1015,"▁der":1016,"▁diab":1017,"tes\r\n":1018,"▁hom":1019,"▁bal":1020,"▁oh\r\n":1021,"iste":1022,"ros":1023,"▁is":1024,"▁ning":1025,"▁han":1026,"der\r\n":1027,"▁prin":1028,"▁pongo":1029,"▁morir":1030,"van":1031,"▁hue":1032,"▁llor":1033,"▁menti":1034,"▁i'm":1035,"d,":1036,"▁eh":1037,"▁tres":1038,"aba":1039,"▁trai":1040,"▁yo\r\n":1041,"o',":1042,"les":1043,"rando":1044,"á\r\n":1045,"▁equi":1046,"▁dame":1047,"▁ay,":1048,"▁esp":1049,"▁estos":1050,"ce,":1051,"▁sobre":1052,"▁cosas":1053,"ine":1054,"h-e":1055,"\"\r\n":1056,"ba\r\n":1057,"▁agar":1058,"▁digo":1059,"lla\r\n":1060,"▁kno":1061,"▁dejar":1062,"▁dan":1063,"ario":1064,"ños":1065,"▁cui":1066,"ona":1067,"▁mú":1068,"▁like":1069,"gi":1070,"▁pega":1071,"▁hablar":1072,"mos\r\n":1073,"orm":1074,"▁chic":1075,"▁bueno,":1076,"po,":1077,"▁estas":1078,"▁bajo":1079,"▁br":1080,"▁segui":1081,"▁ojos":1082,"idad":1083,"▁tira":1084,"▁apar":1085,"▁vo'":1086,"▁dij":1087,"▁pueden":1088,"▁llama":1089,"zar":1090,"▁nombre":1091,"▁señ":1092,"▁vivi":1093,"▁músi":1094,"-a":1095,"cio":1096,"▁dios":1097,"▁dijo":1098,"▁rit":1099,"▁noso":1100,"?,":1101,"pa\r\n":1102,"vo,":1103,"che":1104,"h-o":1105,"las":1106,"▁ey":1107,"▁lleg":1108,"▁batal":1109,"▁arriba":1110,"mo,":1111,"ora\r\n":1112,"ern":1113,"▁nivel":1114,"▁bai":1115,"mar":1116,"ña":1117,"▁plan":1118,"▁bro":1119,"▁chu":1120,"▁arg":1121,"▁llen":1122,"▁odi":1123,"▁vie":1124,"▁mano":1125,"▁luz":1126,"uela":1127,"▁ja":1128,"▁entien":1129,"▁conf":1130,"▁habla":1131,"▁ki":1132,"▁somos":1133,"▁rev":1134,"▁más\r\n":1135,"▁mucha":1136,"▁dé":1137,"an,":1138,"ante":1139,"▁la'":1140,"po\r\n":1141,"ores":1142,"in\r\n":1143,"▁salgo":1144,"▁casi":1145,"'t":1146,"bra":1147,"emos":1148,"▁ún":1149,"▁culo":1150,"▁ganar":1151,"▁minu":1152,"er,":1153,"▁pers":1154,"▁estaba":1155,"ion":1156,"tri":1157,"▁encuen":1158,"▁ti\r\n":1159,"▁che":1160,"▁escen":1161,"▁sang":1162,"▁importa":1163,"▁princi":1164,"ea":1165,"ni":1166,"▁simp":1167,"tras":1168,"▁yeah":1169,"▁cuenta":1170,"▁mes":1171,"▁dra":1172,"▁ale":1173,"▁cua":1174,"▁¿c":1175,"elo":1176,"ico":1177,"▁ellos":1178,"▁conti":1179,"▁shi":1180,"▁apren":1181,"eza":1182,"g\r\n":1183,"jo\r\n":1184,"lar":1185,"▁ace":1186,"▁buscar":1187,"▁juro":1188,"▁club,":1189,"▁mente":1190,"▁ron":1191,"▁gano":1192,"...":1193,"▁tienes":1194,"▁nuevo":1195,"dre":1196,"mien":1197,"▁ele":1198,"▁har":1199,"▁bu":1200,"▁fo":1201,"▁sub":1202,"▁trabaj":1203,"▁mujer":1204,"elo\r\n":1205,"ing\r\n":1206,"▁gol":1207,"▁recuer":1208,"▁os":1209,"▁sigue":1210,"▁segu":1211,"▁je":1212,"▁tiro":1213,"tro\r\n":1214,"▁llev":1215,"▁expli":1216,"▁buscando":1217,"ung":1218,"llo\r\n":1219,"▁coscull":1220,"w,":1221,"▁due":1222,"▁tenés":1223,"▁despi":1224,"▁vamo'":1225,"éndo":1226,"▁solamente":1227,"▁hermano,":1228,"'s":1229,"ber":1230,"▁qu":1231,"▁enam":1232,"al,":1233,"▁feli":1234,"▁of":1235,"▁llega":1236,"▁llevo":1237,"▁hablando":1238,"▁recor":1239,"cando":1240,"▁fres":1241,"▁cons":1242,"▁raper":1243,"▁encima":1244,"ita":1245,"▁vida\r\n":1246,"▁jus":1247,"ado\r\n":1248,"ces\r\n":1249,"gra":1250,"io\r\n":1251,"▁oy":1252,"▁cien":1253,"cho\r\n":1254,"de,":1255,"▁anda":1256,"▁sali":1257,"u,":1258,"uh\r\n":1259,"ío":1260,"▁cru":1261,"▁mie":1262,"cia\r\n":1263,"▁it":1264,"▁enton":1265,"▁forma":1266,"pon":1267,"▁esca":1268,"▁camin":1269,"▁medio":1270,"▁ustedes":1271,"▁argent":1272,"▁mol":1273,"aron":1274,"▁estre":1275,"▁hici":1276,"▁extra":1277,"▁bien\r\n":1278,"diendo":1279,"ré":1280,"▁def":1281,"▁ense":1282,"▁gor":1283,"▁nada,":1284,"▁mueve":1285,"▁suena":1286,"▁brill":1287,"lti":1288,"▁fav":1289,"ño\r\n":1290,"ano":1291,"ana\r\n":1292,"▁mata":1293,"ciones":1294,"▁termin":1295,"zo\r\n":1296,"▁mari":1297,"▁esas":1298,"▁young":1299,"▁hacen":1300,"▁sé\r\n":1301,"▁rob":1302,"▁bueno":1303,"encia":1304,"▁obvi":1305,"-e":1306,"g,":1307,"gos":1308,"á,":1309,"▁apa":1310,"▁gas":1311,"▁super":1312,"▁int":1313,"▁deja":1314,"fe":1315,"▁dije":1316,"▁difer":1317,"me,":1318,"▁paso":1319,"▁claro":1320,"ja\r\n":1321,"▁fun":1322,"▁hice":1323,"▁baby\r\n":1324,"▁blun":1325,"una":1326,"▁ciu":1327,"▁nuestro":1328,"pues":1329,"té":1330,"and":1331,"▁cara\r\n":1332,"uela\r\n":1333,"▁uh\r\n":1334,"▁repres":1335,"▁tumbando":1336,"hi":1337,"▁demas":1338,"▁suf":1339,"cer\r\n":1340,"▁puta,":1341,"vos":1342,"▁pos":1343,"▁hor":1344,"▁oh":1345,"▁mal\r\n":1346,"▁empi":1347,"▁olvid":1348,"▁ayu":1349,"▁juego":1350,"▁ves":1351,"tir":1352,"▁don't":1353,"▁pone":1354,"▁corazón":1355,"ed":1356,"▁pin":1357,"cho,":1358,"▁algui":1359,"▁viaj":1360,"▁hacer\r\n":1361,"▁escrib":1362,"▁momento":1363,"ár":1364,"▁tras":1365,"▁ai":1366,"'o":1367,"ty\r\n":1368,"▁esqu":1369,"▁bom":1370,"▁viv":1371,"▁perf":1372,"▁camino":1373,"▁truen":1374,"erto":1375,"ás\r\n":1376,"▁desa":1377,"▁fumo":1378,"▁fuera":1379,"▁muero":1380,"ándome":1381,"▁negro":1382,"ías":1383,"▁dor":1384,"▁mir":1385,"▁¿qui":1386,"▁cuida":1387,"▁person":1388,"i,":1389,"ión\r\n":1390,"▁entr":1391,"▁fren":1392,"▁come":1393,"▁mus":1394,"▁bor":1395,"▁hacerlo":1396,"▁boca":1397,"ve,":1398,"▁blan":1399,"▁compar":1400,"▁cuan":1401,"▁llegar":1402,"▁cans":1403,"▁conmigo\r\n":1404,"▁piens":1405,"uy":1406,"one":1407,"▁dire":1408,"▁vez\r\n":1409,"▁perdón":1410,"ápi":1411,"▁vos\r\n":1412,"▁envi":1413,"▁gir":1414,"▁iba":1415,"▁gana":1416,"▁casa":1417,"▁oro":1418,"▁improvisa":1419,"gar\r\n":1420,"▁lis":1421,"ento,":1422,"amp":1423,"▁estan":1424,"▁alma":1425,"dio":1426,"▁pa'l":1427,"▁pase":1428,"▁aguan":1429,"▁cuatro":1430,"▁cel":1431,"en,":1432,"▁contro":1433,"▁bien,":1434,"encia\r\n":1435,"▁dinero":1436,"cti":1437,"▁puer":1438,"▁vam":1439,"ali":1440,"▁sir":1441,"▁levan":1442,"▁vaya":1443,"▁quiero,":1444,"▁llego":1445,"▁pensar":1446,"▁simple":1447,"▁¿cómo":1448,"▁dormi":1449,"▁habi":1450,"cias":1451,"▁parte":1452,"▁read":1453,"▁infi":1454,"▁pasó":1455,"bir":1456,"▁querés":1457,"▁afue":1458,"ró":1459,"▁ce":1460,"▁cuel":1461,"ala":1462,"ales\r\n":1463,"cio\r\n":1464,"▁arre":1465,"▁rock":1466,"▁hop":1467,"▁romp":1468,"▁whi":1469,"rrum":1470,"▁cualquier":1471,"cre":1472,"h!\r\n":1473,"▁bre":1474,"▁sig":1475,"ame,":1476,"▁muchos":1477,"!!\r\n":1478,"ig":1479,"tá":1480,"▁pl":1481,"ones\r\n":1482,"▁lado":1483,"▁siente":1484,"▁raz":1485,"▁mala":1486,"▁sangre":1487,"pañ":1488,"arme\r\n":1489,"▁nuevo\r\n":1490,"▁suelto":1491,"▁entonces":1492,"ctu":1493,"tó":1494,"▁peli":1495,"ante\r\n":1496,"▁novi":1497,"alo":1498,"omo":1499,"▁ge":1500,"▁yah\r\n":1501,"▁pasar":1502,"▁busca":1503,"▁flow,":1504,"▁sentir":1505,"▁alguien":1506,"▁dando":1507,"▁hum":1508,"▁ben":1509,"▁temp":1510,"▁reci":1511,"▁sacar":1512,"▁baja":1513,"▁rapear":1514,"▁encontrar":1515,"▁mañana":1516,"cor":1517,"▁mío":1518,"▁guar":1519,"▁rompe":1520,"▁palabras":1521,"00":1522,"u\r\n":1523,"va\r\n":1524,"ág":1525,"ía,":1526,"▁pri":1527,"▁meto":1528,"▁tier":1529,"▁this":1530,"ppin":1531,"▁give":1532,"gando":1533,"ha":1534,"ili":1535,"mor":1536,"tiendo":1537,"▁dri":1538,"▁norm":1539,"▁puedes":1540,"▁ganas":1541,"▁escon":1542,"▁abaj":1543,"▁frente":1544,"▁humo":1545,"cta":1546,"ido":1547,"ito\r\n":1548,"mas\r\n":1549,"sy":1550,"▁dos\r\n":1551,"▁adi":1552,"▁hmm":1553,"▁compe":1554,"▁mato":1555,"▁cham":1556,"▁ver\r\n":1557,"▁pide":1558,"▁quiero\r\n":1559,"▁pele":1560,"▁vale":1561,"▁enseñ":1562,"-na":1563,"▁que\r\n":1564,"▁bol":1565,"▁fá":1566,"▁perman":1567,"▁wan":1568,"▁'ta":1569,"▁saco":1570,"és\r\n":1571,"▁plata":1572,"▁todav":1573,"▁voz":1574,"br":1575,"im":1576,"▁sk":1577,"▁años":1578,"▁demos":1579,"▁si,":1580,"▁conci":1581,"▁chan":1582,"cul":1583,"▁esperando":1584,"▁explo":1585,"▁respeto":1586,"eta":1587,"▁mc":1588,"▁segun":1589,"▁tuyo":1590,"melo":1591,"▁capi":1592,"▁salir":1593,"▁campe":1594,"▁cosa":1595,"▁pensando":1596,"▁piso,":1597,"▁escribo":1598,"ther":1599,"▁má'":1600,"cin":1601,"ia\r\n":1602,"oo":1603,"▁án":1604,"▁nota":1605,"▁saber":1606,"▁hizo":1607,"▁lugar":1608,"▁she":1609,"ciones\r\n":1610,"▁rapeo":1611,"▁cuerpo":1612,"▁déj":1613,"des\r\n":1614,"fon":1615,"gún":1616,"▁x":1617,"▁lue":1618,"▁dom":1619,"▁siendo":1620,"▁conta":1621,"le,":1622,"▁oke":1623,"▁cho":1624,"▁traje":1625,"▁podr":1626,"▁pelo":1627,"▁cier":1628,"▁mira,":1629,"▁tiempo\r\n":1630,"▁envidi":1631,"__":1632,"dan":1633,"▁ú":1634,"▁sent":1635,"▁tor":1636,"▁his":1637,"▁digan":1638,"▁algun":1639,"▁caden":1640,"▁pasti":1641,"▁pasado":1642,"▁prefi":1643,"▁fumando":1644,"▁nosotros":1645,"▁fácil":1646,"-n":1647,"ám":1648,"ño,":1649,"▁duer":1650,"all":1651,"ame\r\n":1652,"que\r\n":1653,"▁perder":1654,"▁poca":1655,"▁hablo":1656,"ument":1657,"▁mami\r\n":1658,"▁trap,":1659,"▁nena":1660,"▁cris":1661,"▁seguir":1662,"▁único":1663,"ión":1664,"ton":1665,"▁pel":1666,"▁aque":1667,"esta":1668,"a,\r\n":1669,"▁vida,":1670,"▁tiran":1671,"▁más,":1672,"▁piel":1673,"▁uo":1674,"▁tanta":1675,"▁piso":1676,"mando":1677,"▁dal":1678,"▁viendo":1679,"▁mi\r\n":1680,"▁toca":1681,"▁pido":1682,"▁todo'":1683,"ck\r\n":1684,"▁futu":1685,"▁nadie\r\n":1686,"▁fron":1687,"▁problema":1688,"h-eh\r\n":1689,"-b":1690,"gh":1691,"ye":1692,"▁ñ":1693,"▁cump":1694,"dido":1695,"▁inf":1696,"▁cai":1697,"▁amar":1698,"▁clas":1699,"▁visto":1700,"▁famili":1701,"nos":1702,"▁cli":1703,"▁dale":1704,"▁entra":1705,"▁encan":1706,"▁asi":1707,"▁sé,":1708,"▁cree":1709,"▁flow\r\n":1710,"▁fuego":1711,"▁empez":1712,"▁vivir":1713,"k\r\n":1714,"▁slow":1715,"▁lar":1716,"iente":1717,"llas":1718,"▁ru":1719,"ing,":1720,"▁así\r\n":1721,"bre\r\n":1722,"▁prepar":1723,"▁señor":1724,"bas":1725,"bo\r\n":1726,"eb":1727,"í\r\n":1728,"▁sor":1729,"▁tre":1730,"▁dese":1731,"▁siempre\r\n":1732,"▁volv":1733,"▁comple":1734,"▁verdad,":1735,"▁verdad\r\n":1736,"▁beat":1737,"▁barrio\r\n":1738,"▁primera":1739,"▁papel":1740,"ho":1741,"ara":1742,"▁vino":1743,"ille":1744,"▁hablan":1745,"▁poner":1746,"▁hermano\r\n":1747,"▁what":1748,"▁money":1749,"▁ritmo":1750,"▁oscu":1751,"▁demasi":1752,"'o\r\n":1753,"tum":1754,"▁ham":1755,"esti":1756,"▁mete":1757,"ino\r\n":1758,"ción,":1759,"▁gen":1760,"▁arma":1761,"▁copi":1762,"▁música":1763,"▁afuera":1764,"▁últi":1765,"e'\r\n":1766,"anana":1767,"▁bille":1768,"tis":1769,"mag":1770,"▁¿que":1771,"▁cama":1772,"▁duk":1773,"▁culpa":1774,"▁todavía":1775,"▁demostr":1776,"fr":1777,"m\r\n":1778,"▁atr":1779,"▁haga":1780,"▁oj":1781,"▁quisi":1782,"▁na'\r\n":1783,"▁pillo":1784,"▁así,":1785,"▁sí\r\n":1786,"▁muerte":1787,"▁equivo":1788,"▁know":1789,"▁normal":1790,"cía":1791,"je\r\n":1792,"▁miro":1793,"ales":1794,"cha\r\n":1795,"▁ley":1796,"is\r\n":1797,"▁sube":1798,"▁inv":1799,"▁invi":1800,"▁caus":1801,"▁¿y":1802,"▁acab":1803,"▁corre":1804,"▁¿quién":1805,"ctor":1806,"dés":1807,"gro":1808,"endo\r\n":1809,"▁gil":1810,"▁rey":1811,"melo\r\n":1812,"▁wi":1813,"▁ases":1814,"▁puto":1815,"das,":1816,"▁bueno\r\n":1817,"▁rompo":1818,"▁negro,":1819,"▁chico":1820,"▁puse":1821,"▁perfec":1822,"cto\r\n":1823,"gn":1824,"tt":1825,"x\r\n":1826,"ían":1827,"ome":1828,"▁había":1829,"tur":1830,"▁hous":1831,"▁tampo":1832,"▁quería":1833,"▁días":1834,"▁pierdo":1835,"▁punto":1836,"▁4":1837,"▁vine":1838,"▁flo":1839,"▁imag":1840,"▁¿por":1841,"▁acuer":1842,"▁manos":1843,"▁calle,":1844,"▁traigo":1845,"-o":1846,"▁blo":1847,"▁contes":1848,"ris":1849,"▁quiz":1850,"▁ros":1851,"▁respon":1852,"▁corazón\r\n":1853,"▁guerra":1854,"▁enamor":1855,"-\r\n":1856,"ban":1857,"▁fras":1858,"▁comer":1859,"▁diga":1860,"▁cap":1861,"▁rápi":1862,"▁maldi":1863,"▁mama":1864,"▁escucha":1865,"▁vuelvo":1866,"▁perdí":1867,"▁primero":1868,"▁sueño":1869,"▁instr":1870,"dri":1871,"fu":1872,"za,":1873,"ío\r\n":1874,"▁ment":1875,"▁acer":1876,"erno":1877,"▁hora":1878,"chi":1879,"▁jam":1880,"▁soñ":1881,"▁entiendo":1882,"▁hey,":1883,"▁vuelve":1884,"▁trans":1885,"▁quedar":1886,"▁obviamente":1887,"▁tampoco":1888,"ge":1889,"we":1890,"▁emb":1891,"▁ag":1892,"▁atra":1893,"▁loca":1894,"riendo":1895,"▁inc":1896,"▁mismo\r\n":1897,"▁final":1898,"▁dinero,":1899,"▁tranquilo":1900,"▁baila":1901,"▁shit\r\n":1902,"▁ready":1903,"pli":1904,"ías\r\n":1905,"lo'":1906,"▁gui":1907,"▁algún":1908,"▁tenemos":1909,"▁putas":1910,"▁acti":1911,"▁aman":1912,"eza\r\n":1913,"▁primer":1914,"▁fucking":1915,"▁realidad":1916,"▁club\r\n":1917,"▁humi":1918,"fa":1919,"▁atre":1920,"▁sil":1921,"entar":1922,"▁ricto":1923,"▁roll":1924,"▁vuelta":1925,"▁flas":1926,"▁tarde\r\n":1927,"▁ningun":1928,"▁record":1929,"▁permanent":1930,"▁histor":1931,"mán":1932,"▁tro":1933,"▁ata":1934,"ena":1935,"▁espe":1936,"▁esqui":1937,"▁sient":1938,"▁diez":1939,"▁otros":1940,"▁vio":1941,"▁kil":1942,"▁mamá":1943,"▁full":1944,"▁compr":1945,"ado,":1946,"▁tomo":1947,"▁conmigo,":1948,"▁auto":1949,"▁micro":1950,"▁brin":1951,"▁confun":1952,"▁music":1953,"tos,":1954,"▁mens":1955,"▁lado\r\n":1956,"▁boy":1957,"▁fan":1958,"▁loco,":1959,"▁salu":1960,"▁sino":1961,"▁busco":1962,"▁movi":1963,"▁that":1964,"▁noche\r\n":1965,"▁toma":1966,"▁aquí\r\n":1967,"▁doble":1968,"▁cambio":1969,"▁one":1970,"▁palabra":1971,"▁espero":1972,"▁cosculluela":1973,"▁cuello":1974,"▁instrument":1975,"bu":1976,"r,":1977,"▁mos":1978,"▁aún":1979,"▁espa":1980,"▁gente\r\n":1981,"▁digas":1982,"▁party":1983,"▁alcan":1984,"▁cuán":1985,"▁jaj":1986,"▁será":1987,"▁lleva":1988,"▁uh":1989,"▁uh-":1990,"▁saca":1991,"ico\r\n":1992,"▁luz\r\n":1993,"▁problemas":1994,"▁dale,":1995,"▁vue":1996,"▁ene":1997,"▁bru":1998,"▁unos":1999,"▁parar":2000,"▁parti":2001,"▁il":2002,"▁deses":2003,"▁pasa,":2004,"▁enter":2005,"ter\r\n":2006,"▁rap,":2007,"▁buena":2008,"▁shor":2009,"▁flex,":2010,"▁miedo":2011,"▁favor":2012,"bli":2013,"pe\r\n":2014,"▁lun":2015,"▁quedo":2016,"▁bum":2017,"▁fer":2018,"▁confi":2019,"▁oh-o":2020,"tic":2021,"▁rela":2022,"▁rebo":2023,"▁tir":2024,"▁na'":2025,"▁cie":2026,"fici":2027,"▁regal":2028,"▁interes":2029,"▁ningún":2030,"▁contigo":2031,"▁gela":2032,"▁fronte":2033,"-p":2034,"idad\r\n":2035,"las\r\n":2036,"tón\r\n":2037,"ura":2038,"yas":2039,"▁er":2040,"▁cá":2041,"▁que,":2042,"▁dif":2043,"▁paz":2044,"▁cuar":2045,"cula":2046,"▁vai":2047,"▁entro":2048,"▁cielo\r\n":2049,"▁muere":2050,"▁trapp":2051,"▁conoce":2052,"▁feel":2053,"▁usted":2054,"ke\r\n":2055,"r.":2056,"▁avi":2057,"ano\r\n":2058,"oni":2059,"▁no'":2060,"ina,":2061,"▁loco\r\n":2062,"▁comi":2063,"▁dices":2064,"cado":2065,"res\r\n":2066,"▁descon":2067,"llas\r\n":2068,"▁perre":2069,"▁vers":2070,"▁canto":2071,"▁modo":2072,"▁boo":2073,"▁duro":2074,"▁juego\r\n":2075,"▁amor,":2076,"▁puesto":2077,"▁chapi":2078,"▁darle":2079,"▁diablo":2080,"▁minuti":2081,"▁err":2082,"▁mando":2083,"▁mmm":2084,"▁lan":2085,"▁año":2086,"▁eso'":2087,"ona\r\n":2088,"▁ocu":2089,"▁soy\r\n":2090,"▁sac":2091,"▁corta":2092,"▁disco":2093,"▁cielo":2094,"ble\r\n":2095,"▁papá":2096,"▁color":2097,"▁bebé\r\n":2098,"▁grande":2099,"▁nigga\r\n":2100,"▁mere":2101,"▁ciudad":2102,"ple":2103,"▁avis":2104,"raz":2105,"▁tema":2106,"▁comb":2107,"iento":2108,"▁estru":2109,"▁carr":2110,"▁venir":2111,"▁gang":2112,"▁mother":2113,"▁bote":2114,"▁mejor\r\n":2115,"▁cinco":2116,"▁justo":2117,"▁cues":2118,"eno\r\n":2119,"▁hater":2120,"▁gar":2121,"▁yeh":2122,"ck,":2123,"▁up,":2124,"tura":2125,"▁ayer":2126,"▁droga,":2127,"▁quedan":2128,"▁allá":2129,"-e-":2130,"▁mensaj":2131,"▁desesper":2132,"▁estructu":2133,"-tu":2134,"he":2135,"ica":2136,"tun":2137,"wn":2138,"ó,":2139,"▁deb":2140,"▁fon":2141,"▁tuy":2142,"enta\r\n":2143,"▁tipo":2144,"▁mía\r\n":2145,"▁acos":2146,"▁ropa":2147,"▁hecho":2148,"▁fuego\r\n":2149,"▁dice:":2150,"▁hombre":2151,"▁acep":2152,"▁oye":2153,"▁trueno":2154,"!!":2155,"pas":2156,"▁día\r\n":2157,"▁dec":2158,"▁culo,":2159,"▁ide":2160,"▁tirar":2161,"coh":2162,"▁quiera":2163,"▁prrrum":2164,"▁hoo":2165,"▁cabeza":2166,"▁noches":2167,"▁chain":2168,"▁despier":2169,"▁luego":2170,"▁demasiado":2171,"fuck":2172,"k,":2173,"ler":2174,"m,":2175,"mer":2176,"▁3":2177,"▁có":2178,"end":2179,"oso":2180,"▁siqui":2181,"▁sex":2182,"▁haces":2183,"▁dio":2184,"▁out":2185,"▁pagan":2186,"▁tenga":2187,"▁descan":2188,"▁may":2189,"▁vos,":2190,"▁mierda\r\n":2191,"▁nuev":2192,"▁cuento":2193,"▁gracias":2194,"▁dinero\r\n":2195,"▁micró":2196,"▁micrófon":2197,".r.":2198,"dor\r\n":2199,"gos\r\n":2200,"l,":2201,"ly":2202,"tien":2203,"▁tari":2204,"▁az":2205,"▁me\r\n":2206,"▁bla":2207,"cido":2208,"▁esto,":2209,"▁subir":2210,"▁salam":2211,"▁hijos":2212,"▁manten":2213,"▁liber":2214,"sión\r\n":2215,"tes,":2216,"▁noche,":2217,"▁flor":2218,"▁guapo,":2219,"▁cereb":2220,"▁fuiste":2221,"▁millon":2222,"▁vamo":2223,"▁humil":2224,"hu":2225,"ne":2226,"▁sw":2227,"▁toy":2228,"▁ade":2229,"▁me,":2230,"▁fas":2231,"▁fir":2232,"▁diam":2233,"▁tenía":2234,"▁ti,":2235,"▁madre":2236,"▁aho":2237,"▁rum":2238,"▁cara,":2239,"▁mierda,":2240,"▁ayer\r\n":2241,"▁money,":2242,"▁encuentro":2243,"▁quin":2244,"▁quizás":2245,"▁silenci":2246,"▁siquiera":2247,"&amp":2248,"bar":2249,"bol":2250,"eta\r\n":2251,"gl":2252,"ka\r\n":2253,"ocu":2254,"se\r\n":2255,"▁tí":2256,"▁tin":2257,"▁quedas":2258,"▁eso,":2259,"on,":2260,"▁estil":2261,"▁paro":2262,"▁alcoh":2263,"▁vive":2264,"melo,":2265,"▁desc":2266,"▁caz":2267,"▁pasan":2268,"▁puro":2269,"tar,":2270,"▁lugar\r\n":2271,"▁calle\r\n":2272,"▁chica":2273,"▁seguro":2274,"▁felici":2275,"▁novio":2276,"&amp;":2277,"fe,":2278,"gel":2279,"jo,":2280,"ker":2281,"tán":2282,"uh":2283,"uyo":2284,"zco":2285,"ícil":2286,"▁ev":2287,"uela,":2288,"▁consi":2289,"▁yah,":2290,"entro\r\n":2291,"▁na',":2292,"▁ma',":2293,"▁sola":2294,"▁ahora\r\n":2295,"▁ren":2296,"▁¿s":2297,"▁calien":2298,"▁prendo":2299,"▁compren":2300,"▁pesa":2301,"▁sueno":2302,"▁derri":2303,"▁argentina":2304,"▁intent":2305,"▁simplemente":2306,"▁hmm,":2307,"▁difícil":2308,"▁&amp;":2309,"▁mé":2310,"▁smo":2311,"▁len":2312,"▁cr":2313,"▁fra":2314,"ta'":2315,"▁convi":2316,"▁conse":2317,"▁esté":2318,"tica\r\n":2319,"dir":2320,"▁tirando":2321,"▁capa":2322,"▁estamo'":2323,"mos,":2324,"▁caraj":2325,"▁malo":2326,"▁exis":2327,"▁propi":2328,"▁compli":2329,"▁vienen":2330,"▁to'a":2331,"▁guapo":2332,"▁fiesta":2333,"▁beso":2334,"▁ahí\r\n":2335,"▁puso":2336,"▁cabrón":2337,"▁nigga":2338,"▁dijeron":2339,"▁funer":2340,"▁cuanto":2341,"▁motherfuck":2342,"▁salamand":2343,"▁alcohol":2344,"ba,":2345,"jer\r\n":2346,"nos\r\n":2347,"ras\r\n":2348,"▁za":2349,"▁evi":2350,"▁pú":2351,"▁tru":2352,"▁darte":2353,"▁aqui":2354,"ena\r\n":2355,"▁vari":2356,"▁enfr":2357,"▁siento\r\n":2358,"▁op":2359,"cha,":2360,"quen":2361,"▁wuh\r\n":2362,"▁mujer\r\n":2363,"▁ganar\r\n":2364,"▁serio":2365,"▁manda":2366,"▁hables":2367,"tas,":2368,"uestro":2369,"▁pasado\r\n":2370,"▁nena,":2371,"▁20":2372,"▁bailando":2373,"▁batalla":2374,"▁infierno":2375,"wo":2376,"▁mía":2377,"▁lin":2378,"▁dep":2379,"▁meti":2380,"▁bel":2381,"▁bur":2382,"▁miran":2383,"▁yo'\r\n":2384,"amos\r\n":2385,"loque":2386,"▁pag":2387,"dió":2388,"▁sabés":2389,"▁nie":2390,"▁ante":2391,"▁sador":2392,"▁preocu":2393,"▁jura":2394,"▁heri":2395,"▁got":2396,"▁rapeando":2397,"▁quedó":2398,"▁criti":2399,"▁bailar":2400,"▁muchas":2401,"▁show":2402,"▁chica,":2403,"éndome":2404,"▁wanna":2405,"▁amane":2406,"dando":2407,"tal\r\n":2408,"zc":2409,"▁ech":2410,"anan":2411,"ini":2412,"▁contar":2413,"da'":2414,"able":2415,"▁padre":2416,"▁ma'":2417,"▁cae":2418,"▁verte":2419,"▁pie":2420,"▁haber":2421,"▁tú,":2422,"ense":2423,"▁jugar":2424,"▁tarde":2425,"▁preguntan":2426,"▁cualquiera\r\n":2427,"▁flex\r\n":2428,"▁agarro":2429,"▁recuerdo":2430,"▁ciudad\r\n":2431,"▁aquel":2432,"▁quisiera":2433,"ep":2434,"jas":2435,"ment":2436,"▁dam":2437,"ana,":2438,"▁fla":2439,"▁uni":2440,"▁hagas":2441,"▁viol":2442,"▁inte":2443,"▁cay":2444,"▁niño":2445,"▁pueb":2446,"▁pobre":2447,"▁salí":2448,"▁mane":2449,"tua":2450,"▁prof":2451,"▁sola\r\n":2452,"▁gote":2453,"▁pista":2454,"▁muerto":2455,"▁cambiar":2456,"▁cerca":2457,"▁amigos":2458,"▁nivel\r\n":2459,"▁empiez":2460,"▁sirve":2461,"-tu-tu":2462,"ah\r\n":2463,"ty,":2464,"uvi":2465,"▁suer":2466,"▁crim":2467,"▁dien":2468,"▁enro":2469,"und":2470,"▁bos":2471,"▁under":2472,"o,\r\n":2473,"▁tendr":2474,"▁vivo\r\n":2475,"▁subo":2476,"▁ah-a":2477,"▁puta\r\n":2478,"lig":2479,"▁up":2480,"▁orgu":2481,"▁freestyle\r\n":2482,"▁claro\r\n":2483,"▁morir\r\n":2484,"▁vieja":2485,"▁sorp":2486,"ananau,":2487,"▁enemi":2488,"▁liberta":2489,"ac":2490,"fic":2491,"so\r\n":2492,"uh-":2493,"xi":2494,"▁,":2495,"▁eter":2496,"osi":2497,"▁bro\r\n":2498,"tado":2499,"▁todo\r\n":2500,"▁mad":2501,"▁war":2502,"▁¿no":2503,"der,":2504,"▁hey":2505,"▁respi":2506,"▁solo\r\n":2507,"▁casti":2508,"▁olor":2509,"▁andamos":2510,"▁dime,":2511,"▁amigo":2512,"▁marihu":2513,"▁posi":2514,"▁empieza":2515,"ppin',":2516,"▁podría":2517,"▁familia":2518,"▁lí":2519,"eno":2520,"▁enloque":2521,"▁mirar":2522,"▁haz":2523,"chos":2524,"▁party\r\n":2525,"dido\r\n":2526,"ás,":2527,"▁desta":2528,"▁misma":2529,"▁pura":2530,"▁hit":2531,"▁sincer":2532,"▁manera":2533,"▁libre":2534,"▁rapper":2535,"▁ponen":2536,"▁fall":2537,"▁big":2538,"▁nueva":2539,"▁weón":2540,"▁talento":2541,"▁arriba\r\n":2542,"▁gata":2543,"ppin'":2544,"▁papi,":2545,"▁chupa":2546,"▁it's":2547,"▁moles":2548,"▁encanta":2549,"▁demostrar":2550,"for":2551,"io,":2552,"ko":2553,"no\r\n":2554,"▁ego":2555,"▁mezc":2556,"▁conver":2557,"date":2558,"demos":2559,"▁quieras":2560,"▁vací":2561,"▁¿d":2562,"quito":2563,"▁venga":2564,"▁todo,":2565,"▁cog":2566,"ario,":2567,"▁'tá":2568,"tan\r\n":2569,"▁boca\r\n":2570,"▁disf":2571,"▁juga":2572,"▁perdiendo":2573,"▁perdón,":2574,"▁piso\r\n":2575,"▁-ín":2576,"▁querer":2577,"▁olvidar":2578,"kill":2579,"▁polic":2580,"▁contigo\r\n":2581,"▁escapar":2582,"▁esquina":2583,"▁improvisación\r\n":2584,"▁pelí":2585,"cent":2586,"ke,":2587,"ura\r\n":2588,"▁luna":2589,"▁quemando":2590,"▁temas":2591,"▁cont":2592,"am\r\n":2593,"che\r\n":2594,"▁matar\r\n":2595,"▁ina":2596,"uera\r\n":2597,"▁muri":2598,"▁pudi":2599,"▁exper":2600,"▁corri":2601,"▁casa\r\n":2602,"▁pisto":2603,"▁romper":2604,"▁igual\r\n":2605,"▁decirte":2606,"▁estudi":2607,"▁escenario\r\n":2608,"▁ninguno":2609,"vien":2610,"ña\r\n":2611,"▁mente\r\n":2612,"▁skill":2613,"▁c.r.":2614,"▁tren":2615,"▁debe":2616,"▁bando":2617,"▁far":2618,"cis":2619,"▁compañ":2620,"aban":2621,"▁pa,":2622,"▁relo":2623,"▁real\r\n":2624,"olu":2625,"▁visi":2626,"▁jor":2627,"▁sua":2628,"llos":2629,"▁perder\r\n":2630,"▁vein":2631,"▁pidiendo":2632,"▁ark":2633,"▁tú\r\n":2634,"▁mano\r\n":2635,"▁mover":2636,"▁distin":2637,"▁mirada":2638,"▁apun":2639,"▁hote":2640,"▁andamo'":2641,"ín\r\n":2642,"▁guerra\r\n":2643,"▁canser":2644,"▁abajo":2645,"▁leyen":2646,"▁fantas":2647,"▁minutito,":2648,"▁smoke":2649,"bri":2650,"car\r\n":2651,"hon":2652,"jar":2653,"rari":2654,"vos\r\n":2655,"ús":2656,"▁cue":2657,"▁cero":2658,"▁aco":2659,"▁ave":2660,"▁agra":2661,"▁ello'":2662,"▁meter":2663,"▁diciendo":2664,"▁oí":2665,"▁tuve":2666,"▁toque":2667,"de'":2668,"cep":2669,"▁viste":2670,"▁le'":2671,"▁desper":2672,"▁lasti":2673,"lli":2674,"▁hable":2675,"▁llegan":2676,"▁lluvi":2677,"▁mal,":2678,"▁coca":2679,"gua":2680,"▁rap\r\n":2681,"tante\r\n":2682,"▁buenos":2683,"▁perdon":2684,"▁barrio,":2685,"▁bebé,":2686,"▁tony":2687,"▁cabrón\r\n":2688,"▁necesito":2689,"▁golpe":2690,"▁blunt,":2691,"▁tierra":2692,"-na-n":2693,"▁'tamo'":2694,"▁chapi,":2695,"▁gangs":2696,"▁micrófono":2697,"boy":2698,"les\r\n":2699,"val":2700,"…\r\n":2701,"▁ví":2702,"un,":2703,"▁unas":2704,"▁yo',":2705,"▁get":2706,"▁tum":2707,"▁tenes":2708,"▁ver,":2709,"▁tramp":2710,"▁cama\r\n":2711,"▁tantas":2712,"▁prome":2713,"▁need":2714,"▁buscan":2715,"▁jugando":2716,"▁menor":2717,"▁volvi":2718,"▁monta":2719,"▁escucho":2720,"▁tiempo,":2721,"arme,":2722,"▁decime":2723,"▁muerte\r\n":2724,"▁valor":2725,"▁volver\r\n":2726,"▁tonto,":2727,"▁punta":2728,"▁adentro":2729,"h-oh\r\n":2730,"▁explicar":2731,"▁futuro":2732,"▁ferrari":2733,"▁booty":2734,"▁intelig":2735,"-s":2736,"-ta":2737,"dero":2738,"ete":2739,"má":2740,"pan":2741,"ría":2742,"tí":2743,"yea":2744,"▁5":2745,"▁nub":2746,"▁mi'":2747,"▁mirando":2748,"in',":2749,"▁secre":2750,"▁comien":2751,"▁ou":2752,"▁tocar":2753,"ce'":2754,"▁viern":2755,"▁rato":2756,"ente,":2757,"▁sabe\r\n":2758,"▁verme":2759,"▁rico":2760,"▁artis":2761,"▁sonando":2762,"▁acom":2763,"▁code":2764,"..\r\n":2765,"▁nego":2766,"▁respues":2767,"▁improvisando":2768,"▁zig":2769,"▁afuera\r\n":2770,"▁claro,":2771,"▁pregunta":2772,"▁fama":2773,"▁bitch\r\n":2774,"▁viejo":2775,"▁despierto":2776,"▁hiciste":2777,"▁esquina\r\n":2778,"ámon":2779,"▁atrevi":2780,"▁vuelo":2781,"▁fondo":2782,"▁estilo\r\n":2783,"\",":2784,"gas\r\n":2785,"rá":2786,"ál":2787,"▁ella\r\n":2788,"in,":2789,"▁hacia":2790,"▁oka":2791,"▁rez":2792,"▁remi":2793,"▁vi\r\n":2794,"▁destr":2795,"▁nave":2796,"▁chis":2797,"▁pueda":2798,"▁voy\r\n":2799,"▁¿a":2800,"▁mía,":2801,"▁salv":2802,"▁arro":2803,"lidad":2804,"▁pego":2805,"dos,":2806,"▁tantos":2807,"▁mamá\r\n":2808,"ensa":2809,"▁sol\r\n":2810,"▁quiere'":2811,"▁plaka":2812,"▁tomar":2813,"▁trap\r\n":2814,"▁oro\r\n":2815,"▁flui":2816,"▁fluy":2817,"▁conocen":2818,"▁guapo\r\n":2819,"▁zar":2820,"▁estilo,":2821,"▁nuestra":2822,"▁know\r\n":2823,"▁llegó":2824,"▁hard":2825,"▁foto":2826,"▁miedo\r\n":2827,"▁habita":2828,"▁slow\r\n":2829,"▁decís":2830,"▁¿dónde":2831,"cab":2832,"cos\r\n":2833,"f,":2834,"uh,":2835,"▁pra":2836,"▁abo":2837,"▁eso\r\n":2838,"▁dedi":2839,"▁detr":2840,"▁hon":2841,"▁fri":2842,"▁loca\r\n":2843,"▁glo":2844,"iento\r\n":2845,"▁quie":2846,"▁vi,":2847,"▁nací":2848,"▁ahor":2849,"▁¿cu":2850,"▁mío\r\n":2851,"▁siempre,":2852,"▁ser\r\n":2853,"▁llegue":2854,"▁dejó":2855,"▁bob":2856,"▁dice,":2857,"h-ye":2858,"▁vez,":2859,"▁play":2860,"ezco":2861,"adas\r\n":2862,"▁money\r\n":2863,"▁mañana\r\n":2864,"▁bitch,":2865,"erno\r\n":2866,"▁lleno":2867,"▁bendi":2868,"-po,":2869,"lar,":2870,"ves":2871,"▁sti":2872,"▁lento\r\n":2873,"▁aten":2874,"▁env":2875,"▁ener":2876,"▁fil":2877,"▁sido":2878,"▁gh":2879,"▁subi":2880,"▁caer":2881,"▁perra":2882,"▁pill":2883,"▁peg":2884,"tera":2885,"▁canta":2886,"▁life,":2887,"illo":2888,"▁hablas":2889,"▁hacemos":2890,"▁coron":2891,"▁hey\r\n":2892,"den\r\n":2893,"▁abri":2894,"▁droga\r\n":2895,"▁buscar\r\n":2896,"▁joven":2897,"▁wee":2898,"▁escuchando":2899,"▁cuerpo\r\n":2900,"▁wacho":2901,"▁diablo\r\n":2902,"▁acel":2903,"miento\r\n":2904,"▁raperos":2905,"▁recién":2906,"▁mostr":2907,"▁acostum":2908,"ananau,n":2909,"▁zigza":2910,"-r":2911,"-no":2912,"at\r\n":2913,"bamos":2914,"lando":2915,"▁6":2916,"▁dos,":2917,"ere":2918,"▁ner":2919,"▁mi,":2920,"oma":2921,"cio,":2922,"▁dicho":2923,"aba\r\n":2924,"▁pate":2925,"▁ign":2926,"▁repar":2927,"▁ley\r\n":2928,"▁sur":2929,"▁despe":2930,"▁mai":2931,"▁caer\r\n":2932,"▁¿o":2933,"▁sería":2934,"tura\r\n":2935,"▁back":2936,"▁corto":2937,"▁sold":2938,"▁hago,":2939,"viste":2940,"▁your":2941,"▁rapea":2942,"▁piensa":2943,"▁andar":2944,"▁también\r\n":2945,"▁brillo":2946,"▁encima\r\n":2947,"▁regga":2948,"▁guerr":2949,"▁prende":2950,"▁equipo":2951,"▁chico,":2952,"▁dijiste":2953,"▁gordo":2954,"▁diferencia":2955,"▁ayuda":2956,"▁dormir\r\n":2957,"▁brea":2958,"▁prefiero":2959,"king":2960,"▁té":2961,"▁y\r\n":2962,"arle":2963,"▁va,":2964,"este":2965,"ami":2966,"▁dile":2967,"▁dios\r\n":2968,"ques":2969,"▁tengo\r\n":2970,"▁vir":2971,"▁let":2972,"▁ray":2973,"▁mat":2974,"▁nike":2975,"▁veo\r\n":2976,"▁verso":2977,"▁piden":2978,"▁salen":2979,"▁vengan":2980,"▁mala,":2981,"▁pró":2982,"▁existe":2983,"para":2984,"▁hablar\r\n":2985,"▁moti":2986,"▁apues":2987,"▁mejores":2988,"▁sabe'":2989,"▁bizar":2990,"▁primero\r\n":2991,"▁voz\r\n":2992,"▁media":2993,"▁after":2994,"▁insis":2995,"▁junto":2996,"▁odio":2997,"▁luz,":2998,"▁sufri":2999,"▁siguen":3000,"cci":3001,"e',":3002,"min":3003,"ros\r\n":3004,"ste\r\n":3005,"▁das":3006,"▁ysy":3007,"arte\r\n":3008,"▁meta":3009,"ra'":3010,"▁love":3011,"▁digo\r\n":3012,"▁joy":3013,"▁trata":3014,"tra\r\n":3015,"▁po-po,":3016,"▁arran":3017,"▁canciones":3018,"▁fuma":3019,"▁corte":3020,"tante":3021,"és,":3022,"▁escupo":3023,"▁marci":3024,"▁tamo'":3025,"▁toda'":3026,"▁fluyo":3027,"▁suelta":3028,"▁brilla":3029,"▁fuerte":3030,"▁huevos":3031,"▁nombre\r\n":3032,"▁feliz":3033,"▁escap":3034,"▁extrañ":3035,"▁rompiendo":3036,"▁alguna":3037,"▁killa":3038,"▁instrumental\r\n":3039,"▁crimin":3040,"dien":3041,"llo,":3042,"ís\r\n":3043,"▁pp":3044,"▁stre":3045,"▁dto":3046,"▁dentro\r\n":3047,"▁are":3048,"▁bon":3049,"▁fol":3050,"▁si\r\n":3051,"▁ocas":3052,"▁esto\r\n":3053,"▁parto":3054,"ust":3055,"▁red":3056,"▁tiras":3057,"▁naci":3058,"▁wor":3059,"▁trago":3060,"▁ano":3061,"▁rimas\r\n":3062,"▁ganando":3063,"▁mand":3064,"án\r\n":3065,"▁hablamos":3066,"▁prob":3067,"▁compro":3068,"▁mono":3069,"▁cabeza\r\n":3070,"ándote\r\n":3071,"▁día,":3072,"▁nene":3073,"▁somo'":3074,"▁clavo":3075,"▁wach":3076,"▁24":3077,"▁piern":3078,"▁pende":3079,"▁show\r\n":3080,"▁termina":3081,"▁necesi":3082,"▁derro":3083,"▁agarra":3084,"▁messi":3085,"▁buscar,":3086,"▁qua":3087,"▁with":3088,"▁jamás":3089,"▁actitu":3090,"-c":3091,"aa":3092,"av":3093,"gía":3094,"ido\r\n":3095,"lé":3096,"mis":3097,"nes":3098,"no,":3099,"pa,":3100,"zas":3101,"▁pág":3102,"▁senta":3103,"▁lín":3104,"▁cen":3105,"▁at":3106,"eras":3107,"antes":3108,"▁vin":3109,"▁labi":3110,"▁tex":3111,"▁seman":3112,"▁hago\r\n":3113,"▁die":3114,"▁tur":3115,"▁pad":3116,"tica":3117,"▁cura":3118,"▁ice,":3119,"▁ref":3120,"ola\r\n":3121,"▁letras":3122,"▁delin":3123,"▁sobra":3124,"▁anim":3125,"aje":3126,"aje\r\n":3127,"▁sale\r\n":3128,"▁carga":3129,"▁venez":3130,"▁gang\r\n":3131,"▁arte":3132,"velo":3133,"teri":3134,"tera\r\n":3135,"▁creen":3136,"▁dont":3137,"▁corro":3138,"▁bardero":3139,"▁apro":3140,"▁pali":3141,"▁biza":3142,"▁decir\r\n":3143,"▁nuevo,":3144,"▁escribi":3145,"▁muerto\r\n":3146,"▁olvido":3147,"▁10":3148,"▁gritan":3149,"▁triple":3150,"▁agua":3151,"▁entender":3152,"▁perdido":3153,"▁principi":3154,"▁mujeres":3155,"▁blunt":3156,"▁aire":3157,"▁segundo":3158,"▁capital":3159,"▁pelotu":3160,"▁adelan":3161,"▁disfru":3162,"▁tumba":3163,"▁ghet":3164,"▁reggaet":3165,"be\r\n":3166,"bran":3167,"día":3168,"et\r\n":3169,"f\r\n":3170,"sa\r\n":3171,"▁tos":3172,"▁ya\r\n":3173,"▁hun":3174,"▁enfer":3175,"▁memor":3176,"inas":3177,"tate":3178,"▁locu":3179,"▁parte\r\n":3180,"▁tene":3181,"▁culi":3182,"entos":3183,"▁velo":3184,"▁va'":3185,"▁rui":3186,"dades":3187,"▁mío'":3188,"quis":3189,"▁arru":3190,"▁pegar":3191,"▁creer":3192,"▁escuela\r\n":3193,"▁hacerte":3194,"sión":3195,"▁resuel":3196,"▁barde":3197,"▁fuego,":3198,"▁produ":3199,"▁faltan":3200,"▁compra":3201,"▁apri":3202,"▁plata,":3203,"▁esperan":3204,"▁conoci":3205,"▁gati":3206,"▁huele":3207,"▁cosculluela\r\n":3208,"▁argentina\r\n":3209,"▁directo":3210,"▁celul":3211,"▁abajo\r\n":3212,"▁competi":3213,"▁okey\r\n":3214,"▁reloj":3215,"▁arkano":3216,"▁viernes":3217,"▁pprrum":3218,"2\r\n":3219,"bro":3220,"bel":3221,"gas,":3222,"her":3223,"pos":3224,"rar\r\n":3225,"ser":3226,"tino":3227,"uc":3228,"▁tw":3229,"▁dj":3230,"▁a.":3231,"▁añ":3232,"▁vent":3233,"▁vas\r\n":3234,"oro":3235,"▁cone":3236,"▁contando":3237,"lado":3238,"▁destro":3239,"▁mag":3240,"▁mate":3241,"▁veces\r\n":3242,"▁pies\r\n":3243,"▁vacil":3244,"▁cari":3245,"▁hielo":3246,"▁sonar":3247,"▁code,":3248,"dera\r\n":3249,"▁mamá,":3250,"▁hacer,":3251,"▁buenas":3252,"▁bajar":3253,"▁palo":3254,"▁to's":3255,"▁vueltas":3256,"▁mundo\r\n":3257,"▁expres":3258,"portun":3259,"▁dímelo\r\n":3260,"▁dímelo,":3261,"▁escuchar":3262,"▁suelo":3263,"▁pussy":3264,"tino\r\n":3265,"▁entendés":3266,"▁aparte,":3267,"▁entiende":3268,"▁shit":3269,"▁enamora":3270,"▁oye,":3271,"▁tierra\r\n":3272,"▁hmm\r\n":3273,"▁skr":3274,"▁ángel":3275,"▁déjame":3276,"▁envidia":3277,"▁acuerdo":3278,"▁bloo":3279,"▁rápido":3280,"▁cuánto":3281,"▁ilum":3282,"▁líri":3283,"▁agrade":3284,"▁bizarra":3285,"▁delincuen":3286,"cé":3287,"cal":3288,"ece":3289,"x,":3290,"▁ever":3291,"▁phi":3292,"▁senci":3293,"▁dr":3294,"▁dá":3295,"▁lam":3296,"▁bra":3297,"▁mira\r\n":3298,"ine\r\n":3299,"▁fe\r\n":3300,"▁love\r\n":3301,"ombi":3302,"▁situa":3303,"▁conden":3304,"dado":3305,"cia,":3306,"▁gon":3307,"▁papa":3308,"▁payas":3309,"▁cur":3310,"▁it\r\n":3311,"▁desn":3312,"▁cago":3313,"▁estado":3314,"▁pasar\r\n":3315,"▁ran":3316,"▁rique":3317,"▁pul":3318,"▁peda":3319,"▁calma":3320,"tarme":3321,"▁canción\r\n":3322,"▁deje":3323,"▁limp":3324,"▁corr":3325,"▁gucci":3326,"▁tiempos":3327,"▁from":3328,"▁empres":3329,"▁real,":3330,"▁gente,":3331,"▁besos":3332,"▁pantal":3333,"▁sentimien":3334,"▁grita":3335,"▁triste":3336,"▁million":3337,"▁jai":3338,"▁demasia":3339,"▁sufrim":3340,"▁aire\r\n":3341,"▁pelig":3342,"____":3343,"▁último":3344,"▁atrás":3345,"--":3346,"-ho":3347,"3\r\n":3348,"cus":3349,"fo":3350,"mente\r\n":3351,"oh\r\n":3352,"pu":3353,"á'\r\n":3354,"▁my,":3355,"▁sú":3356,"▁spor":3357,"▁aj":3358,"▁ay\r\n":3359,"▁es\r\n":3360,"▁nomb":3361,"▁bús":3362,"▁una\r\n":3363,"▁siento,":3364,"cito":3365,"▁pagar":3366,"▁paz\r\n":3367,"▁toa'":3368,"▁alto":3369,"ti\r\n":3370,"▁rey\r\n":3371,"▁jes":3372,"▁yeh-ye":3373,"tru":3374,"▁vapor":3375,"▁ré":3376,"▁sonri":3377,"▁peor":3378,"▁cot":3379,"▁cole":3380,"▁creo\r\n":3381,"to,\r\n":3382,"amos,":3383,"▁resul":3384,"▁llamo":3385,"▁fort":3386,"▁terr":3387,"ándole":3388,"▁mientra'":3389,"▁fek":3390,"▁volverte":3391,"▁fumar":3392,"▁sentido\r\n":3393,"▁cualquiera":3394,"▁dolor\r\n":3395,"▁dere":3396,"▁baila,":3397,"▁escenario":3398,"▁duele":3399,"▁rapero\r\n":3400,"▁favor,":3401,"▁represent":3402,"▁bomba":3403,"▁directa":3404,"▁infierno\r\n":3405,"▁explota":3406,"▁domin":3407,"▁hambre":3408,"▁tarima\r\n":3409,"▁azul":3410,"▁canserb":3411,"▁hardcor":3412,"▁bardero$":3413,"ao":3414,"bal":3415,"cas\r\n":3416,"cón\r\n":3417,"jos\r\n":3418,"lla,":3419,"pero":3420,"tando\r\n":3421,"tre\r\n":3422,"uh!\r\n":3423,"ví":3424,"▁eu":3425,"▁eran":3426,"▁eh-eh\r\n":3427,"▁llo":3428,"▁ya,":3429,"▁quema":3430,"oso\r\n":3431,"▁deto":3432,"▁decí":3433,"▁nova":3434,"▁há":3435,"▁bro,":3436,"▁concep":3437,"▁hag":3438,"▁gal":3439,"▁gru":3440,"▁toc":3441,"▁to'\r\n":3442,"▁cuad":3443,"dio\r\n":3444,"▁vide":3445,"▁leg":3446,"▁jar":3447,"▁ja\r\n":3448,"tran":3449,"▁vay":3450,"▁pow":3451,"▁podés":3452,"arios\r\n":3453,"▁tanto\r\n":3454,"▁can\r\n":3455,"il\r\n":3456,"▁imper":3457,"▁duki":3458,"▁vuelve,":3459,"▁pensar\r\n":3460,"▁frente\r\n":3461,"▁escribir":3462,"▁cuenta\r\n":3463,"▁juego,":3464,"▁chain\r\n":3465,"▁clap":3466,"▁amigo\r\n":3467,"▁inspi":3468,"▁gato":3469,"▁regres":3470,"▁woh\r\n":3471,"▁má',":3472,"▁culpa\r\n":3473,"▁tres\r\n":3474,"▁chicos":3475,"▁nosotro":3476,"▁alej":3477,"▁llevar":3478,"▁recordar":3479,"▁estrella":3480,"▁brillar":3481,"▁girl\r\n":3482,"▁ñen":3483,"▁flash":3484,"▁versos":3485,"▁¿sab":3486,"▁tenemo'":3487,"-li":3488,"egu":3489,"ie":3490,"n\r\n":3491,"ud":3492,"▁...\r\n":3493,"▁mero":3494,"▁sna":3495,"▁cero\r\n":3496,"▁do'":3497,"▁nar":3498,"▁dev":3499,"▁eno":3500,"▁mita":3501,"ales,":3502,"tado\r\n":3503,"▁tele":3504,"▁convien":3505,"ama":3506,"▁sel":3507,"▁compi":3508,"▁combo":3509,"▁ola":3510,"chu":3511,"▁toca\r\n":3512,"▁pararme":3513,"usti":3514,"▁imi":3515,"▁rece":3516,"▁recon":3517,"▁tiren":3518,"▁mato\r\n":3519,"gado":3520,"▁pibe":3521,"▁traje\r\n":3522,"▁pasa\r\n":3523,"cer,":3524,"▁gané":3525,"▁mala\r\n":3526,"▁call":3527,"tero\r\n":3528,"▁crey":3529,"▁prr\r\n":3530,"▁'tán":3531,"▁don\r\n":3532,"▁imposi":3533,"h-yea":3534,"▁volando":3535,"▁llaman":3536,"▁callej":3537,"▁duro,":3538,"▁facil":3539,"▁espera":3540,"▁mundi":3541,"▁cambia":3542,"eron\r\n":3543,"▁bang,":3544,"▁21":3545,"▁wow,":3546,"▁tranquilo,":3547,"▁momento\r\n":3548,"▁estudio":3549,"▁ninguna":3550,"▁traicion":3551,"▁agarre":3552,"▁drama\r\n":3553,"▁elegan":3554,"▁bull":3555,"▁cruz":3556,"▁blunt\r\n":3557,"▁horas\r\n":3558,"▁viaje":3559,"▁concierto":3560,"▁campeón":3561,"▁déjà":3562,"▁ñer":3563,"▁click":3564,"▁uh-uh-":3565,"▁descans":3566,"▁cerebro":3567,"▁ignor":3568,"-y":3569,"ada":3570,"ada\r\n":3571,"na\r\n":3572,"pable":3573,"rí":3574,"tón":3575,"▁eras":3576,"▁lento":3577,"▁tes":3578,"▁den":3579,"▁abre":3580,"aste\r\n":3581,"▁log":3582,"▁conec":3583,"▁sepa":3584,"▁haci":3585,"cie":3586,"▁g\r\n":3587,"▁todos\r\n":3588,"dez\r\n":3589,"▁reí":3590,"cado\r\n":3591,"ol\r\n":3592,"▁ley,":3593,"▁jos":3594,"▁ja,":3595,"ismo\r\n":3596,"▁descar":3597,"▁maes":3598,"▁pero\r\n":3599,"▁estai":3600,"▁rar":3601,"▁rif":3602,"▁rim":3603,"▁rimar":3604,"▁poquito":3605,"▁asegu":3606,"▁gang,":3607,"▁manos\r\n":3608,"▁uu":3609,"▁dejé":3610,"▁ponga":3611,"▁comprar":3612,"▁montón\r\n":3613,"ten\r\n":3614,"tale":3615,"can\r\n":3616,"▁perdón\r\n":3617,"▁acá,":3618,"▁acá\r\n":3619,"▁tomando":3620,"▁trapper":3621,"▁finde\r\n":3622,"▁pesar":3623,"▁grati":3624,"▁bebé":3625,"▁gira":3626,"▁interi":3627,"▁keep":3628,"▁fuerza":3629,"▁necesito\r\n":3630,"▁dolor":3631,"▁espal":3632,"h-eh-eh\r\n":3633,"▁know,":3634,"▁aparte":3635,"▁dijo,":3636,"▁aprendí":3637,"▁dueño":3638,"▁ofre":3639,"▁lista":3640,"▁drippin'":3641,"▁okey,":3642,"▁cristal":3643,"▁cumpli":3644,"▁caigo":3645,"ttle":3646,"▁mamaci":3647,"▁gelato,":3648,"▁cámar":3649,"▁cuarto":3650,"▁hitboy":3651,"▁-ína,":3652,"▁película":3653,"▁fortni":3654,"-lo":3655,"ría\r\n":3656,"yec":3657,"▁0":3658,"▁muestro":3659,"▁pana":3660,"▁lápi":3661,"▁cir":3662,"▁tab":3663,"▁ama":3664,"▁aga":3665,"▁queri":3666,"▁quede":3667,"ese":3668,"remos":3669,"▁fran":3670,"▁estar\r\n":3671,"▁reti":3672,"dida":3673,"▁sufici":3674,"▁desas":3675,"▁perro":3676,"▁persi":3677,"▁wal":3678,"▁pica":3679,"▁trato":3680,"▁quiera\r\n":3681,"▁ani":3682,"▁rí":3683,"▁río":3684,"▁rico\r\n":3685,"▁pocos":3686,"▁asus":3687,"▁hier":3688,"▁ganar,":3689,"▁entero":3690,"▁arte\r\n":3691,"▁pedir":3692,"▁actu":3693,"arios":3694,"▁ua":3695,"▁prue":3696,"▁rott":3697,"▁canción":3698,"▁bienven":3699,"▁impres":3700,"▁resto":3701,"▁falso":3702,"▁mirada\r\n":3703,"▁pal'":3704,"▁marca":3705,"▁marad":3706,"▁pista\r\n":3707,"▁olvido\r\n":3708,"ándote":3709,"▁quedarme":3710,"▁corazón,":3711,"▁entendi":3712,"▁diablo,":3713,"▁mentira":3714,"▁nosotr":3715,"▁minuto":3716,"▁trabajo\r\n":3717,"▁feliz\r\n":3718,"▁constr":3719,"▁moll":3720,"▁hicimos":3721,"▁cuidado":3722,"▁oscuri":3723,"▁invent":3724,"▁asesin":3725,"▁salamandra\r\n":3726,"▁amanecer\r\n":3727,"▁sincero\r\n":3728,"▁lluvia":3729,"-na-na\r\n":3730,"▁detrás":3731,"-i":3732,"dd":3733,"don":3734,"nic":3735,"á'":3736,"▁á":3737,"▁sam":3738,"▁lento,":3739,"▁av":3740,"▁nana":3741,"▁esco":3742,"▁enga":3743,"▁fues":3744,"oma\r\n":3745,"▁sim":3746,"▁sienta":3747,"▁conten":3748,"▁hacía":3749,"▁game\r\n":3750,"▁pau":3751,"▁país":3752,"▁top":3753,"▁quise":3754,"▁ice\r\n":3755,"▁matando":3756,"▁sabor":3757,"▁sabe,":3758,"▁perra\r\n":3759,"▁verte\r\n":3760,"▁quieran":3761,"▁anti":3762,"▁vendo":3763,"▁gano\r\n":3764,"▁entera\r\n":3765,"▁son\r\n":3766,"dose":3767,"▁malo\r\n":3768,"▁calor":3769,"▁haya":3770,"▁amar\r\n":3771,"▁up\r\n":3772,"▁qué\r\n":3773,"▁can,":3774,"▁hace\r\n":3775,"▁moja":3776,"▁resis":3777,"▁precio":3778,"▁casa,":3779,"▁volar":3780,"eza,":3781,"▁abra":3782,"▁tomé":3783,"▁primera\r\n":3784,"▁peso":3785,"▁negro\r\n":3786,"▁hubi":3787,"▁mil\r\n":3788,"▁miles":3789,"▁bles":3790,"▁ustede'":3791,"▁clav":3792,"▁tatu":3793,"▁tonto":3794,"▁hip-ho":3795,"▁poder\r\n":3796,"▁basta":3797,"▁dollar,":3798,"▁hander":3799,"▁bron":3800,"▁música,":3801,"▁sangre\r\n":3802,"▁quí":3803,"▁apaga":3804,"▁gasto":3805,"▁trash,":3806,"▁desay":3807,"▁mirar\r\n":3808,"▁arreba":3809,"▁última":3810,"▁duko":3811,"▁causa":3812,"▁imagin":3813,"▁permanent,":3814,"▁historia":3815,"▁carrera":3816,"▁pueblo":3817,"▁nervi":3818,")\r\n":3819,"gen":3820,"ja,":3821,"lam":3822,"ph":3823,"ína":3824,"▁(":3825,"▁mué":3826,"▁plas":3827,"▁cra":3828,"▁yan":3829,"▁encer":3830,"▁blow":3831,"▁bir":3832,"▁fo\r\n":3833,"▁sic":3834,"cir":3835,"▁oportun":3836,"cel":3837,"▁tení":3838,"▁repi":3839,"▁lejos":3840,"▁ma'\r\n":3841,"▁sabiendo":3842,"▁cach":3843,"▁pa'ca\r\n":3844,"vio":3845,"▁vac":3846,"▁rimo":3847,"▁rima,":3848,"▁poes":3849,"▁ganas\r\n":3850,"▁llan":3851,"▁hablen":3852,"▁mov":3853,"▁prote":3854,"os,\r\n":3855,"▁dice\r\n":3856,"▁frío":3857,"▁mueren":3858,"▁down":3859,"et,":3860,"▁fies":3861,"▁rimas,":3862,"▁wacho,":3863,"▁tenerte":3864,"▁encontra":3865,"▁millón\r\n":3866,"▁entender\r\n":3867,"▁kelo":3868,"bajo":3869,"▁mentira\r\n":3870,"▁llena":3871,"▁revien":3872,"▁escena":3873,"▁draco,":3874,"▁estrellas\r\n":3875,"▁viviendo":3876,"▁aguanto":3877,"▁razón":3878,"▁prisión\r\n":3879,"▁competir":3880,"▁cadena":3881,"▁familia\r\n":3882,"▁frases":3883,"▁incl":3884,"▁mantengo":3885,"▁fracas":3886,"▁suerte":3887,"▁directamente":3888,"▁snap":3889,"▁rottwe":3890,"▁fuese":3891,"-u":3892,"bl":3893,"bres":3894,"dam":3895,"gü":3896,"i'":3897,"itos":3898,"jas\r\n":3899,"lle":3900,"é'":3901,"ísi":3902,"▁és":3903,"▁phon":3904,"▁sana":3905,"▁sensa":3906,"▁lla":3907,"▁dó":3908,"▁vámon":3909,"▁lamb":3910,"rame,":3911,"▁loca,":3912,"▁seas":3913,"▁otras":3914,"▁para\r\n":3915,"▁letra":3916,"▁level":3917,"▁natur":3918,"▁tengo,":3919,"▁rato\r\n":3920,"▁inten":3921,"▁sole":3922,"▁pied":3923,"▁pot":3924,"▁veneno\r\n":3925,"▁hig":3926,"▁qué,":3927,"▁escal":3928,"▁escuela":3929,"▁dejes":3930,"▁pones":3931,"▁boom":3932,"▁juz":3933,"▁caso":3934,"▁bee":3935,"▁apoy":3936,"▁hop\r\n":3937,"encia,":3938,"▁muero\r\n":3939,"▁aquí,":3940,"▁fuckin'":3941,"a'o,":3942,"▁clava":3943,"▁200":3944,"▁arriba,":3945,"dora\r\n":3946,"▁demoni":3947,"▁juntos":3948,"▁poli":3949,"▁merce":3950,"▁música\r\n":3951,"▁llegué":3952,"▁cheque":3953,"▁subiendo":3954,"▁cosculluela,":3955,"▁defiendo":3956,"▁robar":3957,"▁obvio":3958,"▁represento":3959,"▁olvidar\r\n":3960,"▁personas":3961,"▁plu":3962,"-na-na":3963,"▁algunos":3964,"▁duermo":3965,"▁embar":3966,"▁boy\r\n":3967,"▁silencio":3968,"▁púr":3969,"▁empiezo":3970,"▁dientes":3971,"▁warri":3972,"▁bandol":3973,"▁¿cuán":3974,"▁recono":3975,"▁uh-uh-uh\r\n":3976,"-wo":3977,"a',":3978,"cas,":3979,"diente":3980,"ger":3981,"id":3982,"ión,":3983,"men":3984,"pl":3985,"▁ee":3986,"▁eas":3987,"▁pá":3988,"▁pelo\r\n":3989,"▁stu":3990,"▁qe":3991,"▁nu":3992,"▁debajo":3993,"▁hen":3994,"▁hora\r\n":3995,"▁enca":3996,"ines":3997,"rate":3998,"▁uno\r\n":3999,"▁siete":4000,"▁contr":4001,"rou":4002,"▁sean":4003,"cias\r\n":4004,"▁dios,":4005,"▁dieron":4006,"che,":4007,"▁toco":4008,"use":4009,"▁lebr":4010,"▁soy,":4011,"▁tire":4012,"▁tick":4013,"▁maqu":4014,"▁ino":4015,"▁cag":4016,"▁estabas":4017,"▁char":4018,"▁pies":4019,"bia":4020,"▁poco\r\n":4021,"▁podemos":4022,"▁carro":4023,"▁vendiendo":4024,"▁pure":4025,"lip":4026,"▁pea":4027,"▁coc":4028,"aria":4029,"▁ubi":4030,"▁roto":4031,"uestra":4032,"▁nunca\r\n":4033,"▁disco\r\n":4034,"▁luces":4035,"▁jug":4036,"▁montan":4037,"▁apre":4038,"▁dur":4039,"▁mejores\r\n":4040,"▁hermanos":4041,"▁abur":4042,"▁empa":4043,"▁cuento\r\n":4044,"▁andan":4045,"gaste":4046,"▁días\r\n":4047,"▁nene\r\n":4048,"▁freestyl":4049,"▁15":4050,"▁grande\r\n":4051,"▁dembo":4052,"▁punch":4053,"▁cabrón,":4054,"▁kelow":4055,"▁bitches":4056,"▁seguimos":4057,"▁única":4058,"▁buscarte\r\n":4059,"▁jefe":4060,"▁pinta":4061,"▁piensan":4062,"▁habilidad":4063,"▁razón\r\n":4064,"▁guardo":4065,"ppin'\r\n":4066,"▁champa":4067,"▁esquivo,":4068,"▁uh-uh\r\n":4069,"▁descontro":4070,"▁mmm,":4071,"▁hood,":4072,"▁cayendo":4073,"▁profes":4074,"▁ah-ah\r\n":4075,"▁hotel\r\n":4076,"▁téc":4077,"▁pedazo":4078,"▁répli":4079,"▁nosotro'":4080,"▁ñengo":4081,"▁imposible":4082,"▁desayun":4083,"-l":4084,"bor":4085,"iones":4086,"mu":4087,"pen":4088,"pura":4089,"tero":4090,"zqui":4091,"▁9":4092,"▁craz":4093,"▁ak":4094,"▁aca":4095,"▁amo":4096,"▁ater":4097,"eran":4098,"▁yendo":4099,"▁debo":4100,"▁va\r\n":4101,"▁encar":4102,"▁engan":4103,"▁metal":4104,"▁mire":4105,"▁sigui":4106,"▁conquis":4107,"▁hagan":4108,"▁g'":4109,"▁tuya":4110,"▁país\r\n":4111,"▁alas\r\n":4112,"▁alum":4113,"tico\r\n":4114,"▁cuál":4115,"▁idio":4116,"entos\r\n":4117,"▁supues":4118,"▁caí":4119,"▁deli":4120,"▁trae":4121,"▁pasó\r\n":4122,"el\r\n":4123,"▁voy,":4124,"▁¿de":4125,"dad,":4126,"▁ganarme":4127,"▁serio,":4128,"▁arm":4129,"uelo\r\n":4130,"pado":4131,"▁man\r\n":4132,"▁solo,":4133,"▁malo,":4134,"▁coj":4135,"▁prom":4136,"▁roba":4137,"ras,":4138,"▁excus":4139,"▁hacerme":4140,"▁hacerlo,":4141,"▁sacando":4142,"▁todos,":4143,"ica\r\n":4144,"▁discul":4145,"▁babe,":4146,"▁cigar":4147,"▁hoy,":4148,"▁men\r\n":4149,"▁beat\r\n":4150,"▁placa":4151,"▁plata\r\n":4152,"▁pensé":4153,"▁pensam":4154,"▁dog":4155,"▁free":4156,"▁suene":4157,"a'o":4158,"▁él,":4159,"▁zor":4160,"▁clap,":4161,"▁talento\r\n":4162,"▁triun":4163,"▁nigga,":4164,"▁disparo":4165,"▁alemán":4166,"▁eleg":4167,"▁caminando":4168,"▁terminar":4169,"hion\r\n":4170,"▁horas":4171,"▁rompe\r\n":4172,"▁rompe,":4173,"▁xana":4174,"▁house\r\n":4175,"▁jajaj":4176,"▁ilus":4177,"▁erre":4178,"▁swing\r\n":4179,"▁fashion\r\n":4180,"▁undergro":4181,"▁desnu":4182,"▁púrpura":4183,"▁aterri":4184,"ds":4185,"dal":4186,"ea\r\n":4187,"ia,":4188,"los\r\n":4189,"lar\r\n":4190,"n,":4191,"pre":4192,"sy\r\n":4193,"tres":4194,"tor\r\n":4195,"vas":4196,"vin":4197,"z,":4198,"▁edu":4199,"▁dre":4200,"▁ala":4201,"▁y,":4202,"▁nor":4203,"▁quemar":4204,"▁deton":4205,"und\r\n":4206,"▁mio":4207,"in'\r\n":4208,"▁famos":4209,"▁tec":4210,"▁siste":4211,"▁sep":4212,"iendo\r\n":4213,"▁diver":4214,"▁estés":4215,"▁tengas":4216,"tido":4217,"▁culo\r\n":4218,"entes\r\n":4219,"▁supi":4220,"▁caf":4221,"▁caen":4222,"▁cacer":4223,"▁niñ":4224,"▁multi":4225,"▁vaci":4226,"▁rue":4227,"▁está'":4228,"▁veni":4229,"▁entera":4230,"▁llám":4231,"▁camina":4232,"▁camara":4233,"▁colo":4234,"ter,":4235,"▁creer\r\n":4236,"énde":4237,"ico,":4238,"▁discu":4239,"h-ah\r\n":4240,"▁hoy\r\n":4241,"▁mencion":4242,"renal":4243,"▁compré":4244,"▁mara":4245,"▁you\r\n":4246,"▁docu":4247,"▁flores":4248,"▁terri":4249,"▁fin\r\n":4250,"▁negra":4251,"▁jodi":4252,"▁¡a":4253,"▁improvisar":4254,"▁cerve":4255,"▁despué'":4256,"ín,":4257,"▁sueñ":4258,"▁gatas":4259,"▁problema\r\n":4260,"▁millones":4261,"▁interna":4262,"▁pena\r\n":4263,"▁adrenal":4264,"▁base":4265,"▁fueron":4266,"▁cintur":4267,"▁derra":4268,"▁ritmos":4269,"▁persona":4270,"▁shit,":4271,"miento":4272,"▁trabajo":4273,"▁salida\r\n":4274,"▁bomb":4275,"▁trueno\r\n":4276,"▁desapar":4277,"alidad\r\n":4278,"▁pastilla":4279,"▁house":4280,"▁rápido,":4281,"▁especi":4282,"▁jaja\r\n":4283,"▁gelato":4284,"▁frontearle":4285,"▁prrrum!!":4286,"▁quedaste":4287,"▁cazz":4288,"▁propia":4289,"▁públi":4290,"▁sorpren":4291,"▁volvió":4292,"▁remix":4293,"▁habitación\r\n":4294,"▁aprove":4295,"▁molly,":4296,"a'\r\n":4297,"gos,":4298,"mon":4299,"tás":4300,"ys":4301,"ábamos":4302,"ér":4303,"▁eva":4304,"▁pab":4305,"▁sp":4306,"▁dru":4307,"▁avan":4308,"erto\r\n":4309,"▁nú":4310,"▁deber":4311,"▁hel":4312,"una\r\n":4313,"▁bha":4314,"▁mina":4315,"tada":4316,"▁loc":4317,"da'\r\n":4318,"▁sec":4319,"▁porro":4320,"▁hac":4321,"▁comiendo":4322,"▁comer\r\n":4323,"▁dia":4324,"▁ocul":4325,"aba,":4326,"▁paca":4327,"▁estr":4328,"▁alim":4329,"ce'\r\n":4330,"▁repe":4331,"▁jal":4332,"▁esto'":4333,"▁matan":4334,"▁make":4335,"▁sabes,":4336,"▁niños":4337,"▁tratando":4338,"▁paste":4339,"▁ang":4340,"▁mío,":4341,"▁entero\r\n":4342,"▁cocin":4343,"▁cobar":4344,"▁amena":4345,"▁ka":4346,"▁kar":4347,"taron":4348,"▁pros":4349,"▁prín":4350,"▁cana,":4351,"▁liri":4352,"ta,\r\n":4353,"▁say":4354,"▁ponte":4355,"ruga":4356,"ezco\r\n":4357,"tencia\r\n":4358,"▁gobi":4359,"▁saben,":4360,"▁factu":4361,"▁empec":4362,"▁querí":4363,"jate":4364,"▁guacho":4365,"▁suenan":4366,"a'o\r\n":4367,"▁¡w":4368,"▁suspi":4369,"▁amigos\r\n":4370,"▁wacha":4371,"dor,":4372,"▁gavio":4373,"▁gritar":4374,"▁allá\r\n":4375,"▁au-a":4376,"▁adver":4377,"▁basura\r\n":4378,"▁perdido\r\n":4379,"▁estuve":4380,"▁llorar":4381,"▁kill":4382,"▁comparto":4383,"▁girl":4384,"▁rocks":4385,"▁chance\r\n":4386,"▁áni":4387,"▁caiga":4388,"▁volví":4389,"▁volviendo":4390,"▁imagina":4391,"▁maldito":4392,"▁rebota,":4393,"▁botella":4394,"▁bella":4395,"▁acompañ":4396,"▁negoci":4397,"▁stig":4398,"▁worl":4399,"güen":4400,"▁bhavi":4401,"▁prínci":4402,"ah,":4403,"cero":4404,"cto,":4405,"eo\r\n":4406,"gía\r\n":4407,"ry":4408,"ácti":4409,"▁darme":4410,"eren":4411,"▁esf":4412,"anos\r\n":4413,"▁de\r\n":4414,"▁dedo":4415,"▁depor":4416,"▁nota\r\n":4417,"teo":4418,"▁contin":4419,"▁gall":4420,"▁coment":4421,"▁diario\r\n":4422,"▁tuc":4423,"▁quiso":4424,"tivo\r\n":4425,"▁recu":4426,"ista":4427,"entes":4428,"▁mafi":4429,"▁sabía":4430,"▁cacha":4431,"▁sopor":4432,"▁socio":4433,"▁vece'":4434,"▁vergüen":4435,"▁trajo":4436,"▁pasando":4437,"▁pasión\r\n":4438,"▁run,":4439,"pe,":4440,"▁míos":4441,"▁polo":4442,"▁cargo":4443,"▁vengas":4444,"▁gans":4445,"▁gano,":4446,"▁acción\r\n":4447,"▁acaba":4448,"▁mani":4449,"▁camis":4450,"▁malos":4451,"▁cola":4452,"▁cali":4453,"▁calma\r\n":4454,"tura,":4455,"▁pron":4456,"▁prr,":4457,"▁clan":4458,"▁moda":4459,"ver\r\n":4460,"fit":4461,"▁placer":4462,"▁vienes":4463,"▁vas,":4464,"ador\r\n":4465,"▁face\r\n":4466,"▁free\r\n":4467,"▁estás\r\n":4468,"▁conocer":4469,"▁feo\r\n":4470,"▁vocab":4471,"▁matarnos":4472,"▁importa\r\n":4473,"▁papi\r\n":4474,"▁estuvi":4475,"▁tirado":4476,"▁broth":4477,"▁simple\r\n":4478,"▁recuerda":4479,"▁jef":4480,"▁explico":4481,"▁andaba":4482,"▁caminar":4483,"▁camino\r\n":4484,"▁brillando":4485,"▁perfu":4486,"▁blanco":4487,"▁perdóname":4488,"▁puerta":4489,"▁humo\r\n":4490,"▁tempo\r\n":4491,"▁drippin',":4492,"▁cumpl":4493,"▁clase":4494,"▁¿quer":4495,"▁house,":4496,"▁luna\r\n":4497,"▁felicidad":4498,"▁funeral\r\n":4499,"▁libertad\r\n":4500,"▁experien":4501,"▁acelera":4502,"▁euro":4503,"▁simón":4504,"-,":4505,"0\r\n":4506,"brar":4507,"came":4508,"eo":4509,"ece\r\n":4510,"gre":4511,"gres":4512,"gues":4513,"it":4514,"rri":4515,"so,":4516,"í,":4517,"▁ár":4518,"▁món":4519,"▁pa\r\n":4520,"▁sá":4521,"▁ló":4522,"▁cle":4523,"▁dora":4524,"▁a\r\n":4525,"▁españ":4526,"▁ve\r\n":4527,"▁ladr":4528,"▁hol":4529,"eso":4530,"unk":4531,"▁bar\r\n":4532,"alidad":4533,"rado":4534,"▁fen":4535,"▁fru":4536,"▁feste":4537,"▁loo":4538,"▁comen":4539,"▁divi":4540,"▁ojer":4541,"abas":4542,"▁paga":4543,"▁estando":4544,"del":4545,"▁aler":4546,"▁alma\r\n":4547,"▁cuándo":4548,"▁iden":4549,"▁it,":4550,"resi":4551,"▁yah":4552,"▁supo":4553,"▁nah\r\n":4554,"▁madri":4555,"▁indi":4556,"▁caer,":4557,"▁pique":4558,"▁piola\r\n":4559,"▁antes\r\n":4560,"▁¿para":4561,"▁ven\r\n":4562,"▁vender":4563,"▁sonr":4564,"▁llora":4565,"▁cama,":4566,"▁copa":4567,"▁kh":4568,"▁kus":4569,"▁crees":4570,"▁crecí":4571,"▁limi":4572,"cara":4573,"▁luce":4574,"▁falta\r\n":4575,"▁mons":4576,"▁llamar":4577,"▁vaso":4578,"▁dura":4579,"▁ola\r\n":4580,"▁sabemos":4581,"as,\r\n":4582,"▁rompi":4583,"▁frío\r\n":4584,"▁face":4585,"▁oro,":4586,"ándome\r\n":4587,"▁realmente":4588,"▁realidad\r\n":4589,"▁negros":4590,"▁conozco":4591,"▁quienes":4592,"▁¡dí":4593,"▁escuchan":4594,"▁amiga":4595,"▁sueño,":4596,"▁grandes":4597,"▁visto\r\n":4598,"▁demuestro":4599,"▁tranquilo\r\n":4600,"▁cabron":4601,"▁admi":4602,"▁máqu":4603,"▁fuerte\r\n":4604,"▁huevos\r\n":4605,"▁mentir":4606,"-ay":4607,"▁mesa":4608,"▁contigo,":4609,"▁aprender":4610,"▁funcion":4611,"▁mirá":4612,"▁control\r\n":4613,"▁white":4614,"▁humo,":4615,"▁conciencia\r\n":4616,"▁piel\r\n":4617,"▁deseo":4618,"▁atrás\r\n":4619,"▁perfecto\r\n":4620,"▁transpi":4621,"▁interesa":4622,"-pro":4623,"▁feeling":4624,"▁debes":4625,"▁caliente\r\n":4626,"▁carajo":4627,"▁zapa":4628,"▁madruga":4629,"▁destruy":4630,"▁ahora,":4631,"▁envuel":4632,"▁próxi":4633,"▁conex":4634,"▁riquel":4635,"▁correr":4636,"▁sport\r\n":4637,"▁cumplir":4638,"▁mamacita,":4639,"▁impresion":4640,"▁punchl":4641,"▁técnic":4642,"▁identi":4643,"▁¡dímelo":4644,"'o,":4645,"bando":4646,"dan\r\n":4647,"guen":4648,"ias":4649,"ya\r\n":4650,"zan":4651,"zon":4652,"ós":4653,"▁edi":4654,"▁mera":4655,"▁pé":4656,"▁ador":4657,"eras\r\n":4658,"eric":4659,"anos":4660,"▁deu":4661,"▁noque":4662,"ala\r\n":4663,"▁fis":4664,"to'":4665,"▁lot":4666,"▁uno,":4667,"▁telé":4668,"▁gue":4669,"▁compa":4670,"char":4671,"▁estres":4672,"▁estén":4673,"▁parar\r\n":4674,"▁cule":4675,"▁imán":4676,"cate":4677,"cación":4678,"catri":4679,"▁inse":4680,"▁cagar":4681,"▁vete":4682,"▁puedo\r\n":4683,"▁vayas":4684,"▁estoy\r\n":4685,"▁rima\r\n":4686,"e,\r\n":4687,"▁ganan":4688,"lidad\r\n":4689,"▁pecho\r\n":4690,"▁llego,":4691,"▁acor":4692,"▁maldades":4693,"▁cojo":4694,"▁calor\r\n":4695,"▁'el":4696,"▁sai":4697,"▁saque":4698,"▁saqué":4699,"taste":4700,"▁pongan":4701,"▁fue\r\n":4702,"▁bobo":4703,"▁costum":4704,"▁cicatri":4705,"fica":4706,"▁apla":4707,"te,\r\n":4708,"▁mejor,":4709,"▁decidi":4710,"▁rapear\r\n":4711,"▁esperar,":4712,"▁gustan":4713,"▁olvida":4714,"▁juega":4715,"▁guach":4716,"▁suena\r\n":4717,"▁gigan":4718,"▁obje":4719,"▁100":4720,"▁tarado\r\n":4721,"▁bailar\r\n":4722,"▁wow\r\n":4723,"▁ball":4724,"▁pegao'":4725,"▁vo'a":4726,"▁ritmo,":4727,"▁planeta":4728,"▁revolu":4729,"▁la'o\r\n":4730,"▁¿como":4731,"▁mujer,":4732,"▁diferente":4733,"▁representa":4734,"▁escribo\r\n":4735,"▁dormir":4736,"▁ready\r\n":4737,"▁arrep":4738,"▁tempran":4739,"▁bolu":4740,"▁campeón\r\n":4741,"▁cierro":4742,"▁futuro\r\n":4743,"▁cumple":4744,"▁trein":4745,"▁reyes":4746,"-e-e\r\n":4747,"▁outfit":4748,"▁diamante":4749,"▁consigo\r\n":4750,"▁lengu":4751,"▁motherfucker":4752,"▁enfrente":4753,"▁univer":4754,"▁codeína":4755,"▁energía":4756,"▁zigzag,":4757,"▁let's":4758,"▁magia":4759,"▁lamenta":4760,"▁resulta":4761,"▁imperio":4762,"▁inclus":4763,"▁hennes":4764,"▁internacion":4765,"▁ojeras":4766,"▁teléfon":4767,"bra\r\n":4768,"ccion":4769,"emb":4770,"hh\r\n":4771,"ker\r\n":4772,"las,":4773,"mento":4774,"nab":4775,"ny\r\n":4776,"rum":4777,"uri":4778,"zz":4779,"ór":4780,"▁mar\r\n":4781,"▁puen":4782,"▁scho":4783,"▁dense":4784,"▁na\r\n":4785,"▁name\r\n":4786,"▁nananau,n":4787,"▁quemo":4788,"osa":4789,"oro\r\n":4790,"▁metas":4791,"▁meten":4792,"▁metiendo":4793,"▁miren":4794,"inas\r\n":4795,"▁fo,":4796,"tamente":4797,"▁love,":4798,"▁temo":4799,"▁conc":4800,"▁conven":4801,"▁contar\r\n":4802,"▁sed":4803,"cido\r\n":4804,"la-lo":4805,"▁tuvi":4806,"ch\r\n":4807,"▁estri":4808,"tico":4809,"▁ir\r\n":4810,"▁rebel":4811,"▁letal":4812,"▁desen":4813,"▁race":4814,"▁ini":4815,"▁delante":4816,"▁perde":4817,"▁tratar":4818,"▁ansi":4819,"▁¿te":4820,"▁pop":4821,"▁saliendo":4822,"▁carn":4823,"▁caro":4824,"▁caro\r\n":4825,"▁carne":4826,"▁venta":4827,"▁high":4828,"▁peque":4829,"▁pecho":4830,"▁pedí":4831,"pera":4832,"▁llue":4833,"▁male":4834,"▁malas":4835,"aria\r\n":4836,"▁ko":4837,"▁crea":4838,"▁qué?\r\n":4839,"▁roto\r\n":4840,"▁cantar":4841,"▁little":4842,"▁bad":4843,"▁rapero,":4844,"▁hacemo'":4845,"▁hear":4846,"▁impa":4847,"▁sol,":4848,"rutu":4849,"▁bajando":4850,"▁bebi":4851,"▁aplas":4852,"▁plaza\r\n":4853,"▁llamarte":4854,"▁dul":4855,"▁vuelo\r\n":4856,"▁decile":4857,"▁form":4858,"▁espera\r\n":4859,"▁mundo,":4860,"▁they":4861,"amo'\r\n":4862,"▁despues":4863,"▁final\r\n":4864,"▁nena\r\n":4865,"▁él\r\n":4866,"▁volver,":4867,"▁bang\r\n":4868,"▁haciendo,":4869,"▁suelo\r\n":4870,"▁amigo,":4871,"▁colch":4872,"▁colombi":4873,"▁sueño\r\n":4874,"▁take":4875,"▁pana\r\n":4876,"▁mataron":4877,"▁presu":4878,"caste":4879,"▁allá,":4880,"▁pendiente":4881,"▁encontré":4882,"▁bala":4883,"▁espan":4884,"▁broke":4885,"▁entienden":4886,"▁medioc":4887,"▁hicieron":4888,"▁diferente\r\n":4889,"▁sufre":4890,"▁aires":4891,"▁borra":4892,"▁listo":4893,"▁puerto":4894,"▁arregl":4895,"▁sacarme":4896,"▁esconde":4897,"▁champi":4898,"▁pelea":4899,"▁voz,":4900,"▁genera":4901,"▁duko\r\n":4902,"▁duko,":4903,"▁perrea,":4904,"▁error":4905,"▁30":4906,"▁capaz":4907,"▁ante'":4908,"▁goteo\r\n":4909,"▁respirar\r\n":4910,"▁suave":4911,"▁víde":4912,"▁acostumbra":4913,"ananau,nanana":4914,"▁quavo,":4915,"▁philli":4916,"▁terror":4917,"▁khea":4918,"▁saiy":4919,"▁nananau,nananau,nanana":4920,"!,":4921,"ai":4922,"bien":4923,"c\r\n":4924,"cos,":4925,"din":4926,"fas":4927,"ib":4928,"ita\r\n":4929,"mbo":4930,"pes":4931,"ven\r\n":4932,"woo":4933,"ñe":4934,"▁sui":4935,"▁cent":4936,"▁testi":4937,"eros":4938,"▁nota,":4939,"▁lad":4940,"▁eli":4941,"▁huel":4942,"▁bá":4943,"▁físi":4944,"abri":4945,"▁alto\r\n":4946,"▁almo":4947,"▁algo\r\n":4948,"▁tenta":4949,"us\r\n":4950,"▁ice":4951,"▁reco":4952,"cada":4953,"▁victor":4954,"▁jan":4955,"iste\r\n":4956,"ista\r\n":4957,"▁desma":4958,"▁destino":4959,"▁inta":4960,"▁pa'\r\n":4961,"▁ve,":4962,"▁wes":4963,"▁pidió":4964,"▁tratan":4965,"▁quiere,":4966,"▁está,":4967,"▁ven,":4968,"▁vende":4969,"▁vengo,":4970,"▁publi":4971,"▁soni":4972,"▁acomo":4973,"▁coher":4974,"dera":4975,"ba-":4976,"▁dejarte":4977,"▁lic":4978,"▁lil":4979,"▁neur":4980,"▁hace,":4981,"▁furi":4982,"tancia":4983,"▁boca,":4984,"gan\r\n":4985,"▁bebo":4986,"▁mueres":4987,"▁muevo":4988,"tener":4989,"▁cabal":4990,"▁tussi":4991,"▁vuelto":4992,"lante\r\n":4993,"▁nueve":4994,"▁usa":4995,"▁pared\r\n":4996,"▁escribe":4997,"▁fake":4998,"▁dosis":4999,"▁pasa?":5000,"▁chavos":5001,"▁weed":5002,"▁somos\r\n":5003,"▁bling":5004,"▁insta":5005,"▁¿qué?\r\n":5006,"dores\r\n":5007,"▁bebiendo":5008,"▁bailamos":5009,"▁tony\r\n":5010,"▁regalo":5011,"▁respeto\r\n":5012,"▁pena":5013,"▁culpable":5014,"▁merec":5015,"▁fama\r\n":5016,"▁isla":5017,"▁llorando":5018,"▁pegado":5019,"▁vivir\r\n":5020,"▁batallas\r\n":5021,"▁plane":5022,"▁principe":5023,"▁seguí":5024,"▁salió":5025,"▁defec":5026,"▁gorra":5027,"▁cuidao'":5028,"▁entrar":5029,"▁freno,":5030,"▁aguanta":5031,"▁razón,":5032,"▁bende":5033,"▁chance,":5034,"▁cierto\r\n":5035,"▁sentía":5036,"▁pastillas":5037,"▁click,":5038,"▁slow,":5039,"▁papel\r\n":5040,"▁equivoca":5041,"▁gil,":5042,"▁bloque":5043,"▁respondo":5044,"▁permanent\r\n":5045,"▁short":5046,"▁trappin',":5047,"▁ideas":5048,"▁mayor":5049,"▁black":5050,"▁métri":5051,"▁carajo\r\n":5052,"-tu-tu-tu-tu":5053,"▁policía\r\n":5054,"▁ferrari\r\n":5055,"▁out,":5056,"▁okay\r\n":5057,"▁practi":5058,"▁weed\r\n":5059,"▁ghetto\r\n":5060,"▁celular":5061,"▁payaso":5062,"▁bienvenido":5063,"▁hip-hop":5064,"▁muévelo":5065,"▁high\r\n":5066,"▁freestyler\r\n":5067,"▁champagn":5068,"▁dref":5069,"▁drug":5070,"▁árbol":5071,"▁máquina":5072,"-de":5073,"brando":5074,"cción\r\n":5075,"dente\r\n":5076,"día\r\n":5077,"elo,":5078,"imm":5079,"jo'":5080,"jos,":5081,"ste,":5082,"▁eje":5083,"▁psi":5084,"▁sto":5085,"▁acu":5086,"era,":5087,"▁queriendo":5088,"▁esque":5089,"▁ves,":5090,"▁now\r\n":5091,"▁encen":5092,"▁mires":5093,"alo,":5094,"▁fm":5095,"amente\r\n":5096,"uir":5097,"ciendo\r\n":5098,"ley":5099,"▁parezco":5100,"▁alqui":5101,"tier":5102,"tico,":5103,"tiva\r\n":5104,"▁izqui":5105,"▁reme":5106,"diab":5107,"capi":5108,"▁porque\r\n":5109,"▁delito":5110,"▁permis":5111,"▁chor":5112,"▁wos":5113,"▁versa":5114,"▁pidi":5115,"▁vaina":5116,"▁rall":5117,"pido":5118,"▁riv":5119,"▁rimando":5120,"▁podes":5121,"▁poeta":5122,"▁salga":5123,"▁carame":5124,"▁pudo":5125,"▁hielo,":5126,"▁artes":5127,"▁sonre":5128,"per\r\n":5129,"▁llé":5130,"▁mali":5131,"▁ur":5132,"tera,":5133,"▁escuela,":5134,"▁robo":5135,"▁cancion":5136,"▁lit":5137,"▁lima":5138,"▁liga":5139,"▁new":5140,"▁bac":5141,"▁mode":5142,"▁coro\r\n":5143,"▁corriendo":5144,"▁heav":5145,"▁resenti":5146,"▁jugar\r\n":5147,"▁hermos":5148,"▁menores":5149,"▁casu":5150,"▁bajar\r\n":5151,"▁duro\r\n":5152,"▁bicho":5153,"▁you,":5154,"▁saben\r\n":5155,"▁frí":5156,"▁frus":5157,"mo'\r\n":5158,"ad\r\n":5159,"▁factor":5160,"▁estás,":5161,"▁querías":5162,"▁fly":5163,"▁cambiar\r\n":5164,"▁finde":5165,"▁buscas":5166,"▁grave":5167,"▁joda":5168,"▁santa":5169,"▁weon":5170,"▁escuchen":5171,"▁cuervo":5172,"▁besti":5173,"▁colores":5174,"▁presente\r\n":5175,"▁13\r\n":5176,"▁vista\r\n":5177,"▁pregunto":5178,"▁problemas\r\n":5179,"▁demon":5180,"▁triste\r\n":5181,"▁millón":5182,"▁shout":5183,"▁tranquili":5184,"▁veces,":5185,"▁hombre\r\n":5186,"▁balas":5187,"▁princes":5188,"▁la'o":5189,"▁encuentro\r\n":5190,"▁principe\r\n":5191,"▁fotos":5192,"▁salimos":5193,"▁extraño\r\n":5194,"▁entren":5195,"▁arreg":5196,"▁whippin":5197,"▁whippin',":5198,"▁sangre,":5199,"▁tempo":5200,"▁chama":5201,"▁luego\r\n":5202,"▁okey":5203,"▁envidia\r\n":5204,"▁sentís":5205,"▁futuro,":5206,"-bl":5207,"▁prepara":5208,"▁armada":5209,"▁billete":5210,"▁acabo":5211,"-out":5212,"▁sientas":5213,"▁brujer":5214,"▁oh-oh-oh\r\n":5215,"▁avión":5216,"▁comida":5217,"▁comida\r\n":5218,"▁mmm\r\n":5219,"▁nuevas":5220,"▁tarima":5221,"▁diaman":5222,"▁propio":5223,"▁alcohol,":5224,"▁varios":5225,"▁linda":5226,"▁sorpres":5227,"▁egocent":5228,"▁zarpa":5229,"▁paliza\r\n":5230,"▁pprrumm":5231,"▁enamorada":5232,"▁skrt\r\n":5233,"▁peligros":5234,"▁yeh-yeh\r\n":5235,"▁cotto\r\n":5236,"▁hardcore\r\n":5237,"▁grupo":5238,"▁legend":5239,"▁cámara":5240,"▁lápiz":5241,"phone":5242,"▁keloke,":5243,"▁demonios":5244,"▁multipli":5245,"▁llámame":5246,"▁príncipe":5247,"▁izquier":5248,"▁whippin,":5249,"▁egocentris":5250,"-qué":5251,".a":5252,"cina":5253,"ies":5254,"iza":5255,"ka,":5256,"los,":5257,"sy,":5258,"tándome":5259,"uu":5260,"zo,":5261,"ñas":5262,"▁ere":5263,"▁pí":5264,"▁ses":5265,"▁lui":5266,"▁lág":5267,"▁dar\r\n":5268,"▁aven":5269,"ende":5270,"ena,":5271,"▁nas":5272,"▁nanan":5273,"▁quem":5274,"▁ves\r\n":5275,"▁vu,":5276,"▁melo":5277,"▁faj":5278,"▁fabri":5279,"tame":5280,"▁teor":5281,"▁condi":5282,"am,":5283,"▁seis":5284,"ciar":5285,"▁gre":5286,"leta":5287,"▁dir":5288,"▁div":5289,"▁digo,":5290,"la'o\r\n":5291,"▁tu\r\n":5292,"▁tuvo":5293,"▁pacto":5294,"▁toca,":5295,"▁estú":5296,"▁ali":5297,"▁im":5298,"▁reli":5299,"▁reina":5300,"dia":5301,"ol,":5302,"▁viven":5303,"▁tiki":5304,"▁su'":5305,"▁desor":5306,"▁destre":5307,"▁delante\r\n":5308,"▁estaba\r\n":5309,"▁vecin":5310,"▁wom":5311,"▁trab":5312,"▁track":5313,"▁traba":5314,"▁quiera,":5315,"▁rus":5316,"▁ricar":5317,"▁pocas":5318,"▁sales":5319,"mos,\r\n":5320,"▁hielo\r\n":5321,"▁gane":5322,"▁gana\r\n":5323,"▁serio\r\n":5324,"umen":5325,"▁coño":5326,"dero\r\n":5327,"▁crew":5328,"▁crear":5329,"tarle":5330,"▁qué?":5331,"án,":5332,"▁liv":5333,"▁negar":5334,"▁corte\r\n":5335,"▁hela":5336,"man\r\n":5337,"▁rest":5338,"enso\r\n":5339,"▁bara":5340,"ir\r\n":5341,"zado":5342,"▁bola":5343,"▁volar\r\n":5344,"▁baje\r\n":5345,"▁llamó":5346,"▁viento\r\n":5347,"▁goo":5348,"▁sigo,":5349,"▁abro":5350,"▁aband":5351,"▁day":5352,"▁daño":5353,"▁usar":5354,"▁parecer":5355,"ados\r\n":5356,"▁masta":5357,"▁terren":5358,"▁olvides":5359,"▁valgo":5360,"▁graba":5361,"gue\r\n":5362,"▁jodido":5363,"▁zas":5364,"▁when":5365,"▁blue":5366,"▁blas":5367,"▁afec":5368,"▁chill":5369,"▁papá\r\n":5370,"▁color\r\n":5371,"▁sueños":5372,"▁beba,":5373,"▁sentido":5374,"▁criter":5375,"▁12":5376,"▁igual,":5377,"▁prendas":5378,"▁shoo":5379,"▁show,":5380,"▁momentos":5381,"▁necesita":5382,"▁freestyle,":5383,"▁dispara":5384,"▁mañan":5385,"▁llorar\r\n":5386,"▁batallas":5387,"▁brother":5388,"▁chup":5389,"▁princi\r\n":5390,"▁aleg":5391,"▁favor\r\n":5392,"▁matamos\r\n":5393,"▁intento":5394,"hibi":5395,"▁persona\r\n":5396,"▁cansé":5397,"▁girl,":5398,"▁improvisaciones\r\n":5399,"▁¿cómo?":5400,"▁cuello,":5401,"▁signi":5402,"ght\r\n":5403,"▁clases":5404,"▁contesta":5405,"▁confundas\r\n":5406,"▁saludo":5407,"▁movie":5408,"▁vuelo,":5409,"▁shorty\r\n":5410,"▁oh-oh\r\n":5411,"▁relaja":5412,"▁avión\r\n":5413,"▁carrera\r\n":5414,"▁cuesti":5415,"▁desespera\r\n":5416,"▁despierto\r\n":5417,"▁pesadi":5418,"▁consegui":5419,"▁paguen":5420,"▁profun":5421,"▁pudiera":5422,"▁veinti":5423,"▁oído":5424,"▁trampa":5425,"▁okay,":5426,"▁sentado":5427,"▁líne":5428,"▁bizarrap\r\n":5429,"▁sentimientos":5430,"▁jaime":5431,"▁¿sabes":5432,"▁mitad":5433,"▁haciéndo":5434,"▁tatuaj":5435,"▁rottweil":5436,"▁réplica":5437,"▁empecé":5438,"▁vocabul":5439,"▁holly":5440,"▁monstru":5441,"▁almoha":5442,"▁ejecu":5443,"-4":5444,"-g":5445,"-pa":5446,"bos":5447,"gles":5448,"ique":5449,"jan":5450,"lor":5451,"oh":5452,"tú":5453,"ting":5454,"tina":5455,"vé":5456,"ye\r\n":5457,"zando":5458,"zas\r\n":5459,"éri":5460,"úl":5461,"▁ef":5462,"▁edad":5463,"▁md":5464,"▁mero,":5465,"▁star":5466,"▁lana\r\n":5467,"▁atro":5468,"▁año\r\n":5469,"ano,":5470,"▁dela":5471,"▁decía":5472,"▁var":5473,"onas":5474,"▁lapi":5475,"▁lado,":5476,"▁hones":5477,"un\r\n":5478,"▁mel":5479,"▁mi?\r\n":5480,"▁miente\r\n":5481,"▁fern":5482,"▁lot\r\n":5483,"▁tem":5484,"▁team\r\n":5485,"▁temá":5486,"▁sigo\r\n":5487,"▁condu":5488,"▁seca":5489,"▁sed\r\n":5490,"ciente":5491,"▁grou":5492,"▁combi":5493,"able\r\n":5494,"▁para,":5495,"▁party,":5496,"tido\r\n":5497,"▁cuch":5498,"di\r\n":5499,"▁letr":5500,"▁jui":5501,"▁rada":5502,"▁porquería\r\n":5503,"▁made":5504,"▁sabor\r\n":5505,"▁inver":5506,"▁incon":5507,"▁caj":5508,"▁pa',":5509,"▁sola,":5510,"▁sobran":5511,"▁perros":5512,"▁chil":5513,"▁pib":5514,"▁pio":5515,"▁pico":5516,"▁traes":5517,"▁track\r\n":5518,"▁pues\r\n":5519,"▁vag":5520,"▁pude":5521,"▁ganado":5522,"▁seria":5523,"▁peca":5524,"▁cop":5525,"▁calent":5526,"én,":5527,"én\r\n":5528,"▁liga\r\n":5529,"▁'tan":5530,"sion":5531,"▁mota":5532,"▁solita":5533,"▁boo\r\n":5534,"▁cosa'":5535,"carme":5536,"▁juro,":5537,"▁cash":5538,"▁cash\r\n":5539,"▁muera":5540,"ble,":5541,"▁hop,":5542,"▁dudas\r\n":5543,"▁cabeza,":5544,"lan\r\n":5545,"▁abar":5546,"▁maría,":5547,"▁paredes":5548,"▁muerto,":5549,"▁doctor":5550,"▁espera,":5551,"▁expor":5552,"▁buscándote\r\n":5553,"▁feka":5554,"▁improvisar\r\n":5555,"▁improvisando\r\n":5556,"▁nene,":5557,"▁puesta":5558,"▁freestyler":5559,"▁banda":5560,"▁bandido":5561,"▁chile":5562,"▁sueña":5563,"dores":5564,"▁obser":5565,"▁baila\r\n":5566,"▁encima,":5567,"▁wow":5568,"▁agua\r\n":5569,"▁encontrar\r\n":5570,"▁cintura":5571,"▁micro,":5572,"h-eh,":5573,"▁dejarlo":5574,"h-oh-oh\r\n":5575,"▁acei":5576,"▁llevó":5577,"▁off":5578,"▁fresco":5579,"▁fresco\r\n":5580,"▁fresco,":5581,"▁oye\r\n":5582,"▁cien\r\n":5583,"▁salida":5584,"▁extraño":5585,"▁brillar\r\n":5586,"▁terminan":5587,"▁robé\r\n":5588,"▁pinto":5589,"▁desaf":5590,"▁vampi":5591,"▁levanto":5592,"▁afuera,":5593,"▁novia":5594,"▁wannab":5595,"▁sky":5596,"▁skrr":5597,"▁ojo'":5598,"▁ojos\r\n":5599,"▁perfecto":5600,"▁responde":5601,"▁soñar\r\n":5602,"▁flashe":5603,"▁historia\r\n":5604,"▁sientes":5605,"▁comprar\r\n":5606,"▁brincando":5607,"▁bum,":5608,"tic\r\n":5609,"▁cuesta":5610,"▁mensaje":5611,"▁sexo":5612,"▁cerebro\r\n":5613,"▁humilde":5614,"▁rumor":5615,"▁tinta":5616,"▁zapas":5617,"▁jurado":5618,"▁heridas":5619,"▁damn,":5620,"▁enemigos":5621,"▁-ína\r\n":5622,"▁fluidez\r\n":5623,"▁sufrir\r\n":5624,"▁area":5625,"▁anoche":5626,"▁quavo\r\n":5627,"▁actitud":5628,"▁págame,":5629,"▁memoria\r\n":5630,"▁pprrumm\r\n":5631,"▁ventana":5632,"▁ilumina":5633,"▁colecti":5634,"▁ház":5635,"▁duki,":5636,"▁inspira":5637,"▁avís":5638,"▁easy":5639,"▁aburri":5640,"▁document":5641,"▁¡wuh!\r\n":5642,"▁stigma":5643,"▁tucun,":5644,"▁lamentable":5645,"▁suici":5646,"▁shout-out":5647,"▁aveni":5648,"▁nanananan":5649,"▁groupi":5650,"'re":5651,"-po":5652,".i":5653,"b\r\n":5654,"cri":5655,"cción":5656,"dá":5657,"darme":5658,"ee":5659,"gor":5660,"ger\r\n":5661,"ito,":5662,"jando":5663,"kin'":5664,"lu":5665,"miendo":5666,"no'":5667,"ron":5668,"tó\r\n":5669,"var":5670,"zos\r\n":5671,"ír":5672,"▁7":5673,"▁emo":5674,"▁ple":5675,"▁ty":5676,"▁aero":5677,"▁na,":5678,"▁name":5679,"anza":5680,"▁detal":5681,"▁hos":5682,"▁meet":5683,"▁miami":5684,"rado\r\n":5685,"▁fe,":5686,"▁siti":5687,"▁sill":5688,"ami\r\n":5689,"▁hay\r\n":5690,"leg":5691,"leta\r\n":5692,"▁ojo":5693,"▁otro\r\n":5694,"▁otra\r\n":5695,"la'\r\n":5696,"▁pago":5697,"▁toal":5698,"▁tener\r\n":5699,"tir\r\n":5700,"ón?\r\n":5701,"▁ileg":5702,"▁retro":5703,"▁retras":5704,"dia\r\n":5705,"is,":5706,"▁descu":5707,"▁despa":5708,"▁nadar":5709,"▁na-na-na\r\n":5710,"▁caga":5711,"llos\r\n":5712,"▁perse":5713,"▁vere":5714,"▁pasaj":5715,"▁pasar,":5716,"▁quiere\r\n":5717,"ela\r\n":5718,"▁ando\r\n":5719,"▁anteri":5720,"tros\r\n":5721,"▁ring":5722,"▁rimo,":5723,"▁aroma":5724,"▁llevo\r\n":5725,"▁llega\r\n":5726,"▁aclar":5727,"▁manera\r\n":5728,"▁coje":5729,"ran\r\n":5730,"▁calenti":5731,"▁calor,":5732,"▁caliente":5733,"▁ama,":5734,"▁ulti":5735,"tarme\r\n":5736,"▁escab":5737,"▁escol":5738,"▁cantan":5739,"▁cantando":5740,"▁dejan":5741,"▁dejando":5742,"▁lib":5743,"▁never":5744,"▁move":5745,"▁pongas":5746,"▁solas\r\n":5747,"▁diste":5748,"▁thu":5749,"▁preci":5750,"▁cima":5751,"▁cima\r\n":5752,"▁fallar":5753,"▁juro\r\n":5754,"▁caser":5755,"▁beba":5756,"▁mueva":5757,"▁hola":5758,"▁cabo":5759,"▁vuelva":5760,"▁puedo,":5761,"▁pensás":5762,"▁escrito":5763,"jeme":5764,"▁orig":5765,"▁cuentas":5766,"amo',":5767,"▁fuck\r\n":5768,"▁valen":5769,"▁pesos":5770,"▁santo":5771,"▁voces":5772,"▁pues,":5773,"▁some":5774,"▁sombra":5775,"▁\"el":5776,"▁bang":5777,"▁ustedes\r\n":5778,"▁corazon":5779,"▁cuero\r\n":5780,"▁papá,":5781,"▁suelo,":5782,"▁daría":5783,"▁panas":5784,"▁pierde":5785,"▁pierdes":5786,"▁vista":5787,"▁autor":5788,"▁prendi":5789,"▁prender":5790,"▁tumbar":5791,"▁fama,":5792,"▁estupi":5793,"▁mentira,":5794,"▁tres,":5795,"▁sobrevi":5796,"▁aparezco":5797,"▁baile\r\n":5798,"▁minutos":5799,"iones\r\n":5800,"▁defor":5801,"▁intento\r\n":5802,"▁trueno,":5803,"▁borr":5804,"▁pienso,":5805,"▁controlo":5806,"▁vamos\r\n":5807,"▁ceba":5808,"▁sacarte":5809,"▁drippin'\r\n":5810,"▁bols":5811,"▁'tamos":5812,"▁mc\r\n":5813,"▁campeón,":5814,"▁digan\r\n":5815,"▁hambre\r\n":5816,"▁copia":5817,"▁gil\r\n":5818,"▁transfor":5819,"▁realidad,":5820,"▁full\r\n":5821,"▁cielo,":5822,"▁interesa\r\n":5823,"▁perreo":5824,"▁merece":5825,"▁gargan":5826,"▁mensaje\r\n":5827,"▁dice:\r\n":5828,"▁aceptar":5829,"▁millonario":5830,"▁enfrent":5831,"▁metido":5832,"▁herida":5833,"▁orgullo":5834,"▁madre\r\n":5835,"▁leyenda,":5836,"▁prometo":5837,"▁decime:":5838,"▁artista\r\n":5839,"▁pegué":5840,"▁joven,":5841,"-rum":5842,"-no-no":5843,"▁guerrero":5844,"▁escapar\r\n":5845,"▁línea":5846,"▁refle":5847,"▁vacilando":5848,"▁jarab":5849,"▁power\r\n":5850,"▁conviene":5851,"h-yeah\r\n":5852,"▁concierto'":5853,"▁interior":5854,"▁espalda":5855,"▁again\r\n":5856,"▁blesse":5857,"▁jajaja\r\n":5858,"▁cazzu,":5859,"▁público":5860,"▁vergüenza":5861,"▁conexión\r\n":5862,".a.":5863,"▁házmelo":5864,"-f":5865,"-pi":5866,"bur":5867,"có":5868,"cina\r\n":5869,"dé":5870,"fal":5871,"ió":5872,"ky":5873,"rendo":5874,"tía":5875,"▁‘":5876,"▁echo":5877,"▁mm":5878,"▁mas\r\n":5879,"▁pás":5880,"▁sta":5881,"▁sni":5882,"▁ta'":5883,"▁aus":5884,"▁abi":5885,"▁atiendo":5886,"▁queres":5887,"▁queremos":5888,"▁decapi":5889,"ono":5890,"ona,":5891,"▁lag":5892,"▁elim":5893,"▁hust":5894,"▁b\r\n":5895,"▁mia":5896,"▁miento":5897,"alá":5898,"almente":5899,"ink":5900,"ra!\r\n":5901,"▁fina":5902,"▁temor":5903,"▁siga":5904,"▁sigan":5905,"▁conch":5906,"▁contras":5907,"▁yo'":5908,"da?\r\n":5909,"▁sei'":5910,"cido,":5911,"ria\r\n":5912,"rimi":5913,"▁diría":5914,"▁ocho":5915,"▁oje":5916,"lada":5917,"▁tuviste":5918,"▁patr":5919,"▁toa":5920,"▁tocan":5921,"▁quita":5922,"▁pare\r\n":5923,"▁partir":5924,"▁alre":5925,"▁if":5926,"▁revis":5927,"olver":5928,"▁vip\r\n":5929,"▁vivo,":5930,"▁tiro,":5931,"▁nacer":5932,"▁nacen":5933,"▁nacion":5934,"▁na-n":5935,"▁porquería":5936,"▁mata\r\n":5937,"▁sabes\r\n":5938,"▁inyec":5939,"llita":5940,"▁perras":5941,"▁perro,":5942,"▁ve'":5943,"▁veas":5944,"▁chin":5945,"▁wana":5946,"▁wuh":5947,"▁verde":5948,"▁pido\r\n":5949,"▁pif,":5950,"▁tragos":5951,"▁quieres,":5952,"▁anali":5953,"▁rin":5954,"▁¿es":5955,"▁asa":5956,"▁saltar":5957,"▁salva":5958,"▁carg":5959,"▁carros":5960,"quito\r\n":5961,"▁venís":5962,"▁pupi":5963,"▁sonido":5964,"▁sonris":5965,"pac":5966,"paña":5967,"▁pecado":5968,"▁coco,":5969,"▁tiene\r\n":5970,"▁ambi":5971,"▁ken":5972,"▁kri":5973,"teres":5974,"▁crecer\r\n":5975,"▁quédate":5976,"▁prácti":5977,"▁escamp":5978,"▁roque":5979,"▁rola\r\n":5980,"▁dejaste":5981,"▁mama\r\n":5982,"▁ella,":5983,"▁'ca":5984,"▁hablando\r\n":5985,"▁busco,":5986,"▁sapo":5987,"▁modu":5988,"▁hecho,":5989,"▁prohibi":5990,"▁soltando":5991,"▁bobo\r\n":5992,"▁falle":5993,"den,":5994,"▁sha":5995,"▁bajen":5996,"▁bajame":5997,"▁hola,":5998,"▁viento":5999,"▁pala,":6000,"▁escup":6001,"▁going":6002,"talo":6003,"can,":6004,"▁abs":6005,"▁abraz":6006,"▁maría\r\n":6007,"▁fría\r\n":6008,"▁parecen":6009,"▁-s":6010,"▁gusto":6011,"▁explos":6012,"▁cambié":6013,"▁joder":6014,"▁voa'":6015,"▁improviso":6016,"▁chav":6017,"▁chapo":6018,"▁weá":6019,"▁zona":6020,"▁\"a":6021,"rr,":6022,"▁preso":6023,"▁trá":6024,"▁irse":6025,"▁problema,":6026,"▁pusi":6027,"▁grito":6028,"▁respeta":6029,"▁palabras\r\n":6030,"▁guerre":6031,"▁polvo":6032,"▁perdiste":6033,"▁drogado":6034,"▁mentiras\r\n":6035,"▁traigan":6036,"▁dani":6037,"mo,\r\n":6038,"▁entiendo\r\n":6039,"▁confor":6040,"▁revent":6041,"▁reviento":6042,"▁déjeme":6043,"▁minu',":6044,"▁chees":6045,"▁mesa\r\n":6046,"▁recuerdos\r\n":6047,"éndome\r\n":6048,"▁consu":6049,"▁just":6050,"▁argentina,":6051,"▁molly":6052,"aron,":6053,"▁terminó":6054,"▁maricón\r\n":6055,"▁apache":6056,"▁frenar":6057,"▁cuantos":6058,"▁cansado":6059,"▁pienso\r\n":6060,"▁salir\r\n":6061,"▁contacto":6062,"▁sentí":6063,"▁cadena\r\n":6064,"▁pasado,":6065,"▁cristo":6066,"▁uoh-":6067,"ght":6068,"▁completo":6069,"▁billetes":6070,"▁ojalá":6071,"▁will":6072,"▁mental\r\n":6073,"▁agresi":6074,"▁records":6075,"▁autoesti":6076,"▁microphone":6077,"▁alcanz":6078,"▁cuántas":6079,"▁ciego\r\n":6080,"▁venir\r\n":6081,"▁haters\r\n":6082,"▁acepto":6083,"tiendo\r\n":6084,"▁diamantes":6085,"▁201":6086,"▁bailarlo":6087,"▁padre,":6088,"▁enloquecer\r\n":6089,"▁vacío\r\n":6090,"▁coger":6091,"▁pelícu":6092,"▁pistola":6093,"▁c.r.o":6094,"▁jordan":6095,"▁distinto":6096,"▁apunto":6097,"▁leyenda":6098,"-na-na,":6099,"▁about":6100,"▁quieto,":6101,"▁weed,":6102,"▁break":6103,"▁criminal":6104,"▁venezuela":6105,"▁locura":6106,"▁ruido\r\n":6107,"▁sufrimiento":6108,"▁hagá":6109,"▁mundial":6110,"▁gratis\r\n":6111,"▁hitboy\r\n":6112,"▁suficiente\r\n":6113,"▁nosotros,":6114,"▁oscuridad\r\n":6115,"▁mojada":6116,"▁crack":6117,"▁poesía\r\n":6118,"▁éste":6119,"▁stuar":6120,"▁ticket":6121,"▁durmiendo":6122,"▁crazy":6123,"▁café\r\n":6124,"▁hacés":6125,"▁karma":6126,"▁gaviota":6127,"▁experiencia\r\n":6128,"▁riquelme":6129,"▁¡dímelo!\r\n":6130,"▁treinta":6131,"la-lola-lo":6132,"▁nananau,nananau,nananau\r\n":6133,"▁tussi,":6134,"▁instagra":6135,"▁champagne\r\n":6136,"▁ricardo":6137,"▁aerop":6138,"'s\r\n":6139,"bla":6140,"came,":6141,"dan,":6142,"gs":6143,"hion":6144,"ji":6145,"más":6146,"mento\r\n":6147,"ny,":6148,"ps":6149,"ros,":6150,"rone":6151,"tía\r\n":6152,"uch":6153,"uble":6154,"vando":6155,"vas\r\n":6156,"ára":6157,"▁o\r\n":6158,"▁ej":6159,"▁po,":6160,"uelo":6161,"▁tamos":6162,"▁duela\r\n":6163,"▁aro":6164,"▁aument":6165,"ere\r\n":6166,"eros\r\n":6167,"enas":6168,"▁quedes":6169,"▁espi":6170,"▁detener":6171,"▁not":6172,"▁noti":6173,"▁la\r\n":6174,"▁ens":6175,"▁bin":6176,"▁bás":6177,"▁but":6178,"▁braz":6179,"ine,":6180,"▁fle":6181,"tao":6182,"tamos":6183,"tados":6184,"▁una,":6185,"▁concent":6186,"row":6187,"cidad":6188,"▁gr":6189,"rimas":6190,"ientos":6191,"▁difi":6192,"▁dibu":6193,"▁ok,":6194,"laz":6195,"▁paci":6196,"▁toas":6197,"▁toda\r\n":6198,"▁to',":6199,"▁estal":6200,"▁alma,":6201,"tita":6202,"▁repor":6203,"▁refer":6204,"▁pero,":6205,"▁jimm":6206,"ismo":6207,"entro,":6208,"▁yea,":6209,"▁time":6210,"▁tiré":6211,"▁suba":6212,"o's":6213,"▁desar":6214,"▁destino\r\n":6215,"▁nacho":6216,"▁radio":6217,"▁porque,":6218,"▁una'":6219,"▁mato,":6220,"▁mata,":6221,"▁incre":6222,"▁caja":6223,"vir":6224,"▁niño,":6225,"▁wuh,":6226,"gado\r\n":6227,"▁piz":6228,"▁pila":6229,"▁trape":6230,"▁pases":6231,"▁quieras\r\n":6232,"culo\r\n":6233,"culos":6234,"▁mismos":6235,"bia\r\n":6236,"▁podri":6237,"▁salva\r\n":6238,"▁carita":6239,"▁venas\r\n":6240,"pa'":6241,"▁pega\r\n":6242,"▁lleve":6243,"▁mantu":6244,"▁coo":6245,"tud\r\n":6246,"▁creas":6247,"tarse":6248,"guas":6249,"▁prr":6250,"▁escas":6251,"▁rode":6252,"▁rojo":6253,"▁canal":6254,"▁canto\r\n":6255,"▁can't":6256,"▁lim":6257,"▁bay":6258,"▁busque":6259,"▁saca,":6260,"▁sapo,":6261,"▁moj":6262,"▁moda\r\n":6263,"▁mochi":6264,"enso":6265,"▁provo":6266,"▁protes":6267,"▁profe":6268,"▁solu":6269,"▁solos":6270,"▁soldado":6271,"mas,":6272,"▁tiene'":6273,"▁juan":6274,"▁esa'":6275,"▁apu":6276,"▁plaza":6277,"▁placer\r\n":6278,"▁mueka":6279,"▁how":6280,"▁hoes":6281,"▁llamas":6282,"▁llames":6283,"▁llamar\r\n":6284,"▁viendo\r\n":6285,"▁dudo\r\n":6286,"▁cabro":6287,"▁sabemo'":6288,"es,\r\n":6289,"▁bill":6290,"▁pensaba":6291,"▁tomó":6292,"ador":6293,"▁esperar":6294,"▁cuenta,":6295,"▁pasa?\r\n":6296,"▁gracias\r\n":6297,"▁conocí":6298,"▁feo":6299,"▁dímelo":6300,"▁fie":6301,"▁fiel":6302,"▁zona\r\n":6303,"▁\"s":6304,"▁who's":6305,"▁banda\r\n":6306,"▁clave":6307,"▁cuerpo,":6308,"▁colora":6309,"▁fuimo'":6310,"▁gira,":6311,"▁fuman":6312,"▁presente":6313,"▁obs":6314,"▁pierda":6315,"▁13":6316,"▁trom":6317,"▁trunk":6318,"▁mucho,":6319,"▁irme":6320,"▁demás":6321,"▁woh,":6322,"▁interpre":6323,"▁pene\r\n":6324,"▁nigh":6325,"sapp":6326,"▁necesario":6327,"▁estuvo":6328,"▁diabla,":6329,"▁homi":6330,"▁mentiras":6331,"gia\r\n":6332,"▁señora":6333,"▁vivimos":6334,"▁ritmo\r\n":6335,"▁eyes":6336,"▁llegando":6337,"▁batalla\r\n":6338,"▁plan\r\n":6339,"▁llenar":6340,"▁odian":6341,"▁odio\r\n":6342,"▁kid":6343,"▁kilo":6344,"▁dracula":6345,"▁aprendi":6346,"▁eleva":6347,"▁buta":6348,"▁seguís":6349,"▁ofen":6350,"▁fresh":6351,"▁fresca":6352,"▁fresh,":6353,"▁cruz\r\n":6354,"▁ustedes,":6355,"▁molesta":6356,"▁hicimo'":6357,"▁defen":6358,"-e-e":6359,"▁ves?\r\n":6360,"▁blanca":6361,"▁cuantas":6362,"▁control":6363,"▁pasó?\r\n":6364,"▁brega":6365,"▁sigues":6366,"▁peligro":6367,"▁palabras,":6368,"▁enseñar\r\n":6369,"▁bolsi":6370,"▁segunda":6371,"▁cadena,":6372,"▁prefiere":6373,"▁fácil,":6374,"▁uoh\r\n":6375,"▁encanta\r\n":6376,"▁empezar":6377,"▁largo":6378,"▁rubi":6379,"▁beat,":6380,"▁whatsapp":6381,"▁oscuro":6382,"▁invito":6383,"▁espejo":6384,"▁sienten":6385,"▁viola":6386,"▁movimiento":6387,"▁rebota\r\n":6388,"▁ciego":6389,"▁error\r\n":6390,"▁ocupa":6391,"▁fashion":6392,"▁títu":6393,"▁evento":6394,"▁evento\r\n":6395,"▁comprendo\r\n":6396,"▁lengua":6397,"▁convier":6398,"▁consegu":6399,"▁funeral,":6400,"▁salamandra,":6401,"▁alcohol\r\n":6402,"▁eviden":6403,"▁trucos":6404,"▁depende":6405,"▁preocup":6406,"▁suerte\r\n":6407,"▁boss\r\n":6408,"▁contento\r\n":6409,"▁murió\r\n":6410,"▁gangsta":6411,"▁inteligencia\r\n":6412,"-ta-ta":6413,"▁comienza":6414,"▁remix\r\n":6415,"▁abrir":6416,"▁guerrero\r\n":6417,"▁ocasiones":6418,"▁piernas":6419,"▁viniste":6420,"▁padre\r\n":6421,"▁paliza":6422,"▁ghetto":6423,"▁arruin":6424,"▁años\r\n":6425,"▁ángeles":6426,"▁lírica":6427,"▁delincuente\r\n":6428,"▁sencillo\r\n":6429,"▁situación":6430,"▁gonna":6431,"▁sufrimiento\r\n":6432,"▁canserbero\r\n":6433,"▁estrella'\r\n":6434,"▁receta":6435,"▁elegante\r\n":6436,"▁fortnite\r\n":6437,"▁maradona":6438,"▁engañ":6439,"▁contenido\r\n":6440,"▁dólar":6441,"▁contrario\r\n":6442,"▁kelowa,":6443,"▁zorra":6444,"▁sistema":6445,"▁hello":6446,"▁world":6447,"▁brother\r\n":6448,"▁próxima":6449,"▁arrepenti":6450,"▁ansie":6451,"▁efec":6452,".i.":6453,"▁wanak":6454,"árame\r\n":6455,"-es":6456,"-o\r\n":6457,":\r\n":6458,"bb":6459,"bras":6460,"bando\r\n":6461,"ct":6462,"col":6463,"cero,":6464,"come":6465,"cán\r\n":6466,"dre\r\n":6467,"fan":6468,"form":6469,"game":6470,"ita,":6471,"jas,":6472,"mera\r\n":6473,"ny":6474,"ps\r\n":6475,"uf":6476,"xe":6477,"ído":6478,"—\r\n":6479,"▁#":6480,"▁mk":6481,"▁mario":6482,"▁ps":6483,"▁pent":6484,"▁sen":6485,"▁sense":6486,"▁clo":6487,"▁cic":6488,"▁torm":6489,"▁ago":6490,"▁apo":6491,"▁aki":6492,"▁agi":6493,"▁atras":6494,"▁awe":6495,"erá":6496,"enle":6497,"▁espar":6498,"▁deal":6499,"▁vini":6500,"▁now":6501,"▁lados\r\n":6502,"▁hal":6503,"▁hues":6504,"▁entier":6505,"▁mia\r\n":6506,"▁miras":6507,"▁fing":6508,"▁fino":6509,"▁fé\r\n":6510,"▁techo":6511,"▁conv":6512,"▁con\r\n":6513,"▁conde":6514,"▁conge":6515,"amas":6516,"dado\r\n":6517,"da',":6518,"▁separ":6519,"▁sepas":6520,"▁pors":6521,"▁hat":6522,"▁g,":6523,"▁ger":6524,"▁game":6525,"ritu":6526,"le'":6527,"la'":6528,"▁pac":6529,"chas":6530,"▁too":6531,"▁paran":6532,"▁parto\r\n":6533,"queta":6534,"▁alta":6535,"tió":6536,"▁iv":6537,"▁ira":6538,"▁revi":6539,"▁rell":6540,"dis":6541,"▁vieron":6542,"▁villa":6543,"▁yaoh\r\n":6544,"▁tiemb":6545,"▁supe":6546,"▁desi":6547,"▁nave\r\n":6548,"▁ratch":6549,"▁inj":6550,"▁inmor":6551,"▁cate":6552,"▁socie":6553,"▁ching":6554,"▁pieza":6555,"▁pase\r\n":6556,"▁quiera'":6557,"▁mur":6558,"tral":6559,"▁mismo,":6560,"▁¿ent":6561,"▁rich":6562,"▁míos\r\n":6563,"▁podía":6564,"▁asom":6565,"▁salsa":6566,"▁carre":6567,"▁caram":6568,"▁hija":6569,"▁ganga":6570,"▁acci":6571,"▁man,":6572,"▁llame":6573,"deras":6574,"▁americ":6575,"▁khe":6576,"▁creci":6577,"▁crema":6578,"gulo":6579,"▁prens":6580,"▁prra\r\n":6581,"▁ex\r\n":6582,"▁hablar,":6583,"▁fur":6584,"▁corra":6585,"▁corren":6586,"▁head":6587,"▁barcel":6588,"ica,":6589,"▁progres":6590,"▁disc":6591,"▁throw":6592,"▁buena\r\n":6593,"▁pregún":6594,"▁precis":6595,"▁luci":6596,"▁luch":6597,"▁fals":6598,"▁shh,":6599,"▁monte":6600,"▁mueve\r\n":6601,"ten,":6602,"tencia":6603,"▁gota":6604,"▁toman":6605,"▁uso":6606,"▁parece\r\n":6607,"▁face,":6608,"▁-e":6609,"▁-o":6610,"qué\r\n":6611,"▁quería\r\n":6612,"▁querían":6613,"▁gusta\r\n":6614,"torio":6615,"▁fin,":6616,"▁mori":6617,"▁buscando\r\n":6618,"▁gramos":6619,"▁gramm":6620,"▁conoz":6621,"▁conoces":6622,"▁jode":6623,"▁joder,":6624,"▁puesto\r\n":6625,"▁huy":6626,"▁fif":6627,"▁zombi":6628,"▁banco":6629,"▁decir,":6630,"▁papa\r\n":6631,"▁pappo":6632,"▁insul":6633,"▁panza":6634,"▁antes,":6635,"▁tarje":6636,"▁tarde,":6637,"▁repárame\r\n":6638,"▁shop,":6639,"▁termino":6640,"▁termina\r\n":6641,"▁momento,":6642,"▁basura":6643,"▁juntos\r\n":6644,"▁fuera\r\n":6645,"▁perdió":6646,"▁dispara\r\n":6647,"▁disparar\r\n":6648,"▁mañana,":6649,"▁dolor,":6650,"▁huevo\r\n":6651,"erno,":6652,"▁entiendes":6653,"▁confío":6654,"▁encuentra":6655,"▁encuentran":6656,"▁meses":6657,"▁meses\r\n":6658,"▁drama":6659,"▁cuader":6660,"▁cuatro\r\n":6661,"▁aceler":6662,"▁roncando":6663,"▁gold":6664,"▁recuerdos":6665,"▁seguro\r\n":6666,"▁matamos,\r\n":6667,"▁ayud":6668,"▁ayudo":6669,"▁ayuda\r\n":6670,"▁vesti":6671,"▁alguien\r\n":6672,"▁cuidau":6673,"▁freno\r\n":6674,"▁blancos":6675,"▁llegaron":6676,"▁pienses":6677,"▁controla":6678,"▁cele":6679,"▁sentirme":6680,"▁guarda":6681,"▁esconder":6682,"▁adicto":6683,"▁adidas,":6684,"▁domino":6685,"▁dale\r\n":6686,"▁larga":6687,"▁preparadas\r\n":6688,"▁copilo":6689,"▁giles":6690,"▁asesino":6691,"▁flotando":6692,"▁quizá":6693,"▁rostro\r\n":6694,"▁entiendo,":6695,"▁agár":6696,"▁ninguno\r\n":6697,"▁trofe":6698,"▁violo":6699,"▁music,":6700,"▁music\r\n":6701,"▁saluda":6702,"▁espada":6703,"▁bum\r\n":6704,"▁cálla":6705,"▁trappin'":6706,"▁comida,":6707,"▁descono":6708,"▁minutito\r\n":6709,"▁colores\r\n":6710,"▁avisa":6711,"▁botella\r\n":6712,"▁estructuras":6713,"▁hood":6714,"leros":6715,"▁nueva,":6716,"▁humildad":6717,"neces":6718,"▁quinto":6719,"▁rengl":6720,"▁¿será":6721,"▁funeral":6722,"▁metió":6723,"▁burn":6724,"▁tendría":6725,"▁libertad":6726,"▁marihuana\r\n":6727,"▁policía":6728,"▁corriente":6729,"▁pistola\r\n":6730,"▁jorna":6731,"▁fantasme":6732,"▁cuello\r\n":6733,"▁lluvia\r\n":6734,"▁cocaine\r\n":6735,"▁inteligente\r\n":6736,"▁comienzo":6737,"▁bobo,":6738,"▁mostrar":6739,"▁virus":6740,"▁killah":6741,"▁mandé":6742,"▁piernas\r\n":6743,"▁necesitas":6744,"▁padres":6745,"▁principio":6746,"▁culiao":6747,"▁aprieta":6748,"▁celular\r\n":6749,"▁twer":6750,"▁súbe":6751,"▁feka'":6752,"▁canserbero":6753,"▁receta\r\n":6754,"▁jose":6755,"▁rifles":6756,"▁rimar\r\n":6757,"▁uuuh":6758,"▁hitboy,":6759,"▁oportunidad\r\n":6760,"▁vacía\r\n":6761,"▁juzgar":6762,"▁beef\r\n":6763,"▁plug\r\n":6764,"-wo-wo":6765,"▁famoso":6766,"▁cacerio\r\n":6767,"▁terrible":6768,"▁pablo":6769,"▁recuper":6770,"▁mafia":6771,"▁gansta\r\n":6772,"▁¿querés":6773,"▁móntate":6774,"-pro-pro":6775,"▁cumplea":6776,"▁incluso":6777,"▁mediocre\r\n":6778,"▁champion":6779,"▁saiyaj":6780,"▁heavy,":6781,"▁ere'":6782,"▁teore":6783,"▁religi":6784,"▁destreza\r\n":6785,"▁vocabulario\r\n":6786,"▁aeropuer":6787,"▁jimmy":6788,"▁aweona":6789,"-m":6790,"-co":6791,"??":6792,"ah":6793,"ao\r\n":6794,"com":6795,"dente":6796,"dul":6797,"fer\r\n":6798,"ion\r\n":6799,"ific":6800,"ju":6801,"ko\r\n":6802,"mero":6803,"mera":6804,"mul":6805,"no'\r\n":6806,"pal":6807,"pol":6808,"pis":6809,"sto":6810,"tari":6811,"té\r\n":6812,"té,":6813,"va,":6814,"ves\r\n":6815,"▁ma\r\n":6816,"▁sno":6817,"▁stri":6818,"▁ston":6819,"▁da\r\n":6820,"▁dado":6821,"▁a,":6822,"▁ame":6823,"eres":6824,"▁nin":6825,"▁quema,":6826,"anos,":6827,"osos":6828,"▁de,":6829,"aso":6830,"ono\r\n":6831,"▁noto\r\n":6832,"▁lao'":6833,"▁el\r\n":6834,"uno":6835,"▁boni":6836,"rea\r\n":6837,"alta":6838,"ino,":6839,"▁fan\r\n":6840,"▁tema\r\n":6841,"ome\r\n":6842,"▁hací":6843,"▁gán":6844,"rito":6845,"iente\r\n":6846,"▁dió":6847,"▁die\r\n":6848,"▁oi":6849,"▁opera":6850,"lace\r\n":6851,"able,":6852,"▁pai":6853,"▁pais":6854,"▁pares":6855,"▁parque":6856,"▁partes\r\n":6857,"tivo":6858,"óni":6859,"dito":6860,"▁vimos":6861,"▁viva":6862,"▁vicio":6863,"▁vidri":6864,"▁tira\r\n":6865,"▁suce":6866,"▁na-na-na":6867,"▁rata":6868,"▁rapi":6869,"▁raya":6870,"▁parado":6871,"▁maqui":6872,"▁into":6873,"▁pa'ca,":6874,"vidad":6875,"ll\r\n":6876,"▁perra,":6877,"▁niña":6878,"▁vea":6879,"▁vemos":6880,"▁chino":6881,"▁verga":6882,"▁verga\r\n":6883,"▁pico\r\n":6884,"orado\r\n":6885,"▁trak":6886,"▁pasen":6887,"▁pasos":6888,"▁paso\r\n":6889,"cua":6890,"▁este,":6891,"▁este\r\n":6892,"▁rut":6893,"▁¿me":6894,"▁yeah-eh\r\n":6895,"▁sale,":6896,"▁carlos":6897,"▁careta\r\n":6898,"quita":6899,"▁veneno":6900,"▁puñ":6901,"▁ser,":6902,"papa":6903,"▁pedi":6904,"umar":6905,"▁mansión":6906,"tro,":6907,"▁malos\r\n":6908,"▁coche":6909,"▁coge":6910,"▁calles":6911,"▁tienes\r\n":6912,"▁rodi":6913,"▁ropa\r\n":6914,"▁cantor":6915,"▁cantar\r\n":6916,"▁canciones\r\n":6917,"▁cantón\r\n":6918,"▁dejen":6919,"▁exig":6920,"▁'tás":6921,"▁bat":6922,"▁clon":6923,"▁habla\r\n":6924,"▁mota,":6925,"▁hecho\r\n":6926,"▁resto,":6927,"▁bardo":6928,"▁barras":6929,"▁propues":6930,"▁soltar":6931,"▁bot":6932,"▁dispues":6933,"cen\r\n":6934,"▁falta,":6935,"ganme":6936,"▁guan":6937,"▁bajan":6938,"▁baja'":6939,"▁hoe,":6940,"cione'":6941,"▁llama,":6942,"▁palos":6943,"noti":6944,"▁bici":6945,"▁pensando\r\n":6946,"▁pensaste":6947,"▁davi":6948,"▁daño\r\n":6949,"▁rompa":6950,"▁rapea,":6951,"mo',":6952,"▁muertos":6953,"▁barrios":6954,"▁-n":6955,"▁empu":6956,"▁piense":6957,"▁cambio,":6958,"▁ay-ay":6959,"▁miento\r\n":6960,"▁reales\r\n":6961,"▁vale\r\n":6962,"▁morena\r\n":6963,"▁peso\r\n":6964,"▁pese\r\n":6965,"▁peste\r\n":6966,"▁dicen:":6967,"▁jodiendo":6968,"▁hura":6969,"▁\"¿":6970,"▁who":6971,"▁why":6972,"▁whis":6973,"▁bandi":6974,"▁escuchame":6975,"▁clave\r\n":6976,"▁wah\r\n":6977,"▁panam":6978,"▁presum":6979,"▁presión\r\n":6980,"▁ahí,":6981,"▁obli":6982,"▁16":6983,"▁demues":6984,"▁demás\r\n":6985,"▁repro":6986,"▁interno":6987,"▁respeta\r\n":6988,"▁nuestros":6989,"▁nuestro\r\n":6990,"▁basta,":6991,"▁disparar":6992,"▁flexing\r\n":6993,"▁home":6994,"gico":6995,"▁pegao'\r\n":6996,"▁chico\r\n":6997,"▁dijo:":6998,"▁argum":6999,"▁kiero":7000,"▁revol":7001,"▁reventar":7002,"▁aprende":7003,"▁buscarte":7004,"▁ronal":7005,"▁foto\r\n":7006,"▁subesti":7007,"▁mujeres,":7008,"▁jefe,":7009,"▁duelo":7010,"▁enamora\r\n":7011,"▁enseño":7012,"▁obvio\r\n":7013,"▁representar":7014,"▁olvidarme":7015,"▁viajando":7016,"ármelo\r\n":7017,"▁vivas":7018,"▁freno":7019,"▁gira\r\n":7020,"▁listo\r\n":7021,"aliza":7022,"▁cualquiera,":7023,"▁chambe":7024,"▁want":7025,"▁concier":7026,"▁lugar,":7027,"▁duerme":7028,"▁perderme":7029,"▁aquella":7030,"▁piel,":7031,"▁ñe":7032,"▁entramos":7033,"▁empezó":7034,"▁completa\r\n":7035,"▁beats\r\n":7036,"▁causo":7037,"▁acuerdes":7038,"▁frase":7039,"▁rolling":7040,"▁recordar\r\n":7041,"▁tropi":7042,"▁instrumentales\r\n":7043,"▁espada\r\n":7044,"▁españa":7045,"▁partido\r\n":7046,"▁error,":7047,"▁combusti":7048,"▁prrrum!!\r\n":7049,"▁códi":7050,"tiene\r\n":7051,"▁miran\r\n":7052,"▁preocupa":7053,"▁dientes\r\n":7054,"▁ah-ah-ah\r\n":7055,"▁murió":7056,"▁corriendo\r\n":7057,"▁c.r.o\r\n":7058,"▁tren\r\n":7059,"▁compañero":7060,"▁suave\r\n":7061,"▁veinte":7062,"▁distinto\r\n":7063,"▁aveces":7064,"▁despertar\r\n":7065,"▁nubes":7066,"▁secreto\r\n":7067,"▁acompaña":7068,"▁negocio":7069,"▁atención\r\n":7070,"▁sufrir":7071,"▁street":7072,"▁street\r\n":7073,"▁textos":7074,"▁escribir\r\n":7075,"▁locura\r\n":7076,"▁culito":7077,"▁gatita":7078,"▁competir\r\n":7079,"▁blood,":7080,"▁dámelo\r\n":7081,"▁limpi":7082,"▁cotto,":7083,"▁novato\r\n":7084,"▁aseguro":7085,"▁trappers":7086,"▁fortnite,":7087,"▁0-":7088,"▁circo":7089,"▁desastre":7090,"▁nosotros\r\n":7091,"▁oscuridad":7092,"▁moviendo":7093,"▁down,":7094,"▁llave\r\n":7095,"▁mercedes":7096,"▁warrior":7097,"▁bandolero\r\n":7098,"▁excusas":7099,"▁triunf":7100,"▁evapor":7101,"▁númer":7102,"▁estrés\r\n":7103,"▁au-au\r\n":7104,"▁esfuer":7105,"▁lóg":7106,"▁punchline":7107,"▁colchón,":7108,"▁pidiéndome":7109,"▁frustra":7110,"▁egocentrismo\r\n":7111,"▁cuestión":7112,"▁hollywoo":7113,"▁calentita,":7114,"▁origin":7115,"▁abier":7116,"▁'cause":7117,"▁escupiendo":7118,"▁mochila":7119,"▁snoo":7120,"?\"\r\n":7121,"cra":7122,"gin":7123,"je,":7124,"nea":7125,"pando":7126,"pla":7127,"pel":7128,"phon":7129,"ry\r\n":7130,"rar,":7131,"se,":7132,"tina\r\n":7133,"vame":7134,"zca":7135,"úch":7136,"▁eck":7137,"▁ego\r\n":7138,"▁mes\r\n":7139,"▁mero\r\n":7140,"▁muestra":7141,"▁sar":7142,"▁sco":7143,"▁spe":7144,"▁lenta":7145,"▁tv":7146,"▁tat":7147,"▁tío":7148,"▁dorm":7149,"▁año,":7150,"ers\r\n":7151,"eran\r\n":7152,"▁nis":7153,"▁nari":7154,"▁quere":7155,"▁quebra":7156,"▁es,":7157,"anth":7158,"one\r\n":7159,"one,":7160,"dodiab":7161,"▁la,":7162,"▁ello":7163,"▁elec":7164,"estes":7165,"▁ender":7166,"▁enven":7167,"▁enfo":7168,"und,":7169,"▁bd":7170,"▁ber":7171,"▁bam":7172,"▁bye":7173,"re,":7174,"▁mix":7175,"alo\r\n":7176,"▁fú":7177,"tag":7178,"▁locos":7179,"▁tel":7180,"▁teñ":7181,"▁temas\r\n":7182,"▁sis":7183,"▁siga\r\n":7184,"▁conte":7185,"go'":7186,"uir\r\n":7187,"▁semi":7188,"▁sex\r\n":7189,"▁sepan":7190,"▁hay,":7191,"▁comun":7192,"▁coma\r\n":7193,"▁comuna":7194,"▁ofer":7195,"abas\r\n":7196,"▁paque":7197,"▁paté":7198,"chos\r\n":7199,"▁todas\r\n":7200,"▁tocando":7201,"▁tocar\r\n":7202,"▁parto,":7203,"▁tengan":7204,"▁tenia":7205,"▁tenido":7206,"tita,":7207,"▁cub":7208,"▁ital":7209,"▁igles":7210,"dito\r\n":7211,"▁lejos\r\n":7212,"▁estoy,":7213,"▁suyo":7214,"▁desin":7215,"▁desam":7216,"▁nace":7217,"▁nadando":7218,"▁radam":7219,"▁max":7220,"▁max\r\n":7221,"▁making":7222,"▁cagu":7223,"▁capo":7224,"▁cazar":7225,"llas,":7226,"lloso":7227,"▁nike\r\n":7228,"▁ve'\r\n":7229,"▁verás":7230,"▁pibi":7231,"▁pidas":7232,"▁pipp":7233,"▁pieza\r\n":7234,"▁traen":7235,"▁pasé":7236,"▁pasión":7237,"▁quieras,":7238,"▁muriendo":7239,"el,":7240,"▁rra,":7241,"▁ron\r\n":7242,"▁rand":7243,"pir":7244,"mododiab":7245,"▁¿en":7246,"▁está\r\n":7247,"▁poco,":7248,"mica\r\n":7249,"▁asu":7250,"▁habían":7251,"▁ganás":7252,"▁seres":7253,"▁arte,":7254,"▁arcan":7255,"▁arde\r\n":7256,"▁sonido\r\n":7257,"▁pego,":7258,"▁llegaste":7259,"uma\r\n":7260,"▁mansión\r\n":7261,"▁maltra":7262,"▁coco":7263,"▁cobra":7264,"▁calidad\r\n":7265,"▁amari":7266,"▁amé,":7267,"▁king":7268,"▁creía":7269,"tarte":7270,"ándose":7271,"▁escúch":7272,"▁rolex":7273,"▁cansa":7274,"▁cantante\r\n":7275,"▁dejado":7276,"▁dejame":7277,"▁hacerlo\r\n":7278,"▁bati":7279,"▁clás":7280,"▁motor":7281,"▁coro":7282,"▁hechi":7283,"▁hechos":7284,"▁poniendo":7285,"▁flows":7286,"▁prop":7287,"cencia":7288,"▁babe\r\n":7289,"car,":7290,"▁city\r\n":7291,"▁cierto":7292,"▁guat":7293,"▁bebe":7294,"▁play\r\n":7295,"cion\r\n":7296,"ciones,":7297,"▁viene\r\n":7298,"▁viene,":7299,"▁palos\r\n":7300,"▁nadie,":7301,"▁cabi":7302,"▁vuelta\r\n":7303,"▁vueltas\r\n":7304,"▁abor":7305,"▁date":7306,"do,\r\n":7307,"▁pareci":7308,"▁muerte,":7309,"▁forj":7310,"▁forty":7311,"▁dog\r\n":7312,"▁organ":7313,"▁empe":7314,"▁eres\r\n":7315,"▁contrato\r\n":7316,"▁expan":7317,"etumar":7318,"torio\r\n":7319,"▁grave\r\n":7320,"▁dicen,":7321,"▁juegan":7322,"▁conoc":7323,"▁sueno\r\n":7324,"▁¡no":7325,"▁¡wo":7326,"▁voces\r\n":7327,"▁improvisado\r\n":7328,"▁cerra":7329,"▁blin":7330,"▁onda\r\n":7331,"▁escuché":7332,"▁clavo\r\n":7333,"▁claras\r\n":7334,"▁sueltan":7335,"▁besos\r\n":7336,"▁tag":7337,"▁pana,":7338,"▁matar,":7339,"▁matarno":7340,"▁fui\r\n":7341,"▁importar":7342,"▁giro":7343,"▁fumo,":7344,"▁mucho'":7345,"▁tonto\r\n":7346,"▁demuestra":7347,"▁hipnoti":7348,"▁palabra\r\n":7349,"▁nuestras":7350,"▁shot":7351,"▁má'\r\n":7352,"▁basta\r\n":7353,"▁fuerte,":7354,"▁disparan":7355,"▁disparos\r\n":7356,"gido":7357,"▁seguimo'":7358,"▁señor,":7359,"▁llegamos":7360,"▁batallar":7361,"ernos":7362,"▁planeta\r\n":7363,"▁broche":7364,"▁chupar":7365,"▁jah\r\n":7366,"▁hablai":7367,"▁ronda\r\n":7368,"▁haría":7369,"▁buzo":7370,"▁mujeres\r\n":7371,"▁tirote":7372,"▁justi":7373,"▁cruzar":7374,"pongo":7375,"pone\r\n":7376,"▁brillan":7377,"▁gastando":7378,"▁superar":7379,"▁dije:":7380,"▁escribes":7381,"▁escribiendo":7382,"▁bomba\r\n":7383,"▁negro'":7384,"▁¿quieren":7385,"▁entrando":7386,"▁musica":7387,"▁blanco,":7388,"▁compartir":7389,"▁celos\r\n":7390,"▁sirven":7391,"▁dormir,":7392,"▁brego":7393,"▁abajo,":7394,"▁adicta":7395,"▁enseñarte":7396,"▁conciencia":7397,"▁exploto":7398,"▁capitán":7399,"oooo":7400,"▁ándate":7401,"▁x2\r\n":7402,"▁choco":7403,"▁infin":7404,"▁clase\r\n":7405,"▁entramo'":7406,"▁ponerte":7407,"▁rostro":7408,"▁enamorar\r\n":7409,"▁diga'":7410,"▁acerca":7411,"▁shorty":7412,"▁favorito":7413,"▁favorito\r\n":7414,"▁erís":7415,"▁paz,":7416,"▁cuarto\r\n":7417,"▁trappin'\r\n":7418,"▁errores":7419,"▁lana,":7420,"▁ocurri":7421,"▁haters":7422,"▁garan":7423,"wn\r\n":7424,"▁prrrum\r\n":7425,"▁hood\r\n":7426,"▁ahoga":7427,"▁quintan":7428,"▁silencio,":7429,"▁típi":7430,"▁descom":7431,"▁cazar,":7432,"▁calientita,":7433,"ta'o,":7434,"▁consecuen":7435,"▁motherfucker,":7436,"▁varias":7437,"▁opción":7438,"▁preguntan,":7439,"▁flaco":7440,"▁enrola,":7441,"▁orgullo\r\n":7442,"▁orgulloso":7443,"▁posible":7444,"▁converti":7445,"▁vacío":7446,"▁jugada":7447,"▁mover,":7448,"▁cuero":7449,"▁explicarte\r\n":7450,"▁50":7451,"▁artistas":7452,"▁destruir":7453,"▁dedico":7454,"▁glock":7455,"▁quieto\r\n":7456,"▁killah\r\n":7457,"▁24\r\n":7458,"▁semana":7459,"▁venezuela\r\n":7460,"▁twent":7461,"▁ventana\r\n":7462,"▁matemá":7463,"▁skrt,":7464,"▁blood\r\n":7465,"▁bizarrap":7466,"▁every":7467,"----":7468,"▁sonrisa":7469,"▁decían":7470,"▁reír":7471,"▁entendiste":7472,"▁fiesta,":7473,"▁phone,":7474,"▁vámonos":7475,"▁montana\r\n":7476,"▁cobarde\r\n":7477,"▁ánimo":7478,"▁continente\r\n":7479,"▁sonrío":7480,"▁heart":7481,"▁desmayo":7482,"▁permiso,":7483,"▁llévame":7484,"▁demonio":7485,"▁dirty":7486,"▁estúpi":7487,"▁criterio\r\n":7488,"▁cuchillo":7489,"▁avísenle":7490,"▁lamentablemente":7491,"▁retroce":7492,"▁conchetumar":7493,"▁dificil":7494,"▁conseguí":7495,"▁pregúntale":7496,"▁combustible":7497,"▁radamanth":7498,"-v":7499,"-to":7500,"-ch":7501,"-ma":7502,"-mi":7503,"ach":7504,"ao'":7505,"ben":7506,"bas\r\n":7507,"bres\r\n":7508,"cta\r\n":7509,"cén":7510,"cino":7511,"clip":7512,"ding":7513,"ds\r\n":7514,"ff":7515,"gia":7516,"ila":7517,"jado":7518,"mes":7519,"ne\r\n":7520,"pper":7521,"rro":7522,"tí\r\n":7523,"uta":7524,"wa":7525,"y-":7526,"y!\r\n":7527,"á',":7528,"éli":7529,"ómo,":7530,"▁em":7531,"▁eo,":7532,"▁era\r\n":7533,"▁mv":7534,"▁ph":7535,"▁pón":7536,"▁sy":7537,"▁sty":7538,"▁lor":7539,"▁cár":7540,"▁cena\r\n":7541,"▁cúl":7542,"▁tas":7543,"▁dy":7544,"▁damo'":7545,"▁ara":7546,"▁air":7547,"▁aver":7548,"▁alex":7549,"ería":7550,"▁num":7551,"▁queden":7552,"▁quema\r\n":7553,"anza\r\n":7554,"aron\r\n":7555,"▁vu":7556,"▁vuela":7557,"onces":7558,"ones,":7559,"▁lao'\r\n":7560,"▁lacos":7561,"▁meto\r\n":7562,"▁metes":7563,"▁metí":7564,"▁bando\r\n":7565,"▁miami\r\n":7566,"ramos":7567,"tada\r\n":7568,"▁unsto":7569,"▁te-":7570,"amo":7571,"ama\r\n":7572,"▁sea,":7573,"▁seis\r\n":7574,"ciente\r\n":7575,"cidad\r\n":7576,"▁gras":7577,"▁di\r\n":7578,"▁dia\r\n":7579,"▁ov":7580,"▁paul":7581,"▁patada":7582,"chos,":7583,"▁quito":7584,"▁estaria":7585,"ques\r\n":7586,"▁alar":7587,"▁ten\r\n":7588,"▁teniendo":7589,"ti,":7590,"timi":7591,"titu":7592,"▁reemp":7593,"▁revelo":7594,"ásti":7595,"▁lean":7596,"▁jet":7597,"▁yeh-eh-eh\r\n":7598,"▁tibur":7599,"▁sudando":7600,"▁desgra":7601,"▁naz":7602,"▁mapa":7603,"▁madu":7604,"▁maté":7605,"▁inm":7606,"▁inci":7607,"▁inva":7608,"▁inneces":7609,"llar":7610,"▁soci":7611,"▁estaban":7612,"▁nick":7613,"▁vean":7614,"▁chale":7615,"▁pille":7616,"▁trama":7617,"▁pasamos":7618,"▁ah;":7619,"▁anestes":7620,"tros,":7621,"▁puede\r\n":7622,"▁ras":7623,"pi\r\n":7624,"▁¿ha":7625,"▁¿ves":7626,"billo":7627,"▁aspi":7628,"▁aspe":7629,"▁asado":7630,"▁salta":7631,"▁caras":7632,"▁carol":7633,"▁cartas":7634,"▁putas\r\n":7635,"▁ganaste":7636,"▁serán":7637,"lito":7638,"▁pedo\r\n":7639,"▁pego\r\n":7640,"▁peke":7641,"▁peine":7642,"▁pew,":7643,"▁llego\r\n":7644,"▁acces":7645,"▁manz":7646,"▁mano,":7647,"▁camuf":7648,"▁malas\r\n":7649,"....":7650,"aria,":7651,"bay":7652,"▁creciendo":7653,"▁nose":7654,"▁promo":7655,"▁rol":7656,"▁roca\r\n":7657,"▁cancha":7658,"▁dejas":7659,"▁clona":7660,"▁hablás":7661,"▁satis":7662,"▁moto":7663,"▁corta\r\n":7664,"▁corona":7665,"▁corté":7666,"tancia\r\n":7667,"▁resu":7668,"▁resto\r\n":7669,"▁barco":7670,"ir,":7671,"▁solas":7672,"▁distri":7673,"▁thing":7674,"▁buenas\r\n":7675,"da,\r\n":7676,"▁lucho,":7677,"▁fallas":7678,"▁menos\r\n":7679,"fico":7680,"ficio\r\n":7681,"▁volve":7682,"▁compon":7683,"▁verdadero":7684,"▁montón":7685,"▁aprendo":7686,"▁plato":7687,"▁playa":7688,"▁mueven":7689,"▁mueka\r\n":7690,"▁llama\r\n":7691,"▁vaso,":7692,"▁goles":7693,"▁duda":7694,"▁old":7695,"▁hermana":7696,"▁hermanos\r\n":7697,"▁bicho\r\n":7698,"▁biza,":7699,"▁vuelvas":7700,"▁nuevos":7701,"▁nueva\r\n":7702,"▁marti":7703,"▁maría":7704,"▁otra,":7705,"▁day\r\n":7706,"▁frág":7707,"▁rapear,":7708,"encias":7709,"▁doing":7710,"▁double":7711,"▁-ar\r\n":7712,"▁ore":7713,"▁empece":7714,"▁día'":7715,"▁cuento,":7716,"▁tercer":7717,"▁cambié\r\n":7718,"ándolo":7719,"ción?\r\n":7720,"▁buscándome":7721,"▁cuales":7722,"▁puta',":7723,"▁cómo?":7724,"▁conocido":7725,"▁¡ya":7726,"▁mil,":7727,"▁volverme":7728,"▁medio\r\n":7729,"▁escuche":7730,"▁clavos":7731,"▁corazones":7732,"▁suelte":7733,"▁amigas":7734,"▁wachos":7735,"venta":7736,"▁tenerme":7737,"▁matarnos\r\n":7738,"▁fumar\r\n":7739,"▁fumándome":7740,"▁critic":7741,"▁visa":7742,"▁irri":7743,"▁irón":7744,"▁pregunta\r\n":7745,"▁preguntes":7746,"vela\r\n":7747,"▁demente":7748,"▁gris":7749,"drá":7750,"▁prendí":7751,"▁basa":7752,"▁juntando":7753,"▁cultura":7754,"▁tumbarme":7755,"▁necesario\r\n":7756,"▁perdida":7757,"▁cintura\r\n":7758,"▁balas\r\n":7759,"▁mentir\r\n":7760,"▁agarrar":7761,"▁apare":7762,"▁aparte\r\n":7763,"▁nivel,":7764,"▁odia":7765,"▁jap":7766,"▁revés\r\n":7767,"tria":7768,"▁check":7769,"▁¿cómo,":7770,"▁haré":7771,"▁suben":7772,"▁llevamo'":7773,"▁consum":7774,"▁justin":7775,"▁ciento":7776,"▁escapa":7777,"▁estrellas":7778,"▁defien":7779,"▁robé":7780,"▁apag":7781,"▁olvidé":7782,"▁aires\r\n":7783,"▁cuida'o":7784,"▁personal\r\n":7785,"▁personaje":7786,"▁borrar":7787,"▁borré":7788,"▁puerta\r\n":7789,"▁vamon":7790,"▁sirve\r\n":7791,"▁habilidad\r\n":7792,"▁pasó,":7793,"▁normal\r\n":7794,"▁cierra":7795,"▁tortura":7796,"▁duermo,":7797,"▁caigo,":7798,"▁amarte\r\n":7799,"▁deseas\r\n":7800,"▁papeles\r\n":7801,"▁armado,":7802,"▁asesina":7803,"▁maldita":7804,"▁mental":7805,"▁soñando":7806,"▁incom":7807,"▁roll\r\n":7808,"▁diez\r\n":7809,"▁alcanza\r\n":7810,"▁entera,":7811,"▁shorty,":7812,"▁luna,":7813,"▁ferra\r\n":7814,"▁tirar\r\n":7815,"▁tirarme":7816,"▁regalo\r\n":7817,"▁sacó":7818,"▁discote":7819,"▁tuyo\r\n":7820,"▁tuya,":7821,"▁sexo,":7822,"▁ahog":7823,"▁silencio\r\n":7824,"▁evolu":7825,"▁rencor":7826,"▁derrite":7827,"▁convir":7828,"▁evitar":7829,"▁202":7830,"▁criticar":7831,"▁eterno,":7832,"▁marihuana":7833,"▁convertir":7834,"▁'tá'":7835,"▁policía,":7836,"▁compañero\r\n":7837,"▁respuesta\r\n":7838,"▁respuestas":7839,"▁arrogan":7840,"▁abogado":7841,"▁friend":7842,"▁pills":7843,"▁pegó":7844,"▁mai'\r\n":7845,"▁motivo":7846,"▁arranco":7847,"▁tiraste":7848,"▁actitud\r\n":7849,"▁labios":7850,"▁diego":7851,"▁blunts":7852,"▁pelotudo":7853,"▁memoria":7854,"▁ruido":7855,"ucris":7856,"▁destroy\r\n":7857,"▁súper":7858,"▁búscame":7859,"▁jesucris":7860,"▁concepto":7861,"▁tocó":7862,"▁alejand":7863,"▁televis":7864,"▁conviene\r\n":7865,"▁imita":7866,"▁rifle":7867,"▁interior\r\n":7868,"▁querido":7869,"▁suficiente":7870,"▁construyo":7871,"▁clavar":7872,"▁nervios":7873,"▁crack\r\n":7874,"▁oportunidad":7875,"▁piedra":7876,"▁mercedes\r\n":7877,"▁pájar":7878,"▁peace":7879,"▁promes":7880,"▁septum":7881,"▁cinturón\r\n":7882,"▁aprovecha":7883,"▁número":7884,"▁paca'":7885,"▁repeti":7886,"▁rockstar\r\n":7887,"▁pronto":7888,"▁festej":7889,"▁comenz":7890,"▁madrid\r\n":7891,"▁kush":7892,"▁temprano":7893,"▁hennessy\r\n":7894,"▁perdedor\r\n":7895,"▁ventaja":7896,"▁colombiana,":7897,"▁báj":7898,"▁licor,":7899,"▁shortcito":7900,"▁rally,":7901,"▁sorpresa":7902,"▁blass":7903,"▁significa":7904,"▁líneas":7905,"▁vampiros":7906,"▁tyrone":7907,"▁estupide":7908,"▁jarabe":7909,"▁fiebre":7910,"▁#mododiab":7911,"▁sensei\r\n":7912,"▁inmortal":7913,"▁stone\r\n":7914,"▁david":7915,"▁piense'":7916,"▁homegro":7917,"phone\r\n":7918,"▁cúlpable":7919,"▁unstopp":7920,"-1":7921,"-w":7922,"-re":7923,"-car":7924,"-ina":7925,"-dad\r\n":7926,"-ina\r\n":7927,"-mor":7928,"7\r\n":7929,"ag":7930,"cé\r\n":7931,"dy":7932,"dus":7933,"ex":7934,"ho\r\n":7935,"hab":7936,"h!!\r\n":7937,"ko,":7938,"kes\r\n":7939,"ki\r\n":7940,"king\r\n":7941,"lá":7942,"men\r\n":7943,"rán":7944,"tones\r\n":7945,"tés\r\n":7946,"wi":7947,"ys\r\n":7948,"zando\r\n":7949,"zan\r\n":7950,"óp":7951,"—,":7952,"▁—":7953,"▁eh-eh-eh\r\n":7954,"▁eclip":7955,"▁mar,":7956,"▁ss":7957,"▁samp":7958,"▁lásti":7959,"▁cy":7960,"▁cán":7961,"▁damos":7962,"▁do'\r\n":7963,"▁diente":7964,"▁dándole":7965,"▁ach":7966,"▁amp":7967,"eno,":7968,"end\r\n":7969,"▁dedos":7970,"onas\r\n":7971,"▁lados":7972,"esto":7973,"unto":7974,"▁metra":7975,"▁mete\r\n":7976,"▁by":7977,"▁bun":7978,"tel":7979,"teando":7980,"▁mio\r\n":7981,"▁fel":7982,"▁fli":7983,"▁lot,":7984,"▁loki":7985,"▁lobo\r\n":7986,"▁tea":7987,"▁cond":7988,"▁see":7989,"▁sea\r\n":7990,"logía":7991,"cias,":7992,"▁gla":7993,"▁gps\r\n":7994,"▁como,":7995,"▁dilo\r\n":7996,"▁diario":7997,"▁diré":7998,"▁dicie":7999,"▁dipl":8000,"▁oeste":8001,"lado\r\n":8002,"▁turu":8003,"▁tuve,":8004,"▁patas\r\n":8005,"▁quis":8006,"mp\r\n":8007,"que,":8008,"tili":8009,"tica,":8010,"▁cucu":8011,"usto":8012,"▁rey,":8013,"▁vici":8014,"▁vibe\r\n":8015,"▁leo":8016,"▁sul":8017,"▁desqui":8018,"▁desli":8019,"▁naf":8020,"▁nacido":8021,"▁raja":8022,"▁saber\r\n":8023,"▁inde":8024,"▁ina,":8025,"▁ingen":8026,"▁intimi":8027,"▁in-mor":8028,"▁cata":8029,"▁caís":8030,"▁cacha,":8031,"▁estado\r\n":8032,"▁estamos\r\n":8033,"▁vel":8034,"▁china\r\n":8035,"▁was":8036,"▁wall":8037,"▁verde\r\n":8038,"ma'":8039,"▁pida":8040,"▁pides":8041,"▁pasaron":8042,"▁pasaje":8043,"▁ahi":8044,"▁quieran\r\n":8045,"▁puedas":8046,"▁vaque":8047,"▁vaca":8048,"▁ring\r\n":8049,"▁ring,":8050,"▁río\r\n":8051,"▁misil":8052,"▁¿pa'":8053,"▁cuando\r\n":8054,"cero\r\n":8055,"▁rio":8056,"▁podí":8057,"▁sala":8058,"▁carro\r\n":8059,"▁vení":8060,"▁venden":8061,"▁put":8062,"▁putos":8063,"▁ganarte":8064,"▁serte":8065,"▁sincero,":8066,"▁armo":8067,"▁arena":8068,"▁pela":8069,"▁llevan":8070,"▁acz":8071,"▁acaso":8072,"▁mandar":8073,"▁camale":8074,"▁cogo":8075,"▁coca\r\n":8076,"ters":8077,"termin":8078,"tud":8079,"▁crew\r\n":8080,"▁rola":8081,"▁rotos":8082,"▁roque\r\n":8083,"▁deja\r\n":8084,"▁neo":8085,"illa":8086,"▁bañ":8087,"▁habló":8088,"▁hablo\r\n":8089,"▁saquen":8090,"▁fuí":8091,"▁mozar":8092,"▁cortar":8093,"tan,":8094,"▁resca":8095,"▁barro":8096,"▁barbi":8097,"▁nunca,":8098,"▁boun":8099,"▁boki":8100,"▁dise":8101,"▁disque":8102,"▁discan":8103,"▁discos":8104,"▁city":8105,"▁lucha":8106,"▁luces\r\n":8107,"rup":8108,"▁jugue":8109,"▁herir":8110,"▁menos,":8111,"▁cash,":8112,"ficio":8113,"▁compás\r\n":8114,"▁baje":8115,"▁mongo":8116,"▁apor":8117,"▁apenas":8118,"▁llamen":8119,"▁llamando":8120,"▁llamar,":8121,"▁escupir":8122,"▁golos":8123,"▁cabe":8124,"cano":8125,"▁biza\r\n":8126,"▁bibli":8127,"▁vuelvo\r\n":8128,"▁abus":8129,"▁abuela":8130,"▁abismo\r\n":8131,"▁mare":8132,"▁tambien":8133,"▁fría":8134,"▁escritas\r\n":8135,"▁formas":8136,"▁doc":8137,"▁-e,":8138,"▁esperes":8139,"▁maso":8140,"▁flu":8141,"▁andá":8142,"▁despre":8143,"▁terra":8144,"▁cambiando":8145,"▁pasapor":8146,"▁vale,":8147,"▁valor\r\n":8148,"▁more":8149,"▁morena,":8150,"▁pesado\r\n":8151,"▁buscaba":8152,"▁grada\r\n":8153,"▁grabo":8154,"▁estaré":8155,"▁entrego":8156,"▁entreten":8157,"▁joh":8158,"▁joker":8159,"▁fea":8160,"▁sanar":8161,"▁¡p":8162,"▁días,":8163,"▁dígame":8164,"▁nenes\r\n":8165,"▁cerrá":8166,"▁huye":8167,"▁weón,":8168,"▁zan":8169,"▁volvería":8170,"▁medicina":8171,"▁bandera\r\n":8172,"▁dime\r\n":8173,"▁noche-e-e\r\n":8174,"▁clap\r\n":8175,"▁cuerda":8176,"▁chick":8177,"▁insom":8178,"▁instin":8179,"▁ta-na-na\r\n":8180,"▁taka,":8181,"▁2pac":8182,"▁tener,":8183,"▁quedado":8184,"▁panor":8185,"▁panas\r\n":8186,"▁matarme":8187,"▁fui,":8188,"▁fuimos\r\n":8189,"▁importa,":8190,"▁preso\r\n":8191,"▁presid":8192,"you":8193,"▁11":8194,"▁12\r\n":8195,"▁grande,":8196,"▁grandes\r\n":8197,"▁vistiendo":8198,"▁tony,":8199,"▁parece,":8200,"▁repla":8201,"▁woo":8202,"▁poder,":8203,"▁respetar":8204,"▁puntos":8205,"▁puntos\r\n":8206,"▁prenda,":8207,"▁prendido":8208,"▁adentro\r\n":8209,"▁adentro,":8210,"▁estamos,":8211,"▁encontrar,":8212,"▁mág":8213,"▁bastante":8214,"▁entendí":8215,"▁junta":8216,"▁cultura,":8217,"▁pollo":8218,"▁merezco\r\n":8219,"▁cine\r\n":8220,"mbre\r\n":8221,"▁dolce,":8222,"▁derrum":8223,"▁balencia":8224,"▁hands":8225,"▁morirme,":8226,"▁eh;":8227,"▁sobreval":8228,"▁danza":8229,"▁broma\r\n":8230,"▁seguir\r\n":8231,"▁llamada\r\n":8232,"▁señora\r\n":8233,"▁ey;":8234,"▁jack":8235,"▁confía":8236,"▁déjate":8237,"▁ganarle":8238,"▁buscarme":8239,"▁ronca":8240,"▁llevar\r\n":8241,"▁explicar\r\n":8242,"▁recorr":8243,"▁constante\r\n":8244,"▁consciente":8245,"▁escapo":8246,"▁argentino":8247,"-eh\r\n":8248,"▁apago":8249,"puesto\r\n":8250,"▁viajo":8251,"▁viaje\r\n":8252,"▁comparar":8253,"ampamp":8254,"▁aguanto\r\n":8255,"▁aguanta\r\n":8256,"▁celu":8257,"▁levanta":8258,"▁levanta\r\n":8259,"▁levantar":8260,"▁¿cómo?\r\n":8261,"▁whit":8262,"▁white,":8263,"▁plom":8264,"▁tempora":8265,"▁encontrarlo\r\n":8266,"coro\r\n":8267,"▁prima":8268,"▁escondi":8269,"▁competencia\r\n":8270,"▁bolsa":8271,"▁todavía\r\n":8272,"▁mc,":8273,"▁segundos":8274,"▁déjame,":8275,"▁pastillita":8276,"▁prefiero\r\n":8277,"▁fácil\r\n":8278,"▁nena;":8279,"▁aquellos":8280,"▁tiran\r\n":8281,"▁uoh!!\r\n":8282,"▁infar":8283,"▁trem":8284,"▁what's":8285,"▁invierno":8286,"▁enamoré,":8287,"▁frases,":8288,"▁comerte":8289,"▁incomo":8290,"▁rollin\r\n":8291,"▁recordarte":8292,"mán\r\n":8293,"▁esquivando":8294,"▁comprom":8295,"▁brind":8296,"▁jaja":8297,"ticas\r\n":8298,"▁gelato\r\n":8299,"-pla":8300,"urai,":8301,"▁conoce-no":8302,"▁versos\r\n":8303,"▁chapi\r\n":8304,"▁aviso\r\n":8305,"▁combin":8306,"▁cueste":8307,"▁estructura":8308,"▁despierta":8309,"▁millone'":8310,"▁firme":8311,"▁estilos":8312,"▁descal":8313,"kers\r\n":8314,"uhh!\r\n":8315,"▁renc":8316,"▁caliente,":8317,"▁crí":8318,"▁complicado":8319,"▁salamandra":8320,"▁pagamo'":8321,"▁jurado,":8322,"▁herida\r\n":8323,"▁bailarlo\r\n":8324,"▁piedad\r\n":8325,"▁dama":8326,"▁cayó":8327,"▁manejo":8328,"▁maneje":8329,"▁tendrás":8330,"▁eterna\r\n":8331,"▁castigo\r\n":8332,"▁marihuana,":8333,"▁enloquezco":8334,"▁ina-ina":8335,"▁experto":8336,"▁visiones\r\n":8337,"▁lastim":8338,"-sco":8339,"-ta-li":8340,"▁nube":8341,"▁secreto":8342,"▁chistes":8343,"▁plakata,":8344,"▁stick":8345,"▁filoso":8346,"▁corona,":8347,"▁zigzag\r\n":8348,"▁neru":8349,"▁pateo":8350,"▁reparto":8351,"▁apuesta":8352,"▁nació":8353,"▁pendejo\r\n":8354,"▁messi,":8355,"▁semana\r\n":8356,"▁animal\r\n":8357,"▁pelotudo\r\n":8358,"▁pelotudos":8359,"▁pegarte":8360,"▁a.k":8361,"▁a.p":8362,"▁dámelo":8363,"▁gonz":8364,"________":8365,"▁sport,":8366,"▁lloví":8367,"▁concepto\r\n":8368,"▁gallo":8369,"▁vayan":8370,"▁recordarte\r\n":8371,"▁selva\r\n":8372,"▁tesoro\r\n":8373,"▁desastre\r\n":8374,"▁uao\r\n":8375,"-i-e-":8376,"▁samurai,":8377,"▁mové\r\n":8378,"▁revienta":8379,"▁phone\r\n":8380,"▁natural":8381,"▁soledad":8382,"▁embargo":8383,"▁warrior\r\n":8384,"▁lebron,":8385,"▁cocina\r\n":8386,"▁ubicación":8387,"▁supuesto\r\n":8388,"▁promet":8389,"▁xanax,":8390,"▁jodiéndome\r\n":8391,"▁adrenalina\r\n":8392,"▁pastel\r\n":8393,"▁angusti":8394,"▁liricis":8395,"▁jefe\r\n":8396,"▁noqueo":8397,"▁costumbre":8398,"▁guacho'":8399,"▁internacional\r\n":8400,"rututu":8401,"ruturututu":8402,"▁vídeo":8403,"ibles\r\n":8404,"▁fms":8405,"▁wosito":8406,"▁izquierda\r\n":8407,"▁terreno\r\n":8408,"▁zasko":8409,"▁paguen,":8410,"▁almohada\r\n":8411,"▁sky's":8412,"▁skrrt\r\n":8413,"▁brincando!\r\n":8414,"▁aburrido\r\n":8415,"▁hospi":8416,"▁meeting":8417,"-rum-rum":8418,"▁alrede":8419,"▁na-na,":8420,"▁escampaba,":8421,"▁pusieron":8422,"▁hagámos":8423,"▁stuart,":8424,"▁ejemp":8425,"▁detenerme":8426,"▁toas'":8427,"▁butaca":8428,"▁pentág":8429,"▁pacqui":8430,"▁copiloto,":8431,"▁agárrame,":8432,"▁batman":8433,"▁números":8434,"▁empecemos":8435,"▁unstoppable,":8436,"▁lokita":8437,"▁tururuturututu":8438,"▁in-mor-ta-li":8439,"▁ina-ina-ina\r\n":8440,"▁in-mor-ta-li-dad\r\n":8441,"-d":8442,"-me":8443,"-ja":8444,"-ya":8445,"600":8446,"aa\r\n":8447,"ao'\r\n":8448,"cé,":8449,"dra":8450,"ela":8451,"ete\r\n":8452,"etas":8453,"fico\r\n":8454,"gelo":8455,"hh":8456,"ker,":8457,"lero":8458,"m-":8459,"my":8460,"mina\r\n":8461,"rom":8462,"rá\r\n":8463,"son":8464,"sa,":8465,"s3\r\n":8466,"tf":8467,"ucin":8468,"vado":8469,"wh":8470,"yo\r\n":8471,"yal":8472,"ú\r\n":8473,"▁om":8474,"▁ora":8475,"▁um":8476,"▁ed":8477,"▁edad\r\n":8478,"▁even":8479,"▁mora":8480,"▁mues":8481,"▁pom":8482,"▁stor":8483,"▁lante\r\n":8484,"▁cero,":8485,"▁duelo\r\n":8486,"▁ds3\r\n":8487,"▁afi":8488,"▁yor":8489,"▁yes":8490,"▁non":8491,"▁nal":8492,"▁que?":8493,"▁quebr":8494,"▁quebrar":8495,"▁demo":8496,"▁vv":8497,"▁vino\r\n":8498,"do'":8499,"▁lament":8500,"▁ela":8501,"eses":8502,"▁ende":8503,"▁entro\r\n":8504,"▁mex":8505,"▁metro":8506,"▁bú":8507,"▁bul":8508,"▁miel":8509,"▁mienta":8510,"ini,":8511,"rame":8512,"▁fós":8513,"tate,":8514,"todo":8515,"▁loui":8516,"▁loto\r\n":8517,"▁tetas":8518,"omba":8519,"▁sién":8520,"▁siente\r\n":8521,"▁concha":8522,"▁yoh\r\n":8523,"▁yo!\r\n":8524,"ro'":8525,"▁se\r\n":8526,"▁sell":8527,"▁hacé":8528,"▁gam":8529,"▁coman":8530,"▁como\r\n":8531,"▁comba":8532,"▁common":8533,"oy\r\n":8534,"leo":8535,"leando":8536,"ientos\r\n":8537,"▁diri":8538,"▁disi":8539,"▁divis":8540,"▁ox":8541,"▁opa":8542,"▁over":8543,"▁pañ":8544,"▁pain,":8545,"chando":8546,"▁toos":8547,"▁total":8548,"▁parano":8549,"▁pararme,":8550,"▁alca":8551,"▁alic":8552,"▁alucin":8553,"▁tenis":8554,"▁tenían":8555,"ticos":8556,"▁cura\r\n":8557,"▁cucara":8558,"▁cupido":8559,"▁ido":8560,"▁reun":8561,"▁reto":8562,"dill":8563,"▁vira":8564,"▁vibra":8565,"▁jer":8566,"▁tiro\r\n":8567,"▁time\r\n":8568,"▁tiró":8569,"▁nav":8570,"▁rata\r\n":8571,"▁porquer":8572,"▁sabés\r\n":8573,"▁cañ":8574,"▁caja\r\n":8575,"▁caño,":8576,"▁cacha\r\n":8577,"vidad\r\n":8578,"lling":8579,"▁soi":8580,"▁sou":8581,"▁pera\r\n":8582,"▁perri":8583,"▁permi":8584,"▁niño\r\n":8585,"▁vea\r\n":8586,"▁vela":8587,"▁ve',":8588,"▁chas":8589,"▁che,":8590,"▁verte,":8591,"▁verga,":8592,"▁pil":8593,"▁traer":8594,"▁traté":8595,"▁trayec":8596,"▁pase,":8597,"▁pasando\r\n":8598,"▁quieres\r\n":8599,"▁pueda\r\n":8600,"▁vacía":8601,"▁¿v":8602,"▁¿vos":8603,"▁¿tú":8604,"ajo\r\n":8605,"▁rico,":8606,"▁rival":8607,"▁poquito\r\n":8608,"▁sala\r\n":8609,"▁caro,":8610,"▁puño":8611,"▁seri":8612,"▁serp":8613,"▁servi":8614,"▁sintiendo":8615,"▁sinies":8616,"▁entro,":8617,"lio":8618,"lia\r\n":8619,"▁ped":8620,"▁pelo,":8621,"▁pecho,":8622,"▁acru":8623,"▁mano',":8624,"▁manito\r\n":8625,"▁camar":8626,"▁campo":8627,"▁maldad":8628,"▁copa\r\n":8629,"▁amarte":8630,"▁kan":8631,"▁kon":8632,"▁uy\r\n":8633,"▁utili":8634,"turas":8635,"▁creo,":8636,"▁tanto,":8637,"ándon":8638,"▁escar":8639,"▁roja":8640,"▁cande":8641,"▁cantante":8642,"▁dejo,":8643,"▁dejamos":8644,"▁exci":8645,"▁extin":8646,"▁hacerle":8647,"▁bien?\r\n":8648,"▁así?\r\n":8649,"▁hablé":8650,"▁hablarme":8651,"▁hablaste":8652,"▁busqué":8653,"▁busines":8654,"▁sad":8655,"▁don,":8656,"▁hemos":8657,"▁impac":8658,"daste":8659,"▁ponme":8660,"▁barra":8661,"▁bares\r\n":8662,"ira\r\n":8663,"zada\r\n":8664,"ic\r\n":8665,"▁probar":8666,"▁solit":8667,"▁boz":8668,"▁cose":8669,"▁cosa,":8670,"▁costa\r\n":8671,"▁thre":8672,"▁think":8673,"▁preten":8674,"h-ch":8675,"▁cia\r\n":8676,"▁fallan":8677,"▁mene":8678,"▁meno'":8679,"▁mirada,":8680,"key":8681,"▁compas":8682,"▁compran":8683,"▁verdades":8684,"▁guz":8685,"▁bajamos":8686,"▁placa\r\n":8687,"ezca":8688,"▁escupe":8689,"▁duran":8690,"▁to'as":8691,"lante":8692,"▁perdámon":8693,"▁tambor":8694,"▁dates\r\n":8695,"▁dadd":8696,"▁frías\r\n":8697,"▁rapea\r\n":8698,"▁use":8699,"▁pared,":8700,"▁trapa,":8701,"▁fake\r\n":8702,"▁forre":8703,"▁doce":8704,"▁-e\r\n":8705,"▁frecuen":8706,"▁masac":8707,"▁estás?":8708,"▁estás?\r\n":8709,"▁queré'":8710,"▁contrato":8711,"▁expl":8712,"▁cambian":8713,"▁olvida\r\n":8714,"ándoles":8715,"▁mienten\r\n":8716,"▁fino,":8717,"▁drogas":8718,"▁están\r\n":8719,"▁pese":8720,"▁buscando,":8721,"▁buscándote":8722,"▁guay":8723,"▁guagua":8724,"▁guaguas":8725,"▁sana\r\n":8726,"▁¡b":8727,"▁susur":8728,"▁quedar\r\n":8729,"▁quedaron":8730,"▁nenes":8731,"▁chaqueta":8732,"▁cerrar":8733,"▁fier":8734,"▁fijo":8735,"▁zo":8736,"▁puede,":8737,"▁escuchando\r\n":8738,"▁después\r\n":8739,"▁cuerpos":8740,"▁chiqui":8741,"▁amigos,":8742,"▁bese\r\n":8743,"▁beber":8744,"▁beber\r\n":8745,"▁gim":8746,"▁fuma,":8747,"▁presión":8748,"cuenta":8749,"▁crip":8750,"▁try":8751,"▁pregunto\r\n":8752,"▁doy\r\n":8753,"▁encier":8754,"▁hipó":8755,"▁repli":8756,"▁woo\r\n":8757,"tino,":8758,"tina,":8759,"▁aguante":8760,"▁intern":8761,"▁penas\r\n":8762,"▁guerra,":8763,"▁cabros":8764,"▁adn\r\n":8765,"▁fueran":8766,"▁polí":8767,"▁mercen":8768,"▁necesidad":8769,"▁disparos":8770,"▁flexin'":8771,"▁morirme":8772,"▁equili":8773,"▁knock":8774,"▁brr\r\n":8775,"▁aparien":8776,"cheta":8777,"▁llegamo'":8778,"▁vieja\r\n":8779,"▁entienda":8780,"▁entiendas":8781,"▁confus":8782,"▁draco\r\n":8783,"▁drama,":8784,"▁aleja":8785,"▁elef":8786,"▁trabaja":8787,"▁trabajando":8788,"▁trabajo,":8789,"▁golden":8790,"▁sigue\r\n":8791,"▁segura":8792,"▁llevamos":8793,"▁despiér":8794,"éndole":8795,"▁raperos\r\n":8796,"▁raperos,":8797,"▁miedo,":8798,"▁caminar\r\n":8799,"▁mediocre":8800,"▁terminar\r\n":8801,"▁horario\r\n":8802,"▁olvidarte":8803,"▁escribo,":8804,"▁viví":8805,"▁personas\r\n":8806,"▁entraste":8807,"▁borro":8808,"▁piensas":8809,"▁lista\r\n":8810,"▁paseo":8811,"▁pasó?":8812,"igh":8813,"tá'":8814,"▁entonces,":8815,"▁novio,":8816,"▁humor\r\n":8817,"▁escondido":8818,"▁pelea\r\n":8819,"▁explotando":8820,"▁xan":8821,"▁luego,":8822,"▁domina":8823,"▁podré":8824,"▁torre":8825,"▁digan,":8826,"▁pastillas\r\n":8827,"allas\r\n":8828,"▁cristal\r\n":8829,"-bla":8830,"▁infor":8831,"▁amargo\r\n":8832,"▁señores\r\n":8833,"▁tre'":8834,"▁deseo\r\n":8835,"▁completo\r\n":8836,"▁ponerle":8837,"▁hambri":8838,"▁genu":8839,"▁genero":8840,"▁duki\r\n":8841,"▁demostrando":8842,"▁quisieron":8843,"▁perfecta":8844,"▁40":8845,"▁44":8846,"-oh\r\n":8847,"▁caps":8848,"▁mentalidad":8849,"▁soñar":8850,"▁transform":8851,"▁atraves":8852,"▁guitar":8853,"▁activa":8854,"▁primera,":8855,"▁trope":8856,"▁ataco":8857,"▁esquivo\r\n":8858,"▁kilos,":8859,"▁movida":8860,"▁that's":8861,"▁instrumental":8862,"▁uhh":8863,"▁problemas,":8864,"▁confianza":8865,"▁oh-oh,":8866,"▁rebota":8867,"ficiente\r\n":8868,"▁fronteando":8869,"▁sacri":8870,"▁mensaje,":8871,"▁deben":8872,"▁tuya\r\n":8873,"▁idea":8874,"▁ideo":8875,"▁despierta\r\n":8876,"▁cór":8877,"▁pagan,":8878,"▁descanse":8879,"▁descansa":8880,"▁nuevos\r\n":8881,"▁mantener":8882,"▁millonario\r\n":8883,"▁swing":8884,"▁firmar":8885,"▁lenn":8886,"▁existen":8887,"▁burla":8888,"▁contarte":8889,"▁jugar,":8890,"▁enrolando":8891,"▁rapper'":8892,"▁molesta\r\n":8893,"▁egoís":8894,"▁mezclando":8895,"▁escapar,":8896,"▁muriendo\r\n":8897,"▁pudiste":8898,"▁skill\r\n":8899,"▁c.r.o,":8900,"▁bandoleros":8901,"▁suave,":8902,"▁oír":8903,"▁cocaine":8904,"▁rezando":8905,"▁chistes\r\n":8906,"▁habitación,":8907,"▁friend\r\n":8908,"▁nací\r\n":8909,"▁insistas\r\n":8910,"▁street,":8911,"▁atento":8912,"▁vino,":8913,"▁gritan:":8914,"▁adelante,":8915,"▁reggaetón\r\n":8916,"▁enfermo\r\n":8917,"▁años,":8918,"▁blood":8919,"▁ilumin":8920,"▁líricas":8921,"▁philip":8922,"▁situación\r\n":8923,"▁riqueza":8924,"▁empresa\r\n":8925,"▁fekas":8926,"▁representando":8927,"▁hardcore":8928,"▁hagamos":8929,"▁mitad\r\n":8930,"▁creyeron":8931,"▁clicka":8932,"▁descansar":8933,"▁rimar,":8934,"▁retirar":8935,"▁ríe":8936,"▁hierba":8937,"▁pedirte":8938,"▁prueba":8939,"▁hubiese":8940,"▁yandel":8941,"▁encerra":8942,"▁poesía":8943,"▁fiesta\r\n":8944,"▁fracaso\r\n":8945,"▁lambor":8946,"▁soledad\r\n":8947,"▁lebron\r\n":8948,"▁dembow":8949,"▁dembow\r\n":8950,"▁engancho":8951,"▁g's\r\n":8952,"▁g's,":8953,"▁idiota\r\n":8954,"▁caíste":8955,"▁pensamiento":8956,"▁underground":8957,"▁underground\r\n":8958,"▁norte":8959,"▁camarada\r\n":8960,"▁coloca":8961,"▁sueñan":8962,"▁desapare":8963,"▁especial":8964,"▁secund":8965,"▁amenaza\r\n":8966,"▁au-au,":8967,"▁rockstar,":8968,"▁clandes":8969,"▁perfume\r\n":8970,"▁aplaud":8971,"▁kobe":8972,"▁victoria":8973,"▁west":8974,"▁sonidos":8975,"▁mereces\r\n":8976,"▁casualidad\r\n":8977,"▁brujería\r\n":8978,"▁living":8979,"▁heladera\r\n":8980,"▁atrope":8981,"▁lapiz":8982,"▁temor,":8983,"▁letras\r\n":8984,"▁incons":8985,"▁pibes":8986,"▁wannabe\r\n":8987,"▁flasheando":8988,"▁nananananananau,":8989,"▁pleas":8990,"▁cheese,":8991,"▁13,":8992,"▁ivy":8993,"▁khea,":8994,"▁cumpleañ":8995,"▁gángs":8996,"▁ay-ay-ay":8997,"▁0-600":8998,"▁hollywood\r\n":8999,"▁snoop":9000,"▁lentamente":9001,"▁tv\r\n":9002,"▁conocés,":9003,"▁resuci":9004,"▁homegrown":9005,"▁louis":9006,"-ta\r\n":9007,"-gua":9008,"7,":9009,"a!\r\n":9010,"a-a":9011,"ah!\r\n":9012,"b,":9013,"ban\r\n":9014,"bra,":9015,"bando,":9016,"bala":9017,"biente":9018,"cy":9019,"cón":9020,"co'":9021,"dame":9022,"gran":9023,"ide":9024,"les,":9025,"rus":9026,"son\r\n":9027,"ts":9028,"ton\r\n":9029,"tbol":9030,"vent":9031,"éc":9032,"éis":9033,"íb":9034,"ír\r\n":9035,"íste":9036,"ñas\r\n":9037,"еn":9038,"▁8":9039,"▁!\r\n":9040,"▁ea\r\n":9041,"▁e'\r\n":9042,"▁emer":9043,"▁ebay":9044,"▁sle":9045,"▁snea":9046,"▁line":9047,"▁lío\r\n":9048,"▁cd":9049,"▁cens":9050,"▁cír":9051,"▁das\r\n":9052,"▁do',":9053,"▁ada":9054,"▁aci":9055,"▁ape":9056,"▁aum":9057,"▁a-l":9058,"▁ysy,":9059,"▁que-":9060,"▁quej":9061,"▁quedo\r\n":9062,"▁queman":9063,"▁esencia":9064,"anas":9065,"ares\r\n":9066,"▁vom":9067,"▁vo'\r\n":9068,"ordin":9069,"do?\r\n":9070,"▁nobo":9071,"▁latino":9072,"▁enciendo":9073,"▁ensa":9074,"▁enser":9075,"▁bras":9076,"▁mio,":9077,"iny":9078,"inando":9079,"▁fet":9080,"▁low":9081,"▁un,":9082,"▁tequi":9083,"om,":9084,"▁congel":9085,"ami,":9086,"dado,":9087,"uida":9088,"▁se,":9089,"▁semb":9090,"▁secuen":9091,"▁sedu":9092,"▁porta":9093,"logía\r\n":9094,"cientos":9095,"▁gü":9096,"▁gun":9097,"▁gro":9098,"▁glow":9099,"▁gat":9100,"▁gár":9101,"▁game,":9102,"ero!\r\n":9103,"▁comiste":9104,"le'\r\n":9105,"▁dias":9106,"▁dici":9107,"▁dicta":9108,"▁og":9109,"▁ok":9110,"▁ooo":9111,"▁ok\r\n":9112,"▁oah,":9113,"▁ozon":9114,"lada,":9115,"▁paj":9116,"▁pay":9117,"▁paco":9118,"▁paper":9119,"▁patri":9120,"▁patru":9121,"ches":9122,"char\r\n":9123,"chi\r\n":9124,"▁toco,":9125,"▁estes":9126,"▁parra":9127,"▁parque\r\n":9128,"dembo":9129,"▁alas":9130,"▁tené":9131,"▁tene'":9132,"til":9133,"tilla":9134,"tion\r\n":9135,"tivo,":9136,"▁cum":9137,"▁culos":9138,"▁cup\r\n":9139,"usa":9140,"▁io":9141,"▁recha":9142,"▁retor":9143,"▁rezar":9144,"▁relá":9145,"dios":9146,"dies":9147,"▁vieron\r\n":9148,"▁lego":9149,"▁león\r\n":9150,"▁lejos,":9151,"metros":9152,"iste,":9153,"▁yee":9154,"▁yea\r\n":9155,"▁yeez":9156,"▁sup":9157,"▁desvis":9158,"▁racis":9159,"▁rabia":9160,"▁paraís":9161,"▁mach":9162,"▁inven":9163,"▁ingl":9164,"▁indus":9165,"▁cagando":9166,"▁cadá":9167,"▁perver":9168,"▁perico":9169,"▁perdemos":9170,"▁estación\r\n":9171,"▁nice\r\n":9172,"▁vemo'":9173,"▁vela\r\n":9174,"▁chris":9175,"▁wel":9176,"▁verano":9177,"▁verano\r\n":9178,"▁pie\r\n":9179,"▁picar":9180,"▁pija":9181,"▁pibas":9182,"▁trapi":9183,"▁pasas":9184,"▁paso,":9185,"▁muñ":9186,"cuando":9187,"cull":9188,"cuzz":9189,"▁ano\r\n":9190,"▁anillo":9191,"▁estemos":9192,"▁run\r\n":9193,"▁miser":9194,"▁misión":9195,"▁misil\r\n":9196,"▁riding":9197,"▁yeah-e":9198,"▁yeah-yea":9199,"▁míos,":9200,"▁mírame,":9201,"▁pode":9202,"▁asal":9203,"▁asfi":9204,"▁asan\r\n":9205,"▁asi\r\n":9206,"▁habrá":9207,"▁carri":9208,"▁vender\r\n":9209,"▁vender,":9210,"▁pur":9211,"▁pura\r\n":9212,"▁hice\r\n":9213,"▁ganó":9214,"▁sincero":9215,"▁arti":9216,"▁arder\r\n":9217,"▁son,":9218,"▁sonriendo":9219,"▁peo":9220,"▁pegando":9221,"▁peines":9222,"▁llegas":9223,"▁acari":9224,"▁mancha":9225,"▁malo'":9226,"▁cock":9227,"▁coba":9228,"▁cobro":9229,"....\r\n":9230,"▁am,":9231,"▁amas":9232,"▁ambiente":9233,"▁klan":9234,"▁ul":9235,"▁ute":9236,"▁crean":9237,"▁royal":9238,"▁canta\r\n":9239,"▁dejá":9240,"▁mambo\r\n":9241,"▁licencia":9242,"▁nell":9243,"▁netf":9244,"il,":9245,"▁hablés":9246,"▁modo\r\n":9247,"▁mota\r\n":9248,"▁mocos":9249,"▁modul":9250,"▁corran":9251,"▁hecha":9252,"▁impul":9253,"▁resol":9254,"uesto":9255,"▁barder":9256,"garme":9257,"ices\r\n":9258,"▁proce":9259,"▁boque":9260,"▁bobol":9261,"▁distra":9262,"▁distancia":9263,"▁cosa\r\n":9264,"▁costa":9265,"▁that\r\n":9266,"▁babe":9267,"▁precio\r\n":9268,"▁city,":9269,"▁fallo":9270,"▁juh\r\n":9271,"▁juh,":9272,"▁volumen":9273,"▁volcán\r\n":9274,"▁comprando":9275,"▁guía":9276,"▁bajo,":9277,"▁mono\r\n":9278,"▁monto":9279,"▁plaka\r\n":9280,"▁hot":9281,"▁hoe\r\n":9282,"cionar":9283,"▁llame\r\n":9284,"ezas":9285,"▁tiempos\r\n":9286,"▁vaso\r\n":9287,"▁god":9288,"▁dura\r\n":9289,"▁olví":9290,"▁cable":9291,"▁cable\r\n":9292,"chate":9293,"▁bicho,":9294,"▁abrí":9295,"▁marmo":9296,"▁martin":9297,"▁pensar,":9298,"▁perdés":9299,"mbo\r\n":9300,"▁data":9301,"▁rompa\r\n":9302,"▁rapeo,":9303,"la,\r\n":9304,"▁escritor":9305,"▁muera\r\n":9306,"▁doce\r\n":9307,"▁doin'":9308,"▁free,":9309,"▁orden":9310,"▁querer\r\n":9311,"▁gusano\r\n":9312,"ats":9313,"▁quieren\r\n":9314,"etas\r\n":9315,"ándolos":9316,"▁reales":9317,"▁fina\r\n":9318,"▁mordiendo":9319,"▁están?":9320,"▁échate":9321,"▁pesa\r\n":9322,"▁pesca":9323,"▁grabar":9324,"▁juegue":9325,"▁jodí":9326,"▁fecha":9327,"▁quien\r\n":9328,"▁cerca\r\n":9329,"▁zi":9330,"▁zum":9331,"▁zion":9332,"▁\"es":9333,"▁\"lo":9334,"▁banco\r\n":9335,"▁blon":9336,"▁blis":9337,"▁only":9338,"▁clack":9339,"▁dinami":9340,"▁decirme":9341,"▁papo\r\n":9342,"▁papo,":9343,"▁brillo\r\n":9344,"▁2,":9345,"▁¿qué?":9346,"▁gato\r\n":9347,"▁matarme\r\n":9348,"▁fuimos":9349,"▁importante\r\n":9350,"▁cria":9351,"▁14":9352,"▁17":9353,"▁18":9354,"▁quiénes":9355,"▁bailan":9356,"▁visten":9357,"▁mucho\r\n":9358,"▁pussy,":9359,"▁gritando":9360,"▁allí":9361,"urt":9362,"▁trippin'\r\n":9363,"▁hipho":9364,"▁respetan":9365,"▁palabra,":9366,"▁prendida":9367,"▁tranquila,":9368,"▁vamos,":9369,"▁niggas,":9370,"ga,\r\n":9371,"▁entendes":9372,"▁jung":9373,"▁juno\r\n":9374,"▁perdida\r\n":9375,"▁perdieron":9376,"▁cine,":9377,"▁cinco,":9378,"▁cincuenta":9379,"▁estuviste":9380,"▁diabla":9381,"▁diabla\r\n":9382,"▁huev":9383,"▁huevo,":9384,"▁lloran":9385,"▁traigo\r\n":9386,"▁espí":9387,"▁agarró":9388,"▁dejaré":9389,"▁pega'o":9390,"▁dijo\r\n":9391,"▁dije\r\n":9392,"▁vivido\r\n":9393,"cheo":9394,"▁niveles\r\n":9395,"▁bailo":9396,"▁chupan":9397,"▁viejo,":9398,"▁jacuzz":9399,"▁revuel":9400,"▁encuentr":9401,"▁escena\r\n":9402,"▁escenario,":9403,"▁aprender\r\n":9404,"▁mente,":9405,"▁ron,":9406,"▁ronda":9407,"miento,":9408,"▁suban":9409,"▁sube\r\n":9410,"▁golpes":9411,"▁recuerdo\r\n":9412,"▁jefa":9413,"▁explique":9414,"▁explica":9415,"▁dueña":9416,"▁duele,":9417,"▁vamo'a":9418,"▁justamente":9419,"▁cien,":9420,"▁cruda\r\n":9421,"▁entonce'":9422,"▁extraña":9423,"▁extraordin":9424,"▁defini":9425,"▁brillante":9426,"▁apagar":9427,"▁apague":9428,"▁gastar":9429,"▁supera\r\n":9430,"▁intenso\r\n":9431,"▁diferenci":9432,"▁represento\r\n":9433,"▁ayudar":9434,"▁pinche":9435,"▁viaje,":9436,"▁escribiste":9437,"▁bombo":9438,"▁mirando\r\n":9439,"▁¿quien":9440,"▁compara":9441,"▁ganai":9442,"▁orodembo":9443,"▁improvisación,":9444,"▁almacen":9445,"▁pasear\r\n":9446,"▁cuatro,":9447,"▁celesti":9448,"ctivo\r\n":9449,"▁dormido":9450,"▁dormido\r\n":9451,"▁rocke":9452,"▁pleno":9453,"▁razones":9454,"▁benito":9455,"▁rompemo'":9456,"▁priva":9457,"▁escondo":9458,"▁frente,":9459,"▁peleábamos":9460,"▁demostra":9461,"▁chanel\r\n":9462,"▁segundo\r\n":9463,"▁cierto,":9464,"▁cadenas":9465,"-n\r\n":9466,"▁infeli":9467,"▁clica":9468,"▁rubia":9469,"▁papel,":9470,"▁armado":9471,"▁invas":9472,"▁inventar":9473,"▁acabe":9474,"▁acabó":9475,"▁perfecto,":9476,"▁4am\r\n":9477,"▁contestar\r\n":9478,"▁jamas":9479,"▁soñar,":9480,"weat":9481,"▁putas,":9482,"▁rollin'":9483,"▁flasha":9484,"▁records\r\n":9485,"▁historias":9486,"▁comprendo":9487,"▁comprarme":9488,"▁confundi":9489,"▁confundas":9490,"▁that,":9491,"bulan":9492,"▁espacio":9493,"▁alcanza":9494,"▁partido":9495,"▁parties":9496,"▁partici":9497,"▁regalarte":9498,"▁frontea":9499,"▁erí":9500,"▁chapiad":9501,"▁ocupar":9502,"▁combo,":9503,"▁desespero\r\n":9504,"▁tuyos":9505,"▁despierto,":9506,"▁cómo\r\n":9507,"▁cógelo":9508,"▁mayores":9509,"▁toy\r\n":9510,"▁además":9511,"▁rumor,":9512,"▁rumores":9513,"▁cazar\r\n":9514,"▁eventos\r\n":9515,"▁consigo":9516,"▁convierto":9517,"▁complica":9518,"▁motherfucker\r\n":9519,"▁deprimi":9520,"▁goteo":9521,"fica\r\n":9522,"ko!\r\n":9523,"▁mezclo,":9524,"▁disfra":9525,"▁jugador":9526,"▁leyenda\r\n":9527,"▁meterte":9528,"▁desperté":9529,"▁hablemos":9530,"▁cocaín":9531,"▁gangster\r\n":9532,"▁trampa,":9533,"▁prometo\r\n":9534,"▁menore'":9535,"▁ferrari,":9536,"▁artista":9537,"▁atrevida":9538,"▁chiste\r\n":9539,"▁fluyendo":9540,"▁decís,":9541,"▁subimos":9542,"▁acostumbrando":9543,"▁despedi":9544,"▁rayos":9545,"▁apuesto":9546,"▁feliz,":9547,"▁killah,":9548,"diendo\r\n":9549,"▁wacho'":9550,"▁24,":9551,"▁pendejo":9552,"▁capitalismo":9553,"▁adelante\r\n":9554,"▁reggaeton":9555,"▁tos'":9556,"▁hundí":9557,"▁veloz":9558,"▁resuelve":9559,"▁conocimiento\r\n":9560,"▁agradecer":9561,"▁jaime\r\n":9562,"▁fekas\r\n":9563,"▁domingo":9564,"▁detoke":9565,"▁video'":9566,"▁¿saben":9567,"-lil":9568,"▁imitar":9569,"▁ofrezco":9570,"▁cristalina":9571,"▁actuar":9572,"▁bienveni":9573,"▁maradona,":9574,"▁samo":9575,"▁avent":9576,"▁hubiera":9577,"▁plastic\r\n":9578,"▁sicario\r\n":9579,"▁teníamos":9580,"▁revienta\r\n":9581,"▁dólar\r\n":9582,"▁level\r\n":9583,"▁potente\r\n":9584,"▁llegué,":9585,"▁chequea":9586,"▁páli":9587,"▁inoc":9588,"▁inocent":9589,"▁cocino":9590,"▁montana":9591,"▁descontrola\r\n":9592,"▁desayuno":9593,"-lu":9594,"▁siguiendo":9595,"▁alumbra":9596,"▁idiota,":9597,"▁cigarri":9598,"▁alemán,":9599,"▁detono\r\n":9600,"▁supimos":9601,"▁cacerio":9602,"▁maravi":9603,"▁derramar":9604,"▁alimentar":9605,"▁gobierno":9606,"▁facturando":9607,"▁advertí":9608,"▁ánimo,":9609,"▁negocios":9610,"▁world\r\n":9611,"▁continu":9612,"▁mafia\r\n":9613,"▁polola":9614,"▁camisa":9615,"▁europa\r\n":9616,"▁dividiendo":9617,"▁alerta\r\n":9618,"▁piquete":9619,"▁transpiro":9620,"▁madrugada\r\n":9621,"▁deudas":9622,"▁imán,":9623,"▁decididas":9624,"▁revolución":9625,"▁lenguaje\r\n":9626,"▁puente":9627,"▁school\r\n":9628,"osauri":9629,"▁racek\r\n":9630,"▁arreglábamos":9631,"▁acostumbrado":9632,"▁neuronas":9633,"▁furia":9634,"▁árbol\r\n":9635,"▁delito'":9636,"▁resentido\r\n":9637,"▁princesa\r\n":9638,"▁legendario\r\n":9639,"▁lágrimas":9640,"▁vecind":9641,"▁woman":9642,"▁shooter":9643,"▁mañanas":9644,"▁profundo":9645,"▁temática\r\n":9646,"▁piola":9647,"▁easy...":9648,"▁avenida\r\n":9649,"▁anterior":9650,"-pi-pi":9651,"▁atiendo,":9652,"▁ojete\r\n":9653,"▁práctica\r\n":9654,"▁prohibido":9655,"▁absolu":9656,"▁explosión":9657,"▁chaval\r\n":9658,"▁tráe":9659,"▁autoestima\r\n":9660,"▁espiritu":9661,"▁reporta":9662,"▁trapeando,":9663,"▁mantuve":9664,"▁canalla\r\n":9665,"▁bayam":9666,"▁provoca":9667,"▁profeta":9668,"▁apuñ":9669,"▁obses":9670,"▁night\r\n":9671,"▁fashion,":9672,"▁wanakin\r\n":9673,"▁clock":9674,"▁conozco,":9675,"▁fifty":9676,"▁strike\r\n":9677,"▁na-na-na-na":9678,"▁reprodu":9679,"▁chambeo":9680,"▁original":9681,"▁tatué":9682,"▁enderez":9683,"▁iglesia":9684,"▁organiza":9685,"▁numero":9686,"▁chaleco":9687,"▁accesibles\r\n":9688,"▁satisfe":9689,"▁blunts;":9690,"▁john":9691,"▁instinto":9692,"▁filosof":9693,"▁hacér":9694,"▁hipócri":9695,"▁mercenario\r\n":9696,"▁genuino":9697,"▁adap":9698,"▁a-l-e-":9699,"▁gárgo":9700,"▁industria":9701,"▁cadáver":9702,"▁netfli":9703,"▁acostumbrandome":9704,"!!!\r\n":9705,"-0":9706,"-ar":9707,"-ro":9708,"-con":9709,"-ja\r\n":9710,"800":9711,"ay":9712,"adas":9713,"by":9714,"bo,":9715,"bro\r\n":9716,"ctos\r\n":9717,"cciones":9718,"ctá":9719,"cción,":9720,"eta,":9721,"gué":9722,"gio":9723,"her\r\n":9724,"it\r\n":9725,"itos\r\n":9726,"illa\r\n":9727,"iona":9728,"illo\r\n":9729,"illas":9730,"jo'\r\n":9731,"ky\r\n":9732,"luy":9733,"mina":9734,"nas":9735,"ning":9736,"plo":9737,"pora":9738,"pens":9739,"pame":9740,"rre":9741,"ry,":9742,"rr\r\n":9743,"ss,":9744,"ster\r\n":9745,"tto":9746,"tus":9747,"tty":9748,"tón,":9749,"ula":9750,"ud\r\n":9751,"zos":9752,"zep":9753,"éx":9754,"íg":9755,"ías,":9756," s":9757,"▁?\r\n":9758,"▁ór":9759,"▁mando\r\n":9760,"▁so'":9761,"▁scar":9762,"▁swe":9763,"▁lenta\r\n":9764,"▁léx":9765,"▁cro":9766,"▁da,":9767,"▁daba":9768,"▁ado":9769,"▁ate":9770,"▁ak\r\n":9771,"▁aval":9772,"▁a-c":9773,"ers":9774,"ende\r\n":9775,"endés":9776,"▁yon":9777,"▁yes,":9778,"▁que?\r\n":9779,"▁esa,":9780,"▁esni":9781,"▁esencia\r\n":9782,"anas\r\n":9783,"anza,":9784,"▁debi":9785,"▁detro":9786,"▁detes":9787,"▁vui":9788,"doba":9789,"▁noto":9790,"▁note\r\n":9791,"▁nove":9792,"▁lao":9793,"▁lava":9794,"▁label":9795,"▁ellas":9796,"ese\r\n":9797,"undo":9798,"▁me?\r\n":9799,"▁meta,":9800,"▁metri":9801,"▁bui":9802,"▁bando,":9803,"▁bm\r\n":9804,"tea":9805,"ald":9806,"▁lobo":9807,"▁lomb":9808,"▁low\r\n":9809,"▁uno'":9810,"▁te,":9811,"▁tego":9812,"omen":9813,"▁simi":9814,"▁sigas":9815,"▁yo?\r\n":9816,"▁seven":9817,"cient":9818,"▁gas\r\n":9819,"rica\r\n":9820,"▁coma":9821,"▁comí":9822,"▁coming":9823,"▁común":9824,"▁comer,":9825,"▁comuna\r\n":9826,"ley\r\n":9827,"iento,":9828,"▁o'":9829,"▁ova":9830,"▁og,":9831,"late":9832,"lazo\r\n":9833,"▁tu'":9834,"▁pata":9835,"▁pack":9836,"▁pa!\r\n":9837,"▁pagando":9838,"▁pa-pa":9839,"▁quitar":9840,"▁quieb":9841,"▁estra":9842,"▁parar,":9843,"▁partiendo":9844,"▁parlante\r\n":9845,"▁alm":9846,"▁alza":9847,"▁altos":9848,"▁alber":9849,"▁aliento\r\n":9850,"cel\r\n":9851,"▁tenn":9852,"▁tené'":9853,"tia":9854,"tian":9855,"tis\r\n":9856,"ush\r\n":9857,"▁is\r\n":9858,"▁ibas":9859,"▁retra":9860,"▁recar":9861,"▁redes":9862,"▁rezo":9863,"▁rebaj":9864,"▁rezo\r\n":9865,"▁refu":9866,"▁reac":9867,"▁vig":9868,"▁leer":9869,"▁levi":9870,"▁lealta":9871,"res,":9872,"▁yaoh":9873,"entes,":9874,"▁yei":9875,"▁tim":9876,"▁tigue":9877,"▁titeres":9878,"▁desfi":9879,"▁desha":9880,"▁nah":9881,"▁nah,":9882,"▁rax":9883,"▁ratico,":9884,"▁mada":9885,"▁mack":9886,"▁mate,":9887,"▁mató":9888,"▁materi":9889,"▁sabros":9890,"▁cau":9891,"▁sobres":9892,"▁perco":9893,"▁perten":9894,"▁perique":9895,"ué\r\n":9896,"▁nico":9897,"▁veas\r\n":9898,"▁chala":9899,"▁wante":9900,"▁verde,":9901,"▁vernos":9902,"mate":9903,"▁pira":9904,"▁pican":9905,"▁pillo\r\n":9906,"orado":9907,"▁traque":9908,"▁trapo":9909,"▁traten":9910,"▁ahh":9911,"▁muta":9912,"▁muro\r\n":9913,"▁muñe":9914,"elos":9915,"▁ró":9916,"▁run":9917,"▁rena":9918,"▁¿do":9919,"▁¿con":9920,"dados\r\n":9921,"traje\r\n":9922,"▁rimo\r\n":9923,"▁right":9924,"▁mír":9925,"▁pozo\r\n":9926,"mico\r\n":9927,"mir\r\n":9928,"▁astr":9929,"▁salgo\r\n":9930,"▁salgo,":9931,"▁salen\r\n":9932,"▁caras\r\n":9933,"▁vendi":9934,"▁venido":9935,"▁vendió":9936,"▁puros":9937,"▁pum,":9938,"▁putita":9939,"▁gane,":9940,"▁ganas,":9941,"▁ganador\r\n":9942,"▁sera":9943,"▁serie":9944,"▁arman":9945,"▁sony":9946,"▁peces":9947,"▁pegan":9948,"▁pew\r\n":9949,"▁tún":9950,"umen\r\n":9951,"cka":9952,"▁vos?\r\n":9953,"▁mande":9954,"▁manic":9955,"▁mano'\r\n":9956,"▁mantien":9957,"▁manada\r\n":9958,"▁camp":9959,"▁malgas":9960,"▁codi":9961,"▁coco\r\n":9962,"▁coja":9963,"▁cojo,":9964,"▁calv":9965,"▁calla":9966,"▁hayan":9967,"▁ambulan":9968,"▁king\r\n":9969,"▁kurt":9970,"▁uz":9971,"▁uy,":9972,"tería\r\n":9973,"teria":9974,"▁crecer":9975,"▁crece\r\n":9976,"▁tango\r\n":9977,"▁canto,":9978,"▁cancha,":9979,"▁deje'":9980,"▁lion":9981,"▁liter":9982,"▁liga,":9983,"▁ligh":9984,"▁libre\r\n":9985,"parme":9986,"ila\r\n":9987,"▁bae,":9988,"▁battle":9989,"siones":9990,"▁busca\r\n":9991,"▁saga":9992,"▁sacu":9993,"▁sacaste":9994,"▁moon":9995,"▁motos":9996,"▁cortó":9997,"enso,":9998,"▁ponle":9999,"▁barro\r\n":10000,"▁fue,":10001,"▁cosas\r\n":10002,"carme\r\n":10003,"▁premi":10004,"h-a":10005,"h-wo":10006,"▁cimien":10007,"▁lujos":10008,"▁lupa\r\n":10009,"rump":10010,"▁fala":10011,"▁falla":10012,"▁falla\r\n":10013,"▁judas":10014,"▁menn":10015,"▁mirame":10016,"kee":10017,"selo":10018,"▁verdadero\r\n":10019,"▁bajar,":10020,"▁bella\r\n":10021,"▁apli":10022,"▁mierdas":10023,"▁mue-":10024,"des,":10025,"▁hoci":10026,"▁hoes\r\n":10027,"▁hojas":10028,"▁llame,":10029,"tengo":10030,"tales":10031,"▁duda\r\n":10032,"▁duke":10033,"▁dupli":10034,"▁olas":10035,"▁cabina":10036,"▁abrum":10037,"▁march":10038,"▁marcas":10039,"▁marea":10040,"▁marcando":10041,"▁pensas":10042,"▁youtu":10043,"▁you're":10044,"▁tamo":10045,"mbu":10046,"▁dai":10047,"▁tome":10048,"▁tomar\r\n":10049,"▁pared":10050,"▁mueran":10051,"▁dobl":10052,"▁-da\r\n":10053,"▁-rro":10054,"▁esperas\r\n":10055,"qué,":10056,"▁cuentan":10057,"▁cuentos":10058,"▁guste":10059,"▁gusto,":10060,"▁recre":10061,"▁cambio\r\n":10062,"▁olvide":10063,"▁aya":10064,"▁pasa'o":10065,"▁fuck,":10066,"▁mientas":10067,"▁reales,":10068,"▁fino\r\n":10069,"▁valores":10070,"▁viene'":10071,"▁peso'":10072,"▁pesco":10073,"▁grafi":10074,"▁puta'":10075,"▁entrega":10076,"▁otro,":10077,"▁dicen\r\n":10078,"▁jodes":10079,"▁fechas":10080,"▁sano,":10081,"▁¡e":10082,"▁¡du":10083,"▁¡todo":10084,"▁puestos":10085,"▁chapa":10086,"eron,":10087,"▁hubo":10088,"▁fij":10089,"▁sombra\r\n":10090,"▁where":10091,"▁medicin":10092,"▁onda":10093,"▁one\r\n":10094,"▁escucho\r\n":10095,"▁aflo":10096,"▁afron":10097,"▁cuerdas\r\n":10098,"▁suelto\r\n":10099,"▁decirle":10100,"ólogo":10101,"▁amigas\r\n":10102,"▁beso\r\n":10103,"▁collar":10104,"▁way\r\n":10105,"▁wake":10106,"▁tatua":10107,"▁ta-na-na,":10108,"▁25":10109,"▁talla\r\n":10110,"ppa\r\n":10111,"▁pantera\r\n":10112,"▁presenta":10113,"▁pierda\r\n":10114,"▁pierde\r\n":10115,"▁true":10116,"▁mucha,":10117,"▁tonce":10118,"▁iron":10119,"▁pregunten":10120,"▁pusiste":10121,"▁gris\r\n":10122,"▁trippin',":10123,"▁triste,":10124,"▁igualito":10125,"▁regala":10126,"▁reple":10127,"▁wouh,":10128,"▁woh-wo":10129,"▁millones\r\n":10130,"▁agua,":10131,"▁interrump":10132,"▁pene":10133,"▁prenda":10134,"▁termine":10135,"▁cabron\r\n":10136,"ki,":10137,"▁niggi":10138,"▁encontró":10139,"▁papiro":10140,"▁base\r\n":10141,"coscull":10142,"▁disparo'":10143,"▁drogado,":10144,"▁homie":10145,"▁bala\r\n":10146,"▁llores\r\n":10147,"▁llorar,":10148,"▁mentiste\r\n":10149,"▁equis,":10150,"▁cuido":10151,"▁pegadi":10152,"▁tira'\r\n":10153,"▁aparece":10154,"▁llamada":10155,"-ay,":10156,"-ay\r\n":10157,"▁ritmos\r\n":10158,"▁odia,":10159,"▁odiarme\r\n":10160,"▁entiendan":10161,"anteo":10162,"▁único\r\n":10163,"nio\r\n":10164,"▁harto":10165,"▁buf":10166,"▁explico\r\n":10167,"▁duele\r\n":10168,"éndote":10169,"▁llegado":10170,"▁fresh\r\n":10171,"▁raperito":10172,"▁raperitos":10173,"▁cienes\r\n":10174,"▁cruza":10175,"▁extraña\r\n":10176,"▁enseña":10177,"▁gordos":10178,"▁apagan":10179,"▁intentar":10180,"▁poses":10181,"▁posta\r\n":10182,"▁ohh":10183,"▁olvidó":10184,"▁vestido":10185,"▁poneme":10186,"▁pintan":10187,"▁esquina,":10188,"▁bombas":10189,"▁bombo\r\n":10190,"▁¿quieres":10191,"▁cuidado,":10192,"▁personaj":10193,"▁blanco\r\n":10194,"▁piensan\r\n":10195,"▁directo\r\n":10196,"▁perdóname,":10197,"▁paseando":10198,"▁aguantar,":10199,"▁controlo\r\n":10200,"▁controla\r\n":10201,"ctima":10202,"▁levanto\r\n":10203,"▁simple,":10204,"▁ready,":10205,"▁querés\r\n":10206,"▁rompan":10207,"▁tempo,":10208,"▁recic":10209,"▁sacaron":10210,"▁encontrarlo,":10211,"▁escondida":10212,"▁peleas":10213,"▁boli":10214,"▁exploto\r\n":10215,"▁mc's":10216,"▁lugares":10217,"▁xd\r\n":10218,"▁contagi":10219,"▁chocar":10220,"▁chocan":10221,"▁pelota":10222,"▁torres":10223,"▁alguno":10224,"▁algunas":10225,"▁pastilla\r\n":10226,"▁prefier":10227,"▁duerme,":10228,"▁problema'":10229,"▁clase,":10230,"▁empezar\r\n":10231,"▁empezamos":10232,"▁lary,":10233,"▁preparado":10234,"▁demasiado,":10235,"▁geni":10236,"▁atrás,":10237,"▁invali":10238,"▁willi":10239,"▁asesina\r\n":10240,"▁bloque\r\n":10241,"▁contestar":10242,"▁frases\r\n":10243,"▁diga:":10244,"▁maldito\r\n":10245,"▁perdí,":10246,"▁mentes":10247,"▁quedarse":10248,"▁embara":10249,"▁agran":10250,"▁agust":10251,"▁baila',":10252,"▁atrevo\r\n":10253,"▁atado":10254,"▁espejo\r\n":10255,"▁esquivo":10256,"▁kiló":10257,"▁boy,":10258,"▁boys":10259,"▁saludos":10260,"▁salud\r\n":10261,"▁movimiento\r\n":10262,"▁confiar":10263,"▁confies":10264,"▁cál":10265,"▁perrear":10266,"▁lanza":10267,"▁cortaa',":10268,"▁cueste\r\n":10269,"tuna\r\n":10270,"▁fondo\r\n":10271,"▁idea\r\n":10272,"▁mayweat":10273,"▁azar\r\n":10274,"▁swing,":10275,"▁firme\r\n":10276,"▁intenten\r\n":10277,"▁crv":10278,"▁cruel":10279,"▁capaz\r\n":10280,"▁complicada":10281,"▁varios\r\n":10282,"▁enfrente\r\n":10283,"▁bella,":10284,"▁nieve\r\n":10285,"▁shows":10286,"▁echar":10287,"▁pueblo\r\n":10288,"▁pobre,":10289,"▁manejar":10290,"▁tendrán":10291,"▁up?\r\n":10292,"▁orgullos":10293,"▁enemigo\r\n":10294,"▁eterno":10295,"▁eterni":10296,"▁wars\r\n":10297,"▁posible\r\n":10298,"▁destapando":10299,"▁libreta\r\n":10300,"▁fallar\r\n":10301,"▁cogí":10302,"▁cogelo":10303,"▁escaparme":10304,"▁skills":10305,"▁skills,":10306,"▁visitar":10307,"▁veinte\r\n":10308,"▁mover\r\n":10309,"▁diciendo,":10310,"▁lastima":10311,"▁lastima\r\n":10312,"▁perdonar":10313,"▁nubes\r\n":10314,"▁out\r\n":10315,"▁tocarte\r\n":10316,"▁atrevido\r\n":10317,"▁atrevidos":10318,"▁¿ah":10319,"▁salvar":10320,"▁fluyo,":10321,"▁conocen\r\n":10322,"▁honor":10323,"▁playa\r\n":10324,"▁bendición":10325,"▁energía\r\n":10326,"▁fila\r\n":10327,"▁mostrarte":10328,"▁zigzag":10329,"▁repartiendo":10330,"▁backgro":10331,"▁bonita":10332,"▁piernas,":10333,"▁necesitar":10334,"▁agarrame":10335,"▁messi\r\n":10336,"▁ceni":10337,"▁cenamos":10338,"▁padres\r\n":10339,"▁adelante":10340,"▁enferme":10341,"▁resuelvo\r\n":10342,"▁producto":10343,"▁aprieta\r\n":10344,"▁reloj\r\n":10345,"▁condene\r\n":10346,"▁curva":10347,"▁gucci,":10348,"▁empresa":10349,"▁pantalón\r\n":10350,"▁sentimientos\r\n":10351,"▁jaime,":10352,"▁peligro,":10353,"▁búsque":10354,"▁búscame,":10355,"▁jesus":10356,"▁terror\r\n":10357,"▁derecho":10358,"▁llover":10359,"▁inspiro":10360,"▁devuel":10361,"chula,":10362,"▁callejera\r\n":10363,"▁mundial\r\n":10364,"▁elegante":10365,"▁ñeri":10366,"▁descansar\r\n":10367,"-yo',":10368,"▁reír\r\n":10369,"▁raro":10370,"▁again":10371,"▁asusta":10372,"▁construy":10373,"▁asesino,":10374,"▁resisten":10375,"▁arrebato\r\n":10376,"▁nervioso":10377,"▁birome\r\n":10378,"▁sicarios\r\n":10379,"▁vacun":10380,"▁encontramos":10381,"▁competir,":10382,"▁llave":10383,"▁high,":10384,"▁beef,":10385,"▁police\r\n":10386,"▁¿cuánto":10387,"▁reconocer":10388,"▁eei\r\n":10389,"▁maquin":10390,"▁peace\r\n":10391,"▁dembow,":10392,"▁profesión":10393,"▁desayuno\r\n":10394,"▁dogg":10395,"▁desnuda":10396,"▁¡ah!\r\n":10397,"▁adrenalina":10398,"▁cinturón":10399,"▁público\r\n":10400,"▁spri":10401,"▁makeu":10402,"▁pastel":10403,"▁angry":10404,"▁amenaza":10405,"▁brother,":10406,"▁acelerao'":10407,"▁fenomen":10408,"▁alerta":10409,"▁madrid":10410,"▁amiga'":10411,"▁funciona\r\n":10412,"▁envuelto":10413,"▁impresiona\r\n":10414,"▁técnicas":10415,"▁edificio":10416,"▁pég":10417,"▁adorar\r\n":10418,"▁compadre":10419,"▁insegu":10420,"▁cicatrices":10421,"▁cicatrices\r\n":10422,"▁temprano\r\n":10423,"▁boludo\r\n":10424,"▁diamante'":10425,"▁hennessy":10426,"▁internacional":10427,"▁concuer":10428,"▁estribillo":10429,"▁rebelde":10430,"▁desenlace\r\n":10431,"▁dulce":10432,"▁presupuesto\r\n":10433,"▁espanta\r\n":10434,"▁generación\r\n":10435,"▁jangui":10436,"▁neuronas\r\n":10437,"▁caballo":10438,"▁bendeci":10439,"▁stop":10440,"▁rememb":10441,"▁caramelo":10442,"▁sonreír":10443,"▁casualidad":10444,"▁fríos":10445,"▁bestia":10446,"▁brujería,":10447,"▁izquierda":10448,"▁nasa\r\n":10449,"▁desorbi":10450,"▁goog":10451,"▁veintitr":10452,"▁tatuaje'":10453,"▁export\r\n":10454,"▁aceite":10455,"▁nanananananana":10456,"▁sillón\r\n":10457,"▁ilegal":10458,"▁ultimo":10459,"▁mueva'":10460,"▁garganta\r\n":10461,"▁pásame":10462,"▁nacional":10463,"▁kripp":10464,"▁instagram":10465,"▁around":10466,"▁noticias":10467,"▁paciencia\r\n":10468,"▁elevada":10469,"▁categor":10470,"▁sociedad":10471,"▁¿entendés":10472,"▁accidente":10473,"▁americanos":10474,"▁discrim":10475,"▁lucifer\r\n":10476,"▁moriremos":10477,"▁cuaderno\r\n":10478,"▁renglón\r\n":10479,"▁súbelo,":10480,"▁champions":10481,"▁saiyajin\r\n":10482,"▁operación":10483,"▁rutina":10484,"▁whisky":10485,"▁ecko\r\n":10486,"▁fútbol":10487,"▁cocodri":10488,"▁pareciera":10489,"▁¡no!\r\n":10490,"▁quintana,":10491,"▁lacoste\r\n":10492,"▁carolina":10493,"▁camufla":10494,"▁clonazep":10495,"▁japón,":10496,"▁2026":10497,"▁pájaro":10498,"▁septum\r\n":10499,"▁ssj":10500,"▁bokiés\r\n":10501,"▁conoce-noce\r\n":10502,"▁meeting'":10503,"▁tururuturututu...":10504,"▁edén\r\n":10505,"▁mexic":10506,"▁gambe":10507,"▁bozal\r\n":10508,"▁guzmán\r\n":10509,"▁cripy,":10510,"▁transformó":10511,"▁córdoba":10512,"▁lamborgh":10513,"▁please,":10514,"▁círculos":10515,"▁diciéndome":10516,"▁paraíso\r\n":10517,"▁olvídate":10518,"▁dinamita\r\n":10519,"▁a-c-r":10520,"▁manicom":10521,"▁abruma\r\n":10522,"▁woh-woh,":10523,"cosculluela":10524,"-5":10525,"-ra":10526,"-ti":10527,"9\r\n":10528,"bus":10529,"bar\r\n":10530,"ben\r\n":10531,"boro":10532,"cle":10533,"cal\r\n":10534,"cía\r\n":10535,"c.r.":10536,"dar\r\n":10537,"dora":10538,"em":10539,"eten":10540,"fa,":10541,"fil":10542,"get":10543,"hm,":10544,"iva":10545,"ire\r\n":10546,"kas\r\n":10547,"ly\r\n":10548,"lle,":10549,"ned":10550,"pá":10551,"pas\r\n":10552,"rra":10553,"rando\r\n":10554,"shi":10555,"tente":10556,"tone":10557,"ule":10558,"u-b":10559,"vinas":10560,"xi\r\n":10561,"ze":10562,"zón\r\n":10563,"z-lu":10564,"áb":10565,"ái\r\n":10566,"ática":10567,"á-n\r\n":10568,"íamos":10569,"ían\r\n":10570,"ós\r\n":10571,"úbli":10572,"▁ín":10573,"▁ído":10574,"▁________":10575,"▁ea,":10576,"▁eme":10577,"▁e',":10578,"▁ego,":10579,"▁eh-e":10580,"▁eh-eh,":10581,"▁ecua":10582,"▁po'":10583,"▁psy":10584,"▁stra":10585,"▁slam":10586,"▁lente":10587,"▁cés":10588,"▁centro":10589,"▁cuna\r\n":10590,"▁tos\r\n":10591,"▁duen":10592,"▁dé\r\n":10593,"▁dros":10594,"▁dm,":10595,"▁ati":10596,"▁aqué":10597,"▁aka":10598,"▁aba-":10599,"erando":10600,"▁yi":10601,"▁queda\r\n":10602,"▁queso":10603,"▁queso\r\n":10604,"▁quejas\r\n":10605,"▁esmer":10606,"ares":10607,"arán":10608,"arte,":10609,"arse\r\n":10610,"▁deo":10611,"▁dete":10612,"▁dema":10613,"▁deve":10614,"▁deba":10615,"▁deman":10616,"▁de-de":10617,"▁detiene\r\n":10618,"▁vo',":10619,"▁vu\r\n":10620,"onde":10621,"orno":10622,"▁notas":10623,"▁no-no-no":10624,"▁lata\r\n":10625,"▁latino\r\n":10626,"▁latina\r\n":10627,"▁hú":10628,"▁hero":10629,"▁hm\r\n":10630,"▁huir\r\n":10631,"este\r\n":10632,"▁enc":10633,"▁enfan":10634,"▁enju":10635,"uncio\r\n":10636,"▁meta\r\n":10637,"▁metral":10638,"▁bli":10639,"▁brr":10640,"▁bero,":10641,"▁brr,":10642,"te'\r\n":10643,"▁mide":10644,"▁miti":10645,"▁miden\r\n":10646,"ini\r\n":10647,"▁fus":10648,"ta.\r\n":10649,"table\r\n":10650,"tape,":10651,"▁logro":10652,"▁lobb":10653,"▁un...\r\n":10654,"▁unico":10655,"▁teta\r\n":10656,"▁tele\r\n":10657,"omas":10658,"▁six":10659,"▁sies":10660,"▁convo":10661,"▁concre":10662,"▁seh\r\n":10663,"▁seamos":10664,"▁secta":10665,"▁have":10666,"▁haces\r\n":10667,"ció":10668,"ciento":10669,"cial\r\n":10670,"▁gin":10671,"▁gta\r\n":10672,"▁grr":10673,"▁gros":10674,"▁glor":10675,"▁grr,":10676,"rima":10677,"ribi":10678,"▁comen\r\n":10679,"lei":10680,"ley,":10681,"▁dies":10682,"▁dill":10683,"▁o,":10684,"▁oli":10685,"▁obe":10686,"▁oficio\r\n":10687,"▁tu-tu-tu-tu-tu":10688,"▁tutto":10689,"ches\r\n":10690,"chala\r\n":10691,"▁toto":10692,"▁toquen":10693,"▁touch":10694,"▁quita\r\n":10695,"▁estí":10696,"▁estrate":10697,"▁paro\r\n":10698,"▁pará,":10699,"mpa":10700,"▁como-c":10701,"decir":10702,"▁alf":10703,"▁alter":10704,"▁alante":10705,"▁alone,":10706,"▁tenías":10707,"tito":10708,"tilo\r\n":10709,"tiva":10710,"tió\r\n":10711,"tilla\r\n":10712,"tillas\r\n":10713,"▁cuo":10714,"▁curar":10715,"uste\r\n":10716,"▁idi":10717,"▁imb":10718,"▁rei":10719,"▁ret":10720,"▁reve":10721,"▁regu":10722,"di,":10723,"dia,":10724,"dita\r\n":10725,"dito,":10726,"digo,":10727,"cación\r\n":10728,"▁vidas":10729,"▁vicio\r\n":10730,"▁viviste":10731,"▁lea":10732,"▁lema":10733,"▁lean\r\n":10734,"▁ti?\r\n":10735,"▁titu":10736,"▁tipos":10737,"▁sucia,":10738,"▁supre":10739,"▁desh":10740,"▁desv":10741,"▁desco":10742,"▁desgas":10743,"▁desfas":10744,"copi":10745,"▁rato,":10746,"▁rajo\r\n":10747,"▁rafa":10748,"▁invis":10749,"▁cader":10750,"▁cator":10751,"▁cajas":10752,"▁cacheta":10753,"▁delu":10754,"vil":10755,"viden":10756,"▁peru":10757,"▁más?\r\n":10758,"▁estab":10759,"▁vela,":10760,"▁chab":10761,"▁chiste":10762,"▁chand":10763,"▁wos\r\n":10764,"▁verlo":10765,"▁verla":10766,"ma-li":10767,"gate,":10768,"▁piba":10769,"▁pico,":10770,"▁pi-\r\n":10771,"▁pieza,":10772,"▁trago\r\n":10773,"▁trajo\r\n":10774,"▁tratos,":10775,"▁pasta":10776,"▁mudo\r\n":10777,"▁mudo,":10778,"▁anci":10779,"▁andas":10780,"▁angel":10781,"▁puedan":10782,"▁mismo'":10783,"▁misma\r\n":10784,"▁mision":10785,"▁¿le":10786,"▁¿pero":10787,"pet":10788,"peando":10789,"dados":10790,"trame":10791,"aja":10792,"aja\r\n":10793,"▁rica":10794,"▁rivo":10795,"▁estábamos":10796,"▁pod":10797,"▁poppin'":10798,"migo\r\n":10799,"▁asi,":10800,"▁salve":10801,"▁carta":10802,"▁cartera":10803,"▁vendo,":10804,"▁pull":10805,"▁pude\r\n":10806,"▁puños":10807,"▁hijo,":10808,"▁seré":10809,"▁seremos":10810,"▁entero,":10811,"lie":10812,"lita\r\n":10813,"lica\r\n":10814,"▁son?\r\n":10815,"▁sonrí":10816,"▁pedo":10817,"dose\r\n":10818,"▁acto\r\n":10819,"▁aclam":10820,"▁actú":10821,"um\r\n":10822,"▁mante":10823,"▁manda\r\n":10824,"▁man!\r\n":10825,"▁manos,":10826,"▁manden":10827,"▁mandan":10828,"▁manny":10829,"▁malvinas":10830,"▁cool,":10831,"▁callar":10832,"arias\r\n":10833,"▁amé":10834,"▁ama\r\n":10835,"▁amo\r\n":10836,"▁amo,":10837,"▁amante":10838,"▁améri":10839,"▁king,":10840,"▁kamas":10841,"▁krus":10842,"▁ud":10843,"▁uds":10844,"teras":10845,"▁crew,":10846,"▁quém":10847,"ándal":10848,"▁prénde":10849,"▁rota\r\n":10850,"▁cana":10851,"▁cana\r\n":10852,"▁caníb":10853,"low\r\n":10854,"▁dejo\r\n":10855,"▁dejes\r\n":10856,"▁exa":10857,"▁expe":10858,"▁exces":10859,"▁exac":10860,"▁mamar":10861,"▁mama,":10862,"▁lif":10863,"▁lider":10864,"▁lion\r\n":10865,"▁like\r\n":10866,"▁libro":10867,"▁nezqui":10868,"▁hacer?\r\n":10869,"illo,":10870,"▁''":10871,"▁'n":10872,"▁clari":10873,"▁clan\r\n":10874,"▁cloro":10875,"sivo\r\n":10876,"side,":10877,"▁hablando,":10878,"▁saver":10879,"▁saca\r\n":10880,"▁saco\r\n":10881,"▁sacan":10882,"▁saques":10883,"▁fuga":10884,"▁fulan":10885,"▁moto\r\n":10886,"▁corta,":10887,"▁corrup":10888,"▁hemo'":10889,"bre,":10890,"tano\r\n":10891,"▁resta":10892,"▁pone\r\n":10893,"▁ponía":10894,"verdad":10895,"icóp":10896,"▁progra":10897,"▁providen":10898,"▁disco,":10899,"▁discre":10900,"▁discus":10901,"▁disting":10902,"▁throu":10903,"▁buena,":10904,"▁prefer":10905,"▁cif":10906,"▁hoyo":10907,"▁luciendo":10908,"▁lucir":10909,"▁falte":10910,"▁faltar":10911,"▁falsa\r\n":10912,"▁juré":10913,"▁juvent":10914,"▁men,":10915,"▁shado":10916,"▁caso\r\n":10917,"▁casi\r\n":10918,"▁miradas":10919,"key,":10920,"ren\r\n":10921,"▁compor":10922,"▁compres":10923,"▁compras":10924,"▁compro,":10925,"▁compran\r\n":10926,"▁guas":10927,"▁baja\r\n":10928,"▁plato\r\n":10929,"▁llamado":10930,"▁llamas,":10931,"▁pala":10932,"▁paler":10933,"tendo\r\n":10934,"▁sín":10935,"inado\r\n":10936,"▁gozar":10937,"▁duros\r\n":10938,"▁olor,":10939,"▁caball":10940,"chado\r\n":10941,"canser":10942,"▁sabe'\r\n":10943,"▁vuelta,":10944,"▁vuelven":10945,"▁vuelvas\r\n":10946,"▁aunque\r\n":10947,"▁marea\r\n":10948,"▁sost":10949,"▁sospe":10950,"▁perdona":10951,"▁perdiendo\r\n":10952,"▁roman":10953,"▁rapeas":10954,"go,\r\n":10955,"▁tomás":10956,"▁tommy":10957,"▁usando":10958,"▁parecía":10959,"▁parecido":10960,"▁escriba":10961,"▁escritas":10962,"▁muertos\r\n":10963,"ady":10964,"▁aquí!\r\n":10965,"▁formo":10966,"▁fortuna\r\n":10967,"▁do?":10968,"▁do?\r\n":10969,"▁esperar\r\n":10970,"▁esperando\r\n":10971,"▁esperan\r\n":10972,"▁esperaban":10973,"▁esperaba\r\n":10974,"▁frea":10975,"▁masco":10976,"▁orto":10977,"▁ortiva\r\n":10978,"▁orilla":10979,"▁empeza":10980,"▁queré":10981,"▁querías\r\n":10982,"▁gusta,":10983,"▁contradi":10984,"▁cambie":10985,"▁cambiar,":10986,"▁cambiamos,":10987,"▁olvidemos":10988,"▁reali":10989,"▁fines":10990,"▁finales\r\n":10991,"▁valió":10992,"▁morale":10993,"▁drogas,":10994,"▁pesado":10995,"▁pesa'o,":10996,"▁negros\r\n":10997,"▁buscaban":10998,"▁gramos\r\n":10999,"▁grabando":11000,"▁gramo',":11001,"gue,":11002,"▁juegas":11003,"▁conoces\r\n":11004,"▁guacha":11005,"▁guachos":11006,"▁joder\r\n":11007,"▁suene\r\n":11008,"▁feder":11009,"▁santo,":11010,"▁¡cuando":11011,"▁¡canser":11012,"▁improviso,":11013,"▁cere":11014,"▁certero\r\n":11015,"▁huh\r\n":11016,"▁huma":11017,"▁fila":11018,"▁fiera\r\n":11019,"▁we're":11020,"▁zam":11021,"▁sombr":11022,"▁sombra,":11023,"▁\"yo":11024,"▁puede'":11025,"▁bandido\r\n":11026,"rros":11027,"rrrr":11028,"▁dimelo":11029,"▁oni":11030,"▁uste'":11031,"▁usted\r\n":11032,"biéndo":11033,"▁escucha\r\n":11034,"▁chip":11035,"▁chile,":11036,"▁claras":11037,"▁suelto,":11038,"amente,":11039,"▁besa":11040,"▁besó":11041,"▁colos":11042,"▁wait":11043,"▁tata":11044,"▁brillo,":11045,"▁darín,":11046,"▁23":11047,"▁talento,":11048,"▁tenerte\r\n":11049,"▁¿qué-qué":11050,"▁gata,":11051,"▁importante":11052,"▁coscu\r\n":11053,"▁pierdas":11054,"▁1,":11055,"▁visto,":11056,"▁vista,":11057,"▁irre":11058,"▁pregunte":11059,"▁pregunté":11060,"▁pussy\r\n":11061,"▁dementes\r\n":11062,"▁grita,":11063,"▁gritos\r\n":11064,"▁moneda":11065,"▁tripli":11066,"▁mini":11067,"▁minas":11068,"▁repúbli":11069,"▁wo-wo-wo":11070,"▁millone":11071,"▁aguj":11072,"▁interro":11073,"▁punto,":11074,"▁auh\r\n":11075,"▁auu,":11076,"▁pena,":11077,"▁prendiendo":11078,"aste?\r\n":11079,"▁tranqui\r\n":11080,"▁rapero'":11081,"▁cabros,":11082,"▁encontrarme":11083,"▁encontré\r\n":11084,"▁encontrarte":11085,"▁már":11086,"▁basu":11087,"▁entender,":11088,"▁i'll":11089,"▁juntar":11090,"▁keta":11091,"e's":11092,"▁fuerza\r\n":11093,"▁fueron\r\n":11094,"▁mercan":11095,"▁micro\r\n":11096,"▁drogada":11097,"▁flexin',":11098,"▁bitches\r\n":11099,"▁doler\r\n":11100,"▁bala'":11101,"▁hander,":11102,"▁morir,":11103,"▁llorique":11104,"▁equip":11105,"▁equipo\r\n":11106,"▁dejaría":11107,"▁cuidar":11108,"▁tirame":11109,"▁pueden\r\n":11110,"▁señal\r\n":11111,"▁señores":11112,"▁músico":11113,"▁llegar\r\n":11114,"▁batalla,":11115,"▁planta":11116,"▁chula,":11117,"▁odio,":11118,"▁viejo\r\n":11119,"▁luzco":11120,"▁jagu":11121,"▁killa\r\n":11122,"▁reviento\r\n":11123,"▁úneten":11124,"▁ganaría\r\n":11125,"▁minu'\r\n":11126,"tril\r\n":11127,"▁encuentre":11128,"▁princi,":11129,"▁drake\r\n":11130,"▁nuevo?\r\n":11131,"▁eleve\r\n":11132,"▁hara":11133,"▁harry":11134,"▁budd":11135,"▁golp":11136,"▁seguri":11137,"▁jei":11138,"▁llevas":11139,"▁explico,":11140,"éndote\r\n":11141,"▁consciente\r\n":11142,"▁salido":11143,"▁saliva\r\n":11144,"pone":11145,"▁caminan":11146,"▁camino,":11147,"▁caminamos":11148,"▁extraño,":11149,"▁defensa":11150,"▁ensegui":11151,"▁gordito":11152,"▁brillando\r\n":11153,"▁terminé":11154,"▁gasta":11155,"▁diferencia\r\n":11156,"▁nuestro,":11157,"▁posta":11158,"▁posta,":11159,"▁ohhh\r\n":11160,"▁empieza\r\n":11161,"▁olvidar,":11162,"▁escribí":11163,"árte":11164,"▁esquinas":11165,"▁vivís":11166,"ías?\r\n":11167,"▁mirarme":11168,"▁entrar\r\n":11169,"▁frenes":11170,"▁cometo":11171,"▁musa":11172,"oneta\r\n":11173,"▁direccion":11174,"▁girando":11175,"▁puertas":11176,"▁puertor":11177,"▁sirvo":11178,"▁infierno,":11179,"▁cepi":11180,"▁cebol":11181,"▁cement":11182,"▁rock,":11183,"▁hope\r\n":11184,"▁whippin'":11185,"▁plum":11186,"▁pelicu":11187,"▁novia\r\n":11188,"▁geme":11189,"▁sentirte":11190,"▁human":11191,"▁bene,":11192,"▁tierra,":11193,"▁this\r\n":11194,"▁adivin":11195,"▁adiós\r\n":11196,"▁enseñar":11197,"▁'taba":11198,"brarme\r\n":11199,"▁skere\r\n":11200,"▁capi'":11201,"▁capi'\r\n":11202,"▁campeona":11203,"▁ángulo":11204,"▁podrás":11205,"▁podrán":11206,"▁podrías":11207,"▁torpe\r\n":11208,"▁cadenas\r\n":11209,"-no\r\n":11210,"▁duerma,":11211,"▁perder,":11212,"▁cristó":11213,"▁crisis\r\n":11214,"▁infra":11215,"▁amargo":11216,"▁clasific":11217,"▁clima":11218,"▁lary":11219,"▁ruta":11220,"▁sorry,":11221,"▁deseos":11222,"▁beatle\r\n":11223,"▁ponerme":11224,"▁oscuro,":11225,"▁copión":11226,"▁bille',":11227,"▁billetes,":11228,"▁billetera\r\n":11229,"tiste\r\n":11230,"▁ojos,":11231,"▁ojala":11232,"▁equivocado\r\n":11233,"▁knows\r\n":11234,"▁invita":11235,"▁acabaron":11236,"▁asesino\r\n":11237,"turas\r\n":11238,"▁queríai":11239,"▁4,":11240,"▁4-4":11241,"▁floy":11242,"▁rosa\r\n":11243,"▁enamoré\r\n":11244,"▁frasco":11245,"▁malditos":11246,"▁jamás,":11247,"▁atragan":11248,"▁guilla":11249,"▁guiso\r\n":11250,"▁histori":11251,"▁historia,":11252,"▁ataú":11253,"▁full,":11254,"▁microphone\r\n":11255,"▁brindo":11256,"▁confundido":11257,"▁boys,":11258,"▁uh-uh,":11259,"▁bruto":11260,"▁pararno'\r\n":11261,"▁parar-me":11262,"▁enteran":11263,"▁confiar\r\n":11264,"▁oh-oh-oh-oh\r\n":11265,"▁relajo\r\n":11266,"▁relajado":11267,"▁tirar,":11268,"▁tirarte":11269,"▁interesa,":11270,"▁erra":11271,"▁cuarenta":11272,"▁aviones\r\n":11273,"▁sacaba":11274,"▁colore'":11275,"▁venir,":11276,"-e-e,":11277,"▁desesperado":11278,"▁estructuro":11279,"▁estructura,":11280,"▁deber\r\n":11281,"▁tuyo'":11282,"▁hombre,":11283,"▁tirarle":11284,"▁chain,":11285,"▁300":11286,"▁micrófono\r\n":11287,"▁flore'":11288,"▁cerebro,":11289,"▁humildad,":11290,"▁firm":11291,"▁ahogo":11292,"▁ahogar\r\n":11293,"▁quince":11294,"▁intentes\r\n":11295,"▁méx":11296,"▁crán":11297,"▁frau":11298,"▁estética\r\n":11299,"▁carajo,":11300,"▁existencia\r\n":11301,"▁dijeron:":11302,"▁motherfuckin'":11303,"▁truco":11304,"▁opción\r\n":11305,"▁pagó":11306,"▁niego":11307,"▁nieve,":11308,"▁shows\r\n":11309,"▁damn\r\n":11310,"▁intele":11311,"▁manej":11312,"▁manejando":11313,"▁gotea\r\n":11314,"▁empiezo\r\n":11315,"▁enrolo":11316,"▁enrola":11317,"▁unders":11318,"▁tendrá":11319,"▁libertad,":11320,"▁,me":11321,"▁eterno\r\n":11322,"▁respira":11323,"▁castiga\r\n":11324,"▁marihua',":11325,"▁enloquece":11326,"▁enloquecer,":11327,"▁haze\r\n":11328,"▁hazlo,":11329,"▁destape\r\n":11330,"▁fallé":11331,"▁biggi":11332,"▁contento":11333,"▁estudio\r\n":11334,"▁farru":11335,"▁visión":11336,"▁veinte,":11337,"▁apunta":11338,"▁canser!\r\n":11339,"▁fantasma":11340,"▁acopl":11341,"▁despertar":11342,"▁trampa\r\n":11343,"▁montañas":11344,"-sal":11345,"▁secreto,":11346,"▁respuesta":11347,"▁atrevida,":11348,"▁vuelo...":11349,"▁quiere'?\r\n":11350,"▁fluir":11351,"▁fluye":11352,"▁fluya\r\n":11353,"▁fluyo\r\n":11354,"▁conocen,":11355,"▁zarpado":11356,"▁habitación":11357,"▁dedicado":11358,"▁hongo":11359,"▁¿cuándo":11360,"▁bobos":11361,"▁atención":11362,"▁enví":11363,"▁subido":11364,"▁coronaron":11365,"▁mostrando":11366,"▁6\r\n":11367,"▁surfe":11368,"▁back?":11369,"▁guerrera":11370,"▁break\r\n":11371,"▁break,":11372,"▁virgen":11373,"▁venganza":11374,"▁prócer":11375,"▁motivos\r\n":11376,"▁joya'":11377,"▁trataba":11378,"▁arranca":11379,"▁marcianos\r\n":11380,"▁brilla'\r\n":11381,"▁extrañas\r\n":11382,"▁criminal\r\n":11383,"dientes\r\n":11384,"▁bonito\r\n":11385,"▁naci\r\n":11386,"▁monoton":11387,"▁actitud,":11388,"aaaa":11389,"avéli":11390,"▁págame\r\n":11391,"▁sentado\r\n":11392,"▁dieci":11393,"▁turro":11394,"▁turbi":11395,"▁refres":11396,"▁animales":11397,"▁aprové":11398,"▁disfrutar":11399,"▁reggaetón":11400,"▁enfermo":11401,"▁veloz\r\n":11402,"▁velocidad":11403,"▁pegarme":11404,"▁esperanzas":11405,"▁dj\r\n":11406,"▁a.c.r.":11407,"▁destroza\r\n":11408,"▁cariño":11409,"▁shitt\r\n":11410,"▁sencillo":11411,"▁pulpo":11412,"▁limpio":11413,"▁pantalla":11414,"▁sentimiento":11415,"▁demasiado\r\n":11416,"▁jesús":11417,"▁yeh-yeh,":11418,"▁llov":11419,"▁cuadra":11420,"▁videos":11421,"▁video\r\n":11422,"▁power,":11423,"▁devor":11424,"▁facil\r\n":11425,"▁concierto',":11426,"▁ignoran":11427,"▁comprarle":11428,"▁trappers,":11429,"▁espalda,":11430,"▁taba'":11431,"▁walk":11432,"▁entero'\r\n":11433,"▁maradona\r\n":11434,"▁escope":11435,"▁engaña\r\n":11436,"▁sienta'":11437,"▁pauta":11438,"▁resisto":11439,"▁clavando":11440,"▁bronce\r\n":11441,"▁quími":11442,"▁imaginas\r\n":11443,"▁birra,":11444,"▁llanto\r\n":11445,"▁fracasado\r\n":11446,"▁rottweila":11447,"▁sensación":11448,"▁vámonos,":11449,"▁natural\r\n":11450,"▁potente":11451,"▁apoyo":11452,"▁plug,":11453,"▁¿cuántos":11454,"▁eeh\r\n":11455,"▁lebron":11456,"▁ticket,":11457,"▁inoportun":11458,"▁peace,":11459,"▁jugás":11460,"▁apreta":11461,"▁freestyler,":11462,"▁kelowa\r\n":11463,"▁descontrol":11464,"▁réplica\r\n":11465,"mula":11466,"mulo\r\n":11467,"▁supuestos":11468,"▁disculpa":11469,"▁pensamientos":11470,"▁pensamientos\r\n":11471,"▁triunfo":11472,"▁elegí\r\n":11473,"▁ilusión\r\n":11474,"▁underground,":11475,"▁aterriz":11476,"▁niña,":11477,"▁venimos":11478,"▁camarada?\r\n":11479,"▁territorio":11480,"▁¡ah":11481,"▁cerveza\r\n":11482,"▁cerveza,":11483,"▁cervezas":11484,"▁adrenalina,":11485,"▁pastilla'":11486,"▁especial\r\n":11487,"▁debería":11488,"▁deberías":11489,"▁helicóp":11490,"▁secues":11491,"▁matan,":11492,"▁cocinar\r\n":11493,"▁gaviota,":11494,"▁soporta":11495,"▁manija":11496,"▁camiseta":11497,"▁perfume":11498,"▁acelerado":11499,"gues\r\n":11500,"▁sácame":11501,"▁dorado\r\n":11502,"▁español":11503,"▁español\r\n":11504,"▁fruto":11505,"▁indica":11506,"▁sonrío\r\n":11507,"▁kush,":11508,"▁crecí\r\n":11509,"▁limit,":11510,"▁riquelme,":11511,"▁técnicas\r\n":11512,"▁¡dímelo!":11513,"▁lotta":11514,"▁guet":11515,"▁gueto\r\n":11516,"▁gigante\r\n":11517,"▁balls\r\n":11518,"▁motherfuckers":11519,"▁universi":11520,"▁universo":11521,"▁inclusi":11522,"▁teléfono\r\n":11523,"▁teléfono,":11524,"▁school":11525,"▁racek":11526,"▁impacto":11527,"▁bebida":11528,"▁bebida\r\n":11529,"▁testigo":11530,"▁bájate":11531,"▁jangue":11532,"▁coherente\r\n":11533,"▁fake'\r\n":11534,"▁bling-bl":11535,"▁defectos":11536,"▁métricas":11537,"▁fms\r\n":11538,"▁sonreír\r\n":11539,"▁bacala":11540,"▁tranquilito":11541,"▁arreglar":11542,"▁diamantes,":11543,"▁zarpado\r\n":11544,"▁alivi":11545,"▁haciéndolo":11546,"▁almohada":11547,"-44":11548,"-grr\r\n":11549,"▁delay\r\n":11550,"▁conducir":11551,"▁juicio":11552,"▁piola,":11553,"▁abarca":11554,"▁aceite,":11555,"▁desafío\r\n":11556,"▁documental":11557,"▁groupies":11558,"▁77":11559,"▁sitio":11560,"▁retrasado\r\n":11561,"▁ultima":11562,"▁escabio\r\n":11563,"▁escoltándome":11564,"▁cantantes":11565,"▁thug,":11566,"▁precipi":11567,"▁borré\r\n":11568,"▁cebado\r\n":11569,"▁transformo":11570,"▁garganta":11571,"▁blessed":11572,"▁blessed\r\n":11573,"▁snipper":11574,"▁elimino\r\n":11575,"▁hustl":11576,"▁ojete":11577,"▁chingo":11578,"▁asap\r\n":11579,"▁kenned":11580,"▁modula":11581,"▁sentí'":11582,"▁autoestima":11583,"▁película,":11584,"▁básico\r\n":11585,"▁brazos":11586,"▁grin":11587,"▁colora'o\r\n":11588,"▁trunks,":11589,"▁bolsillo\r\n":11590,"▁títulos":11591,"▁evidencia\r\n":11592,"▁preocupes,":11593,"▁tormenta\r\n":11594,"▁porsche":11595,"▁rich,":11596,"▁barcelona\r\n":11597,"▁falsos":11598,"▁grammy\r\n":11599,"▁tarjeta":11600,"▁cállate":11601,"▁cállate,":11602,"▁fantasmeando":11603,"▁teorema":11604,"▁aeropuerto,":11605,"▁aweonao,":11606,"▁nintendo\r\n":11607,"▁maquiavéli":11608,"▁trakas,":11609,"▁rodilla":11610,"▁esfuerzo\r\n":11611,"▁frustrado\r\n":11612,"▁niss":11613,"▁bdm":11614,"▁caguamas":11615,"▁matemática\r\n":11616,"-miti":11617,"▁phone":11618,"▁tiburón\r\n":11619,"▁innecesaria\r\n":11620,"▁anestesia":11621,"▁¿hay":11622,"▁manzana":11623,"▁oldtape,":11624,"▁haré?\r\n":11625,"▁evolución":11626,"-car-car":11627,"▁cáncer":11628,"▁teatro":11629,"▁diploma\r\n":11630,"▁sanará":11631,"▁zanto,":11632,"▁panorama":11633,"▁recorrer\r\n":11634,"▁plomo,":11635,"▁compromis":11636,"-plaka":11637,"▁a.k.a.":11638,"▁a.p.a.":11639,"▁llovían,":11640,"m-á-n\r\n":11641,"▁fósfor":11642,"▁alcatra":11643,"▁business":11644,"▁three\r\n":11645,"h-chh-ch":11646,"▁¡bero!\r\n":11647,"▁replik":11648,"▁elefante\r\n":11649,"▁44-44":11650,"▁capsul":11651,"▁lennon\r\n":11652,"▁iluminado":11653,"▁philippe":11654,"-gua-gua":11655,"▁emerg":11656,"▁nobody":11657,"▁fetén,":11658,"▁glowing\r\n":11659,"▁ozono\r\n":11660,"▁patrulla\r\n":11661,"▁welcome":11662,"▁asfixi":11663,"▁people":11664,"▁jodío'":11665,"-lil-lil":11666,"▁advertí,":11667,"▁apuñal":11668,"▁enderezamos":11669,"▁filosofía\r\n":11670,"▁a-l-e-m-á-n\r\n":11671,"ígeno\r\n":11672,"▁madafa":11673,"▁chalatera,":11674,"▁wanted\r\n":11675,"▁mutamos,":11676,"▁mennen\r\n":11677,"▁duplico":11678,"▁doblamos\r\n":11679,"▁recreo\r\n":11680,"▁agustín\r\n":11681,"▁kilómetros":11682,"▁aquél":11683,"▁enjua":11684,"▁miti-miti":11685,"▁grr-grr\r\n":11686,"▁como-como":11687,"▁rivotril\r\n":11688,"▁nezquik\r\n":11689,"▁through":11690,"▁shadow":11691,"▁¡canser!,":11692,"▁¿qué-qué-qué":11693,"▁lloriqueando":11694,"▁únetenos\r\n":11695,"▁cementer":11696,"▁acoplamos":11697,"▁aprovéchala\r\n":11698,"-la":11699,"-ar\r\n":11700,"-pe":11701,"-be":11702,"-sa":11703,"_\r\n":11704,"bon":11705,"ber\r\n":11706,"bern":11707,"buy":11708,"cli":11709,"ctos":11710,"cales":11711,"cuida":11712,"cólogo":11713,"dy,":11714,"dy\r\n":11715,"ear":11716,"ep,":11717,"fa\r\n":11718,"fall":11719,"ff,":11720,"ff\r\n":11721,"gón\r\n":11722,"gari":11723,"gir":11724,"gor,":11725,"gea":11726,"gger":11727,"ha\r\n":11728,"igo":11729,"i-o":11730,"ible\r\n":11731,"izon":11732,"jis":11733,"kes":11734,"luen":11735,"mino\r\n":11736,"od":11737,"od\r\n":11738,"out":11739,"pro":11740,"pend":11741,"rin":11742,"rás":11743,"ros,\r\n":11744,"rra!\r\n":11745,"sh":11746,"ts\r\n":11747,"tís":11748,"tero,":11749,"tones":11750,"uti":11751,"uma":11752,"uba":11753,"uuhh!\r\n":11754,"vul":11755,"wea":11756,"yan":11757,"zón":11758,"él":11759,"éro":11760,"ó?":11761,"óg":11762,"úl\r\n":11763,"▁ui":11764,"▁,\r\n":11765,"▁...":11766,"▁ág":11767,"▁emi":11768,"▁epis":11769,"▁eyou":11770,"▁ma,":11771,"▁mas,":11772,"▁mr.":11773,"▁m.i.":11774,"▁mhm,":11775,"▁pam,":11776,"▁spi":11777,"▁stres":11778,"▁lo\r\n":11779,"▁lana":11780,"▁ces":11781,"▁tácti":11782,"▁dm":11783,"▁dón":11784,"▁dándome":11785,"▁aba":11786,"▁atar":11787,"▁atas":11788,"▁ator":11789,"▁azo":11790,"enta,":11791,"▁ysy\r\n":11792,"▁quemo\r\n":11793,"ante,":11794,"ard":11795,"ara\r\n":11796,"aría":11797,"osas":11798,"os?\r\n":11799,"osex":11800,"▁dedí":11801,"▁vente":11802,"▁vía":11803,"▁van\r\n":11804,"▁vul":11805,"▁venta\r\n":11806,"▁vénde":11807,"one'":11808,"ori":11809,"orra":11810,"orden":11811,"▁no;":11812,"▁nomás":11813,"▁lavo":11814,"▁lagun":11815,"▁latin":11816,"▁ladri":11817,"ess":11818,"▁enre":11819,"▁me ":11820,"▁bye\r\n":11821,"ted":11822,"▁mila":11823,"▁miga":11824,"▁miento,":11825,"inos":11826,"ines\r\n":11827,"inning":11828,"raba":11829,"▁f\r\n":11830,"▁fro":11831,"tab":11832,"tate\r\n":11833,"ta'\r\n":11834,"▁logra":11835,"▁team":11836,"▁tell":11837,"▁temb":11838,"om\r\n":11839,"oma,":11840,"▁siren":11841,"▁silla":11842,"▁siemb":11843,"▁yoh,":11844,"▁se'":11845,"▁sei":11846,"▁seca\r\n":11847,"▁seca,":11848,"▁separa":11849,"▁pork":11850,"▁hach":11851,"▁hadas\r\n":11852,"cito,":11853,"cios,":11854,"citos":11855,"cial,":11856,"▁ges":11857,"ria":11858,"rios":11859,"rita":11860,"▁come\r\n":11861,"▁comento\r\n":11862,"ando…\r\n":11863,"iente,":11864,"ientes\r\n":11865,"▁dicho\r\n":11866,"▁octa":11867,"abili":11868,"▁paus":11869,"▁patas":11870,"▁papo":11871,"▁pava":11872,"cho'":11873,"chi,":11874,"▁esta\r\n":11875,"▁estren":11876,"▁parran":11877,"▁parte,":11878,"▁pararme\r\n":11879,"▁parezca":11880,"quero":11881,"decer":11882,"▁alto,":11883,"▁algo,":11884,"▁altura\r\n":11885,"tidad":11886,"tivos\r\n":11887,"▁cuchi":11888,"▁reb":11889,"▁rem":11890,"▁reo":11891,"▁reen":11892,"▁reper":11893,"▁reina\r\n":11894,"▁reza\r\n":11895,"▁reventa":11896,"cao\r\n":11897,"cazz":11898,"▁vitr":11899,"▁vip,":11900,"▁villa\r\n":11901,"▁león":11902,"▁leche":11903,"▁letal\r\n":11904,"mel\r\n":11905,"iser":11906,"entar\r\n":11907,"▁yeh-eh\r\n":11908,"▁ye-eh\r\n":11909,"▁tires":11910,"▁tiem":11911,"▁suya":11912,"▁sudor":11913,"▁sumar":11914,"▁sumando":11915,"▁sucio,":11916,"▁supongo":11917,"▁desbor":11918,"▁navidad":11919,"▁ratas":11920,"▁raza":11921,"▁rayo":11922,"▁rabia\r\n":11923,"▁parap":11924,"▁matal":11925,"▁maya":11926,"▁magn":11927,"▁max,":11928,"▁mauri":11929,"▁ma-ma":11930,"▁materia":11931,"▁iner":11932,"▁ina\r\n":11933,"▁inqui":11934,"▁intes":11935,"▁ingres":11936,"▁cago\r\n":11937,"▁caza\r\n":11938,"▁cafe":11939,"▁cachi":11940,"▁delan":11941,"vieron":11942,"▁sop":11943,"▁soga":11944,"▁socio,":11945,"▁perci":11946,"▁perros\r\n":11947,"▁estados":11948,"▁niña\r\n":11949,"▁vele":11950,"▁veo,":11951,"▁vecino":11952,"▁chy":11953,"▁chol":11954,"▁chir":11955,"▁chomba":11956,"▁wis":11957,"uerto\r\n":11958,"gada\r\n":11959,"▁pito":11960,"▁pilo":11961,"▁piña":11962,"▁pileta\r\n":11963,"▁trav":11964,"▁traga":11965,"▁traum":11966,"▁trage":11967,"▁track,":11968,"▁pasto,":11969,"▁pasaste":11970,"▁pasaba":11971,"elos\r\n":11972,"culo":11973,"▁ande":11974,"▁andes":11975,"tron":11976,"▁renta\r\n":11977,"▁¿tu":11978,"▁¿viste":11979,"▁¿hab":11980,"▁¿verdad":11981,"bie":11982,"tra,":11983,"▁rich\r\n":11984,"▁mías":11985,"▁míni":11986,"▁potr":11987,"▁pobla":11988,"▁poppa\r\n":11989,"mir":11990,"▁asun":11991,"▁asiento\r\n":11992,"▁asfal":11993,"▁salpi":11994,"▁saldrá":11995,"▁cartu":11996,"▁cargo\r\n":11997,"▁carcas":11998,"▁careta":11999,"quitos":12000,"▁venen":12001,"▁venti":12002,"▁venga,":12003,"▁vendía":12004,"▁puto,":12005,"▁puras":12006,"▁him":12007,"▁hilo":12008,"▁hizo\r\n":12009,"▁gana,":12010,"▁ganamos":12011,"▁ganando\r\n":12012,"▁gané\r\n":12013,"▁gana'":12014,"▁sinti":12015,"▁todo',":12016,"▁arco":12017,"▁arras":12018,"▁armar":12019,"▁arena\r\n":12020,"litas\r\n":12021,"litos\r\n":12022,"▁sonando\r\n":12023,"pada\r\n":12024,"▁pez":12025,"▁peores":12026,"▁lleca":12027,"▁actor":12028,"▁acciones":12029,"▁acribi":12030,"▁many":12031,"▁mandaste":12032,"▁cami":12033,"▁malan":12034,"▁maldad\r\n":12035,"▁mala'":12036,"▁cof":12037,"▁codo":12038,"▁coqui":12039,"▁cobre\r\n":12040,"▁coche\r\n":12041,"▁coorden":12042,"vete":12043,"▁callo":12044,"▁calder":12045,"▁calend":12046,"▁eso?\r\n":12047,"arias":12048,"▁tiene,":12049,"▁kp":12050,"▁kara":12051,"▁uf,":12052,"teria\r\n":12053,"terrán":12054,"tud,":12055,"▁crez":12056,"▁crece":12057,"éndose":12058,"▁roca":12059,"▁round":12060,"▁rolando":12061,"▁cance":12062,"▁cangu":12063,"▁extran":12064,"▁mamame":12065,"▁lig":12066,"▁litro":12067,"▁lima\r\n":12068,"▁libra":12069,"▁lidio":12070,"▁nex":12071,"▁neón\r\n":12072,"▁nemo\r\n":12073,"▁bienes":12074,"▁'lante\r\n":12075,"▁baul":12076,"sito":12077,"sión,":12078,"▁hablarte":12079,"▁rapp":12080,"▁sapo\r\n":12081,"▁haceme":12082,"▁ful":12083,"▁moda,":12084,"▁corres":12085,"▁cortas":12086,"▁cortan":12087,"▁cortes":12088,"▁cortando":12089,"▁corillo":12090,"▁cordill":12091,"▁impe":12092,"taste\r\n":12093,"tana\r\n":12094,"tante,":12095,"▁resolver":12096,"▁pony\r\n":12097,"▁ponés":12098,"▁pongo,":12099,"▁ponce,":12100,"icos\r\n":12101,"▁propa":12102,"▁pro-pro-pro":12103,"▁propongo":12104,"▁solté":12105,"▁bocha":12106,"▁bocin":12107,"▁bocón\r\n":12108,"▁distancia\r\n":12109,"cencia\r\n":12110,"▁there":12111,"cara,":12112,"▁buenas,":12113,"h-ya":12114,"h-ah,":12115,"▁lucha\r\n":12116,"▁false":12117,"▁faltan\r\n":12118,"▁casas":12119,"▁complas":12120,"▁guin":12121,"▁guía\r\n":12122,"▁guante":12123,"▁baja,":12124,"▁montar":12125,"▁apos":12126,"▁platos,":12127,"▁mueca":12128,"▁mueca\r\n":12129,"▁muere\r\n":12130,"▁mueve,":12131,"ciona\r\n":12132,"cione'\r\n":12133,"▁viento,":12134,"▁palo\r\n":12135,"▁palad":12136,"▁palma\r\n":12137,"▁palmera\r\n":12138,"tender":12139,"▁sígue":12140,"▁calle'":12141,"▁god\r\n":12142,"▁god,":12143,"▁dudo":12144,"▁dudas":12145,"▁olas\r\n":12146,"rimas\r\n":12147,"▁vuelve\r\n":12148,"▁decida\r\n":12149,"▁decisión\r\n":12150,"▁abe":12151,"▁abdo":12152,"▁abran":12153,"▁abuelo":12154,"▁marr":12155,"▁pensó":12156,"▁pensalo":12157,"▁pisa":12158,"▁pisando":12159,"▁tama":12160,"▁dado\r\n":12161,"▁dates,":12162,"▁daña\r\n":12163,"cones\r\n":12164,"encias\r\n":12165,"encible\r\n":12166,"▁toma\r\n":12167,"▁tomé\r\n":12168,"▁escrito\r\n":12169,"▁escrita\r\n":12170,"▁escritura":12171,"▁trap?":12172,"▁fatal\r\n":12173,"▁force":12174,"▁forro,":12175,"▁forma,":12176,"▁doña":12177,"▁dopado":12178,"▁-ra":12179,"▁-mor":12180,"▁esperab":12181,"▁masera":12182,"guito":12183,"▁cuenten":12184,"▁gustar":12185,"▁gustó":12186,"▁quieren,":12187,"▁recto":12188,"▁reclam":12189,"▁despla":12190,"▁cambios":12191,"▁ayer,":12192,"▁primo,":12193,"▁primero,":12194,"ándote,":12195,"toria\r\n":12196,"▁really":12197,"▁vali":12198,"▁valla":12199,"▁valora":12200,"▁moral":12201,"▁mordi":12202,"▁éx":12203,"▁guata":12204,"▁joda\r\n":12205,"▁jode\r\n":12206,"▁jowe":12207,"▁suena,":12208,"▁fea\r\n":12209,"▁feo,\r\n":12210,"▁¡esto":12211,"▁¡cazz":12212,"▁díganme":12213,"▁quedes\r\n":12214,"▁quedarme\r\n":12215,"▁chata":12216,"▁certe":12217,"▁fire":12218,"▁filo":12219,"▁file":12220,"▁fijo\r\n":12221,"▁sombras":12222,"▁\"no":12223,"▁\"ho":12224,"▁\"wh":12225,"▁volvere":12226,"▁volveremos":12227,"▁medicación":12228,"▁banca":12229,"▁bandos":12230,"▁bancar":12231,"▁banda,":12232,"▁banca\r\n":12233,"▁banana":12234,"▁bling\r\n":12235,"▁onda,":12236,"▁escuchas":12237,"▁clavo,":12238,"▁clack,":12239,"ca,\r\n":12240,"▁sueldo":12241,"▁sueltas":12242,"▁decirlo\r\n":12243,"▁amiga\r\n":12244,"▁amiga,":12245,"▁beso'":12246,"▁cola\r\n":12247,"▁colón":12248,"▁instante\r\n":12249,"▁brilla\r\n":12250,"▁tal,":12251,"dores,":12252,"▁quedate":12253,"▁gain\r\n":12254,"▁mataría":12255,"▁importancia":12256,"llo!\r\n":12257,"▁presento":12258,"▁sentimiento\r\n":12259,"▁obr":12260,"▁pierdo,":12261,"▁pierdas,":12262,"fern":12263,"▁gustaba":12264,"▁trono":12265,"▁bailame,":12266,"caste\r\n":12267,"▁preguntas":12268,"▁preguntas\r\n":12269,"▁preguntale":12270,"thside,":12271,"velo\r\n":12272,"▁moneda\r\n":12273,"▁monedas\r\n":12274,"uría":12275,"▁trib":12276,"▁tripp":12277,"▁todas,":12278,"▁regis":12279,"▁regale":12280,"▁reglas":12281,"▁mind\r\n":12282,"▁mintiendo\r\n":12283,"▁woah\r\n":12284,"▁interfi":12285,"▁respeto,":12286,"cía,":12287,"▁auh,":12288,"▁auu\r\n":12289,"▁peni":12290,"▁penas":12291,"▁guerri":12292,"▁guerras":12293,"▁shock\r\n":12294,"▁tranqui,":12295,"▁tranquila":12296,"▁encontrás\r\n":12297,"▁papillo":12298,"▁entende":12299,"▁entendió":12300,"▁loco?\r\n":12301,"▁i'ma":12302,"▁polar":12303,"▁perdimos":12304,"▁perdido,":12305,"▁perdiéndome":12306,"▁disparando":12307,"▁droga'o\r\n":12308,"utri":12309,"▁doli":12310,"▁hombres":12311,"▁homosex":12312,"▁balan":12313,"▁huele\r\n":12314,"▁llorando,":12315,"▁llore'\r\n":12316,"▁traición":12317,"ineo\r\n":12318,"onau":12319,"▁pegao":12320,"▁tirao":12321,"▁señal":12322,"▁vivió":12323,"h-oh-oh-oh\r\n":12324,"▁batall":12325,"▁niveles":12326,"▁chupa,":12327,"▁chupen":12328,"▁llenas":12329,"▁llena\r\n":12330,"▁ja-ja":12331,"▁entiendas\r\n":12332,"▁kitch":12333,"▁encuentres":12334,"▁cheto":12335,"▁cheto\r\n":12336,"▁cheques":12337,"▁alejo\r\n":12338,"▁aprendo\r\n":12339,"▁hará":12340,"▁bufan":12341,"▁foto,":12342,"▁foco\r\n":12343,"▁subes":12344,"▁trabajan":12345,"▁trabajar":12346,"▁trabajar\r\n":12347,"▁trabajen,":12348,"▁oso\r\n":12349,"▁osama":12350,"▁seguía":12351,"▁jean":12352,"▁jevo":12353,"▁llevarme":12354,"▁dueños":12355,"▁dueño\r\n":12356,"▁despido\r\n":12357,"▁enamores":12358,"▁recorri":12359,"▁constante":12360,"▁ciencia\r\n":12361,"▁andate":12362,"▁salida,":12363,"▁cruce":12364,"▁entonce'\r\n":12365,"▁estrella\r\n":12366,"▁muevelo":12367,"▁terminó\r\n":12368,"▁mari\r\n":12369,"▁maripos":12370,"▁robando":12371,"▁gastan":12372,"▁supera,":12373,"▁diferente,":12374,"▁fundo":12375,"▁hormi":12376,"▁horizon":12377,"▁olvidé\r\n":12378,"▁ayuden":12379,"▁vestir":12380,"tir,":12381,"▁escribía":12382,"▁escribe,":12383,"▁bombi":12384,"▁viviendo\r\n":12385,"▁cuidado\r\n":12386,"▁personal,":12387,"▁personaje\r\n":12388,"▁entré":12389,"▁borin":12390,"▁borde":12391,"one'\r\n":12392,"▁improvisada\r\n":12393,"▁listen":12394,"▁puerco":12395,"▁sirve,":12396,"▁cuelgo":12397,"▁plomo":12398,"omotor":12399,"▁pasara":12400,"▁buscate":12401,"▁humano":12402,"▁humanos":12403,"▁recibi":12404,"▁recibir":12405,"coro":12406,"▁guardo\r\n":12407,"▁prision":12408,"▁drip":12409,"▁adiós":12410,"▁competencia":12411,"▁chamo":12412,"▁pelear":12413,"▁enseñe":12414,"▁enseñó":12415,"▁enseñamos":12416,"▁'tabamos":12417,"▁chance":12418,"cular\r\n":12419,"▁mcdon":12420,"▁segunda\r\n":12421,"▁segundo,":12422,"▁ándal":12423,"▁contamin":12424,"▁sentencia\r\n":12425,"▁torta":12426,"▁poca-po":12427,"▁crisis":12428,"ton,":12429,"▁pelé":12430,"▁fronti":12431,"▁amarra":12432,"▁encanto\r\n":12433,"▁señorita\r\n":12434,"▁trece\r\n":12435,"▁completa":12436,"▁papeles,":12437,"hot\r\n":12438,"▁armados":12439,"▁copiando":12440,"▁billete\r\n":12441,"▁ojitos":12442,"▁quisiera\r\n":12443,"▁invencible\r\n":12444,"▁inviernos":12445,"▁causando":12446,"▁¿quiénes":12447,"▁perfección\r\n":12448,"▁imagen":12449,"▁contesto":12450,"▁responder\r\n":12451,"▁enamorar":12452,"▁escuchado\r\n":12453,"▁transmi":12454,"▁transpor":12455,"▁embru":12456,"▁guillo":12457,"▁activo":12458,"▁atreví":12459,"▁flash\r\n":12460,"▁espejis":12461,"▁violeta\r\n":12462,"▁comprome":12463,"▁salud":12464,"▁jaja,":12465,"▁problemas?":12466,"▁bruto\r\n":12467,"▁entere":12468,"▁enterrar":12469,"▁lunes":12470,"▁oh-oh":12471,"ticos\r\n":12472,"▁trappin":12473,"▁desconf":12474,"▁desconfi":12475,"▁verso,":12476,"▁lanzo":12477,"▁ciudad,":12478,"▁botellas":12479,"▁haters,":12480,"▁tuyo,":12481,"▁aceptar\r\n":12482,"▁ideas\r\n":12483,"▁hooka":12484,"▁cómo,":12485,"▁pagan\r\n":12486,"tienes":12487,"▁azú":12488,"▁flores\r\n":12489,"▁flore'\r\n":12490,"▁humilde\r\n":12491,"▁adecu":12492,"▁madre,":12493,"▁descenso,":12494,"▁felicita":12495,"▁felicidad\r\n":12496,"▁reno":12497,"▁comprendido\r\n":12498,"▁derrito":12499,"▁difícil,":12500,"▁dijeron\r\n":12501,"▁trump\r\n":12502,"▁aqui,":12503,"▁aqui\r\n":12504,"▁lindo":12505,"▁depres":12506,"▁belle":12507,"▁pagué\r\n":12508,"▁niego\r\n":12509,"▁critican":12510,"▁show'\r\n":12511,"▁preguntan:":12512,"▁unidos":12513,"▁violencia":12514,"▁pueblo,":12515,"▁pueblos":12516,"▁goteo,":12517,"▁crimen":12518,"▁dientes,":12519,"▁hey!":12520,"▁hey!\r\n":12521,"▁respiro\r\n":12522,"▁respirar,":12523,"▁posiciones":12524,"▁libretas\r\n":12525,"▁rappers":12526,"▁fallon\r\n":12527,"▁mezcla":12528,"▁jugadas":12529,"▁temas,":12530,"▁contando\r\n":12531,"▁pudieron":12532,"▁estudia":12533,"▁skill,":12534,"▁debemos":12535,"▁fars":12536,"▁farma":12537,"▁jordan,":12538,"▁hotel":12539,"▁hotel,":12540,"▁meterse":12541,"▁perdono":12542,"▁víctima":12543,"▁buscan,":12544,"▁montada":12545,"▁valores\r\n":12546,"▁inteligencia":12547,"pantes\r\n":12548,"▁secreta\r\n":12549,"▁preguntaba":12550,"▁navegando":12551,"▁plaka-plaka":12552,"▁honor\r\n":12553,"▁globo":12554,"▁ahorita":12555,"▁player\r\n":12556,"▁envol":12557,"▁pegó\r\n":12558,"▁acelera\r\n":12559,"▁mostré":12560,"▁pateando":12561,"▁patek\r\n":12562,"▁virtud":12563,"▁raya\r\n":12564,"▁matándome":12565,"▁apuesto\r\n":12566,"▁joyero\r\n":12567,"▁bonito":12568,"▁follo":12569,"▁ocasión":12570,"▁naciste":12571,"▁monopol":12572,"▁wachos,":12573,"▁24/":12574,"▁derroche":12575,"▁labia\r\n":12576,"▁diego\r\n":12577,"▁diecis":12578,"▁reflex":12579,"▁escribimos":12580,"▁triple'":12581,"▁triple',":12582,"▁disfruta":12583,"▁disfruto":12584,"▁reggaeton,":12585,"▁hundi":12586,"▁ruido,":12587,"▁esperanza\r\n":12588,"▁competición\r\n":12589,"▁reloj,":12590,"▁agradezco":12591,"▁delincuentes\r\n":12592,"▁condena":12593,"▁payaso\r\n":12594,"▁limpia":12595,"▁empresario,":12596,"▁pantalla\r\n":12597,"▁tristeza":12598,"▁demasiada":12599,"▁peligro\r\n":12600,"▁ajena\r\n":12601,"▁nombra":12602,"▁récor":12603,"▁resultado\r\n":12604,"▁derecha":12605,"▁derecho\r\n":12606,"▁representando,":12607,"▁bombay\r\n":12608,"▁hambre,":12609,"▁azules":12610,"▁hábi":12611,"▁hábl":12612,"▁gallo,":12613,"▁video":12614,"▁legal":12615,"▁regreses\r\n":12616,"▁enoj":12617,"▁compitiendo":12618,"▁tirenme":12619,"▁creyendo":12620,"▁mundial,":12621,"▁bullshi":12622,"▁cruzan":12623,"▁ñeris":12624,"▁lograr":12625,"▁conecta":12626,"▁haciendo\r\n":12627,"▁maestro":12628,"▁trapper'":12629,"▁gratis,":12630,"▁dolores\r\n":12631,"▁aprendí\r\n":12632,"▁tablero":12633,"▁persigo":12634,"▁persigue":12635,"▁aniqui":12636,"▁hiere\r\n":12637,"▁actuando":12638,"▁contenido":12639,"▁abrazo\r\n":12640,"▁hubieses":12641,"▁bronce,":12642,"▁quítate":12643,"▁arrebata":12644,"▁birra":12645,"▁birds\r\n":12646,"▁caché\r\n":12647,"▁vacuna":12648,"▁mueren...\r\n":12649,"▁sensación\r\n":12650,"▁escalera":12651,"▁reconoci":12652,"▁nudo":12653,"▁nuca\r\n":12654,"▁encapu":12655,"▁maquina":12656,"▁cocina":12657,"▁luces,":12658,"▁jugando\r\n":12659,"▁90":12660,"▁crazy\r\n":12661,"▁idiota":12662,"▁alemán\r\n":12663,"▁xanax":12664,"▁aterriza\r\n":12665,"▁educar":12666,"▁sistema\r\n":12667,"▁sepas\r\n":12668,"▁divertido\r\n":12669,"▁supieran":12670,"▁vació\r\n":12671,"▁¡ay":12672,"▁derrama":12673,"▁desaparece\r\n":12674,"▁cocinando":12675,"▁kaiser":12676,"▁karma\r\n":12677,"▁prosa\r\n":12678,"▁empecé\r\n":12679,"▁advers":12680,"▁advertí\r\n":12681,"▁bellaque":12682,"▁bhavi,":12683,"▁deporte":12684,"▁comentarios":12685,"▁tucun\r\n":12686,"▁matarnos!\r\n":12687,"▁jefes":12688,"▁¿querían":12689,"gues,":12690,"▁clean,":12691,"▁ladrón\r\n":12692,"▁fendi\r\n":12693,"▁face-ta":12694,"▁madrugada":12695,"▁destruya\r\n":12696,"▁próximo":12697,"▁impresionante\r\n":12698,"▁identidad":12699,"▁edifici":12700,"▁deuda":12701,"▁insecto\r\n":12702,"▁lengua\r\n":12703,"▁teléfono":12704,"▁tuvimos":12705,"▁tuviera":12706,"▁inici":12707,"▁pequeño":12708,"▁pequeña":12709,"▁impaga\r\n":12710,"▁impacto\r\n":12711,"▁colchón\r\n":12712,"▁mediocres":12713,"▁borracho":12714,"▁vídeo'":12715,"▁lady":12716,"▁intacto,":12717,"▁west\r\n":12718,"▁publico":12719,"▁lil'":12720,"▁merecés\r\n":12721,"▁psicólogo":12722,"▁chorro":12723,"▁versati":12724,"▁rally\r\n":12725,"▁rivales":12726,"▁caramelo'":12727,"▁urban":12728,"▁modelo":12729,"▁corriendo,":12730,"▁billete'":12731,"▁diamantes\r\n":12732,"▁condiciones\r\n":12733,"▁estúpido":12734,"▁livin'":12735,"▁barato\r\n":12736,"▁good":12737,"▁terreno":12738,"▁vuelo,\r\n":12739,"▁pesadilla":12740,"▁conseguir":12741,"▁monstruo,":12742,"▁ejecuto":12743,"oh!":12744,"úlpame":12745,"▁honesto":12746,"▁fernando\r\n":12747,"▁vagina":12748,"▁pecados":12749,"▁skrrt,":12750,"▁colectivo":12751,"▁suicida":12752,"▁detalle\r\n":12753,"▁hosti":12754,"▁descubri":12755,"▁persegui":12756,"▁thug":12757,"▁fallarías":12758,"▁mmh,":12759,"▁lagrimas":12760,"▁yo'-y":12761,"▁¿está":12762,"▁asap":12763,"▁ambidies":12764,"▁reventar\r\n":12765,"▁cheese\r\n":12766,"▁agresivo\r\n":12767,"▁2016":12768,"▁concentra\r\n":12769,"▁referente\r\n":12770,"▁limus":12771,"▁busques,":12772,"▁conocí\r\n":12773,"▁defender":12774,"▁worldwi":12775,"▁ansiedad":12776,"▁efecto":12777,"▁sensi":12778,"▁congela":12779,"▁revivi":12780,"▁injusto":12781,"▁carretera\r\n":12782,"▁accidente\r\n":12783,"▁prensado":12784,"▁corren,":12785,"▁discúlpame":12786,"▁-eh,":12787,"▁tarjetas":12788,"▁desconoci":12789,"▁twerk,":12790,"▁intocab":12791,"▁pensaste?":12792,"▁whoa\r\n":12793,"▁16\r\n":12794,"▁demuestran":12795,"▁argumento\r\n":12796,"▁ñejo":12797,"▁tropiez":12798,"▁acompañado\r\n":12799,"▁nariz":12800,"▁quebrado\r\n":12801,"▁teñir":12802,"▁itali":12803,"▁desampar":12804,"▁desamor\r\n":12805,"▁randy":12806,"▁randy\r\n":12807,"▁escúchame":12808,"▁infinito":12809,"▁ocurrirá\r\n":12810,"▁garanti":12811,"▁consecuencias":12812,"▁twenty":12813,"▁mvp,":12814,"▁syko":12815,"▁lord":12816,"▁grasa\r\n":12817,"▁reemplaz":12818,"▁madura\r\n":12819,"▁fallaste\r\n":12820,"▁frágil\r\n":12821,"▁prendí,":12822,"▁asesinato\r\n":12823,"▁convertirse":12824,"▁estupidez":12825,"▁#mododiablo,":12826,"▁diciembre\r\n":12827,"▁nafta":12828,"▁independ":12829,"▁caíste\r\n":12830,"▁aczino\r\n":12831,"▁juguete\r\n":12832,"▁terraza\r\n":12833,"▁insomnio\r\n":12834,"▁balenciaga":12835,"▁tremendo":12836,"▁combinan":12837,"▁liricista":12838,"▁demole":12839,"▁vvs\r\n":12840,"▁eladio":12841,"▁porquería,":12842,"▁southside,":12843,"▁¿ves,":12844,"▁explí":12845,"▁fierro":12846,"▁gimnas":12847,"▁equilibri":12848,"ight":12849,"▁uhhh,":12850,"▁au-au,cuida":12851,"▁linea":12852,"▁enserio\r\n":12853,"▁sembrar":12854,"▁christian":12855,"▁picarla":12856,"▁podemo'":12857,"▁cobain\r\n":12858,"▁blister":12859,"▁encuentran\r\n":12860,"▁infeliz\r\n":12861,"▁despedida\r\n":12862,"▁inocentes":12863,"▁vecindario\r\n":12864,"▁absoluta\r\n":12865,"▁órbi":12866,"▁adoles":12867,"▁avalan":12868,"▁pa-pa-pa":12869,"▁rómp":12870,"▁astronau":12871,"▁duketo":12872,"mbulo\r\n":12873,"▁repleto":12874,"▁background\r\n":12875,"▁janguiando…\r\n":12876,"▁nananananananau":12877,"▁tururuturututu...uuhh!\r\n":12878,"ándalo\r\n":12879,"▁oniria\r\n":12880,"▁márm":12881,"▁infraval":12882,"▁envíame":12883,"▁episo":12884,"▁tiemble":12885,"▁carcasa\r\n":12886,"▁¡cazzu":12887,"▁homosexu":12888,"▁ja-ja-ja\r\n":12889,"▁ándale,":12890,"▁au-au,cuidau":12891,"!\"\r\n":12892,"'?\r\n":12893,"-do":12894,"-cu":12895,"-fi":12896,"-he":12897,"-yea":12898,"-ba-":12899,".o":12900,";\r\n":12901,"?\"":12902,"??\r\n":12903,"bes":12904,"cás":12905,"cando\r\n":12906,"camente\r\n":12907,"dame,":12908,"dés\r\n":12909,"dense":12910,"dá'\r\n":12911,"eber":12912,"ft":12913,"fari":12914,"gó":12915,"gga":12916,"han":12917,"hum":12918,"her,":12919,"ham\r\n":12920,"ik":12921,"igo\r\n":12922,"izo\r\n":12923,"iva\r\n":12924,"jico\r\n":12925,"ku":12926,"kas":12927,"kis":12928,"kina\r\n":12929,"ken\r\n":12930,"lari":12931,"my\r\n":12932,"mero\r\n":12933,"menta":12934,"mund":12935,"mala\r\n":12936,"nn":12937,"nos,":12938,"norm":12939,"oh,":12940,"opa":12941,"pas,":12942,"pton":12943,"rs":12944,"ró\r\n":12945,"tv":12946,"tt\r\n":12947,"tona":12948,"tín\r\n":12949,"ubi":12950,"uran":12951,"uro\r\n":12952,"uoh\r\n":12953,"vas,":12954,"vara":12955,"vén,":12956,"wty":12957,"xel":12958,"xia":12959,"áfa":12960,"é',":12961,"écil":12962,"ído\r\n":12963,"íso":12964,"ña,":12965," es":12966," de":12967,"▁!":12968,"▁eo\r\n":12969,"▁mó":12970,"▁mendo":12971,"▁mtv":12972,"▁pó":12973,"▁pla\r\n":12974,"▁pár":12975,"▁so,":12976,"▁squ":12977,"▁stal":12978,"▁stone":12979,"▁c,":12980,"▁cí":12981,"▁cun":12982,"▁cran":12983,"▁cera":12984,"▁cuna":12985,"▁centro\r\n":12986,"▁tó":12987,"▁tun":12988,"▁to\r\n":12989,"▁ting":12990,"▁dun":12991,"▁duel":12992,"▁dar,":12993,"▁dm\r\n":12994,"▁api":12995,"▁ata\r\n":12996,"▁agui":12997,"▁ache":12998,"▁a-e-":12999,"▁aah\r\n":13000,"▁atarme":13001,"eri":13002,"erto,":13003,"erme\r\n":13004,"en,\r\n":13005,"▁yam":13006,"▁name,":13007,"▁que...\r\n":13008,"▁que...":13009,"▁quemán":13010,"▁queman\r\n":13011,"▁eskina\r\n":13012,"ardo":13013,"arse":13014,"osa\r\n":13015,"osa,":13016,"▁deat":13017,"▁dead\r\n":13018,"▁decoro\r\n":13019,"▁deficiente\r\n":13020,"así":13021,"▁v.i.":13022,"orn":13023,"▁now,":13024,"▁no-ya":13025,"▁lay":13026,"▁lamo":13027,"▁lagar":13028,"▁lakers\r\n":13029,"▁ho\r\n":13030,"▁heli":13031,"▁hone":13032,"▁hola\r\n":13033,"▁h-i-e-":13034,"est":13035,"esto\r\n":13036,"▁enchu":13037,"▁endiab":13038,"▁metan":13039,"▁bla,":13040,"▁bár":13041,"▁b-i":13042,"tex":13043,"tele":13044,"teme":13045,"tell":13046,"te?\r\n":13047,"telo,":13048,"tel\r\n":13049,"remo":13050,"▁mito":13051,"▁mios\r\n":13052,"▁micha":13053,"▁miente,":13054,"ala,":13055,"ratari":13056,"▁festi":13057,"tado,":13058,"taje":13059,"tame,":13060,"town\r\n":13061,"▁lodo\r\n":13062,"▁loba":13063,"▁lola-lola-lo":13064,"▁under\r\n":13065,"▁unica":13066,"▁teles":13067,"▁temer":13068,"▁sian\r\n":13069,"▁conche":13070,"▁conté":13071,"▁yo!":13072,"amita":13073,"amiento":13074,"dak":13075,"▁set":13076,"▁seda":13077,"▁sed,":13078,"▁secarme":13079,"▁por\r\n":13080,"▁poron":13081,"▁hate":13082,"▁hadas":13083,"ci,":13084,"cié":13085,"ci\r\n":13086,"cid\r\n":13087,"▁gta":13088,"▁gala":13089,"rip":13090,"rio\r\n":13091,"ero'\r\n":13092,"▁comía":13093,"▁compo":13094,"▁combe":13095,"▁comenta":13096,"levo\r\n":13097,"▁did":13098,"▁dig":13099,"▁dias\r\n":13100,"▁dick":13101,"▁dior\r\n":13102,"▁diva":13103,"▁dieta":13104,"▁diccion":13105,"▁diciendo\r\n":13106,"▁och":13107,"late\r\n":13108,"abel":13109,"▁tubo":13110,"▁pati":13111,"▁paja":13112,"▁patin":13113,"▁paka\r\n":13114,"▁pacan,":13115,"chado":13116,"chas,":13117,"chito":13118,"▁too'":13119,"▁tobi":13120,"▁quil":13121,"▁quiró":13122,"▁quise\r\n":13123,"▁estas\r\n":13124,"▁pari":13125,"▁paro,":13126,"▁paramos":13127,"▁pararte":13128,"▁partes,":13129,"deci":13130,"de',":13131,"del\r\n":13132,"▁alam":13133,"▁alla":13134,"▁alzar":13135,"▁altura":13136,"▁aluc":13137,"▁altura,":13138,"▁alpla":13139,"▁altitu":13140,"▁alboro":13141,"▁ten,":13142,"▁tentá":13143,"▁tennes":13144,"▁cu'":13145,"▁cuá":13146,"▁cuí":13147,"us,":13148,"uste":13149,"▁ida":13150,"▁ill":13151,"▁ira\r\n":13152,"▁iles":13153,"▁iban":13154,"▁reda":13155,"▁rema":13156,"▁remo":13157,"▁reza":13158,"▁redes\r\n":13159,"▁refr":13160,"▁reina,":13161,"▁remera":13162,"▁relevo\r\n":13163,"dice":13164,"dieron":13165,"capa":13166,"cacha,":13167,"olanza,":13168,"▁vip":13169,"▁vice":13170,"▁vill":13171,"▁vicio,":13172,"▁leer\r\n":13173,"▁jó":13174,"▁jno":13175,"▁jala":13176,"▁soy?\r\n":13177,"isto\r\n":13178,"ismo,":13179,"ismo,\r\n":13180,"▁tij":13181,"▁timi":13182,"▁tipo,":13183,"▁tigre":13184,"▁suje":13185,"▁supero":13186,"▁suyo\r\n":13187,"▁deste":13188,"▁desci":13189,"▁despo":13190,"▁descos":13191,"▁desib":13192,"▁desvelo\r\n":13193,"▁nate":13194,"▁nadien":13195,"cop":13196,"▁raí":13197,"▁rabi":13198,"▁rada\r\n":13199,"▁rabo":13200,"▁ra-ta-ta":13201,"▁paraíso":13202,"▁mah":13203,"▁matr":13204,"▁ma.\r\n":13205,"▁madera\r\n":13206,"▁saban":13207,"▁sabía\r\n":13208,"▁sabia":13209,"▁saber,":13210,"▁sabid":13211,"▁iné":13212,"▁intro":13213,"▁indu":13214,"▁ingra":13215,"▁incin":13216,"▁cagas":13217,"▁cague":13218,"▁caño\r\n":13219,"▁delica":13220,"llan":13221,"llando":13222,"▁soul":13223,"▁soko":13224,"▁perla":13225,"▁perdes":13226,"▁perla,":13227,"▁perla\r\n":13228,"▁perros,\r\n":13229,"▁máscara":13230,"uél":13231,"▁estamp":13232,"▁estatua":13233,"▁nican":13234,"▁veter":13235,"▁vemos\r\n":13236,"▁chino\r\n":13237,"▁choro":13238,"▁w,":13239,"▁won":13240,"▁verb":13241,"▁veri":13242,"▁veras":13243,"▁verlo,":13244,"▁verás\r\n":13245,"▁versión":13246,"▁piro":13247,"▁pich":13248,"▁pimp":13249,"▁pipi":13250,"▁picando":13251,"▁pija\r\n":13252,"▁pif\r\n":13253,"▁pichu":13254,"▁pirate":13255,"▁piezas":13256,"▁trae\r\n":13257,"▁tramo":13258,"▁tragar":13259,"▁trama\r\n":13260,"▁traji":13261,"▁tragues,":13262,"▁pasillo":13263,"▁mudarme":13264,"cura":13265,"cular":13266,"▁ana":13267,"▁anal":13268,"▁anuel":13269,"▁andas,":13270,"▁anóni":13271,"▁rú":13272,"▁ral":13273,"▁rra\r\n":13274,"▁rara":13275,"▁ráfa":13276,"▁voy?":13277,"▁miss":13278,"▁¿la":13279,"▁¿eso":13280,"cera\r\n":13281,"▁rie":13282,"▁rió":13283,"▁rien":13284,"▁ride":13285,"▁riendo":13286,"▁rial\r\n":13287,"▁right\r\n":13288,"▁yeah-yeah\r\n":13289,"▁pote":13290,"▁pop\r\n":13291,"▁poeta\r\n":13292,"▁pobres":13293,"▁hablo,":13294,"▁habría":13295,"▁salte":13296,"▁salía":13297,"▁saltando":13298,"▁salís":13299,"▁care":13300,"▁caras,":13301,"▁cartón\r\n":13302,"▁cartón":13303,"quisi":13304,"quis\r\n":13305,"quilla":13306,"quitos\r\n":13307,"▁vene":13308,"▁vendo\r\n":13309,"▁vencer":13310,"▁vendas":13311,"▁vende\r\n":13312,"▁puro,":13313,"▁pude,":13314,"▁puño,":13315,"▁pudre\r\n":13316,"▁hipo":13317,"▁hit\r\n":13318,"▁hijo'":13319,"▁ganado\r\n":13320,"▁serlo\r\n":13321,"▁sergio":13322,"▁ar\r\n":13323,"▁arde":13324,"▁armando":13325,"li,":13326,"lita":13327,"▁sonar\r\n":13328,"uelos":13329,"pa',":13330,"▁pein":13331,"▁pegue":13332,"▁pederas":13333,"▁tú?\r\n":13334,"pero\r\n":13335,"▁acon":13336,"ckham\r\n":13337,"▁mana":13338,"▁manía":13339,"▁maná,":13340,"▁maneras":13341,"▁came":13342,"▁camina\r\n":13343,"▁campo\r\n":13344,"▁camion":13345,"▁campes":13346,"▁mall,":13347,"▁cobr":13348,"▁cool\r\n":13349,"vez\r\n":13350,"..eo":13351,"▁cali\r\n":13352,"▁calmar":13353,"▁calcula":13354,"▁eso?":13355,"▁aman,":13356,"▁kas":13357,"▁kendo":13358,"▁komo":13359,"▁u\r\n":13360,"tuma":13361,"▁creés":13362,"▁creen\r\n":13363,"▁creías":13364,"▁crezca":13365,"▁creíste":13366,"tarse\r\n":13367,"▁tanque":13368,"▁tanta,":13369,"gulo\r\n":13370,"▁prra,":13371,"▁escla":13372,"▁rou":13373,"▁road":13374,"▁roce\r\n":13375,"▁rojos":13376,"▁rober":13377,"▁rojo,":13378,"▁cani":13379,"raste\r\n":13380,"low,":13381,"▁deja,":13382,"▁dejemos":13383,"▁ex,":13384,"▁exi":13385,"▁excel":13386,"▁exting":13387,"▁extermin":13388,"▁mambo":13389,"▁maman\r\n":13390,"▁life":13391,"▁litera":13392,"▁neo,":13393,"▁nemo,":13394,"▁necio,":13395,"▁hacerse":13396,"ilo\r\n":13397,"ily\r\n":13398,"▁bake":13399,"▁baño":13400,"▁bauti":13401,"▁baúl\r\n":13402,"▁ba-ba-":13403,"▁hablen\r\n":13404,"▁hablamo',":13405,"▁raps":13406,"▁sap":13407,"▁sador\r\n":13408,"▁saciar":13409,"▁sa-sa":13410,"▁hacemelo":13411,"▁hacemos,":13412,"▁donald":13413,"▁modes":13414,"▁movelo":13415,"▁mobb":13416,"▁cora\r\n":13417,"▁coros\r\n":13418,"▁corte,":13419,"▁hector":13420,"▁impre":13421,"tas,\r\n":13422,"▁resiste":13423,"▁resid":13424,"ense,":13425,"ues\r\n":13426,"uesto\r\n":13427,"▁ponemos":13428,"▁barr":13429,"▁barre":13430,"▁barba":13431,"▁barra\r\n":13432,"▁barats":13433,"▁bartender":13434,"garme\r\n":13435,"versa\r\n":13436,"▁proces":13437,"▁proyec":13438,"▁solía":13439,"▁solito":13440,"▁solito\r\n":13441,"▁solamente\r\n":13442,"▁soldado,":13443,"▁botar":13444,"▁dispu":13445,"▁dispens":13446,"▁costado\r\n":13447,"▁these":13448,"▁babin'":13449,"▁predi":13450,"▁predecir":13451,"▁quiere',":13452,"▁faltas":13453,"▁faltó":13454,"▁fallas\r\n":13455,"▁jugo":13456,"▁julio":13457,"dencia\r\n":13458,"▁herra":13459,"▁menta,":13460,"▁menor\r\n":13461,"▁meno',":13462,"▁menea\r\n":13463,"booh!":13464,"▁miradas\r\n":13465,"▁compró":13466,"see\r\n":13467,"selo,":13468,"▁verdadera":13469,"▁baje',":13470,"▁bajándolos":13471,"▁mona":13472,"▁montarse":13473,"▁bea":13474,"▁beckham\r\n":13475,
[...]
