{"version":"1.0","truncation":null,"padding":null,"added_tokens":[{"id":0,"special":true,"content":"[UNK]","single_word":false,"lstrip":false,"rstrip":false,"normalized":false},{"id":1,"special":true,"content":"[SEP]","single_word":false,"lstrip":false,"rstrip":false,"normalized":false}],"normalizer":null,"pre_tokenizer":{"type":"Metaspace","replacement":"▁","str_rep":"▁","add_prefix_space":true},"post_processor":{"type":"TemplateProcessing","single":[{"Sequence":{"id":"A","type_id":0}},{"SpecialToken":{"id":"[SEP]","type_id":0}}],"pair":[{"Sequence":{"id":"A","type_id":0}},{"Sequence":{"id":"B","type_id":1}}],"special_tokens":{"[SEP]":{"id":"[SEP]","ids":[1],"tokens":["[SEP]"]}}},"decoder":null,"model":{"type":"BPE","dropout":null,"unk_token":"[UNK]","continuing_subword_prefix":null,"end_of_word_suffix":null,"fuse_unk":false,"vocab":{"[UNK]":0,"[SEP]":1,"\n":2,"\r":3,"!":4,"\"":5,"#":6,"&":7,"'":8,"(":9,")":10,",":11,"-":12,".":13,"/":14,"0":15,"1":16,"2":17,"3":18,"4":19,"5":20,"6":21,"7":22,"8":23,"9":24,":":25,";":26,"?":27,"_":28,"a":29,"b":30,"c":31,"d":32,"e":33,"f":34,"g":35,"h":36,"i":37,"j":38,"k":39,"l":40,"m":41,"n":42,"o":43,"p":44,"q":45,"r":46,"s":47,"t":48,"u":49,"v":50,"w":51,"x":52,"y":53,"z":54,"":55,"":56,"":57,"¡":58,"¿":59,"à":60,"á":61,"é":62,"í":63,"ñ":64,"ó":65,"ú":66,"ü":67,"е":68," ":69,"—":70,"‘":71,"‚":72,"…":73," ":74,"▁":75,"\r\n":76,"▁e":77,"▁m":78,"▁p":79,"ue":80,"▁s":81,"▁l":82,"▁c":83,"▁t":84,"▁d":85,"▁a":86,"▁q":87,"er":88,"en":89,"▁y":90,"▁n":91,"▁que":92,"▁es":93,"an":94,"ar":95,"os":96,"▁de":97,"as":98,"▁v":99,"on":100,"or":101,"do":102,"▁no":103,"▁\r\n":104,"▁la":105,"▁el":106,"▁h":107,"es":108,"▁en":109,"un":110,"a\r\n":111,"o\r\n":112,"▁me":113,"▁b":114,"te":115,"re":116,"▁mi":117,"al":118,"in":119,"ra":120,"▁f":121,"ta":122,"to":123,"▁lo":124,"▁un":125,"▁te":126,"om":127,"▁si":128,"▁con":129,"▁yo":130,"go":131,"am":132,"ro":133,"da":134,"ui":135,"▁se":136,"▁por":137,"▁ha":138,"lo":139,"ci":140,"▁g":141,"ri":142,"ero":143,"▁com":144,"ando":145,"oy":146,"le":147,"ien":148,"▁di":149,"▁o":150,"ab":151,"la":152,"▁pa":153,"▁tu":154,"ch":155,"▁to":156,"▁qui":157,"▁est":158,"▁par":159,"o,":160,"▁los":161,"mp":162,"▁como":163,"que":164,"de":165,"▁al":166,"a,":167,"ce":168,"▁ten":169,"ti":170,"ón":171,"▁cu":172,"us":173,"▁i":174,"▁re":175,"h\r\n":176,"di":177,"▁pero":178,"ás":179,"ca":180,"ol":181,"▁vi":182,"▁le":183,"me":184,"▁j":185,"h,":186,"▁esto":187,"▁ya":188,"res":189,"▁soy":190,"is":191,"ent":192,"▁ye":193,"▁ti":194,"e\r\n":195,"▁su":196,"o'":197,"▁des":198,"▁na":199,"▁tengo":200,"▁las":201,"co":202,"os\r\n":203,"▁ra":204,"as\r\n":205,"▁porque":206,"▁para":207,"ente":208,"▁una":209,"▁ma":210,"▁sab":211,"▁in":212,"emp":213,"▁ca":214,"uen":215,"▁del":216,"▁pa'":217,"ar\r\n":218,"do\r\n":219,"vi":220,"▁per":221,"▁so":222,"▁más":223,"ué":224,"el":225,"▁ni":226,"▁esta":227,"▁ch":228,"il":229,"uer":230,"▁w":231,"▁ver":232,"▁ve":233,"es\r\n":234,"ga":235,"ma":236,"ora":237,"y,":238,"▁tra":239,"▁pas":240,"▁ah":241,"to\r\n":242,"▁quier":243,"▁mu":244,"▁an":245,"tr":246,"▁este":247,"▁pue":248,"▁va":249,"▁r":250,"▁voy":251,"um":252,"▁mis":253,"▁¿":254,"ía":255,"▁pi":256,"pi":257,"dad":258,"▁esc":259,"pe":260,"tra":261,"▁cuando":262,"▁estoy":263,"▁hab":264,"cer":265,"aj":266,"▁ri":267,"te\r\n":268,"y\r\n":269,"▁yea":270,"▁está":271,"ta\r\n":272,"▁mí":273,"▁po":274,"▁as":275,"▁siemp":276,"▁siempre":277,"▁am":278,"da\r\n":279,"bi":280,"▁sal":281,"mos":282,"?\r\n":283,"▁car":284,"▁quiero":285,"qui":286,"▁ven":287,"e,":288,"ón\r\n":289,"▁gan":290,"mo":291,"▁ser":292,"▁sin":293,"▁pu":294,"▁hi":295,"▁todo":296,"▁ent":297,"▁ar":298,"ic":299,"▁son":300,"ll":301,"'\r\n":302,"▁pe":303,"pa":304,"uel":305,"▁ac":306,"▁sé":307,"▁tú":308,"▁lle":309,"dos":310,"per":311,"▁vos":312,"▁man":313,"▁ll":314,"▁cam":315,"tro":316,"▁solo":317,"▁mal":318,"ran":319,"ve":320,"▁eso":321,"▁cal":322,"▁co":323,"▁tien":324,"▁ahora":325,"der":326,"▁hay":327,"tar":328,"▁k":329,"ck":330,"ba":331,"▁u":332,"ter":333,"▁cre":334,"▁tan":335,"..":336,"én":337,"▁qué":338,"vo":339,"án":340,"gu":341,"▁nos":342,"ari":343,"tu":344,"to,":345,"▁ro":346,"▁pr":347,"▁cl":348,"▁can":349,"ras":350,"mi":351,"ing":352,"low":353,"▁dej":354,"▁ex":355,"▁mam":356,"',":357,"iendo":358,"ces":359,"go\r\n":360,"cu":361,"par":362,"▁bien":363,"▁hacer":364,"▁ella":365,"▁ne":366,"▁ba":367,"ta,":368,"▁'":369,"▁habl":370,"▁así":371,"▁bus":372,"amos":373,"▁rap":374,"▁hace":375,"▁sa":376,"▁li":377,"▁don":378,"cho":379,"▁mo":380,"▁cor":381,"endo":382,"▁he":383,"ens":384,"▁imp":385,"tas":386,"bre":387,"ir":388,"po":389,"man":390,"tan":391,"▁res":392,"das":393,"és":394,"tes":395,"ues":396,"ento":397,"▁pon":398,"▁bar":399,"▁flow":400,"gar":401,"▁nun":402,"ver":403,"za":404,"▁dis":405,"li":406,"▁todos":407,"▁fue":408,"▁sol":409,"▁pro":410,"▁has":411,"▁bo":412,"si":413,"os,":414,"!\r\n":415,"▁yeah\r\n":416,"or\r\n":417,"▁th":418,"▁bab":419,"▁nunca":420,"cen":421,"jo":422,"▁buen":423,"da,":424,"▁pre":425,"▁dice":426,"h-":427,"▁fu":428,"mas":429,"▁ci":430,"▁hago":431,"lo,":432,"▁quiere":433,"▁hoy":434,"▁lu":435,"▁tiene":436,"▁fal":437,"den":438,"▁ju":439,"▁her":440,"era":441,"▁men":442,"gan":443,"▁sh":444,"▁cas":445,"qu":446,"car":447,"▁hasta":448,"bo":449,"▁esa":450,"▁vez":451,"▁vol":452,"▁mira":453,"ke":454,"fi":455,"ra\r\n":456,"ru":457,"ren":458,"▁comp":459,"ado":460,"▁mej":461,"al\r\n":462,"se":463,"s\r\n":464,"ame":465,"▁verdad":466,"▁gu":467,"▁baj":468,"▁ap":469,"▁no,":470,"▁mon":471,"▁mier":472,"tos":473,"▁pla":474,"te,":475,"▁mue":476,"des":477,"▁ey,":478,"ble":479,"▁ho":480,"▁yeah,":481,"▁be":482,"er\r\n":483,"enci":484,"lo\r\n":485,"ty":486,"▁cos":487,"▁llam":488,"ez":489,"▁vien":490,"▁pal":491,"▁nadi":492,"▁mami":493,"▁escu":494,"▁sí":495,"ina":496,"ca\r\n":497,"cion":498,"▁tiemp":499,"t\r\n":500,"no":501,"▁vas":502,"▁calle":503,"▁go":504,"tal":505,"▁ol":506,"▁du":507,"▁cab":508,"▁to'":509,"▁mar":510,"cha":511,"▁mejor":512,"▁sabe":513,"arme":514,"▁herman":515,"▁noch":516,"vis":517,"es,":518,"▁enc":519,"▁tus":520,"▁aun":521,"an\r\n":522,".\r\n":523,"as,":524,"rim":525,"ente\r\n":526,"▁vuel":527,"▁ese":528,"▁deci":529,"va":530,"co\r\n":531,"ar,":532,"▁bi":533,"▁sigo":534,"▁donde":535,"▁muy":536,"▁aunque":537,"▁puedo":538,"▁ab":539,"▁nue":540,"▁vida":541,"▁sos":542,"▁pens":543,"▁otra":544,"ía\r\n":545,"▁perd":546,"ro\r\n":547,"▁pis":548,"▁tam":549,"▁da":550,"mb":551,"▁you":552,"ro,":553,"ómo":554,"gun":555,"ando\r\n":556,"▁nada":557,"▁saben":558,"▁rom":559,"▁sabes":560,"▁fr":561,"▁rape":562,"▁acá":563,"lan":564,"mo'":565,"ten":566,"do,":567,"ón,":568,"ino":569,"go,":570,"▁tom":571,"quí":572,"▁us":573,"▁nadie":574,"▁pare":575,"▁escri":576,"▁trap":577,"ana":578,"▁muer":579,"▁mierda":580,"▁conmi":581,"ub":582,"ún":583,"▁aquí":584,"ad":585,"▁for":586,"▁fa":587,"▁-":588,"▁do":589,"je":590,"é\r\n":591,"▁barri":592,"la\r\n":593,"▁busc":594,"▁my":595,"▁esper":596,"▁ey\r\n":597,"▁toda":598,"▁fre":599,"ción\r\n":600,"ma\r\n":601,"la,":602,"▁mas":603,"▁rec":604,"gui":605,"▁or":606,"▁estás":607,"d\r\n":608,"▁emp":609,"r\r\n":610,"▁día":611,"▁pien":612,"so":613,"ño":614,"▁eres":615,"qué":616,"vo\r\n":617,"▁quer":618,"▁ah,":619,"▁vengo":620,"▁mun":621,"▁cuen":622,"de\r\n":623,"ga\r\n":624,"▁dos":625,"▁gus":626,"amo'":627,"▁fl":628,"▁the":629,"ciendo":630,"▁fum":631,"at":632,"▁quieren":633,"ja":634,"▁les":635,"▁contra":636,"▁exp":637,"ia":638,"ero\r\n":639,"▁desp":640,"▁cambi":641,"dar":642,"na":643,"▁ter":644,"▁olvi":645,"▁cada":646,"▁ay":647,"▁prim":648,"▁pasa":649,"ándo":650,"▁fuck":651,"z\r\n":652,"tor":653,"▁mient":654,"▁fin":655,"▁oh,":656,"▁real":657,"▁val":658,"ce\r\n":659,"et":660,"▁mor":661,"▁yeh\r\n":662,"▁siento":663,"co,":664,"gas":665,"▁dro":666,"▁club":667,"▁no\r\n":668,"▁están":669,"▁viene":670,"▁é":671,"▁desde":672,"▁pes":673,"▁neg":674,"ste":675,"▁gra":676,"▁cual":677,"▁estar":678,"▁gente":679,"▁puta":680,"idad":681,"▁entre":682,"▁otro":683,"rar":684,"gue":685,"▁ando":686,"▁cómo":687,"ción":688,"▁dicen":689,"▁tran":690,"▁cara":691,"▁eh\r\n":692,"▁jue":693,"be":694,"▁gua":695,"▁cono":696,"ul":697,"▁creo":698,"can":699,"▁suen":700,"▁tiempo":701,"por":702,"▁san":703,"▁dar":704,"▁mucho":705,"ina\r\n":706,"▁amor":707,"▁e'":708,"▁ah\r\n":709,"▁quien":710,"▁jo":711,"▁sus":712,"▁¡":713,"▁dí":714,"enti":715,"▁lo'":716,"rovis":717,"▁improvis":718,"▁fe":719,"▁and":720,"▁nen":721,"▁vo":722,"▁pues":723,"▁cha":724,"eron":725,"▁él":726,"▁cora":727,"▁van":728,",\r\n":729,"ec":730,"▁z":731,"▁cer":732,"a'":733,"▁we":734,"jos":735,"▁\"":736,"▁mil":737,"▁frees":738,"ig":739,"▁som":740,"▁volver":741,"▁freesty":742,"▁wh":743,"en\r\n":744,"▁eh,":745,"▁medi":746,"▁puede":747,"los":748,"▁ban":749,"ra,":750,"▁fi":751,"▁bl":752,"era\r\n":753,"▁esti":754,"ento\r\n":755,"▁hum":756,"▁dime":757,"zo":758,"rr":759,"▁noche":760,"▁on":761,"▁uste":762,"bién":763,"tando":764,"ís":765,"▁igu":766,"▁col":767,"▁haciendo":768,"▁escuch":769,"▁despué":770,"▁cla":771,"▁af":772,"▁rimas":773,"▁'e":774,"▁din":775,"▁pap":776,"▁coraz":777,"...\r\n":778,"▁cuer":779,"▁clar":780,"▁también":781,"▁suel":782,"le\r\n":783,"amente":784,"ín":785,"▁decir":786,"ólo":787,"▁mundo":788,"ó\r\n":789,"▁bes":790,"▁sue":791,"▁yeh,":792,"▁ins":793,"za\r\n":794,"▁mami,":795,"▁mientras":796,"entro":797,"▁ta":798,"▁bri":799,"mo\r\n":800,"ven":801,"▁2":802,"▁baby,":803,"▁wa":804,"▁sólo":805,"cil":806,"▁tal":807,"▁mí\r\n":808,"▁arri":809,"▁tanto":810,"on\r\n":811,"re\r\n":812,"▁tener":813,"▁¿qué":814,"ya":815,"me\r\n":816,"dor":817,"▁queda":818,"▁ga":819,"pp":820,"▁pan":821,"t,":822,"▁matar":823,"ico":824,"▁fui":825,"▁impor":826,"▁beb":827,"ónde":828,"▁pres":829,"▁senti":830,"▁ahí":831,"▁antes":832,"lla":833,"▁después":834,"▁gi":835,"o'\r\n":836,"▁nada\r\n":837,"▁encon":838,"yo":839,"▁cri":840,"▁ob":841,"▁pier":842,"▁bail":843,"fer":844,"▁1":845,"▁tar":846,"ero,":847,"▁quién":848,"▁gusta":849,"▁tr":850,"▁veo":851,"aste":852,"▁gran":853,"i\r\n":854,"▁vis":855,"▁much":856,"ario\r\n":857,"▁ton":858,"arte":859,"▁ir":860,"▁pregun":861,"▁estilo":862,"mm":863,"▁proble":864,"▁parece":865,"das\r\n":866,"▁pus":867,"▁pel":868,"▁doy":869,"▁barrio":870,"s,":871,"th":872,"tar\r\n":873,"ur":874,"vel":875,"▁dem":876,"▁gri":877,"▁mone":878,"▁all":879,"ca,":880,"▁era":881,"▁tri":882,"▁enci":883,"▁hip":884,"▁igual":885,"▁todas":886,"dr":887,"lex":888,"▁reg":889,"ve\r\n":890,"io":891,"▁min":892,"▁hijo":893,"tch":894,"▁rep":895,"▁wo":896,"▁poder":897,"▁conmigo":898,"▁esos":899,"▁mill":900,"▁agu":901,"▁qued":902,"▁inter":903,"▁respe":904,"▁falta":905,"tin":906,"▁palab":907,"cí":908,"▁pun":909,"▁au":910,"▁nues":911,"▁algo":912,"ill":913,"ito":914,"▁guer":915,"▁pen":916,"in'":917,"é,":918,"▁pren":919,"▁sho":920,"toy":921,"▁tranqui":922,"mente":923,"▁poco":924,"▁term":925,"jer":926,"▁rapero":927,"▁pienso":928,"▁vamos":929,"tros":930,"dad\r\n":931,"▁baby":932,"▁cabr":933,"▁ad":934,"ale":935,"▁sale":936,"ka":937,"▁mismo":938,"▁rima":939,"cto":940,"ones":941,"ando,":942,"▁nig":943,"▁veces":944,"▁mom":945,"▁estamos":946,"▁encontr":947,"tas\r\n":948,"▁má":949,"p\r\n":950,"▁dentro":951,"enta":952,"▁cualqui":953,"▁bas":954,"▁amor\r\n":955,"ma,":956,"w\r\n":957,"or,":958,"▁'toy":959,"cas":960,"sa":961,"ita":962,"▁loco":963,"▁i'":964,"▁enten":965,"lic":966,"▁jun":967,"▁cul":968,"e'":969,"▁fuer":970,"dos\r\n":971,"▁pol":972,"▁sea":973,"cia":974,"du":975,"l\r\n":976,"▁mer":977,"▁vivo":978,"▁tienen":979,"▁ke":980,"tos\r\n":981,"▁papi":982,"▁tumb":983,"▁neces":984,"p,":985,"▁fam":986,"aba":987,"▁freestyle":988,"baj":989,"ga,":990,"▁perdi":991,"▁uh,":992,"▁dispar":993,"▁cin":994,"▁dónde":995,"▁mic":996,"▁estu":997,"▁dejo":998,"tre":999,"▁mañ":1000,"▁mí,":1001,"▁sí,":1002,"▁droga":1003,"cos":1004,"dí":1005,"ut":1006,"▁flex":1007,"mbre":1008,"▁hermano":1009,"▁menos":1010,"▁bitch":1011,"▁dol":1012,"▁uno":1013,"▁yo,":1014,"▁quieres":1015,"▁der":1016,"▁diab":1017,"tes\r\n":1018,"▁hom":1019,"▁bal":1020,"▁oh\r\n":1021,"iste":1022,"ros":1023,"▁chic":1024,"igo":1025,"▁han":1026,"▁is":1027,"▁pongo":1028,"▁morir":1029,"van":1030,"▁llor":1031,"der\r\n":1032,"▁menti":1033,"▁i'm":1034,"d,":1035,"▁eh":1036,"▁tres":1037,"▁ning":1038,"▁hue":1039,"▁yo\r\n":1040,"o',":1041,"rando":1042,"á\r\n":1043,"▁equi":1044,"▁dame":1045,"▁ay,":1046,"▁esp":1047,"▁estos":1048,"ce,":1049,"▁sobre":1050,"▁cosas":1051,"les":1052,"ona":1053,"h-e":1054,"\"\r\n":1055,"▁agar":1056,"▁digo":1057,"eli":1058,"▁kno":1059,"▁dejar":1060,"▁dan":1061,"ine":1062,"ños":1063,"▁cui":1064,"▁prin":1065,"▁mú":1066,"▁like":1067,"▁pega":1068,"▁hablar":1069,"mos\r\n":1070,"orm":1071,"▁bueno,":1072,"po,":1073,"▁estas":1074,"ario":1075,"▁bajo":1076,"ba\r\n":1077,"▁br":1078,"▁segui":1079,"▁ojos":1080,"▁tira":1081,"▁apar":1082,"▁vo'":1083,"▁dij":1084,"▁pueden":1085,"▁llama":1086,"zar":1087,"▁nombre":1088,"▁señ":1089,"▁vivi":1090,"-a":1091,"▁dios":1092,"▁rit":1093,"?,":1094,"i,":1095,"vo,":1096,"cio":1097,"▁dijo":1098,"h-o":1099,"che":1100,"▁lleg":1101,"▁batal":1102,"▁arriba":1103,"an,":1104,"mo,":1105,"▁ey":1106,"ora\r\n":1107,"▁noso":1108,"las":1109,"ern":1110,"▁nivel":1111,"mar":1112,"pa\r\n":1113,"ña":1114,"▁bro":1115,"▁chu":1116,"▁arg":1117,"▁llen":1118,"▁odi":1119,"▁vie":1120,"▁mano":1121,"▁bai":1122,"▁luz":1123,"ia\r\n":1124,"illo":1125,"io\r\n":1126,"▁conf":1127,"▁ja":1128,"▁más\r\n":1129,"▁mucha":1130,"▁¿c":1131,"▁entien":1132,"▁dé":1133,"ante":1134,"▁la'":1135,"▁rev":1136,"encia":1137,"▁somos":1138,"po\r\n":1139,"ores":1140,"in\r\n":1141,"▁salgo":1142,"'t":1143,"bra":1144,"ion":1145,"▁ún":1146,"▁culo":1147,"▁ganar":1148,"▁minu":1149,"er,":1150,"▁chi":1151,"▁casi":1152,"emos":1153,"▁int":1154,"▁pers":1155,"▁estaba":1156,"▁che":1157,"▁escen":1158,"▁sang":1159,"▁brill":1160,"▁importa":1161,"ea":1162,"▁sk":1163,"▁simp":1164,"▁ti\r\n":1165,"tras":1166,"▁yeah":1167,"▁cuenta":1168,"tri":1169,"▁mes":1170,"▁ale":1171,"▁cua":1172,"elo":1173,"uy":1174,"▁dra":1175,"▁ellos":1176,"▁conti":1177,"▁apren":1178,"eza":1179,"jo\r\n":1180,"▁due":1181,"▁ace":1182,"▁buscar":1183,"▁juro":1184,"▁shi":1185,"▁club,":1186,"g\r\n":1187,"▁mente":1188,"▁ron":1189,"▁gano":1190,"▁tienes":1191,"▁encuen":1192,"▁nuevo":1193,"dre":1194,"mien":1195,"▁ag":1196,"▁ele":1197,"▁har":1198,"▁fo":1199,"▁sub":1200,"▁trabaj":1201,"▁mujer":1202,"▁habla":1203,"ing\r\n":1204,"▁gol":1205,"▁recuer":1206,"uh\r\n":1207,"▁os":1208,"▁sigue":1209,"▁segu":1210,"▁tiro":1211,"▁llev":1212,"▁buscando":1213,"▁princi":1214,"▁plan":1215,"ung":1216,"w,":1217,"▁tenés":1218,"▁je":1219,"▁despi":1220,"tro\r\n":1221,"éndo":1222,"▁solamente":1223,"▁hermano,":1224,"▁vamo'":1225,"ono":1226,"▁enam":1227,"al,":1228,"▁of":1229,"▁llega":1230,"▁llevo":1231,"▁hablando":1232,"'s":1233,"ber":1234,"lar":1235,"▁qu":1236,"▁bu":1237,"▁fres":1238,"▁cons":1239,"▁raper":1240,"encia\r\n":1241,"▁recor":1242,"▁encima":1243,"▁feli":1244,"▁vida\r\n":1245,"▁jus":1246,"ado\r\n":1247,"▁cien":1248,"cho\r\n":1249,"de,":1250,"▁anda":1251,"▁sali":1252,"ío":1253,"▁oy":1254,"▁cru":1255,"▁mie":1256,"▁it":1257,"▁forma":1258,"ces\r\n":1259,"pon":1260,"u,":1261,"▁esca":1262,"▁enton":1263,"▁camin":1264,"▁medio":1265,"▁ustedes":1266,"▁argent":1267,"▁mol":1268,"▁hici":1269,"▁extra":1270,"▁bien\r\n":1271,"diendo":1272,"▁def":1273,"▁ense":1274,"▁gor":1275,"▁estre":1276,"▁desc":1277,"▁nada,":1278,"...":1279,"▁mueve":1280,"▁suena":1281,"cando":1282,"lti":1283,"ré":1284,"▁fav":1285,"ño\r\n":1286,"ano":1287,"ana\r\n":1288,"▁mata":1289,"▁termin":1290,"zo\r\n":1291,"▁esas":1292,"▁young":1293,"▁hacen":1294,"▁sé\r\n":1295,"▁rob":1296,"▁bueno":1297,"▁obvi":1298,"g,":1299,"á,":1300,"▁apa":1301,"▁gas":1302,"▁super":1303,"▁deja":1304,"-e":1305,"llo":1306,"▁dije":1307,"▁difer":1308,"me,":1309,"▁claro":1310,"ja\r\n":1311,"▁paso":1312,"▁hice":1313,"▁baby\r\n":1314,"ciones":1315,"▁blun":1316,"▁fun":1317,"▁ciu":1318,"▁nuestro":1319,"'o":1320,"pues":1321,"té":1322,"▁cara\r\n":1323,"▁uh\r\n":1324,"▁repres":1325,"▁tumbando":1326,"fe":1327,"ni":1328,"▁demas":1329,"▁suf":1330,"cer\r\n":1331,"▁puta,":1332,"▁pos":1333,"aron":1334,"▁hor":1335,"una":1336,"▁viv":1337,"▁mal\r\n":1338,"▁empi":1339,"▁ayu":1340,"▁juego":1341,"▁pl":1342,"▁ves":1343,"▁oh":1344,"tir":1345,"▁don't":1346,"▁pone":1347,"▁corazón":1348,"ed":1349,"ido":1350,"ión\r\n":1351,"▁pin":1352,"cho,":1353,"▁algui":1354,"▁viaj":1355,"▁hacer\r\n":1356,"▁momento":1357,"ki":1358,"ár":1359,"▁tras":1360,"▁escrib":1361,"idad\r\n":1362,"ty\r\n":1363,"▁esqu":1364,"▁bom":1365,"▁perf":1366,"▁camino":1367,"▁truen":1368,"vos":1369,"▁ai":1370,"erto":1371,"and":1372,"ás\r\n":1373,"▁desa":1374,"▁inc":1375,"▁fuera":1376,"▁muero":1377,"▁fumo":1378,"ándome":1379,"▁negro":1380,"ías":1381,"▁dor":1382,"▁¿qui":1383,"▁cuida":1384,"▁person":1385,"▁cel":1386,"▁entr":1387,"▁fren":1388,"▁come":1389,"▁bor":1390,"▁hacerlo":1391,"▁boca":1392,"▁mus":1393,"▁blan":1394,"▁compar":1395,"▁cuan":1396,"▁llegar":1397,"▁cans":1398,"▁conmigo\r\n":1399,"one":1400,"▁dire":1401,"▁perdón":1402,"ve,":1403,"ápi":1404,"▁vos\r\n":1405,"▁envi":1406,"▁mir":1407,"▁gir":1408,"▁iba":1409,"▁gana":1410,"▁casa":1411,"▁vez\r\n":1412,"▁oro":1413,"▁olvid":1414,"▁improvisa":1415,"gar\r\n":1416,"im":1417,"▁lis":1418,"ento,":1419,"ash":1420,"ones\r\n":1421,"▁estan":1422,"▁alma":1423,"▁pa'l":1424,"elo\r\n":1425,"▁pase":1426,"ument":1427,"▁piens":1428,"▁aguan":1429,"▁cuatro":1430,"▁contro":1431,"till":1432,"▁bien,":1433,"▁dinero":1434,"cti":1435,"▁cuel":1436,"en,":1437,"▁vam":1438,"▁sir":1439,"dio":1440,"▁levan":1441,"▁vaya":1442,"▁quiero,":1443,"▁llego":1444,"▁¿cómo":1445,"▁simple":1446,"▁dormi":1447,"▁puer":1448,"cias":1449,"▁read":1450,"▁infi":1451,"▁pasó":1452,"▁amig":1453,"bir":1454,"▁pensar":1455,"▁querés":1456,"▁afue":1457,"ró":1458,"ala":1459,"ales\r\n":1460,"cia\r\n":1461,"cio\r\n":1462,"▁parte":1463,"▁arre":1464,"▁rock":1465,"▁hop":1466,"▁romp":1467,"rrum":1468,"▁cualquier":1469,"▁bre":1470,"▁sig":1471,"ame,":1472,"▁ki":1473,"▁muchos":1474,"!!\r\n":1475,"tá":1476,"▁ce":1477,"▁lado":1478,"▁siente":1479,"▁raz":1480,"▁mala":1481,"▁sangre":1482,"pañ":1483,"arme\r\n":1484,"▁nuevo\r\n":1485,"▁suelto":1486,"▁entonces":1487,"ctu":1488,"tó":1489,"ante\r\n":1490,"▁novi":1491,"alo":1492,"amp":1493,"▁ge":1494,"▁yah\r\n":1495,"▁pasar":1496,"▁busca":1497,"▁flow,":1498,"▁sentir":1499,"▁alguien":1500,"▁dando":1501,"▁ben":1502,"▁temp":1503,"▁reci":1504,"▁amar":1505,"▁sacar":1506,"▁baja":1507,"▁duk":1508,"▁rapear":1509,"▁encontrar":1510,"▁mañana":1511,"ito\r\n":1512,"ág":1513,"omo":1514,"▁mío":1515,"▁guar":1516,"▁rompe":1517,"▁whi":1518,"▁palabras":1519,"00":1520,"u\r\n":1521,"va\r\n":1522,"ía,":1523,"▁pri":1524,"▁meto":1525,"▁ami":1526,"ppin":1527,"▁give":1528,"gando":1529,"mor":1530,"tiendo":1531,"▁dri":1532,"▁norm":1533,"▁tier":1534,"ille":1535,"▁puedes":1536,"▁escon":1537,"▁ganas":1538,"▁abaj":1539,"▁frente":1540,"▁humo":1541,"cta":1542,"sy":1543,"▁dos\r\n":1544,"▁adi":1545,"▁hmm":1546,"▁compe":1547,"▁mato":1548,"▁cham":1549,"▁ver\r\n":1550,"▁quiero\r\n":1551,"▁pide":1552,"▁pele":1553,"▁this":1554,"▁coscu":1555,"▁vale":1556,"▁enseñ":1557,"-na":1558,"mas\r\n":1559,"▁que\r\n":1560,"▁bol":1561,"▁fá":1562,"▁perman":1563,"▁wan":1564,"▁'ta":1565,"és\r\n":1566,"▁plata":1567,"▁todav":1568,"▁voz":1569,"gi":1570,"ám":1571,"▁mari":1572,"▁años":1573,"▁demos":1574,"▁si,":1575,"▁conci":1576,"▁chan":1577,"▁saco":1578,"▁esperando":1579,"▁explo":1580,"▁respeto":1581,"▁mc":1582,"▁segun":1583,"▁tuyo":1584,"melo":1585,"▁salir":1586,"▁campe":1587,"▁cosa":1588,"▁piso,":1589,"▁escribo":1590,"ther":1591,"▁má'":1592,"br":1593,"eta":1594,"▁án":1595,"▁nota":1596,"▁saber":1597,"▁hizo":1598,"▁lugar":1599,"▁she":1600,"ciones\r\n":1601,"▁pensando":1602,"▁rapeo":1603,"▁cuerpo":1604,"▁famil":1605,"▁déj":1606,"des\r\n":1607,"gún":1608,"▁x":1609,"▁lue":1610,"▁dom":1611,"▁dec":1612,"all":1613,"▁siendo":1614,"▁conta":1615,"▁oke":1616,"▁cho":1617,"▁trai":1618,"▁traje":1619,"▁podr":1620,"▁pelo":1621,"▁cier":1622,"▁mira,":1623,"▁tiempo\r\n":1624,"▁envidi":1625,"-n":1626,"dan":1627,"k\r\n":1628,"▁ú":1629,"▁sent":1630,"▁tor":1631,"▁his":1632,"▁digan":1633,"▁algun":1634,"a,\r\n":1635,"▁caden":1636,"▁pasado":1637,"▁prefi":1638,"▁fácil":1639,"ño,":1640,"▁duer":1641,"le,":1642,"▁ocu":1643,"▁perder":1644,"▁hablo":1645,"▁poca":1646,"▁trap,":1647,"▁fumando":1648,"▁nena":1649,"▁cris":1650,"▁músi":1651,"▁seguir":1652,"▁único":1653,"ión":1654,"▁aque":1655,"esta":1656,"ame\r\n":1657,"que\r\n":1658,"▁vida,":1659,"▁tiran":1660,"▁más,":1661,"▁piel":1662,"▁uo":1663,"▁tanta":1664,"▁mami\r\n":1665,"▁piso":1666,"ha":1667,"mando":1668,"▁dal":1669,"▁viendo":1670,"ino\r\n":1671,"▁toca":1672,"▁capi":1673,"▁pido":1674,"▁todo'":1675,"▁futu":1676,"▁nadie\r\n":1677,"▁fron":1678,"▁problema":1679,"h-eh\r\n":1680,"'o\r\n":1681,"-b":1682,"ton":1683,"▁ñ":1684,"▁mi\r\n":1685,"▁cump":1686,"dido":1687,"▁inf":1688,"▁visto":1689,"▁nosotros":1690,"h!\r\n":1691,"▁dale":1692,"▁quedar":1693,"▁entra":1694,"▁sé,":1695,"▁cree":1696,"▁flow\r\n":1697,"▁fuego":1698,"▁encan":1699,"▁empez":1700,"▁papel":1701,"▁vivir":1702,"nos":1703,"▁slow":1704,"▁lar":1705,"iente":1706,"▁ru":1707,"lla\r\n":1708,"▁clas":1709,"ing,":1710,"▁así\r\n":1711,"bre\r\n":1712,"▁prepar":1713,"▁explic":1714,"▁señor":1715,"cuen":1716,"k,":1717,"í\r\n":1718,"▁tre":1719,"▁dese":1720,"▁asi":1721,"▁siempre\r\n":1722,"▁volv":1723,"▁comple":1724,"▁verdad,":1725,"▁verdad\r\n":1726,"▁beat":1727,"▁barrio\r\n":1728,"▁primera":1729,"bo\r\n":1730,"e'\r\n":1731,"gra":1732,"▁sor":1733,"▁vino":1734,"▁hu":1735,"tis":1736,"▁inv":1737,"▁hablan":1738,"▁poner":1739,"▁hermano\r\n":1740,"▁final":1741,"▁what":1742,"▁money":1743,"▁ritmo":1744,"▁oscu":1745,"cre":1746,"eb":1747,"tum":1748,"▁ham":1749,"esti":1750,"▁mete":1751,"▁gen":1752,"▁gil":1753,"▁copi":1754,"▁afuera":1755,"▁últi":1756,"▁música":1757,"bas":1758,"cor":1759,"ho":1760,"anana":1761,"▁bille":1762,"▁rey":1763,"mag":1764,"▁¿que":1765,"▁arma":1766,"ico\r\n":1767,"▁cama":1768,"▁culpa":1769,"▁todavía":1770,"▁demostr":1771,"cin":1772,"fr":1773,"▁pillo":1774,"▁atr":1775,"▁haga":1776,"ción,":1777,"▁oj":1778,"▁quisi":1779,"▁na'\r\n":1780,"▁cap":1781,"uela\r\n":1782,"ck\r\n":1783,"▁así,":1784,"▁sí\r\n":1785,"▁muerte":1786,"▁equivo":1787,"▁know":1788,"▁normal":1789,"▁vue":1790,"▁miro":1791,"cha\r\n":1792,"▁ley":1793,"is\r\n":1794,"▁sube":1795,"▁invi":1796,"▁caus":1797,"▁¿y":1798,"▁acab":1799,"▁¿quién":1800,"ctor":1801,"dés":1802,"je\r\n":1803,"endo\r\n":1804,"melo\r\n":1805,"▁chico":1806,"▁puto":1807,"ica\r\n":1808,"▁corre":1809,"das,":1810,"▁bueno\r\n":1811,"▁rompo":1812,"▁negro,":1813,"▁puse":1814,"▁perfec":1815,"__":1816,"gn":1817,"x\r\n":1818,"ían":1819,"ome":1820,"illa":1821,"▁había":1822,"tur":1823,"h-y":1824,"▁hous":1825,"▁tampo":1826,"▁quería":1827,"▁días":1828,"▁pierdo":1829,"▁punto":1830,"-o":1831,"ica":1832,"iado":1833,"tt":1834,"▁4":1835,"▁vine":1836,"▁flo":1837,"▁imag":1838,"▁traigo":1839,"▁¿por":1840,"▁ases":1841,"▁acuer":1842,"▁manos":1843,"▁calle,":1844,"m\r\n":1845,"ara":1846,"▁contes":1847,"loque":1848,"ris":1849,"▁quiz":1850,"▁ros":1851,"▁respon":1852,"▁corazón\r\n":1853,"▁guerra":1854,"▁enamor":1855,"wo":1856,"ales":1857,"▁fras":1858,"▁comer":1859,"▁diga":1860,"▁rápi":1861,"▁maldi":1862,"▁mama":1863,"▁sac":1864,"▁escucha":1865,"▁vuelvo":1866,"▁perdí":1867,"▁primero":1868,"▁sueño":1869,"▁instr":1870,"-\r\n":1871,"fu":1872,"za,":1873,"ío\r\n":1874,"▁,":1875,"▁ment":1876,"▁ph":1877,"▁acer":1878,"erno":1879,"▁hora":1880,"▁jam":1881,"▁soñ":1882,"▁entiendo":1883,"▁roll":1884,"▁hey,":1885,"▁vuelve":1886,"▁trans":1887,"▁obviamente":1888,"▁tampoco":1889,"cto\r\n":1890,"dri":1891,"gh":1892,"▁emb":1893,"▁atra":1894,"▁loca":1895,"riendo":1896,"▁mismo\r\n":1897,"▁club\r\n":1898,"▁dinero,":1899,"▁shit\r\n":1900,"▁ready":1901,"ban":1902,"ge":1903,"ías\r\n":1904,"▁gui":1905,"▁algún":1906,"▁aman":1907,"▁putas":1908,"▁acti":1909,"lica":1910,"eza\r\n":1911,"▁primer":1912,"▁fucking":1913,"▁realidad":1914,"▁tranquilo":1915,"fa":1916,"ible":1917,"▁atre":1918,"▁sil":1919,"▁tenemos":1920,"entar":1921,"▁ricto":1922,"▁vuelta":1923,"▁tarde\r\n":1924,"▁ningun":1925,"▁baila":1926,"▁permanent":1927,"▁histor":1928,"▁tro":1929,"▁ata":1930,"▁espe":1931,"▁esqui":1932,"▁sient":1933,"lo'":1934,"▁diez":1935,"▁otros":1936,"tic":1937,"▁mamá":1938,"▁full":1939,"▁tomo":1940,"▁conmigo,":1941,"▁auto":1942,"▁micro":1943,"▁mús":1944,"▁brin":1945,"▁confun":1946,"▁music":1947,"mán":1948,"tos,":1949,"ena":1950,"▁deb":1951,"▁lado\r\n":1952,"▁bel":1953,"▁fan":1954,"▁loco,":1955,"▁salu":1956,"▁sino":1957,"▁busco":1958,"▁movi":1959,"▁that":1960,"▁noche\r\n":1961,"▁toma":1962,"▁aquí\r\n":1963,"▁doble":1964,"▁cambio":1965,"▁palabra":1966,"▁espero":1967,"▁cuello":1968,"▁instrument":1969,"gos":1970,"▁mos":1971,"▁mens":1972,"▁aún":1973,"▁gente\r\n":1974,"▁dif":1975,"▁party":1976,"▁alcan":1977,"▁cuán":1978,"▁vio":1979,"▁será":1980,"▁lleva":1981,"▁uh":1982,"▁saca":1983,"▁luz\r\n":1984,"▁one":1985,"▁problemas":1986,"▁demasiado":1987,"▁dale,":1988,"las\r\n":1989,"r,":1990,"▁espa":1991,"▁ene":1992,"▁bru":1993,"▁unos":1994,"▁digas":1995,"▁parar":1996,"▁parti":1997,"▁il":1998,"▁tirar":1999,"▁deses":2000,"▁pasa,":2001,"▁enter":2002,"ter\r\n":2003,"▁rap,":2004,"▁buena":2005,"▁shor":2006,"▁flex,":2007,"▁miedo":2008,"▁favor":2009,"bu":2010,"we":2011,"▁lun":2012,"▁quedo":2013,"▁boy":2014,"▁bum":2015,"ali":2016,"▁fer":2017,"▁confi":2018,"▁oh-o":2019,"▁rela":2020,"▁rebo":2021,"▁na'":2022,"llo\r\n":2023,"▁uh-":2024,"▁cie":2025,"fici":2026,"▁compr":2027,"▁regal":2028,"▁interes":2029,"▁ningún":2030,"▁contigo":2031,"▁gela":2032,"▁fronte":2033,"-p":2034,"pe\r\n":2035,"tón\r\n":2036,"ura":2037,"yas":2038,"▁er":2039,"▁cá":2040,"▁que,":2041,"ona\r\n":2042,"▁paz":2043,"▁cuar":2044,"▁vai":2045,"▁entro":2046,"▁cielo\r\n":2047,"▁muere":2048,"▁trapp":2049,"▁conoce":2050,"▁feel":2051,"▁usted":2052,"ke\r\n":2053,"r.":2054,"▁avi":2055,"▁no'":2056,"ina,":2057,"▁loco\r\n":2058,"▁comi":2059,"▁dices":2060,"▁perre":2061,"▁vers":2062,"▁canto":2063,"▁modo":2064,"lico":2065,"▁boo":2066,"▁duro":2067,"▁juego\r\n":2068,"▁darle":2069,"▁amor,":2070,"▁puesto":2071,"▁chapi":2072,"▁diablo":2073,"▁minuti":2074,"róf":2075,"▁err":2076,"▁mando":2077,"▁mmm":2078,"▁lan":2079,"▁año":2080,"▁eso'":2081,"ano\r\n":2082,"▁jaj":2083,"▁soy\r\n":2084,"▁corta":2085,"▁disco":2086,"▁cielo":2087,"▁color":2088,"▁papá":2089,"▁bebé\r\n":2090,"▁grande":2091,"▁nigga\r\n":2092,"▁mere":2093,"▁ciudad":2094,"gro":2095,"ly":2096,"ple":2097,"▁at":2098,"▁avis":2099,"oni":2100,"raz":2101,"▁tema":2102,"▁hac":2103,"▁comb":2104,"iento":2105,"▁estru":2106,"▁carr":2107,"▁venir":2108,"▁gang":2109,"cula":2110,"▁mother":2111,"▁bote":2112,"▁mejor\r\n":2113,"▁cinco":2114,"▁justo":2115,"▁cues":2116,"eno\r\n":2117,"▁hater":2118,"chi":2119,"▁yeh":2120,"ilo\r\n":2121,"▁up,":2122,"tura":2123,"ado,":2124,"▁ayer":2125,"▁droga,":2126,"▁humil":2127,"▁allá":2128,"▁quedan":2129,"-e-":2130,"▁desesper":2131,"▁estructu":2132,"-tu":2133,"tun":2134,"ó,":2135,"▁gar":2136,"▁tuy":2137,"res\r\n":2138,"enta\r\n":2139,"▁tipo":2140,"▁mía\r\n":2141,"▁acos":2142,"▁ropa":2143,"▁hecho":2144,"▁fuego\r\n":2145,"sión\r\n":2146,"▁dice:":2147,"▁hombre":2148,"▁acep":2149,"▁oye":2150,"▁trueno":2151,"▁mensaj":2152,"!!":2153,"pas":2154,"wn":2155,"▁día\r\n":2156,"▁culo,":2157,"▁ide":2158,"coh":2159,"▁quiera":2160,"▁prrrum":2161,"cul":2162,"▁hoo":2163,"▁cabeza":2164,"▁noches":2165,"▁flash":2166,"▁chain":2167,"▁despier":2168,"▁luego":2169,"fuck":2170,"mer":2171,"▁3":2172,"▁có":2173,"▁tin":2174,"end":2175,"oso":2176,"▁fon":2177,"▁siqui":2178,"▁sex":2179,"▁haces":2180,"▁dio":2181,"▁out":2182,"▁pagan":2183,"▁tenga":2184,"▁tir":2185,"▁descan":2186,"▁may":2187,"▁vos,":2188,"▁mierda\r\n":2189,"▁cuento":2190,"▁gracias":2191,"▁dinero\r\n":2192,"▁micróf":2193,"▁record":2194,".r.":2195,"dor\r\n":2196,"ka\r\n":2197,"ler":2198,"▁tari":2199,"▁az":2200,"▁me\r\n":2201,"cido":2202,"▁esto,":2203,"▁subir":2204,"▁salam":2205,"▁hijos":2206,"▁liber":2207,"tes,":2208,"lig":2209,"▁noche,":2210,"▁nuev":2211,"▁flor":2212,"▁guapo,":2213,"▁fuiste":2214,"▁millon":2215,"▁vamo":2216,"gl":2217,"hu":2218,"▁sw":2219,"▁toy":2220,"▁ade":2221,"▁me,":2222,"▁fir":2223,"iendo\r\n":2224,"▁diam":2225,"▁tenía":2226,"▁ti,":2227,"▁madre":2228,"▁aho":2229,"▁rum":2230,"▁cara,":2231,"▁manten":2232,"▁mierda,":2233,"▁olvidar":2234,"▁ayer\r\n":2235,"▁money,":2236,"▁encuentro":2237,"▁quizás":2238,"▁silenci":2239,"▁siquiera":2240,"bar":2241,"bol":2242,"eta\r\n":2243,"gel":2244,"ne":2245,"ocu":2246,"se\r\n":2247,"▁tí":2248,"▁quedas":2249,"▁eso,":2250,"▁bla":2251,"▁paro":2252,"▁alcoh":2253,"▁vive":2254,"▁pasan":2255,"▁puro":2256,"tar,":2257,"▁lugar\r\n":2258,"▁cereb":2259,"▁seguro":2260,"▁quin":2261,"▁felici":2262,"▁novio":2263,"fe,":2264,"jo,":2265,"ker":2266,"l,":2267,"tán":2268,"uyo":2269,"zc":2270,"zco":2271,"ícil":2272,"▁ev":2273,"on,":2274,"▁consi":2275,"▁yah,":2276,"entro\r\n":2277,"▁na',":2278,"▁ma',":2279,"▁ahora\r\n":2280,"▁ren":2281,"▁¿s":2282,"▁calien":2283,"▁prendo":2284,"▁compren":2285,"▁calle\r\n":2286,"▁pesa":2287,"▁sueno":2288,"▁derri":2289,"▁chica":2290,"▁intent":2291,"▁argentina":2292,"▁simplemente":2293,"▁hmm,":2294,"▁difícil":2295,"▁mé":2296,"▁smo":2297,"▁len":2298,"▁cr":2299,"▁fra":2300,"ta'":2301,"▁convi":2302,"▁conse":2303,"▁esté":2304,"tica\r\n":2305,"dir":2306,"melo,":2307,"▁tirando":2308,"▁caz":2309,"▁capa":2310,"▁sola":2311,"▁estamo'":2312,"mos,":2313,"▁caraj":2314,"ica,":2315,"▁malo":2316,"▁clic":2317,"▁exis":2318,"▁propi":2319,"▁vienen":2320,"▁to'a":2321,"▁guapo":2322,"▁fiesta":2323,"▁beso":2324,"▁ahí\r\n":2325,"▁puso":2326,"▁cabrón":2327,"▁dijeron":2328,"▁cuanto":2329,"▁motherfuck":2330,"▁salamand":2331,"▁alcohol":2332,"jer\r\n":2333,"nos\r\n":2334,"ras\r\n":2335,"▁za":2336,"▁evi":2337,"▁pú":2338,"uela":2339,"▁tru":2340,"▁aqui":2341,"ena\r\n":2342,"▁enfr":2343,"▁siento\r\n":2344,"▁op":2345,"▁pag":2346,"cha,":2347,"quen":2348,"▁wuh\r\n":2349,"▁pastill":2350,"▁mujer\r\n":2351,"▁ganar\r\n":2352,"▁serio":2353,"▁manda":2354,"▁hables":2355,"tas,":2356,"uestro":2357,"▁pasado\r\n":2358,"▁darte":2359,"▁nena,":2360,"▁20":2361,"▁bailando":2362,"▁nigga":2363,"▁batalla":2364,"▁estrell":2365,"▁funer":2366,"▁infierno":2367,"ba,":2368,"▁mía":2369,"▁lin":2370,"arte\r\n":2371,"▁dep":2372,"▁meti":2373,"▁bur":2374,"▁miran":2375,"▁mirar":2376,"▁yo'\r\n":2377,"amos\r\n":2378,"able":2379,"dió":2380,"▁viol":2381,"▁sabés":2382,"▁cai":2383,"▁nie":2384,"▁wi":2385,"▁ante":2386,"▁sador":2387,"▁preocu":2388,"▁jura":2389,"▁heri":2390,"▁got":2391,"▁rapeando":2392,"▁bailar":2393,"▁muchas":2394,"▁quedó":2395,"▁show":2396,"▁chica,":2397,"éndome":2398,"▁wanna":2399,"▁amane":2400,"ac":2401,"dando":2402,"ep":2403,"tal\r\n":2404,"▁ech":2405,"anan":2406,"▁contar":2407,"da'":2408,"▁padre":2409,"o,\r\n":2410,"▁ma'":2411,"▁cae":2412,"▁verte":2413,"▁pie":2414,"▁haber":2415,"▁tú,":2416,"ense":2417,"▁fall":2418,"▁jugar":2419,"▁tarde":2420,"▁preguntan":2421,"▁cualquiera\r\n":2422,"▁flex\r\n":2423,"▁agarro":2424,"▁recuerdo":2425,"▁ciudad\r\n":2426,"▁aquel":2427,"▁quisiera":2428,"jas":2429,"▁dam":2430,"ana,":2431,"▁blo":2432,"▁fla":2433,"▁uni":2434,"▁hagas":2435,"cado":2436,"▁inte":2437,"▁cay":2438,"▁niño":2439,"▁pueb":2440,"▁pobre":2441,"▁salí":2442,"▁mane":2443,"tua":2444,"▁sola\r\n":2445,"▁prof":2446,"▁gote":2447,"▁pista":2448,"▁muerto":2449,"▁cambiar":2450,"▁cerca":2451,"▁nivel\r\n":2452,"▁empiez":2453,"▁sirve":2454,"▁amigos":2455,"-tu-tu":2456,"m,":2457,"ty,":2458,"uvi":2459,"▁suer":2460,"▁crim":2461,"▁dien":2462,"▁vin":2463,"▁enro":2464,"und":2465,"▁bos":2466,"▁under":2467,"▁tendr":2468,"▁vivo\r\n":2469,"▁subo":2470,"▁ah-a":2471,"▁puta\r\n":2472,"▁up":2473,"▁orgu":2474,"▁freestyle\r\n":2475,"▁claro\r\n":2476,"▁criti":2477,"▁morir\r\n":2478,"▁vieja":2479,"▁descon":2480,"▁sorp":2481,"ananau,":2482,"▁enemi":2483,"▁liberta":2484,"&amp":2485,"ah\r\n":2486,"uh-":2487,"▁eter":2488,"▁bro\r\n":2489,"tado":2490,"▁cont":2491,"cis":2492,"▁todo\r\n":2493,"▁mad":2494,"▁¿no":2495,"▁amigo":2496,"der,":2497,"▁respi":2498,"▁solo\r\n":2499,"▁olor":2500,"▁dime,":2501,"▁empieza":2502,"ppin',":2503,"▁marihu":2504,"▁familia":2505,"▁podría":2506,"&amp;":2507,"hi":2508,"io,":2509,"▁lí":2510,"eno":2511,"▁enloque":2512,"▁haz":2513,"aban":2514,"chos":2515,"▁toc":2516,"▁party\r\n":2517,"dido\r\n":2518,"ás,":2519,"▁desta":2520,"▁misma":2521,"▁sincer":2522,"▁pura":2523,"▁hit":2524,"▁manera":2525,"▁rapper":2526,"▁libre":2527,"▁hey":2528,"▁ponen":2529,"▁big":2530,"▁nueva":2531,"▁weón":2532,"▁arriba\r\n":2533,"▁gata":2534,"ppin'":2535,"▁pelig":2536,"▁papi,":2537,"▁chupa":2538,"▁it's":2539,"▁moles":2540,"▁encanta":2541,"for":2542,"no\r\n":2543,"▁&amp;":2544,"▁ego":2545,"▁mezc":2546,"▁conver":2547,"date":2548,"aba\r\n":2549,"demos":2550,"▁vací":2551,"▁¿d":2552,"quito":2553,"▁venga":2554,"▁todo,":2555,"▁cog":2556,"▁'tá":2557,"tan\r\n":2558,"▁disf":2559,"▁boca\r\n":2560,"▁juga":2561,"▁perdiendo":2562,"▁perdón,":2563,"▁piso\r\n":2564,"▁-ín":2565,"▁querer":2566,"▁andamos":2567,"▁talento":2568,"▁pelí":2569,"▁polic":2570,"▁contigo\r\n":2571,"▁escapar":2572,"▁esquina":2573,"▁improvisación\r\n":2574,"▁demostrar":2575,"cent":2576,"ko":2577,"ke,":2578,"ura\r\n":2579,"▁quemando":2580,"▁temas":2581,"am\r\n":2582,"▁matar\r\n":2583,"▁ina":2584,"uera\r\n":2585,"▁quieras":2586,"▁muri":2587,"arios":2588,"ario,":2589,"▁exper":2590,"▁corri":2591,"sión":2592,"▁casa\r\n":2593,"▁pisto":2594,"▁romper":2595,"▁igual\r\n":2596,"▁decirte":2597,"▁estudi":2598,"▁escenario\r\n":2599,"▁cumpl":2600,"▁ninguno":2601,"-c":2602,"xi":2603,"ña\r\n":2604,"▁mente\r\n":2605,"▁luna":2606,"▁c.r.":2607,"▁tren":2608,"▁debe":2609,"▁bando":2610,"▁compañ":2611,"▁pa,":2612,"che\r\n":2613,"▁real\r\n":2614,"▁sua":2615,"▁perder\r\n":2616,"▁vein":2617,"▁pidiendo":2618,"▁pudi":2619,"▁ark":2620,"▁tú\r\n":2621,"▁mano\r\n":2622,"▁mover":2623,"▁distin":2624,"▁mirada":2625,"▁apun":2626,"▁hote":2627,"▁andamo'":2628,"ín\r\n":2629,"▁skill":2630,"▁demasia":2631,"▁canser":2632,"▁abajo":2633,"▁leyen":2634,"▁fantas":2635,"▁minutito,":2636,"▁smoke":2637,"bri":2638,"ete":2639,"rari":2640,"so\r\n":2641,"uh":2642,"val":2643,"vos\r\n":2644,"ús":2645,"▁cue":2646,"▁cero":2647,"▁aco":2648,"▁ave":2649,"▁ello'":2650,"▁meter":2651,"▁conv":2652,"▁diciendo":2653,"▁oí":2654,"▁tuve":2655,"de'":2656,"cep":2657,"▁relo":2658,"olu":2659,"▁viste":2660,"▁le'":2661,"▁desper":2662,"▁lasti":2663,"▁hable":2664,"▁llegan":2665,"▁lluvi":2666,"▁mal,":2667,"▁coca":2668,"gua":2669,"▁rap\r\n":2670,"tante\r\n":2671,"▁buenos":2672,"▁barrio,":2673,"▁bebé,":2674,"▁tony":2675,"▁guerra\r\n":2676,"▁cabrón\r\n":2677,"▁necesito":2678,"▁agra":2679,"▁golpe":2680,"▁blunt,":2681,"▁tierra":2682,"-na-n":2683,"▁'tamo'":2684,"▁chapi,":2685,"▁gangs":2686,"▁micrófono":2687,"boy":2688,"ph":2689,"▁ví":2690,"un,":2691,"▁unas":2692,"▁yo',":2693,"▁get":2694,"▁tum":2695,"▁toque":2696,"▁tenes":2697,"▁jor":2698,"▁ver,":2699,"▁tramp":2700,"▁cama\r\n":2701,"▁tantas":2702,"▁prome":2703,"▁need":2704,"▁jugando":2705,"▁menor":2706,"▁volvi":2707,"▁monta":2708,"▁escucho":2709,"▁tiempo,":2710,"arme,":2711,"▁decime":2712,"▁muerte\r\n":2713,"▁valor":2714,"▁volver\r\n":2715,"▁tonto,":2716,"▁punta":2717,"▁adentro":2718,"h-oh\r\n":2719,"▁futuro":2720,"▁ferrari":2721,"▁booty":2722,"▁intelig":2723,"-s":2724,"-ta":2725,"jar":2726,"má":2727,"ría":2728,"tí":2729,"ál":2730,"▁5":2731,"▁nub":2732,"▁lam":2733,"▁mi'":2734,"▁mirando":2735,"in',":2736,"▁estilo\r\n":2737,"ce'":2738,"▁viern":2739,"▁rato":2740,"ente,":2741,"▁sabe\r\n":2742,"▁verme":2743,"▁rico":2744,"▁artis":2745,"▁sonando":2746,"▁acom":2747,"▁code":2748,"▁nego":2749,"▁respues":2750,"ble\r\n":2751,"▁improvisando":2752,"▁zig":2753,"▁afuera\r\n":2754,"▁claro,":2755,"▁pregunta":2756,"▁fama":2757,"▁bitch\r\n":2758,"▁viejo":2759,"▁despierto":2760,"▁escap":2761,"▁hiciste":2762,"▁esquina\r\n":2763,"ámon":2764,"▁vuelo":2765,"▁atrevi":2766,"▁fondo":2767,"\",":2768,"e',":2769,"lando":2770,"rá":2771,"▁pill":2772,"arle":2773,"▁ella\r\n":2774,"in,":2775,"▁far":2776,"▁secre":2777,"▁hacia":2778,"▁oka":2779,"▁tocar":2780,"▁rez":2781,"▁remi":2782,"▁vi\r\n":2783,"▁destr":2784,"▁nave":2785,"▁ray":2786,"▁chis":2787,"▁war":2788,"▁pueda":2789,"▁voy\r\n":2790,"▁¿a":2791,"▁habita":2792,"▁mía,":2793,"▁salv":2794,"▁arro":2795,"▁pego":2796,"dos,":2797,"▁tantos":2798,"▁mamá\r\n":2799,"▁back":2800,"ensa":2801,"▁sol\r\n":2802,"▁quiere'":2803,"▁plaka":2804,"▁tomar":2805,"▁trap\r\n":2806,"▁oro\r\n":2807,"▁flui":2808,"▁fluy":2809,"▁guapo\r\n":2810,"▁conocen":2811,"▁zar":2812,"▁estilo,":2813,"▁nuestra":2814,"▁know\r\n":2815,"▁llegó":2816,"▁hard":2817,"▁foto":2818,"▁recordar":2819,"▁miedo\r\n":2820,"▁decís":2821,"▁slow\r\n":2822,"h-ye":2823,"▁¿dónde":2824,"bl":2825,"f,":2826,"he":2827,"uh,":2828,"…\r\n":2829,"▁pra":2830,"▁abo":2831,"▁eso\r\n":2832,"▁detr":2833,"▁hon":2834,"▁fri":2835,"▁loca\r\n":2836,"▁glo":2837,"iento\r\n":2838,"▁quie":2839,"▁vi,":2840,"▁nací":2841,"▁ahor":2842,"▁¿cu":2843,"▁habil":2844,"▁mío\r\n":2845,"▁siempre,":2846,"▁ser\r\n":2847,"▁peg":2848,"▁llegue":2849,"..\r\n":2850,"▁dejó":2851,"▁bob":2852,"▁dice,":2853,"▁casti":2854,"▁vez,":2855,"▁play":2856,"ezco":2857,"▁money\r\n":2858,"▁mañana\r\n":2859,"▁bitch,":2860,"erno\r\n":2861,"▁lleno":2862,"▁bendi":2863,"-po,":2864,"king":2865,"ves":2866,"▁lento\r\n":2867,"▁dedi":2868,"▁env":2869,"▁ener":2870,"▁fil":2871,"▁sido":2872,"▁gh":2873,"▁ou":2874,"▁subi":2875,"▁caer":2876,"▁perra":2877,"tera":2878,"▁canta":2879,"▁hablas":2880,"▁hacemos":2881,"▁life,":2882,"▁coron":2883,"▁hey\r\n":2884,"den\r\n":2885,"▁abri":2886,"▁buscar\r\n":2887,"▁droga\r\n":2888,"▁joven":2889,"▁wee":2890,"▁escuchando":2891,"▁cuerpo\r\n":2892,"▁wacho":2893,"▁diablo\r\n":2894,"▁acel":2895,"miento\r\n":2896,"▁raperos":2897,"▁recién":2898,"▁mostr":2899,"▁acostum":2900,"ananau,n":2901,"▁zigza":2902,"-r":2903,"-y":2904,"-no":2905,"at\r\n":2906,"bamos":2907,"ita\r\n":2908,"ion\r\n":2909,"lar,":2910,"▁6":2911,"▁dos,":2912,"ere":2913,"▁ner":2914,"▁mi,":2915,"▁fash":2916,"oma":2917,"cio,":2918,"▁dicho":2919,"▁pate":2920,"▁ign":2921,"▁repar":2922,"▁ley\r\n":2923,"▁sur":2924,"▁despe":2925,"▁mag":2926,"▁mai":2927,"▁caer\r\n":2928,"▁andar":2929,"▁¿o":2930,"▁sería":2931,"tura\r\n":2932,"▁corto":2933,"▁sold":2934,"▁hago,":2935,"viste":2936,"▁rapea":2937,"adas\r\n":2938,"▁piensa":2939,"▁también\r\n":2940,"▁brillo":2941,"▁encima\r\n":2942,"▁regga":2943,"▁guerr":2944,"▁prende":2945,"▁chico,":2946,"▁equipo":2947,"▁dijiste":2948,"▁gordo":2949,"▁diferencia":2950,"▁ayuda":2951,"▁dormir\r\n":2952,"▁brea":2953,"▁prefiero":2954,"cab":2955,"dero":2956,"▁té":2957,"▁y\r\n":2958,"▁va,":2959,"ono\r\n":2960,"one\r\n":2961,"este":2962,"▁comien":2963,"▁dile":2964,"▁dios\r\n":2965,"▁tengo\r\n":2966,"▁vir":2967,"▁visi":2968,"entos":2969,"▁mat":2970,"▁nike":2971,"▁verso":2972,"▁veo\r\n":2973,"▁piden":2974,"▁salen":2975,"▁vengan":2976,"▁mala,":2977,"▁pró":2978,"▁existe":2979,"para":2980,"▁hablar\r\n":2981,"▁moti":2982,"▁apues":2983,"▁mejores":2984,"▁sabe'":2985,"▁bizar":2986,"▁your":2987,"▁primero\r\n":2988,"▁voz\r\n":2989,"▁media":2990,"▁after":2991,"▁insis":2992,"▁junto":2993,"▁odio":2994,"▁luz,":2995,"▁sufri":2996,"▁siguen":2997,"bel":2998,"cci":2999,"min":3000,"pos":3001,"ros\r\n":3002,"ste\r\n":3003,"▁sti":3004,"▁lic":3005,"▁das":3006,"▁ysy":3007,"▁meta":3008,"ra'":3009,"▁sep":3010,"▁digo\r\n":3011,"▁let":3012,"▁joy":3013,"▁trata":3014,"tra\r\n":3015,"▁po-po,":3016,"▁arran":3017,"▁call":3018,"án\r\n":3019,"▁canciones":3020,"▁corte":3021,"tante":3022,"és,":3023,"▁fuma":3024,"▁escupo":3025,"▁marci":3026,"▁tamo'":3027,"▁doc":3028,"▁buscan":3029,"▁toda'":3030,"▁fluyo":3031,"▁suelta":3032,"▁fuerte":3033,"▁huevos":3034,"▁nombre\r\n":3035,"▁chup":3036,"▁feliz":3037,"▁extrañ":3038,"▁rompiendo":3039,"▁alguna":3040,"▁instrumental\r\n":3041,"▁crimin":3042,"ido\r\n":3043,"iza":3044,"ís\r\n":3045,"▁pp":3046,"▁stre":3047,"▁dto":3048,"▁dentro\r\n":3049,"▁are":3050,"oso\r\n":3051,"▁bon":3052,"▁fol":3053,"▁si\r\n":3054,"▁ocas":3055,"▁parto":3056,"ques":3057,"ust":3058,"▁red":3059,"▁ref":3060,"▁naci":3061,"illa\r\n":3062,"▁wor":3063,"▁trago":3064,"▁ano":3065,"▁vac":3066,"▁rimas\r\n":3067,"▁ganando":3068,"▁killa":3069,"▁hablamos":3070,"▁prob":3071,"▁compro":3072,"▁mono":3073,"▁cabeza\r\n":3074,"ándote\r\n":3075,"▁día,":3076,"▁nene":3077,"▁somo'":3078,"▁clavo":3079,"▁brilla":3080,"▁24":3081,"▁wach":3082,"▁piern":3083,"▁pende":3084,"▁show\r\n":3085,"▁termina":3086,"▁derro":3087,"▁agarra":3088,"▁messi":3089,"▁buscar,":3090,"▁qua":3091,"▁jamás":3092,"▁actitu":3093,"▁with":3094,"gía":3095,"mis":3096,"nes":3097,"no,":3098,"oh\r\n":3099,"▁pág":3100,"▁senta":3101,"▁lín":3102,"▁cen":3103,"oro":3104,"▁labi":3105,"▁seman":3106,"▁hago\r\n":3107,"▁die":3108,"▁pad":3109,"▁tur":3110,"tica":3111,"▁cura":3112,"▁ice,":3113,"ola\r\n":3114,"▁letras":3115,"▁delin":3116,"▁sobra":3117,"▁anim":3118,"aje":3119,"aje\r\n":3120,"▁sale\r\n":3121,"▁carga":3122,"▁venez":3123,"▁gang\r\n":3124,"▁pul":3125,"▁arte":3126,"velo":3127,"tera\r\n":3128,"▁creen":3129,"arios\r\n":3130,"▁dont":3131,"▁corro":3132,"▁apro":3133,"▁decir\r\n":3134,"▁biza":3135,"▁nuevo,":3136,"▁escribi":3137,"▁muerto\r\n":3138,"▁olvido":3139,"▁10":3140,"▁gritan":3141,"▁triple":3142,"▁agua":3143,"▁entender":3144,"▁perdido":3145,"▁mujeres":3146,"▁principi":3147,"▁blunt":3148,"▁aire":3149,"▁segundo":3150,"▁pelotu":3151,"▁capital":3152,"▁adelan":3153,"▁disfru":3154,"▁tumba":3155,"▁ghet":3156,"▁reggaet":3157,"bran":3158,"cos\r\n":3159,"día":3160,"et\r\n":3161,"f\r\n":3162,"sa\r\n":3163,"tien":3164,"uc":3165,"zas":3166,"eras":3167,"▁ya\r\n":3168,"antes":3169,"▁hun":3170,"▁enfer":3171,"▁memor":3172,"inas":3173,"tate":3174,"▁love":3175,"▁locu":3176,"▁parte\r\n":3177,"▁tene":3178,"▁culi":3179,"▁tiras":3180,"▁destro":3181,"illi":3182,"▁velo":3183,"▁va'":3184,"▁rui":3185,"dades":3186,"▁escuela\r\n":3187,"▁mío'":3188,"quis":3189,"▁arru":3190,"ico,":3191,"▁pegar":3192,"ck,":3193,"teri":3194,"▁creer":3195,"▁hacerte":3196,"▁resuel":3197,"▁barde":3198,"▁fuego,":3199,"▁produ":3200,"▁faltan":3201,"▁compra":3202,"▁apri":3203,"▁plata,":3204,"▁esperan":3205,"▁conoci":3206,"▁huele":3207,"▁argentina\r\n":3208,"▁celul":3209,"▁directo":3210,"▁abajo\r\n":3211,"▁competi":3212,"▁okey\r\n":3213,"▁arkano":3214,"▁reloj":3215,"▁viernes":3216,"▁pprrum":3217,"2\r\n":3218,"bro":3219,"gas\r\n":3220,"pl":3221,"rar\r\n":3222,"ser":3223,"tino":3224,"▁tw":3225,"▁a.":3226,"▁añ":3227,"▁vent":3228,"▁vas\r\n":3229,"▁tex":3230,"▁cone":3231,"▁contando":3232,"▁esto\r\n":3233,"▁mate":3234,"illo\r\n":3235,"▁veces\r\n":3236,"▁vacil":3237,"▁pies\r\n":3238,"▁hielo":3239,"▁sonar":3240,"▁code,":3241,"dera\r\n":3242,"▁mamá,":3243,"▁hacer,":3244,"▁buenas":3245,"▁bajar":3246,"▁palo":3247,"▁to's":3248,"▁vueltas":3249,"▁mundo\r\n":3250,"▁expres":3251,"portun":3252,"▁dímelo\r\n":3253,"▁escuchar":3254,"▁suelo":3255,"▁pussy":3256,"tino\r\n":3257,"▁entendés":3258,"▁aparte,":3259,"▁skr":3260,"▁shit":3261,"▁enamora":3262,"▁hmm\r\n":3263,"▁ángel":3264,"▁déjame":3265,"▁domin":3266,"▁envidia":3267,"▁acuerdo":3268,"▁rápido":3269,"▁cuánto":3270,"▁ilum":3271,"▁bloo":3272,"▁líri":3273,"▁agrade":3274,"▁bizarra":3275,"▁delincuen":3276,"-l":3277,"av":3278,"be\r\n":3279,"dam":3280,"ece":3281,"x,":3282,"▁ever":3283,"▁senci":3284,"▁tos":3285,"▁dr":3286,"▁dá":3287,"▁vel":3288,"▁bra":3289,"▁mira\r\n":3290,"ine\r\n":3291,"▁fe\r\n":3292,"▁love\r\n":3293,"ombi":3294,"▁sim":3295,"▁situa":3296,"▁conden":3297,"dado":3298,"▁sel":3299,"▁hag":3300,"lado":3301,"▁payas":3302,"▁it\r\n":3303,"▁desn":3304,"▁cago":3305,"▁estado":3306,"▁pasar\r\n":3307,"▁ran":3308,"▁rique":3309,"▁cari":3310,"▁peda":3311,"tarme":3312,"▁canción\r\n":3313,"▁deje":3314,"▁limp":3315,"▁corr":3316,"▁impos":3317,"▁comprar":3318,"▁gucci":3319,"▁tiempos":3320,"▁from":3321,"▁empres":3322,"▁real,":3323,"▁gente,":3324,"▁besos":3325,"▁pantal":3326,"▁sentimien":3327,"▁grita":3328,"▁triste":3329,"▁million":3330,"▁oye,":3331,"▁sufrim":3332,"▁aire\r\n":3333,"▁tierra\r\n":3334,"▁último":3335,"▁atrás":3336,"--":3337,"-ho":3338,"3\r\n":3339,"cus":3340,"fo":3341,"fic":3342,"ie":3343,"mente\r\n":3344,"pu":3345,"á'\r\n":3346,"▁...\r\n":3347,"▁my,":3348,"▁sú":3349,"▁spor":3350,"▁dj":3351,"▁aj":3352,"▁ay\r\n":3353,"▁es\r\n":3354,"▁nomb":3355,"▁bús":3356,"ales,":3357,"▁una\r\n":3358,"▁tel":3359,"▁siento,":3360,"cito":3361,"▁pagar":3362,"▁paz\r\n":3363,"▁toa'":3364,"▁alto":3365,"ti\r\n":3366,"tilla":3367,"▁cur":3368,"▁rey\r\n":3369,"▁leg":3370,"▁jes":3371,"▁yeh-ye":3372,"tru":3373,"▁vapor":3374,"▁ré":3375,"▁pot":3376,"▁sonri":3377,"▁peor":3378,"▁calma":3379,"▁cot":3380,"▁cole":3381,"▁creo\r\n":3382,"to,\r\n":3383,"amos,":3384,"▁resul":3385,"▁llamo":3386,"▁perdon":3387,"▁fort":3388,"▁fumar":3389,"ándole":3390,"▁mientra'":3391,"▁dímelo,":3392,"▁fek":3393,"▁volverte":3394,"▁sentido\r\n":3395,"▁peli":3396,"▁cualquiera":3397,"▁necesi":3398,"▁dolor\r\n":3399,"▁dere":3400,"▁baila,":3401,"▁jai":3402,"▁entiende":3403,"▁escenario":3404,"▁alej":3405,"▁duele":3406,"▁rapero\r\n":3407,"▁favor,":3408,"▁represent":3409,"▁bomba":3410,"▁directa":3411,"▁infierno\r\n":3412,"▁explota":3413,"▁hambre":3414,"▁tarima\r\n":3415,"▁azul":3416,"▁canserb":3417,"▁hardcor":3418,"aa":3419,"ao":3420,"bal":3421,"pero":3422,"tando\r\n":3423,"tre\r\n":3424,"ví":3425,"ér":3426,"▁eu":3427,"▁eran":3428,"▁eh-eh\r\n":3429,"▁llo":3430,"▁ya,":3431,"▁nar":3432,"▁quema":3433,"▁deto":3434,"▁decí":3435,"▁há":3436,"▁bro,":3437,"▁concep":3438,"▁gal":3439,"▁gru":3440,"▁papa":3441,"▁to'\r\n":3442,"▁cuad":3443,"dio\r\n":3444,"▁vide":3445,"▁jar":3446,"▁ja\r\n":3447,"il\r\n":3448,"tran":3449,"▁vay":3450,"▁pow":3451,"▁podés":3452,"▁tanto\r\n":3453,"▁can\r\n":3454,"▁imper":3455,"▁bardero":3456,"▁vuelve,":3457,"▁pensar\r\n":3458,"▁frente\r\n":3459,"▁escribir":3460,"▁cuenta\r\n":3461,"▁juego,":3462,"▁chain\r\n":3463,"▁clap":3464,"▁inspi":3465,"▁gato":3466,"▁regres":3467,"▁woh\r\n":3468,"▁má',":3469,"▁culpa\r\n":3470,"▁chicos":3471,"▁tres\r\n":3472,"▁nosotro":3473,"▁brillar":3474,"▁llevar":3475,"▁estrella":3476,"▁girl\r\n":3477,"▁amigo\r\n":3478,"▁ñen":3479,"h-yea":3480,"▁versos":3481,"▁¿sab":3482,"▁tenemo'":3483,"egu":3484,"gos\r\n":3485,"jos\r\n":3486,"ly,":3487,"n\r\n":3488,"▁mero":3489,"▁sna":3490,"▁cero\r\n":3491,"▁do'":3492,"▁dev":3493,"▁eno":3494,"▁mita":3495,"▁miam":3496,"tado\r\n":3497,"▁log":3498,"▁tele":3499,"ama":3500,"▁compi":3501,"▁combo":3502,"▁ola":3503,"chu":3504,"▁toca\r\n":3505,"▁pararme":3506,"usti":3507,"▁imi":3508,"▁rece":3509,"▁tiren":3510,"▁mato\r\n":3511,"gado":3512,"▁traje\r\n":3513,"▁pasa\r\n":3514,"▁pibe":3515,"cer,":3516,"▁gané":3517,"▁mala\r\n":3518,"tero\r\n":3519,"▁crey":3520,"▁prr\r\n":3521,"▁'tán":3522,"▁don\r\n":3523,"▁volando":3524,"▁complica":3525,"encia,":3526,"▁llaman":3527,"▁callej":3528,"▁duro,":3529,"▁facil":3530,"▁espera":3531,"▁mundi":3532,"▁cambia":3533,"eron\r\n":3534,"▁bang,":3535,"▁21":3536,"▁wow,":3537,"▁tranquilo,":3538,"▁momento\r\n":3539,"▁estudio":3540,"▁agarre":3541,"▁drama\r\n":3542,"▁elegan":3543,"▁bull":3544,"▁cruz":3545,"▁blunt\r\n":3546,"▁horas\r\n":3547,"▁viaje":3548,"▁concierto":3549,"▁campeón":3550,"▁déjà":3551,"▁traicion":3552,"▁ñer":3553,"▁uh-uh-":3554,"▁descans":3555,"▁cerebro":3556,"▁convien":3557,"▁ignor":3558,"ada":3559,"ada\r\n":3560,"her":3561,"na\r\n":3562,"pable":3563,"rí":3564,"tón":3565,"▁eras":3566,"▁lento":3567,"▁tes":3568,"▁den":3569,"▁abre":3570,"aste\r\n":3571,"▁nova":3572,"▁conec":3573,"▁sepa":3574,"▁haci":3575,"cie":3576,"▁g\r\n":3577,"▁gon":3578,"▁todos\r\n":3579,"dez\r\n":3580,"▁reí":3581,"ol\r\n":3582,"▁ley,":3583,"▁jos":3584,"▁ja,":3585,"ismo\r\n":3586,"▁descar":3587,"▁maes":3588,"▁caigo":3589,"▁pero\r\n":3590,"▁estai":3591,"▁rar":3592,"▁rif":3593,"▁rim":3594,"▁rimar":3595,"▁poquito":3596,"▁asegu":3597,"▁gang,":3598,"▁mand":3599,"▁manos\r\n":3600,"▁uu":3601,"▁dejé":3602,"▁ponga":3603,"▁montón\r\n":3604,"tale":3605,"▁perdón\r\n":3606,"▁acá,":3607,"▁acá\r\n":3608,"ten\r\n":3609,"▁tomando":3610,"▁trapper":3611,"▁terr":3612,"▁finde\r\n":3613,"▁pesar":3614,"▁grati":3615,"▁bebé":3616,"▁gira":3617,"▁interi":3618,"▁fuerza":3619,"▁keep":3620,"▁necesito\r\n":3621,"▁dolor":3622,"▁espal":3623,"h-eh-eh\r\n":3624,"▁know,":3625,"▁aparte":3626,"▁dijo,":3627,"▁aprendí":3628,"▁dueño":3629,"▁eleg":3630,"▁ofre":3631,"▁lista":3632,"▁drippin'":3633,"▁okey,":3634,"▁cristal":3635,"ttle":3636,"▁mamaci":3637,"▁historia":3638,"▁gelato,":3639,"▁cámar":3640,"▁cuarto":3641,"▁hitboy":3642,"▁-ína,":3643,"▁película":3644,"▁fortni":3645,"-lo":3646,"cal":3647,"cas\r\n":3648,"gas,":3649,"ión,":3650,"ría\r\n":3651,"ud":3652,"uh!\r\n":3653,"yec":3654,"▁0":3655,"▁muestro":3656,"▁pana":3657,"▁lápi":3658,"▁cir":3659,"▁tab":3660,"▁aga":3661,"▁ama":3662,"▁queri":3663,"▁quede":3664,"ese":3665,"remos":3666,"cia,":3667,"▁estar\r\n":3668,"▁reti":3669,"dida":3670,"▁sufici":3671,"▁perro":3672,"▁persi":3673,"▁trato":3674,"▁quiera\r\n":3675,"▁rí":3676,"▁río":3677,"▁pica":3678,"▁rico\r\n":3679,"▁pocos":3680,"▁ganar,":3681,"▁hier":3682,"▁entero":3683,"▁arte\r\n":3684,"llos":3685,"▁pedir":3686,"▁actu":3687,"▁ua":3688,"▁prue":3689,"▁canción":3690,"▁bienven":3691,"▁mov":3692,"▁impres":3693,"▁resto":3694,"▁falso":3695,"▁mirada\r\n":3696,"▁pal'":3697,"▁marca":3698,"▁marad":3699,"▁pista\r\n":3700,"▁olvido\r\n":3701,"ándote":3702,"▁corazón,":3703,"▁quedarme":3704,"▁entendi":3705,"▁diablo,":3706,"▁mentira":3707,"▁ninguna":3708,"▁nosotr":3709,"▁minuto":3710,"▁trabajo\r\n":3711,"▁constr":3712,"▁feliz\r\n":3713,"▁hicimos":3714,"▁posi":3715,"▁bomb":3716,"▁cuidado":3717,"▁invent":3718,"▁oscuri":3719,"▁salamandra\r\n":3720,"▁amanecer\r\n":3721,"▁sincero\r\n":3722,"▁lluvia":3723,"-na-na\r\n":3724,"▁detrás":3725,"▁imposible":3726,"-i":3727,"don":3728,"lla,":3729,"pa,":3730,"á'":3731,"▁á":3732,"▁sam":3733,"▁lento,":3734,"▁av":3735,"▁nana":3736,"▁esco":3737,"▁enga":3738,"▁fran":3739,"▁fues":3740,"oma\r\n":3741,"▁sienta":3742,"▁conten":3743,"▁game\r\n":3744,"▁pau":3745,"▁país":3746,"▁top":3747,"▁quise":3748,"cel":3749,"▁ice\r\n":3750,"▁desas":3751,"▁matando":3752,"▁sabor":3753,"▁sabe,":3754,"▁perra\r\n":3755,"▁wal":3756,"▁verte\r\n":3757,"▁quieran":3758,"▁asus":3759,"▁amar\r\n":3760,"▁vendo":3761,"▁gano\r\n":3762,"▁entera\r\n":3763,"▁son\r\n":3764,"llas":3765,"dose":3766,"▁malo\r\n":3767,"▁calor":3768,"▁haya":3769,"▁up\r\n":3770,"▁qué\r\n":3771,"▁rott":3772,"▁can,":3773,"▁hace\r\n":3774,"▁moja":3775,"▁resis":3776,"os,\r\n":3777,"▁precio":3778,"▁casa,":3779,"▁volar":3780,"eza,":3781,"▁abra":3782,"▁tomé":3783,"▁primera\r\n":3784,"▁peso":3785,"▁negro\r\n":3786,"▁mil\r\n":3787,"▁miles":3788,"▁bles":3789,"▁ustede'":3790,"▁clav":3791,"▁tatu":3792,"▁tonto":3793,"▁hip-ho":3794,"▁poder\r\n":3795,"▁basta":3796,"▁dollar,":3797,"▁hander":3798,"▁bron":3799,"▁sangre\r\n":3800,"▁quí":3801,"▁apaga":3802,"▁gasto":3803,"▁trash,":3804,"▁desay":3805,"▁mirar\r\n":3806,"▁arreba":3807,"▁duko":3808,"▁hubi":3809,"▁última":3810,"▁causa":3811,"____":3812,"▁imagin":3813,"▁asesin":3814,"▁permanent,":3815,"▁música,":3816,"▁hacía":3817,"▁carrera":3818,"▁pueblo":3819,"▁nervi":3820,")\r\n":3821,"cn":3822,"dien":3823,"gen":3824,"ja,":3825,"lam":3826,"ína":3827,"▁(":3828,"▁mué":3829,"▁plas":3830,"uela,":3831,"▁cra":3832,"▁encer":3833,"▁by":3834,"▁blow":3835,"▁bir":3836,"▁fo\r\n":3837,"▁sic":3838,"cir":3839,"▁oportun":3840,"▁tení":3841,"▁repi":3842,"entos\r\n":3843,"▁ma'\r\n":3844,"▁sabiendo":3845,"▁cach":3846,"▁pa'ca\r\n":3847,"vio":3848,"▁anti":3849,"dad,":3850,"▁rimo":3851,"▁rima,":3852,"▁poes":3853,"▁ganas\r\n":3854,"▁llan":3855,"▁kil":3856,"▁hablen":3857,"▁prote":3858,"▁dice\r\n":3859,"▁frío":3860,"▁mueren":3861,"▁down":3862,"et,":3863,"▁fies":3864,"▁rimas,":3865,"▁wacho,":3866,"▁tenerte":3867,"▁encontra":3868,"▁millón\r\n":3869,"lico\r\n":3870,"▁kelo":3871,"bajo":3872,"▁mentira\r\n":3873,"▁llena":3874,"▁revien":3875,"▁escena":3876,"▁draco,":3877,"▁viviendo":3878,"▁incl":3879,"▁aguanto":3880,"▁razón":3881,"▁prisión\r\n":3882,"▁competir":3883,"▁familia\r\n":3884,"▁cadena":3885,"▁frases":3886,"▁mantengo":3887,"▁fracas":3888,"▁estrellas\r\n":3889,"▁suerte":3890,"▁directamente":3891,"▁snap":3892,"▁fuese":3893,"▁rottwe":3894,"-u":3895,"bres":3896,"dd":3897,"gü":3898,"i'":3899,"itos":3900,"iones":3901,"jas\r\n":3902,"é'":3903,"▁és":3904,"▁sana":3905,"▁sensa":3906,"▁lla":3907,"▁dó":3908,"▁yan":3909,"▁vámon":3910,"▁lamb":3911,"▁hel":3912,"rame,":3913,"▁loca,":3914,"▁seas":3915,"▁otras":3916,"▁para\r\n":3917,"tita":3918,"▁letra":3919,"▁lejos":3920,"▁level":3921,"▁natur":3922,"▁tengo,":3923,"▁rato\r\n":3924,"▁sole":3925,"▁pied":3926,"▁escal":3927,"▁escuela":3928,"▁veneno\r\n":3929,"▁hig":3930,"▁qué,":3931,"▁pros":3932,"▁dejes":3933,"▁pones":3934,"▁boom":3935,"▁juz":3936,"▁caso":3937,"▁apoy":3938,"▁hop\r\n":3939,"▁bee":3940,"▁muero\r\n":3941,"▁aquí,":3942,"▁recono":3943,"▁fuckin'":3944,"▁clava":3945,"▁200":3946,"▁arriba,":3947,"dora\r\n":3948,"▁presum":3949,"▁demoni":3950,"▁entender\r\n":3951,"▁juntos":3952,"▁poli":3953,"▁merce":3954,"▁llegué":3955,"▁cheque":3956,"▁subiendo":3957,"▁defiendo":3958,"▁robar":3959,"▁obvio":3960,"▁represento":3961,"▁plu":3962,"▁personas":3963,"▁olvidar\r\n":3964,"-na-na":3965,"▁algunos":3966,"▁duermo":3967,"▁embar":3968,"▁música\r\n":3969,"▁silencio":3970,"▁púr":3971,"▁empiezo":3972,"▁dientes":3973,"▁bandol":3974,"▁¿cuán":3975,"▁desnu":3976,"▁uh-uh-uh\r\n":3977,"-wo":3978,"a',":3979,"cas,":3980,"diente":3981,"ger":3982,"id":3983,"ia,":3984,"pel":3985,"▁ee":3986,"▁eas":3987,"▁pá":3988,"▁stu":3989,"▁ater":3990,"▁nu":3991,"▁debajo":3992,"▁hen":3993,"▁hora\r\n":3994,"▁enca":3995,"ines":3996,"rate":3997,"▁uno\r\n":3998,"▁siete":3999,"▁contr":4000,"rou":4001,"▁sean":4002,"cias\r\n":4003,"▁dios,":4004,"▁dieron":4005,"che,":4006,"▁toco":4007,"use":4008,"▁lebr":4009,"▁soy,":4010,"▁tire":4011,"▁tick":4012,"▁maqu":4013,"▁ino":4014,"▁cag":4015,"▁estabas":4016,"▁char":4017,"▁pies":4018,"▁poco\r\n":4019,"▁podemos":4020,"bia":4021,"▁carro":4022,"▁vendiendo":4023,"▁pure":4024,"▁pea":4025,"▁coc":4026,"▁ubi":4027,"▁roto":4028,"uestra":4029,"▁nunca\r\n":4030,"▁disco\r\n":4031,"▁luces":4032,"▁jug":4033,"▁apre":4034,"▁montan":4035,"▁dur":4036,"▁maric":4037,"▁mejores\r\n":4038,"▁hermanos":4039,"▁abur":4040,"▁empa":4041,"▁cuento\r\n":4042,"gaste":4043,"▁días\r\n":4044,"▁andan":4045,"▁nene\r\n":4046,"▁freestyl":4047,"▁15":4048,"▁grande\r\n":4049,"▁pelo\r\n":4050,"▁dembo":4051,"▁punch":4052,"▁cabrón,":4053,"▁kelow":4054,"▁bitches":4055,"▁seguimos":4056,"▁única":4057,"▁buscarte\r\n":4058,"▁pinta":4059,"▁piensan":4060,"▁razón\r\n":4061,"▁guardo":4062,"ppin'\r\n":4063,"▁champa":4064,"▁equivoca":4065,"▁esquivo,":4066,"▁uh-uh\r\n":4067,"▁mmm,":4068,"▁hood,":4069,"▁cayendo":4070,"▁profes":4071,"▁ah-ah\r\n":4072,"▁descontro":4073,"▁hotel\r\n":4074,"▁habilidad":4075,"▁pedazo":4076,"▁rép":4077,"▁nosotro'":4078,"▁ñengo":4079,"▁desayun":4080,"imos":4081,"pura":4082,"tero":4083,"zqui":4084,"óg":4085,"▁9":4086,"▁craz":4087,"▁ak":4088,"▁aca":4089,"▁qe":4090,"eran":4091,"▁yendo":4092,"▁debo":4093,"▁var":4094,"▁va\r\n":4095,"one,":4096,"oro\r\n":4097,"▁engan":4098,"▁metal":4099,"▁mire":4100,"▁sigui":4101,"▁conquis":4102,"▁hagan":4103,"▁g'":4104,"▁país\r\n":4105,"▁tuya":4106,"▁alas\r\n":4107,"▁alum":4108,"tico\r\n":4109,"▁cuál":4110,"▁idio":4111,"entes\r\n":4112,"▁supues":4113,"▁caí":4114,"▁deli":4115,"el\r\n":4116,"▁trae":4117,"▁pasó\r\n":4118,"▁voy,":4119,"▁¿de":4120,"▁amo":4121,"▁ganarme":4122,"▁serio,":4123,"▁arm":4124,"pado":4125,"uelo\r\n":4126,"▁man\r\n":4127,"▁solo,":4128,"▁malo,":4129,"▁coj":4130,"aria":4131,"▁roba":4132,"▁prom":4133,"ras,":4134,"▁excus":4135,"▁hacerme":4136,"▁hacerlo,":4137,"▁sacando":4138,"▁discul":4139,"▁todos,":4140,"▁babe,":4141,"▁cigar":4142,"▁hoy,":4143,"▁men\r\n":4144,"▁placa":4145,"▁plata\r\n":4146,"▁beat\r\n":4147,"▁pensé":4148,"▁pensam":4149,"▁dog":4150,"▁free":4151,"▁suene":4152,"▁él,":4153,"▁zor":4154,"▁clap,":4155,"▁talento\r\n":4156,"▁triun":4157,"▁nigga,":4158,"▁disparo":4159,"▁alemán":4160,"▁jefe":4161,"▁caminando":4162,"▁terminar":4163,"▁horas":4164,"▁rompe\r\n":4165,"▁rompe,":4166,"▁bols":4167,"▁xana":4168,"▁house\r\n":4169,"▁ilus":4170,"▁boy\r\n":4171,"▁erre":4172,"▁swing\r\n":4173,"▁undergro":4174,"▁fashion\r\n":4175,"▁púrpura":4176,"▁aterri":4177,"'o,":4178,"cé":4179,"con":4180,"ds":4181,"dal":4182,"ias":4183,"n,":4184,"pre":4185,"sy\r\n":4186,"tor\r\n":4187,"vas":4188,"vin":4189,"z,":4190,"▁edu":4191,"▁lil":4192,"▁dre":4193,"▁y,":4194,"▁nor":4195,"▁quemar":4196,"▁huy":4197,"▁encar":4198,"und\r\n":4199,"▁mio":4200,"in'\r\n":4201,"▁famos":4202,"▁siste":4203,"▁diver":4204,"abas":4205,"aba,":4206,"▁estés":4207,"▁tengas":4208,"tido":4209,"▁culo\r\n":4210,"▁caf":4211,"▁caen":4212,"▁cacer":4213,"▁niñ":4214,"▁pastilla":4215,"▁multi":4216,"▁vaci":4217,"▁rue":4218,"▁está'":4219,"▁entera":4220,"▁llám":4221,"▁camina":4222,"▁camara":4223,"▁colo":4224,"ter,":4225,"▁creer\r\n":4226,"énde":4227,"▁discu":4228,"h-ah\r\n":4229,"▁hoy\r\n":4230,"▁mencion":4231,"renal":4232,"▁compré":4233,"▁mara":4234,"▁flores":4235,"▁terri":4236,"▁fin\r\n":4237,"▁negra":4238,"▁jodi":4239,"▁¡a":4240,"▁improvisar":4241,"▁cerve":4242,"▁despué'":4243,"ín,":4244,"▁sueñ":4245,"▁gatas":4246,"▁problema\r\n":4247,"▁millones":4248,"▁interna":4249,"▁pena\r\n":4250,"▁adrenal":4251,"▁base":4252,"▁fueron":4253,"▁cintur":4254,"▁derra":4255,"▁ritmos":4256,"▁persona":4257,"miento":4258,"▁trabajo":4259,"▁salida\r\n":4260,"▁molly,":4261,"▁trueno\r\n":4262,"▁desapar":4263,"▁house":4264,"▁rápido,":4265,"▁especi":4266,"▁gelato":4267,"▁frontearle":4268,"▁prrrum!!":4269,"▁quedaste":4270,"▁propia":4271,"▁púb":4272,"▁sorpren":4273,"▁volvió":4274,"▁remix":4275,"▁warri":4276,"▁habitación\r\n":4277,"▁técn":4278,"▁aprove":4279,"a'\r\n":4280,"brar":4281,"ea\r\n":4282,"los\r\n":4283,"lar\r\n":4284,"les\r\n":4285,"tás":4286,"ual":4287,"ys":4288,"ábamos":4289,"▁eva":4290,"▁pab":4291,"▁sp":4292,"▁dru":4293,"▁avan":4294,"erto\r\n":4295,"▁nú":4296,"▁deber":4297,"una\r\n":4298,"▁bha":4299,"reí":4300,"▁mina":4301,"tada":4302,"▁loc":4303,"da'\r\n":4304,"▁sec":4305,"▁porro":4306,"▁comiendo":4307,"▁comer\r\n":4308,"▁dia":4309,"▁paca":4310,"▁tuc":4311,"▁estr":4312,"▁alim":4313,"ce'\r\n":4314,"▁cuch":4315,"▁repe":4316,"▁jal":4317,"▁esto'":4318,"entes":4319,"▁supi":4320,"▁matan":4321,"▁make":4322,"▁niños":4323,"▁tratando":4324,"▁paste":4325,"▁ang":4326,"▁mío,":4327,"▁entero\r\n":4328,"▁cocin":4329,"▁cobar":4330,"taron":4331,"▁ka":4332,"▁kar":4333,"▁kill":4334,"▁cana,":4335,"ta,\r\n":4336,"▁say":4337,"▁liri":4338,"▁ponte":4339,"ruga":4340,"ezco\r\n":4341,"▁gobi":4342,"▁saben,":4343,"▁factu":4344,"▁empec":4345,"▁querí":4346,"jate":4347,"▁guacho":4348,"▁suenan":4349,"▁suspi":4350,"a'o,":4351,"▁wacha":4352,"dor,":4353,"▁gavio":4354,"▁gritar":4355,"▁allá\r\n":4356,"▁au-a":4357,"▁adver":4358,"▁basura\r\n":4359,"▁perdido\r\n":4360,"▁estuve":4361,"▁llorar":4362,"▁shit,":4363,"▁comparto":4364,"▁girl":4365,"▁amigos\r\n":4366,"▁rocks":4367,"▁chance\r\n":4368,"▁áni":4369,"▁ocul":4370,"▁volví":4371,"▁volviendo":4372,"▁imagina":4373,"▁maldito":4374,"▁mental":4375,"▁bella":4376,"▁rebota,":4377,"▁jajaj":4378,"▁botella":4379,"▁caiga":4380,"▁cumplir":4381,"▁acompañ":4382,"▁negoci":4383,"▁stig":4384,"▁worl":4385,"güen":4386,"▁bhavi":4387,"-li":4388,"ah,":4389,"bor":4390,"cero":4391,"car\r\n":4392,"cto,":4393,"eo":4394,"eo\r\n":4395,"gía\r\n":4396,"ito,":4397,"llo,":4398,"mon":4399,"ry":4400,"tres":4401,"tencia\r\n":4402,"ácti":4403,"▁darme":4404,"eren":4405,"▁esf":4406,"anos\r\n":4407,"▁de\r\n":4408,"▁dedo":4409,"▁depor":4410,"▁nota\r\n":4411,"teo":4412,"▁tec":4413,"▁contin":4414,"▁gall":4415,"▁coment":4416,"▁diario\r\n":4417,"▁quiso":4418,"tivo\r\n":4419,"▁recu":4420,"ista":4421,"▁mafi":4422,"▁sabía":4423,"▁sabes,":4424,"▁cacha":4425,"▁sopor":4426,"▁socio":4427,"▁vergüen":4428,"▁vece'":4429,"▁trajo":4430,"▁pasando":4431,"▁pasión\r\n":4432,"▁run,":4433,"uma\r\n":4434,"pe,":4435,"▁míos":4436,"▁polo":4437,"▁amena":4438,"▁cargo":4439,"▁vengas":4440,"▁gans":4441,"▁gano,":4442,"▁pub":4443,"▁acción\r\n":4444,"▁acaba":4445,"▁camis":4446,"▁malos":4447,"▁calma\r\n":4448,"dero\r\n":4449,"tura,":4450,"▁pron":4451,"▁prr,":4452,"▁clan":4453,"▁moda":4454,"ver\r\n":4455,"fit":4456,"▁placer":4457,"▁vienes":4458,"▁vas,":4459,"▁you\r\n":4460,"ador\r\n":4461,"▁face\r\n":4462,"▁free\r\n":4463,"▁estás\r\n":4464,"▁explico":4465,"▁conocer":4466,"▁¡w":4467,"▁feo\r\n":4468,"▁vocab":4469,"▁humo\r\n":4470,"▁importa\r\n":4471,"▁tranquili":4472,"lica\r\n":4473,"▁papi\r\n":4474,"▁estuvi":4475,"▁tirado":4476,"▁broth":4477,"▁brillando":4478,"▁simple\r\n":4479,"▁recuerda":4480,"▁jef":4481,"▁andaba":4482,"▁caminar":4483,"▁camino\r\n":4484,"▁blanco":4485,"▁perdóname":4486,"▁puerta":4487,"▁tempo\r\n":4488,"▁drippin',":4489,"▁clase":4490,"▁¿quer":4491,"▁house,":4492,"▁microph":4493,"▁luna\r\n":4494,"▁jaja\r\n":4495,"▁felicidad":4496,"▁cazz":4497,"▁funeral\r\n":4498,"▁libertad\r\n":4499,"▁experien":4500,"▁acelera":4501,"▁simón":4502,"▁euro":4503,"-,":4504,"0\r\n":4505,"cía":4506,"can\r\n":4507,"ece\r\n":4508,"gres":4509,"gues":4510,"so,":4511,"í,":4512,"▁ár":4513,"▁món":4514,"▁pa\r\n":4515,"▁sá":4516,"▁cle":4517,"▁dora":4518,"▁a\r\n":4519,"▁españ":4520,"▁deton":4521,"▁ve\r\n":4522,"ones,":4523,"▁ladr":4524,"▁hol":4525,"eso":4526,"unk":4527,"▁bar\r\n":4528,"rado":4529,"▁fen":4530,"▁fru":4531,"▁feste":4532,"▁loo":4533,"▁comen":4534,"▁divi":4535,"▁ojer":4536,"▁paga":4537,"▁estando":4538,"▁aler":4539,"▁alma\r\n":4540,"▁cuándo":4541,"▁iden":4542,"▁it,":4543,"▁yah":4544,"▁supo":4545,"▁nah\r\n":4546,"▁madri":4547,"▁indi":4548,"▁caer,":4549,"▁wos":4550,"▁ani":4551,"▁antes\r\n":4552,"▁¿para":4553,"▁pique":4554,"▁piola\r\n":4555,"▁ven\r\n":4556,"▁vender":4557,"▁sonr":4558,"▁llora":4559,"▁cama,":4560,"▁copa":4561,"▁kh":4562,"▁kus":4563,"▁crees":4564,"▁crecí":4565,"▁prín":4566,"▁limi":4567,"▁mode":4568,"▁luce":4569,"▁falta\r\n":4570,"cara":4571,"fica":4572,"▁mons":4573,"▁llamar":4574,"▁vaso":4575,"▁ola\r\n":4576,"▁dura":4577,"▁sabemos":4578,"as,\r\n":4579,"▁rompi":4580,"▁frío\r\n":4581,"▁form":4582,"▁oro,":4583,"ándome\r\n":4584,"▁realmente":4585,"▁realidad\r\n":4586,"▁negros":4587,"▁conozco":4588,"▁¡dí":4589,"▁humo,":4590,"▁escuchan":4591,"▁sueño,":4592,"▁matarnos":4593,"▁grandes":4594,"▁visto\r\n":4595,"▁demuestro":4596,"▁tranquilo\r\n":4597,"▁admi":4598,"▁máqu":4599,"▁fuerte\r\n":4600,"▁mentir":4601,"▁huevos\r\n":4602,"-ay":4603,"▁mesa":4604,"▁contigo,":4605,"▁aprender":4606,"▁plane":4607,"▁consum":4608,"▁funcion":4609,"▁mirá":4610,"▁control\r\n":4611,"▁amiga":4612,"▁conciencia\r\n":4613,"▁piel\r\n":4614,"▁explicar":4615,"▁deseo":4616,"▁atrás\r\n":4617,"▁perfecto\r\n":4618,"▁transpi":4619,"▁debes":4620,"▁interesa":4621,"-pro":4622,"▁feeling":4623,"▁caliente\r\n":4624,"▁carajo":4625,"▁zapa":4626,"▁sorpres":4627,"▁madruga":4628,"▁destruy":4629,"▁ahora,":4630,"▁envuel":4631,"▁próxi":4632,"▁conex":4633,"▁riquel":4634,"▁correr":4635,"▁sport\r\n":4636,"▁mamacita,":4637,"▁impresion":4638,"▁punchl":4639,"▁identi":4640,"▁prínci":4641,"▁¡dímelo":4642,"came":4643,"dan\r\n":4644,"guen":4645,"ip":4646,"ite":4647,"iza\r\n":4648,"men":4649,"ment":4650,"zan":4651,"éf":4652,"ós":4653,"▁edi":4654,"▁mera":4655,"▁ps":4656,"▁ador":4657,"eras\r\n":4658,"eric":4659,"anos":4660,"antes\r\n":4661,"▁deu":4662,"▁noque":4663,"▁bloque":4664,"ala\r\n":4665,"▁fis":4666,"to'":4667,"▁lot":4668,"▁uno,":4669,"▁compa":4670,"▁estres":4671,"▁estén":4672,"▁parar\r\n":4673,"▁cule":4674,"▁imán":4675,"cación":4676,"catri":4677,"▁inse":4678,"▁cagar":4679,"▁vete":4680,"▁puedo\r\n":4681,"▁vayas":4682,"▁estoy\r\n":4683,"▁rima\r\n":4684,"e,\r\n":4685,"▁ganan":4686,"▁pecho\r\n":4687,"▁acor":4688,"▁llego,":4689,"▁maldades":4690,"▁calor\r\n":4691,"▁cojo":4692,"▁sai":4693,"▁saque":4694,"▁saqué":4695,"taste":4696,"▁pongan":4697,"▁fue\r\n":4698,"▁bobo":4699,"▁cicatri":4700,"▁apla":4701,"te,\r\n":4702,"▁costum":4703,"▁mejor,":4704,"▁decidi":4705,"▁rapear\r\n":4706,"▁face":4707,"▁esperar,":4708,"▁gustan":4709,"▁olvida":4710,"▁juega":4711,"▁guach":4712,"▁suena\r\n":4713,"▁quienes":4714,"▁gigan":4715,"▁obje":4716,"▁bailar\r\n":4717,"▁100":4718,"▁tarado\r\n":4719,"▁wow\r\n":4720,"▁ball":4721,"▁pegao'":4722,"▁vo'a":4723,"▁ritmo,":4724,"▁la'o\r\n":4725,"▁aleg":4726,"▁mujer,":4727,"▁diferente":4728,"▁representa":4729,"▁escribo\r\n":4730,"▁dormir":4731,"▁ready\r\n":4732,"▁arrep":4733,"▁arregl":4734,"▁tempran":4735,"▁bolu":4736,"▁campeón\r\n":4737,"▁cierro":4738,"▁futuro\r\n":4739,"▁cumple":4740,"▁trein":4741,"▁reyes":4742,"▁atenci":4743,"-e-e\r\n":4744,"▁outfit":4745,"▁diamante":4746,"▁consigo\r\n":4747,"▁lengu":4748,"▁motherfucker":4749,"▁enfrente":4750,"▁univer":4751,"▁lamenta":4752,"▁codeína":4753,"▁energía":4754,"▁zigzag,":4755,"▁magia":4756,"▁teléf":4757,"▁resulta":4758,"▁imperio":4759,"▁inclus":4760,"▁hennes":4761,"▁internacion":4762,"▁ojeras":4763,"bando":4764,"bra\r\n":4765,"ccion":4766,"emb":4767,"hh\r\n":4768,"ker\r\n":4769,"nab":4770,"ny\r\n":4771,"pes":4772,"uri":4773,"ór":4774,"▁mar\r\n":4775,"▁puen":4776,"▁scho":4777,"▁dense":4778,"▁na\r\n":4779,"▁name\r\n":4780,"▁nananau,n":4781,"▁quemo":4782,"osa":4783,"▁huel":4784,"▁metas":4785,"▁meten":4786,"▁metiendo":4787,"▁miren":4788,"inas\r\n":4789,"▁fo,":4790,"tamente":4791,"▁temo":4792,"▁conc":4793,"▁conven":4794,"▁contar\r\n":4795,"▁sed":4796,"cido\r\n":4797,"▁gue":4798,"la-lo":4799,"▁tuvi":4800,"ch\r\n":4801,"▁estri":4802,"tico":4803,"▁ir\r\n":4804,"▁rebel":4805,"▁letal":4806,"▁desen":4807,"▁race":4808,"▁ini":4809,"▁delante":4810,"▁perde":4811,"ell":4812,"▁tratar":4813,"▁ansi":4814,"▁¿te":4815,"▁pop":4816,"▁saliendo":4817,"▁carn":4818,"▁caro":4819,"▁caro\r\n":4820,"▁carne":4821,"▁venta":4822,"▁peque":4823,"▁peca":4824,"▁pecho":4825,"▁pedí":4826,"pera":4827,"▁llue":4828,"▁male":4829,"▁malas":4830,"▁cali":4831,"▁crea":4832,"▁qué?\r\n":4833,"▁roto\r\n":4834,"▁cantar":4835,"▁bad":4836,"▁rapero,":4837,"▁hacemo'":4838,"▁little":4839,"▁hear":4840,"▁impa":4841,"ir\r\n":4842,"▁sol,":4843,"▁bajando":4844,"▁aplas":4845,"▁plaza\r\n":4846,"▁bebi":4847,"▁llamarte":4848,"▁escup":4849,"▁dul":4850,"▁vuelo\r\n":4851,"▁decile":4852,"▁espera\r\n":4853,"▁mundo,":4854,"amo'\r\n":4855,"▁they":4856,"▁despues":4857,"▁final\r\n":4858,"▁nena\r\n":4859,"▁él\r\n":4860,"a'o":4861,"▁volver,":4862,"▁bang\r\n":4863,"▁colch":4864,"▁colombi":4865,"▁haciendo,":4866,"▁suelo\r\n":4867,"▁sueño\r\n":4868,"▁take":4869,"▁pana\r\n":4870,"▁mataron":4871,"▁allá,":4872,"▁pendiente":4873,"▁encontré":4874,"▁bala":4875,"▁espan":4876,"▁broke":4877,"▁¿como":4878,"▁entienden":4879,"▁revolu":4880,"▁planeta":4881,"▁medioc":4882,"▁hicieron":4883,"▁diferente\r\n":4884,"▁sufre":4885,"▁aires":4886,"▁borra":4887,"▁listo":4888,"▁puerto":4889,"▁sacarme":4890,"▁duko\r\n":4891,"▁duko,":4892,"▁white":4893,"▁amigo,":4894,"▁esconde":4895,"▁champi":4896,"▁pelea":4897,"▁voz,":4898,"▁genera":4899,"woo":4900,"▁philli":4901,"▁perrea,":4902,"▁error":4903,"▁30":4904,"▁capaz":4905,"▁ante'":4906,"▁goteo\r\n":4907,"▁respirar\r\n":4908,"▁suave":4909,"▁víde":4910,"▁acostumbra":4911,"ananau,nanana":4912,"▁let's":4913,"▁quavo,":4914,"▁khea":4915,"▁saiy":4916,"▁nananau,nananau,nanana":4917,"!,":4918,"bien":4919,"din":4920,"fas":4921,"ka,":4922,"mbo":4923,"oo":4924,"ting":4925,"ven\r\n":4926,"zz":4927,"ñe":4928,"▁sui":4929,"▁cent":4930,"▁testi":4931,"▁aten":4932,"eros":4933,"ons":4934,"▁nota,":4935,"▁lad":4936,"▁bá":4937,"abri":4938,"▁alto\r\n":4939,"▁almo":4940,"▁algo\r\n":4941,"▁tenta":4942,"us\r\n":4943,"▁ice":4944,"▁reco":4945,"cate":4946,"▁victor":4947,"▁jan":4948,"iste\r\n":4949,"ista\r\n":4950,"▁desma":4951,"▁destino":4952,"▁inta":4953,"▁wes":4954,"▁ve,":4955,"▁tratan":4956,"▁quiere,":4957,"▁pidió":4958,"▁está,":4959,"▁ven,":4960,"▁vende":4961,"▁vengo,":4962,"▁soni":4963,"▁acomo":4964,"▁cop":4965,"▁coher":4966,"dera":4967,"▁ko":4968,"ba-":4969,"aria\r\n":4970,"▁dejarte":4971,"▁neur":4972,"▁bac":4973,"▁hace,":4974,"tancia":4975,"▁boca,":4976,"▁furi":4977,"gan\r\n":4978,"▁mueres":4979,"▁muevo":4980,"▁bebo":4981,"▁cabal":4982,"▁tussi":4983,"▁vuelto":4984,"▁nueve":4985,"lante\r\n":4986,"tener":4987,"▁usa":4988,"▁pared\r\n":4989,"▁escribe":4990,"▁fake":4991,"▁dosis":4992,"▁pasa?":4993,"▁chavos":4994,"a'o\r\n":4995,"▁weed":4996,"▁bling":4997,"▁insta":4998,"▁¿qué?\r\n":4999,"dores\r\n":5000,"▁bebiendo":5001,"▁bailamos":5002,"▁tony\r\n":5003,"▁regalo":5004,"▁respeto\r\n":5005,"▁pena":5006,"▁culpable":5007,"▁merec":5008,"▁fama\r\n":5009,"▁isla":5010,"▁llorando":5011,"▁pegado":5012,"▁vivir\r\n":5013,"▁batallas\r\n":5014,"▁seguí":5015,"▁salió":5016,"▁defec":5017,"▁gorra":5018,"▁posible":5019,"▁cuidao'":5020,"▁entrar":5021,"▁freno,":5022,"▁aguanta":5023,"▁razón,":5024,"▁bende":5025,"▁chance,":5026,"▁cierto\r\n":5027,"▁sentía":5028,"▁ocur":5029,"▁papel\r\n":5030,"▁slow,":5031,"▁gil,":5032,"▁respondo":5033,"▁permanent\r\n":5034,"▁short":5035,"▁trappin',":5036,"▁ideas":5037,"▁mayor":5038,"▁black":5039,"▁métri":5040,"▁carajo\r\n":5041,"▁click,":5042,"▁pastillas":5043,"-tu-tu-tu-tu":5044,"▁policía\r\n":5045,"▁ferrari\r\n":5046,"▁okay\r\n":5047,"▁practi":5048,"▁out,":5049,"▁weed\r\n":5050,"▁ghetto\r\n":5051,"▁celular":5052,"▁payaso":5053,"▁bienvenido":5054,"▁hip-hop":5055,"▁muévelo":5056,"▁high\r\n":5057,"▁freestyler\r\n":5058,"▁champagn":5059,"▁dref":5060,"▁drug":5061,"▁árbol":5062,"▁máquina":5063,"-de":5064,"brando":5065,"c\r\n":5066,"cción\r\n":5067,"dente\r\n":5068,"día\r\n":5069,"eando":5070,"elo,":5071,"iz":5072,"imm":5073,"jo'":5074,"jos,":5075,"ste,":5076,"ya\r\n":5077,"▁eje":5078,"▁sto":5079,"▁ala":5080,"era,":5081,"ende":5082,"▁queriendo":5083,"▁esque":5084,"▁vari":5085,"▁ves,":5086,"▁varios":5087,"▁now\r\n":5088,"▁encen":5089,"▁mires":5090,"alo,":5091,"ini":5092,"▁fm":5093,"▁love,":5094,"amente\r\n":5095,"uir":5096,"ciendo\r\n":5097,"ley":5098,"char":5099,"▁parezco":5100,"▁alqui":5101,"tier":5102,"tico,":5103,"tiva\r\n":5104,"▁izqui":5105,"▁reme":5106,"diab":5107,"capi":5108,"▁desi":5109,"▁porque\r\n":5110,"▁delito":5111,"▁pa'\r\n":5112,"▁permis":5113,"▁chor":5114,"▁versa":5115,"▁vaina":5116,"▁rall":5117,"▁pidi":5118,"pido":5119,"▁escuela,":5120,"▁rimando":5121,"▁podes":5122,"▁poeta":5123,"▁salga":5124,"▁carame":5125,"▁pudo":5126,"▁hielo,":5127,"per\r\n":5128,"▁mani":5129,"▁llé":5130,"tera,":5131,"▁robo":5132,"▁cli":5133,"▁cancion":5134,"▁new":5135,"▁liga":5136,"▁lima":5137,"▁corriendo":5138,"▁heav":5139,"▁resenti":5140,"▁jugar\r\n":5141,"▁menores":5142,"▁bajar\r\n":5143,"▁paliza\r\n":5144,"▁bicho":5145,"▁you,":5146,"▁saben\r\n":5147,"▁frí":5148,"▁frus":5149,"mo'\r\n":5150,"ad\r\n":5151,"▁factor":5152,"▁buscas":5153,"▁estás,":5154,"▁querías":5155,"▁fly":5156,"▁cambiar\r\n":5157,"▁finde":5158,"▁grave":5159,"▁santa":5160,"▁joda":5161,"▁weon":5162,"▁somos\r\n":5163,"▁colores":5164,"▁escuchen":5165,"▁cuervo":5166,"▁besti":5167,"▁presente\r\n":5168,"▁13\r\n":5169,"▁vista\r\n":5170,"▁pregunto":5171,"▁problemas\r\n":5172,"▁triste\r\n":5173,"▁millón":5174,"▁shout":5175,"▁veces,":5176,"▁hombre\r\n":5177,"▁balas":5178,"▁princes":5179,"▁la'o":5180,"▁encuentro\r\n":5181,"▁fotos":5182,"▁principe":5183,"▁salimos":5184,"▁extraño\r\n":5185,"▁entren":5186,"▁sangre,":5187,"▁tempo":5188,"▁whippin":5189,"▁whippin',":5190,"▁chama":5191,"▁luego\r\n":5192,"▁okey":5193,"▁envidia\r\n":5194,"▁sentís":5195,"▁futuro,":5196,"-bl":5197,"▁prepara":5198,"▁billete":5199,"▁armada":5200,"▁acabo":5201,"-out":5202,"▁sientas":5203,"▁brujer":5204,"▁oh-oh-oh\r\n":5205,"▁avión":5206,"▁comida":5207,"▁comida\r\n":5208,"▁mmm\r\n":5209,"▁tarima":5210,"▁propio":5211,"▁alcohol,":5212,"▁linda":5213,"▁peligros":5214,"▁egocent":5215,"▁zarpa":5216,"▁pprrumm":5217,"▁skrt\r\n":5218,"▁enamorada":5219,"▁legend":5220,"▁yeh-yeh\r\n":5221,"▁cotto\r\n":5222,"▁hardcore\r\n":5223,"▁grupo":5224,"▁terror":5225,"▁cámara":5226,"▁lápiz":5227,"▁keloke,":5228,"▁demonios":5229,"▁multip":5230,"▁llámame":5231,"▁izquier":5232,"▁whippin,":5233,"▁egocentris":5234,"-qué":5235,".a":5236,"ai":5237,"cina":5238,"ió":5239,"ies":5240,"ique":5241,"sy,":5242,"tándome":5243,"ula":5244,"ume\r\n":5245,"zo,":5246,"éri":5247,"ñas":5248,"▁ere":5249,"▁pí":5250,"▁pil":5251,"▁ses":5252,"▁lui":5253,"▁lág":5254,"▁dar\r\n":5255,"▁aven":5256,"ena,":5257,"▁nas":5258,"▁nanan":5259,"▁quem":5260,"▁ves\r\n":5261,"▁vu,":5262,"onas":5263,"▁eli":5264,"▁melo":5265,"▁faj":5266,"▁fabri":5267,"tame":5268,"▁teor":5269,"▁condi":5270,"am,":5271,"▁seis":5272,"ciar":5273,"▁gre":5274,"leg":5275,"leta":5276,"▁dir":5277,"▁div":5278,"▁digo,":5279,"able\r\n":5280,"la'o\r\n":5281,"▁pacto":5282,"▁tu\r\n":5283,"▁tuvo":5284,"▁toca,":5285,"▁estú":5286,"del":5287,"▁ali":5288,"▁reina":5289,"dia":5290,"ol,":5291,"▁viven":5292,"resi":5293,"▁tiki":5294,"▁su'":5295,"▁desor":5296,"▁destre":5297,"▁delante\r\n":5298,"▁estaba\r\n":5299,"▁chil":5300,"▁wom":5301,"▁vecin":5302,"▁trab":5303,"▁track":5304,"▁traba":5305,"▁quiera,":5306,"▁rus":5307,"▁riv":5308,"▁ricar":5309,"▁pocas":5310,"▁sales":5311,"▁gane":5312,"▁gana\r\n":5313,"▁serio\r\n":5314,"▁hielo\r\n":5315,"▁high":5316,"▁artes":5317,"▁coño":5318,"tarle":5319,"▁ur":5320,"▁crew":5321,"▁crear":5322,"▁qué?":5323,"án,":5324,"▁negar":5325,"▁lit":5326,"▁liv":5327,"▁corte\r\n":5328,"▁hela":5329,"enso\r\n":5330,"man\r\n":5331,"▁rest":5332,"▁bara":5333,"zado":5334,"▁bola":5335,"▁hermos":5336,"▁casual":5337,"▁volar\r\n":5338,"▁baje\r\n":5339,"▁llamó":5340,"▁viento\r\n":5341,"▁goo":5342,"▁duro\r\n":5343,"▁sigo,":5344,"▁abro":5345,"▁aband":5346,"▁day":5347,"▁daño":5348,"▁usar":5349,"▁parecer":5350,"ados\r\n":5351,"▁masta":5352,"▁terren":5353,"▁olvides":5354,"▁valgo":5355,"▁graba":5356,"gue\r\n":5357,"▁jodido":5358,"▁zas":5359,"igh":5360,"▁when":5361,"▁blue":5362,"▁color\r\n":5363,"▁afec":5364,"▁papá\r\n":5365,"▁sueños":5366,"▁beba,":5367,"▁sentido":5368,"▁criter":5369,"▁12":5370,"▁demon":5371,"▁igual,":5372,"▁prendas":5373,"▁shoo":5374,"▁show,":5375,"▁momentos":5376,"▁necesita":5377,"▁freestyle,":5378,"▁dispara":5379,"▁mañan":5380,"▁llorar\r\n":5381,"▁batallas":5382,"▁brother":5383,"▁intento":5384,"▁principe\r\n":5385,"▁favor\r\n":5386,"▁matamos\r\n":5387,"▁persona\r\n":5388,"▁cansé":5389,"▁girl,":5390,"▁improvisaciones\r\n":5391,"▁cuello,":5392,"▁¿cómo?":5393,"▁arreg":5394,"▁signi":5395,"▁clases":5396,"▁vuelo,":5397,"▁contesta":5398,"▁confundas\r\n":5399,"▁saludo":5400,"▁movie":5401,"▁shorty\r\n":5402,"▁oh-oh\r\n":5403,"▁relaja":5404,"▁avión\r\n":5405,"▁carrera\r\n":5406,"▁cuesti":5407,"▁desespera\r\n":5408,"▁despierto\r\n":5409,"▁nuevas":5410,"▁pesadi":5411,"▁consegui":5412,"▁paguen":5413,"▁profun":5414,"hibi":5415,"▁veinti":5416,"▁pudiera":5417,"▁oído":5418,"▁trampa":5419,"▁okay,":5420,"▁criminal":5421,"▁sentado":5422,"▁líne":5423,"▁bizarrap\r\n":5424,"▁sentimientos":5425,"▁jaime":5426,"▁¿sabes":5427,"▁mitad":5428,"▁haciéndo":5429,"▁tatuaj":5430,"▁réplica":5431,"▁empecé":5432,"▁vocabul":5433,"▁holly":5434,"▁monstru":5435,"▁almoha":5436,"▁ejecu":5437,"-4":5438,"-g":5439,"-pa":5440,"bos":5441,"cón\r\n":5442,"cos,":5443,"gles":5444,"lu":5445,"los,":5446,"oh":5447,"ps":5448,"tú":5449,"tina":5450,"vé":5451,"úl":5452,"▁ef":5453,"▁edad":5454,"▁md":5455,"▁mero,":5456,"▁star":5457,"▁lana\r\n":5458,"▁atro":5459,"▁año\r\n":5460,"ano,":5461,"▁dela":5462,"ona,":5463,"▁lapi":5464,"▁lado,":5465,"▁hones":5466,"un\r\n":5467,"▁mel":5468,"▁mi?\r\n":5469,"▁miente\r\n":5470,"▁fas":5471,"▁fern":5472,"▁lot\r\n":5473,"▁tem":5474,"▁team\r\n":5475,"▁temá":5476,"▁sigo\r\n":5477,"▁condu":5478,"▁seca":5479,"▁sed\r\n":5480,"ciente":5481,"▁grou":5482,"▁combi":5483,"▁para,":5484,"▁party,":5485,"tido\r\n":5486,"▁im":5487,"di\r\n":5488,"▁letr":5489,"▁jui":5490,"▁rada":5491,"▁porquería\r\n":5492,"▁made":5493,"▁sabor\r\n":5494,"▁inver":5495,"▁caj":5496,"▁pa',":5497,"▁perros":5498,"▁sola,":5499,"▁sobran":5500,"▁chill":5501,"▁traes":5502,"▁track\r\n":5503,"▁pues\r\n":5504,"▁vag":5505,"▁pib":5506,"▁pio":5507,"▁pico":5508,"mos,\r\n":5509,"▁ganado":5510,"▁seria":5511,"▁pude":5512,"▁mali":5513,"▁calent":5514,"én,":5515,"én\r\n":5516,"▁'el":5517,"▁'tan":5518,"▁liga\r\n":5519,"▁mota":5520,"▁solita":5521,"▁boo\r\n":5522,"▁precis":5523,"▁juro,":5524,"▁cash":5525,"▁muera":5526,"▁hop,":5527,"▁cosa'":5528,"▁dudas\r\n":5529,"▁cabeza,":5530,"▁maría,":5531,"▁abar":5532,"▁paredes":5533,"▁muerto,":5534,"▁doctor":5535,"▁buscándote\r\n":5536,"▁espera,":5537,"▁expor":5538,"▁expli":5539,"▁improvisar\r\n":5540,"▁improvisando\r\n":5541,"▁feka":5542,"▁nene,":5543,"▁puesta":5544,"▁freestyler":5545,"▁banda":5546,"▁bandido":5547,"▁blas":5548,"▁sueña":5549,"dores":5550,"▁obser":5551,"▁baila\r\n":5552,"▁encima,":5553,"▁wow":5554,"▁agua\r\n":5555,"▁encontrar\r\n":5556,"▁cintura":5557,"▁micro,":5558,"h-eh,":5559,"▁dejarlo":5560,"h-oh-oh\r\n":5561,"iones\r\n":5562,"▁chile":5563,"▁brillar\r\n":5564,"▁sky":5565,"▁skrr":5566,"▁llevó":5567,"▁off":5568,"▁fresco":5569,"▁fresco\r\n":5570,"▁fresco,":5571,"▁cien\r\n":5572,"▁salida":5573,"▁oye\r\n":5574,"▁extraño":5575,"▁terminan":5576,"▁robé\r\n":5577,"▁pinto":5578,"▁desaf":5579,"▁vampi":5580,"▁levanto":5581,"▁afuera,":5582,"▁novia":5583,"▁duki,":5584,"▁wannab":5585,"▁decía":5586,"▁ojo'":5587,"▁ojos\r\n":5588,"▁perfecto":5589,"▁responde":5590,"▁soñar\r\n":5591,"▁historia\r\n":5592,"▁sientes":5593,"tic\r\n":5594,"▁brincando":5595,"▁bum,":5596,"▁comprar\r\n":5597,"▁cuesta":5598,"▁humilde":5599,"▁tinta":5600,"▁sexo":5601,"▁rumor":5602,"▁zapas":5603,"▁jurado":5604,"▁heridas":5605,"▁damn,":5606,"▁enemigos":5607,"▁-ína\r\n":5608,"▁fluidez\r\n":5609,"▁sufrir\r\n":5610,"▁document":5611,"▁area":5612,"▁anoche":5613,"▁quavo\r\n":5614,"▁actitud":5615,"▁págame,":5616,"▁memoria\r\n":5617,"▁pprrumm\r\n":5618,"▁ventana":5619,"▁ilumina":5620,"▁colecti":5621,"▁ház":5622,"▁inspira":5623,"h-yeah\r\n":5624,"▁avís":5625,"▁easy":5626,"▁aburri":5627,"▁técnic":5628,"▁tucun,":5629,"▁stigma":5630,"▁¡wuh!\r\n":5631,"▁príncipe":5632,"▁lamentable":5633,"▁suici":5634,"▁shout-out":5635,"▁aveni":5636,"▁nanananan":5637,"▁groupi":5638,"'re":5639,"-m":5640,"-po":5641,".i":5642,"b\r\n":5643,"cción":5644,"dá":5645,"darme":5646,"gor":5647,"gre":5648,"ger\r\n":5649,"jan":5650,"jando":5651,"kin'":5652,"miendo":5653,"mento":5654,"no'":5655,"tó\r\n":5656,"var":5657,"zos\r\n":5658,"▁7":5659,"▁emo":5660,"▁pé":5661,"▁ple":5662,"▁ty":5663,"▁aero":5664,"▁na,":5665,"▁name":5666,"anza":5667,"▁detal":5668,"ono,":5669,"▁hos":5670,"▁meet":5671,"rado\r\n":5672,"▁fe,":5673,"▁siti":5674,"▁sill":5675,"▁hay\r\n":5676,"leta\r\n":5677,"ientos":5678,"▁ojo":5679,"▁otro\r\n":5680,"▁otra\r\n":5681,"la'\r\n":5682,"▁pago":5683,"▁toal":5684,"▁tener\r\n":5685,"tili":5686,"tir\r\n":5687,"ón?\r\n":5688,"▁ileg":5689,"▁retro":5690,"▁retras":5691,"dia\r\n":5692,"is,":5693,"▁despa":5694,"▁descu":5695,"▁nadar":5696,"▁na-na-na\r\n":5697,"▁caga":5698,"▁perse":5699,"▁vere":5700,"▁pasaj":5701,"▁pasar,":5702,"▁quiere\r\n":5703,"▁ando\r\n":5704,"▁anteri":5705,"tros\r\n":5706,"▁ring":5707,"um,":5708,"▁escab":5709,"▁escol":5710,"▁rimo,":5711,"▁ama,":5712,"▁aroma":5713,"▁sonreí":5714,"▁aclar":5715,"▁llevo\r\n":5716,"▁llega\r\n":5717,"▁manera\r\n":5718,"ran\r\n":5719,"▁calenti":5720,"▁calor,":5721,"▁caliente":5722,"▁coje":5723,"tarme\r\n":5724,"▁ulti":5725,"▁cantan":5726,"▁cantando":5727,"▁dejan":5728,"▁dejando":5729,"▁never":5730,"▁lib":5731,"▁move":5732,"▁pongas":5733,"▁diste":5734,"▁solas\r\n":5735,"▁thu":5736,"▁cima":5737,"▁cima\r\n":5738,"▁fallar":5739,"▁juro\r\n":5740,"▁caser":5741,"▁cash\r\n":5742,"carme":5743,"▁mueva":5744,"▁hola":5745,"▁beba":5746,"▁cabo":5747,"▁vuelva":5748,"▁puedo,":5749,"▁pensás":5750,"▁escrito":5751,"jeme":5752,"▁orig":5753,"▁cuentas":5754,"amo',":5755,"▁fuck\r\n":5756,"▁valen":5757,"▁pesos":5758,"▁santo":5759,"▁daría":5760,"▁voces":5761,"▁pues,":5762,"▁\"el":5763,"▁some":5764,"▁sombra":5765,"▁bang":5766,"▁ustedes\r\n":5767,"▁papá,":5768,"▁corazon":5769,"▁cuero\r\n":5770,"▁suelo,":5771,"▁panas":5772,"▁pierde":5773,"▁pierdes":5774,"▁autor":5775,"▁prendi":5776,"▁prender":5777,"▁tumbar":5778,"▁fama,":5779,"▁estupi":5780,"▁mentira,":5781,"▁tres,":5782,"▁sobrevi":5783,"▁aparezco":5784,"▁baile\r\n":5785,"▁minutos":5786,"▁intenci":5787,"▁intento\r\n":5788,"▁princi\r\n":5789,"▁defor":5790,"▁trueno,":5791,"▁pienso,":5792,"▁control":5793,"▁controlo":5794,"▁vamos\r\n":5795,"▁ceba":5796,"▁sacarte":5797,"▁drippin'\r\n":5798,"▁'tamos":5799,"▁mc\r\n":5800,"▁campeón,":5801,"▁digan\r\n":5802,"▁infin":5803,"▁hambre\r\n":5804,"▁gil\r\n":5805,"▁copia":5806,"▁transfor":5807,"▁realidad,":5808,"▁full\r\n":5809,"▁cielo,":5810,"▁interesa\r\n":5811,"▁perreo":5812,"▁merece":5813,"▁gargan":5814,"▁dice:\r\n":5815,"▁aceptar":5816,"▁mensaje":5817,"▁mensaje\r\n":5818,"▁millonario":5819,"▁click":5820,"▁enfrent":5821,"▁metido":5822,"▁herida":5823,"▁orgullo":5824,"▁madre\r\n":5825,"▁pelícu":5826,"▁leyenda,":5827,"▁prometo":5828,"▁decime:":5829,"▁artista\r\n":5830,"▁escapar\r\n":5831,"▁pegué":5832,"▁joven,":5833,"-no-no":5834,"▁guerrero":5835,"▁refle":5836,"▁línea":5837,"▁vacilando":5838,"▁jarab":5839,"▁power\r\n":5840,"▁miami":5841,"▁concierto'":5842,"▁conviene":5843,"▁interior":5844,"▁espalda":5845,"▁again\r\n":5846,"▁blesse":5847,"▁público":5848,"▁jajaja\r\n":5849,"▁vergüenza":5850,"▁conexión\r\n":5851,".a.":5852,"▁házmelo":5853,"-f":5854,"-pi":5855,"bur":5856,"cri":5857,"cina\r\n":5858,"dé":5859,"fal":5860,"ita,":5861,"ky":5862,"lor":5863,"ron":5864,"rendo":5865,"tía":5866,"▁‘":5867,"▁echo":5868,"▁mm":5869,"▁mas\r\n":5870,"▁pás":5871,"▁sta":5872,"▁sni":5873,"▁lóg":5874,"▁ta'":5875,"▁aus":5876,"▁abi":5877,"▁atiendo":5878,"▁queres":5879,"▁queremos":5880,"▁decapi":5881,"▁lag":5882,"▁elim":5883,"▁hust":5884,"▁b\r\n":5885,"▁mia":5886,"▁miento":5887,"alá":5888,"ink":5889,"ra!\r\n":5890,"▁fina":5891,"▁temor":5892,"▁siga":5893,"▁sigan":5894,"▁conch":5895,"▁contras":5896,"▁yo'":5897,"da?\r\n":5898,"▁sei'":5899,"cido,":5900,"ria\r\n":5901,"rimi":5902,"▁diría":5903,"▁ocho":5904,"▁oje":5905,"▁pac":5906,"▁patr":5907,"▁tuviste":5908,"▁toa":5909,"▁tocan":5910,"▁quita":5911,"▁pare\r\n":5912,"▁partir":5913,"▁alre":5914,"▁if":5915,"▁revis":5916,"olver":5917,"▁vip\r\n":5918,"▁vivo,":5919,"▁tiro,":5920,"▁nacer":5921,"▁nacen":5922,"▁nacion":5923,"▁na-n":5924,"▁porquería":5925,"▁mata\r\n":5926,"▁sabes\r\n":5927,"▁inyec":5928,"▁perras":5929,"▁perro,":5930,"▁chin":5931,"▁wana":5932,"▁will":5933,"▁wuh":5934,"▁verde":5935,"▁ve'":5936,"▁veas":5937,"▁tragos":5938,"▁quieres,":5939,"▁anali":5940,"tral":5941,"▁rin":5942,"um\r\n":5943,"▁¿es":5944,"▁pido\r\n":5945,"▁pif,":5946,"▁escamp":5947,"▁asa":5948,"▁ambi":5949,"▁saltar":5950,"▁salva":5951,"▁carg":5952,"▁carros":5953,"quito\r\n":5954,"▁venís":5955,"▁sonido":5956,"▁sonris":5957,"▁pecado":5958,"pac":5959,"paña":5960,"▁coco,":5961,"▁tiene\r\n":5962,"tari":5963,"▁ken":5964,"▁kri":5965,"▁crecer\r\n":5966,"▁quédate":5967,"▁roque":5968,"▁rola\r\n":5969,"▁prr":5970,"▁prácti":5971,"▁dejaste":5972,"▁mama\r\n":5973,"▁ella,":5974,"▁'ca":5975,"▁hablando\r\n":5976,"▁sapo":5977,"▁ligh":5978,"▁modu":5979,"▁coro\r\n":5980,"▁hecho,":5981,"▁soltando":5982,"▁prohibi":5983,"▁bobo\r\n":5984,"▁falle":5985,"den,":5986,"▁sha":5987,"▁bajen":5988,"▁bajame":5989,"▁hola,":5990,"▁viento":5991,"▁pala,":5992,"▁going":5993,"talo":5994,"▁duki":5995,"▁maría\r\n":5996,"▁abs":5997,"▁abraz":5998,"▁fría\r\n":5999,"▁parecen":6000,"▁-s":6001,"▁busco,":6002,"▁gusto":6003,"▁explos":6004,"▁cambié":6005,"can,":6006,"▁joder":6007,"▁improviso":6008,"▁voa'":6009,"▁chav":6010,"▁chapo":6011,"▁zona":6012,"▁weá":6013,"▁\"a":6014,"rr,":6015,"▁preso":6016,"▁vista":6017,"▁irse":6018,"▁problema,":6019,"▁grito":6020,"▁respeta":6021,"▁palabras\r\n":6022,"▁guerre":6023,"▁cabron":6024,"▁polvo":6025,"▁perdiste":6026,"▁drogado":6027,"▁mentiras\r\n":6028,"▁dani":6029,"mo,\r\n":6030,"▁confor":6031,"▁entiendo\r\n":6032,"▁déjeme":6033,"▁revent":6034,"▁reviento":6035,"▁minu',":6036,"▁chees":6037,"▁mesa\r\n":6038,"▁agresi":6039,"▁recuerdos\r\n":6040,"éndome\r\n":6041,"▁just":6042,"▁argentina,":6043,"▁molly":6044,"▁terminó":6045,"▁apache":6046,"aron,":6047,"▁frenar":6048,"▁cuantos":6049,"▁cansado":6050,"▁pienso\r\n":6051,"▁salir\r\n":6052,"▁contacto":6053,"▁traigan":6054,"▁sentí":6055,"▁cadena\r\n":6056,"▁pasado,":6057,"▁cristo":6058,"▁uoh-":6059,"▁completo":6060,"▁billetes":6061,"▁ojalá":6062,"▁mental\r\n":6063,"▁autoesti":6064,"▁alcanz":6065,"▁cuántas":6066,"▁ciego\r\n":6067,"▁hacés":6068,"▁venir\r\n":6069,"▁haters\r\n":6070,"▁acepto":6071,"▁records":6072,"▁diamantes":6073,"▁cerebro\r\n":6074,"▁201":6075,"▁preocup":6076,"▁bailarlo":6077,"▁padre,":6078,"▁enloquecer\r\n":6079,"▁vacío\r\n":6080,"▁coger":6081,"▁pistola":6082,"▁c.r.o":6083,"▁distinto":6084,"▁apunto":6085,"▁leyenda":6086,"-na-na,":6087,"▁jordan":6088,"▁about":6089,"▁quieto,":6090,"▁weed,":6091,"▁break":6092,"▁venezuela":6093,"▁locura":6094,"▁ruido\r\n":6095,"▁hagá":6096,"▁sufrimiento":6097,"▁mundial":6098,"▁gratis\r\n":6099,"▁hitboy\r\n":6100,"▁suficiente\r\n":6101,"▁nosotros,":6102,"▁oscuridad\r\n":6103,"▁mojada":6104,"▁crack":6105,"▁poesía\r\n":6106,"▁éste":6107,"▁stuar":6108,"▁ticket":6109,"▁durmiendo":6110,"▁maricón\r\n":6111,"▁crazy":6112,"▁café\r\n":6113,"▁karma":6114,"▁gaviota":6115,"▁microphone":6116,"▁cazzu,":6117,"▁experiencia\r\n":6118,"▁riquelme":6119,"▁¡dímelo!\r\n":6120,"▁treinta":6121,"la-lola-lo":6122,"▁nananau,nananau,nananau\r\n":6123,"▁tussi,":6124,"▁instagra":6125,"▁champagne\r\n":6126,"▁ricardo":6127,"▁aerop":6128,"'s\r\n":6129,"came,":6130,"dan,":6131,"gs":6132,"gos,":6133,"it":6134,"lle":6135,"las,":6136,"más":6137,"ny,":6138,"ros,":6139,"rone":6140,"tía\r\n":6141,"tiendo\r\n":6142,"uch":6143,"uble":6144,"vando":6145,"vas\r\n":6146,"zando":6147,"zas\r\n":6148,"ára":6149,"▁ej":6150,"▁em":6151,"▁po,":6152,"uelo":6153,"▁tamos":6154,"▁duela\r\n":6155,"▁aro":6156,"▁aument":6157,"ere\r\n":6158,"eros\r\n":6159,"enas":6160,"enle":6161,"▁quedes":6162,"▁espi":6163,"antes,":6164,"▁detener":6165,"▁noti":6166,"▁la\r\n":6167,"▁ens":6168,"▁bin":6169,"▁bás":6170,"▁bill":6171,"▁but":6172,"▁braz":6173,"ine,":6174,"▁fle":6175,"▁fel":6176,"tamos":6177,"tados":6178,"▁una,":6179,"▁concent":6180,"row":6181,"cidad":6182,"▁gr":6183,"rimas":6184,"iente\r\n":6185,"▁dibu":6186,"▁ok,":6187,"la'":6188,"lada":6189,"▁paci":6190,"▁toas":6191,"▁toda\r\n":6192,"▁to',":6193,"▁estal":6194,"▁alma,":6195,"▁repor":6196,"▁refer":6197,"▁pero,":6198,"cado\r\n":6199,"▁jimm":6200,"ismo":6201,"entro,":6202,"▁yea,":6203,"▁time":6204,"▁tiré":6205,"▁suba":6206,"o's":6207,"▁desar":6208,"▁destino\r\n":6209,"▁nacho":6210,"▁radio":6211,"▁porque,":6212,"▁una'":6213,"▁mata,":6214,"▁caja":6215,"vir":6216,"▁niño,":6217,"▁wuh,":6218,"gado\r\n":6219,"▁trape":6220,"▁pases":6221,"▁quieras\r\n":6222,"▁mismos":6223,"▁piz":6224,"▁pila":6225,"▁escas":6226,"▁podri":6227,"bia\r\n":6228,"▁salva\r\n":6229,"▁carita":6230,"▁veni":6231,"▁venas\r\n":6232,"▁pega\r\n":6233,"pa'":6234,"▁lleve":6235,"▁mantu":6236,"▁coo":6237,"tarse":6238,"teres":6239,"▁creas":6240,"guas":6241,"tud\r\n":6242,"▁rode":6243,"▁rojo":6244,"▁canal":6245,"▁canto\r\n":6246,"▁can't":6247,"culo\r\n":6248,"culos":6249,"▁bay":6250,"▁busque":6251,"▁saca,":6252,"▁sapo,":6253,"▁lim":6254,"▁moj":6255,"▁moda\r\n":6256,"▁mochi":6257,"enso":6258,"▁solu":6259,"▁solos":6260,"▁soldado":6261,"▁protes":6262,"▁profe":6263,"mas,":6264,"▁tiene'":6265,"▁juan":6266,"▁esa'":6267,"▁apu":6268,"▁plaza":6269,"▁placer\r\n":6270,"▁how":6271,"▁hoes":6272,"▁llamas":6273,"▁llames":6274,"▁llamar\r\n":6275,"▁viendo\r\n":6276,"▁paliza":6277,"▁dudo\r\n":6278,"▁cabro":6279,"▁sabemo'":6280,"▁pensaba":6281,"▁tomó":6282,"ador":6283,"▁esperar":6284,"▁cuenta,":6285,"▁fuman":6286,"▁pasa?\r\n":6287,"▁mori":6288,"▁gracias\r\n":6289,"idad,":6290,"▁conocí":6291,"▁dímelo":6292,"▁feo":6293,"▁zona\r\n":6294,"▁\"s":6295,"▁who's":6296,"▁banda\r\n":6297,"▁fie":6298,"▁fiel":6299,"▁colora":6300,"▁clave":6301,"▁cuerpo,":6302,"▁fuimo'":6303,"▁presente":6304,"▁gira,":6305,"▁obs":6306,"▁pierda":6307,"▁13":6308,"▁trá":6309,"▁trom":6310,"▁trunk":6311,"▁mucho,":6312,"▁irme":6313,"▁demás":6314,"▁woh,":6315,"▁interpre":6316,"▁pene\r\n":6317,"▁nigh":6318,"sapp":6319,"▁necesario":6320,"▁estuvo":6321,"▁diabla,":6322,"▁homi":6323,"▁mentiras":6324,"▁señora":6325,"▁vivimos":6326,"▁ritmo\r\n":6327,"▁llegando":6328,"▁batalla\r\n":6329,"▁eyes":6330,"▁llenar":6331,"▁odian":6332,"▁odio\r\n":6333,"ion,":6334,"▁aprendi":6335,"▁eleva":6336,"▁seguís":6337,"▁ofen":6338,"▁buta":6339,"▁fresh":6340,"▁fresca":6341,"▁fresh,":6342,"▁cruz\r\n":6343,"▁ustedes,":6344,"▁molesta":6345,"▁hicimo'":6346,"▁defen":6347,"-e-e":6348,"▁plan\r\n":6349,"▁ves?\r\n":6350,"▁borrar":6351,"▁blanca":6352,"▁cuantas":6353,"▁pasó?\r\n":6354,"▁brega":6355,"▁sigues":6356,"▁kid":6357,"▁kilo":6358,"▁palabras,":6359,"▁enseñar\r\n":6360,"▁segunda":6361,"▁cadena,":6362,"▁prefiere":6363,"▁fácil,":6364,"▁ocupa":6365,"▁uoh\r\n":6366,"▁encanta\r\n":6367,"▁empezar":6368,"▁largo":6369,"▁rubi":6370,"▁beat,":6371,"▁whatsapp":6372,"▁oscuro":6373,"▁invito":6374,"▁espejo":6375,"▁sienten":6376,"▁movimiento":6377,"▁rebota\r\n":6378,"▁ciego":6379,"▁error\r\n":6380,"▁títu":6381,"▁evento":6382,"▁evento\r\n":6383,"▁comprendo\r\n":6384,"▁lengua":6385,"▁convier":6386,"▁consegu":6387,"▁salamandra,":6388,"▁alcohol\r\n":6389,"▁eviden":6390,"▁trucos":6391,"▁funeral,":6392,"▁depende":6393,"▁suerte\r\n":6394,"▁viniste":6395,"▁boss\r\n":6396,"▁contento\r\n":6397,"▁peligro":6398,"▁murió\r\n":6399,"▁gangsta":6400,"▁inteligencia\r\n":6401,"-ta-ta":6402,"▁remix\r\n":6403,"bles\r\n":6404,"▁abrir":6405,"▁guerrero\r\n":6406,"▁comienza":6407,"▁ocasiones":6408,"▁piernas":6409,"▁padre\r\n":6410,"▁ghetto":6411,"▁arruin":6412,"▁años\r\n":6413,"▁ángeles":6414,"▁lírica":6415,"▁delincuente\r\n":6416,"▁sencillo\r\n":6417,"▁situación":6418,"▁sufrimiento\r\n":6419,"▁canserbero\r\n":6420,"▁estrella'\r\n":6421,"▁receta":6422,"▁elegante\r\n":6423,"▁gonna":6424,"▁fortnite\r\n":6425,"▁maradona":6426,"▁engañ":6427,"▁contenido\r\n":6428,"▁dólar":6429,"▁hello":6430,"▁contrario\r\n":6431,"▁kelowa,":6432,"▁zorra":6433,"▁sistema":6434,"▁terrible":6435,"▁world":6436,"▁brother\r\n":6437,"▁próxima":6438,"▁arrepenti":6439,"▁ansie":6440,"▁efec":6441,".i.":6442,"▁wanak":6443,"árame\r\n":6444,"-es":6445,"-o\r\n":6446,"bil":6447,"bras":6448,"bando\r\n":6449,"có":6450,"col":6451,"cero,":6452,"come":6453,"cán\r\n":6454,"dre\r\n":6455,"ee":6456,"form":6457,"game":6458,"ieron":6459,"jas,":6460,"mera\r\n":6461,"mento\r\n":6462,"ny":6463,"ps\r\n":6464,"uf":6465,"xe":6466,"ísi":6467,"—\r\n":6468,"▁#":6469,"▁o\r\n":6470,"▁mk":6471,"▁mario":6472,"▁pent":6473,"▁sense":6474,"▁cí":6475,"▁clo":6476,"▁cic":6477,"▁torm":6478,"▁ago":6479,"▁apo":6480,"▁atras":6481,"▁aki":6482,"▁awe":6483,"erá":6484,"▁espar":6485,"▁deal":6486,"▁now":6487,"▁lados\r\n":6488,"▁hues":6489,"▁entier":6490,"▁mia\r\n":6491,"▁miras":6492,"▁fing":6493,"▁fino":6494,"▁fé\r\n":6495,"▁fís":6496,"tao":6497,"▁techo":6498,"▁con\r\n":6499,"▁conde":6500,"ami":6501,"amas":6502,"dado\r\n":6503,"da',":6504,"▁separ":6505,"▁sepas":6506,"▁pors":6507,"▁hat":6508,"▁g,":6509,"▁ger":6510,"▁game":6511,"ritu":6512,"le'":6513,"abas\r\n":6514,"laz":6515,"lado\r\n":6516,"chas":6517,"▁too":6518,"▁paran":6519,"▁parto\r\n":6520,"queta":6521,"▁alta":6522,"tió":6523,"▁ira":6524,"▁revi":6525,"▁rell":6526,"▁reli":6527,"dis":6528,"▁vieron":6529,"▁villa":6530,"▁yaoh\r\n":6531,"▁tiemb":6532,"▁sup":6533,"▁supe":6534,"▁nave\r\n":6535,"▁ratch":6536,"▁mato,":6537,"▁inj":6538,"▁inmor":6539,"▁cate":6540,"▁socie":6541,"▁ching":6542,"ilos":6543,"▁traj":6544,"▁pase\r\n":6545,"▁quiera'":6546,"▁mur":6547,"▁mismo,":6548,"▁¿ent":6549,"▁pieza":6550,"▁rich":6551,"▁míos\r\n":6552,"▁podía":6553,"▁asom":6554,"▁americ":6555,"▁salsa":6556,"▁carre":6557,"▁caram":6558,"▁ganga":6559,"▁hija":6560,"▁acci":6561,"▁man,":6562,"▁mandar":6563,"▁llame":6564,"deras":6565,"▁khe":6566,"▁creci":6567,"▁crema":6568,"gulo":6569,"▁prens":6570,"▁prra\r\n":6571,"▁ex\r\n":6572,"▁exig":6573,"▁hablar,":6574,"▁corra":6575,"▁corren":6576,"▁head":6577,"▁barcel":6578,"▁disc":6579,"▁provo":6580,"▁progres":6581,"▁throw":6582,"▁buena\r\n":6583,"▁pregún":6584,"▁fur":6585,"▁luci":6586,"▁luch":6587,"▁fals":6588,"▁shh,":6589,"▁monte":6590,"▁mueve\r\n":6591,"▁mueka":6592,"▁gota":6593,"▁bib":6594,"ten,":6595,"▁toman":6596,"▁uso":6597,"▁parece\r\n":6598,"▁face,":6599,"▁-o":6600,"▁buscando\r\n":6601,"qué\r\n":6602,"▁quería\r\n":6603,"▁querían":6604,"▁gusta\r\n":6605,"torio":6606,"▁fin,":6607,"▁gramos":6608,"▁gramm":6609,"▁conoz":6610,"▁conoces":6611,"▁jode":6612,"▁joder,":6613,"▁puesto\r\n":6614,"▁zombi":6615,"▁banco":6616,"▁papa\r\n":6617,"▁pappo":6618,"▁decir,":6619,"▁insul":6620,"▁panza":6621,"▁antes,":6622,"▁critic":6623,"▁tarje":6624,"▁tarde,":6625,"▁repárame\r\n":6626,"illas":6627,"▁shop,":6628,"▁termino":6629,"▁termina\r\n":6630,"▁momento,":6631,"▁basura":6632,"▁juntos\r\n":6633,"▁fuera\r\n":6634,"▁perdió":6635,"▁dispara\r\n":6636,"▁disparar\r\n":6637,"▁mañana,":6638,"▁dolor,":6639,"▁huevo\r\n":6640,"erno,":6641,"▁confío":6642,"▁entiendes":6643,"▁meses":6644,"▁meses\r\n":6645,"▁cuader":6646,"▁cuatro\r\n":6647,"▁drama":6648,"▁dracula":6649,"▁aceler":6650,"▁roncando":6651,"▁encuentra":6652,"▁encuentran":6653,"▁agár":6654,"▁gold":6655,"▁recuerdos":6656,"▁seguro\r\n":6657,"▁buf":6658,"▁descono":6659,"▁matamos,\r\n":6660,"▁ayudo":6661,"▁ayuda\r\n":6662,"▁vesti":6663,"▁alguien\r\n":6664,"▁cuidau":6665,"▁freno\r\n":6666,"▁blancos":6667,"▁llegaron":6668,"▁cele":6669,"▁sentirme":6670,"▁guarda":6671,"▁esconder":6672,"▁adicto":6673,"▁adidas,":6674,"▁domino":6675,"▁dale\r\n":6676,"▁larga":6677,"▁preparadas\r\n":6678,"▁giles":6679,"▁copilo":6680,"▁flotando":6681,"▁asesino":6682,"▁quizá":6683,"▁rostro\r\n":6684,"▁phil":6685,"▁acerca":6686,"▁entiendo,":6687,"▁ninguno\r\n":6688,"▁trofe":6689,"▁music,":6690,"▁music\r\n":6691,"▁saluda":6692,"▁violo":6693,"▁espada":6694,"▁bum\r\n":6695,"▁cálla":6696,"▁trappin'":6697,"▁comida,":6698,"▁minutito\r\n":6699,"▁colores\r\n":6700,"▁avisa":6701,"▁botella\r\n":6702,"▁humildad":6703,"▁estructuras":6704,"▁hood":6705,"▁nueva,":6706,"neces":6707,"▁quinto":6708,"▁rengl":6709,"▁¿será":6710,"▁metió":6711,"▁burn":6712,"▁tendría":6713,"▁orgull":6714,"▁libertad":6715,"▁marihuana\r\n":6716,"▁policía":6717,"▁corriente":6718,"▁pistola\r\n":6719,"▁fantasme":6720,"▁cuello\r\n":6721,"▁lluvia\r\n":6722,"▁cocaine\r\n":6723,"▁jorna":6724,"▁inteligente\r\n":6725,"▁bobo,":6726,"▁mostrar":6727,"▁comienzo":6728,"▁virus":6729,"▁vacía\r\n":6730,"▁killah":6731,"▁piernas\r\n":6732,"▁padres":6733,"▁principio":6734,"▁culiao":6735,"▁aprieta":6736,"▁celular\r\n":6737,"▁twer":6738,"▁súbe":6739,"▁feka'":6740,"▁necesitas":6741,"▁canserbero":6742,"▁receta\r\n":6743,"▁rifles":6744,"▁rimar\r\n":6745,"▁mandé":6746,"▁uuuh":6747,"▁hitboy,":6748,"▁oportunidad\r\n":6749,"▁rottweil":6750,"▁juzgar":6751,"▁beef\r\n":6752,"▁plug\r\n":6753,"-wo-wo":6754,"▁famoso":6755,"▁cacerio\r\n":6756,"▁pablo":6757,"▁recuper":6758,"▁mafia":6759,"▁gansta\r\n":6760,"▁¿querés":6761,"▁móntate":6762,"-pro-pro":6763,"▁cumplea":6764,"▁incluso":6765,"▁mediocre\r\n":6766,"▁saiyaj":6767,"▁heavy,":6768,"▁ere'":6769,"▁teore":6770,"▁destreza\r\n":6771,"▁vocabulario\r\n":6772,"▁atropel":6773,"▁aeropuer":6774,"▁jimmy":6775,"▁aweona":6776,"-co":6777,":\r\n":6778,"??":6779,"ao\r\n":6780,"bb":6781,"dente":6782,"dul":6783,"fer\r\n":6784,"mero":6785,"mera":6786,"no'\r\n":6787,"pen":6788,"pal":6789,"pol":6790,"rar,":6791,"sto":6792,"té\r\n":6793,"té,":6794,"ulo\r\n":6795,"ves\r\n":6796,"ído":6797,"▁ma\r\n":6798,"▁pille":6799,"▁sno":6800,"▁stri":6801,"▁ston":6802,"▁da\r\n":6803,"▁dado":6804,"▁a,":6805,"▁ame":6806,"eres":6807,"▁nin":6808,"▁quema,":6809,"anos,":6810,"osos":6811,"▁de,":6812,"aso":6813,"▁not":6814,"▁noto\r\n":6815,"▁lao'":6816,"▁el\r\n":6817,"▁hal":6818,"uno":6819,"▁boni":6820,"rea\r\n":6821,"alta":6822,"almente":6823,"ino,":6824,"▁fli":6825,"▁fan\r\n":6826,"▁lok":6827,"▁tema\r\n":6828,"ome\r\n":6829,"▁conge":6830,"▁hací":6831,"▁gán":6832,"rito":6833,"▁dió":6834,"▁die\r\n":6835,"▁opera":6836,"able,":6837,"lace\r\n":6838,"▁pai":6839,"▁pais":6840,"▁pares":6841,"▁parque":6842,"▁partes\r\n":6843,"tivo":6844,"▁iv":6845,"dito":6846,"dill":6847,"▁vimos":6848,"▁viva":6849,"▁vicio":6850,"▁vidri":6851,"▁tira\r\n":6852,"▁suce":6853,"▁na-na-na":6854,"▁rata":6855,"▁rapi":6856,"▁raya":6857,"▁parado":6858,"▁maqui":6859,"▁inm":6860,"▁into":6861,"▁pa'ca,":6862,"vidad":6863,"▁perra,":6864,"▁niña":6865,"▁chino":6866,"▁verga":6867,"▁verga\r\n":6868,"▁vea":6869,"▁vemos":6870,"orado\r\n":6871,"▁trak":6872,"▁pasen":6873,"▁pasos":6874,"▁paso\r\n":6875,"▁este,":6876,"▁este\r\n":6877,"▁rut":6878,"umar":6879,"▁¿v":6880,"▁¿me":6881,"▁pico\r\n":6882,"▁righ":6883,"▁yeah-eh\r\n":6884,"▁sale,":6885,"▁carlos":6886,"▁careta\r\n":6887,"quita":6888,"▁veneno":6889,"▁ser,":6890,"▁puñ":6891,"▁pedi":6892,"▁mansión":6893,"tro,":6894,"▁malos\r\n":6895,"▁calles":6896,"▁coche":6897,"▁coge":6898,"▁tienes\r\n":6899,"▁ropa\r\n":6900,"▁cantor":6901,"▁cantar\r\n":6902,"▁canciones\r\n":6903,"▁cantón\r\n":6904,"▁dejen":6905,"▁'tás":6906,"▁habla\r\n":6907,"▁mota,":6908,"▁hecho\r\n":6909,"▁resto,":6910,"▁bardo":6911,"▁barras":6912,"▁dispues":6913,"▁soltar":6914,"▁propues":6915,"▁bot":6916,"cen\r\n":6917,"▁preci":6918,"▁falta,":6919,"ganme":6920,"▁bajan":6921,"▁baja'":6922,"ble,":6923,"▁hoe,":6924,"▁llama,":6925,"▁palos":6926,"ciones,":6927,"noti":6928,"▁bici":6929,"▁pensando\r\n":6930,"▁pensaste":6931,"▁davi":6932,"▁daño\r\n":6933,"▁rompa":6934,"▁rapea,":6935,"mo',":6936,"▁muertos":6937,"▁-n":6938,"▁barrios":6939,"▁empu":6940,"▁piense":6941,"▁cambio,":6942,"▁ay-ay":6943,"▁miento\r\n":6944,"▁reales\r\n":6945,"▁vale\r\n":6946,"▁morena\r\n":6947,"▁peso\r\n":6948,"▁pese\r\n":6949,"▁peste\r\n":6950,"▁dicen:":6951,"▁jodiendo":6952,"▁\"¿":6953,"▁who":6954,"▁why":6955,"▁whis":6956,"▁bandi":6957,"▁fif":6958,"▁escuchame":6959,"▁clave\r\n":6960,"▁wah\r\n":6961,"▁gatita":6962,"▁panam":6963,"▁importar":6964,"▁presión\r\n":6965,"▁ahí,":6966,"▁obli":6967,"▁16":6968,"▁demues":6969,"▁demás\r\n":6970,"▁repro":6971,"▁interno":6972,"▁respeta\r\n":6973,"▁nuestros":6974,"▁nuestro\r\n":6975,"▁mág":6976,"▁basta,":6977,"▁disparar":6978,"▁flexing\r\n":6979,"▁home":6980,"▁chico\r\n":6981,"▁agarrar":6982,"▁pegao'\r\n":6983,"▁dijo:":6984,"▁argum":6985,"▁revol":6986,"▁reventar":6987,"▁aprende":6988,"▁duelo":6989,"▁buscarte":6990,"▁ronal":6991,"▁foto\r\n":6992,"▁subesti":6993,"▁mujeres,":6994,"▁jefe,":6995,"▁enamora\r\n":6996,"▁enseño":6997,"▁obvio\r\n":6998,"▁representar":6999,"▁vivas":7000,"▁viajando":7001,"ármelo\r\n":7002,"▁freno":7003,"▁gira\r\n":7004,"▁olvidarme":7005,"▁listo\r\n":7006,"▁pienses":7007,"▁cualquiera,":7008,"▁kiero":7009,"▁chambe":7010,"▁want":7011,"▁concier":7012,"▁lugar,":7013,"▁duerme":7014,"▁perderme":7015,"▁aquella":7016,"▁piel,":7017,"▁ñe":7018,"▁entramos":7019,"▁empezó":7020,"▁completa\r\n":7021,"▁beats\r\n":7022,"▁hura":7023,"▁causo":7024,"▁acuerdes":7025,"▁frase":7026,"▁rolling":7027,"▁tropi":7028,"▁instrumentales\r\n":7029,"▁viola":7030,"▁espada\r\n":7031,"▁españa":7032,"▁partido\r\n":7033,"▁error,":7034,"▁combusti":7035,"▁prrrum!!\r\n":7036,"▁códi":7037,"▁recordar\r\n":7038,"leros":7039,"▁funeral":7040,"▁miran\r\n":7041,"▁preocupa":7042,"▁dientes\r\n":7043,"▁ah-ah-ah\r\n":7044,"▁murió":7045,"▁corriendo\r\n":7046,"▁c.r.o\r\n":7047,"▁tren\r\n":7048,"▁compañero":7049,"▁suave\r\n":7050,"▁veinte":7051,"▁distinto\r\n":7052,"▁aveces":7053,"▁despertar\r\n":7054,"▁nubes":7055,"▁acompaña":7056,"▁negocio":7057,"▁secreto\r\n":7058,"▁sufrir":7059,"▁street":7060,"▁street\r\n":7061,"▁escribir\r\n":7062,"tiene\r\n":7063,"▁locura\r\n":7064,"▁culito":7065,"▁competir\r\n":7066,"▁textos":7067,"▁blood,":7068,"▁dámelo\r\n":7069,"▁limpi":7070,"▁cotto,":7071,"▁novato\r\n":7072,"▁aseguro":7073,"▁trappers":7074,"▁fortnite,":7075,"▁0-":7076,"▁circo":7077,"▁moviendo":7078,"▁nosotros\r\n":7079,"▁oscuridad":7080,"▁down,":7081,"▁llave\r\n":7082,"▁mercedes":7083,"▁bandolero\r\n":7084,"▁excusas":7085,"▁triunf":7086,"▁warrior":7087,"▁evapor":7088,"▁númer":7089,"▁estrés\r\n":7090,"▁au-au\r\n":7091,"▁esfuer":7092,"▁punchline":7093,"▁atención\r\n":7094,"▁escupiendo":7095,"▁colchón,":7096,"▁pidiéndome":7097,"▁frustra":7098,"▁egocentrismo\r\n":7099,"▁cuestión":7100,"▁hollywoo":7101,"▁calentita,":7102,"▁origin":7103,"▁abier":7104,"▁'cause":7105,"▁mochila":7106,"▁snoo":7107,"?\"\r\n":7108,"ach":7109,"bla":7110,"cra":7111,"cli":7112,"gin":7113,"ila":7114,"ju":7115,"lan\r\n":7116,"nea":7117,"pando":7118,"pis":7119,"ry\r\n":7120,"tina\r\n":7121,"uta":7122,"va,":7123,"vame":7124,"zca":7125,"úch":7126,"▁!\r\n":7127,"▁ego\r\n":7128,"▁mes\r\n":7129,"▁mero\r\n":7130,"▁muestra":7131,"▁sar":7132,"▁sco":7133,"▁spe":7134,"▁lenta":7135,"▁tv":7136,"▁tat":7137,"▁tío":7138,"▁dorm":7139,"▁año,":7140,"ers\r\n":7141,"eran\r\n":7142,"▁nis":7143,"▁quere":7144,"▁quebra":7145,"▁es,":7146,"anth":7147,"dodiab":7148,"▁la,":7149,"▁ello":7150,"estes":7151,"▁ender":7152,"▁enven":7153,"▁enfo":7154,"und,":7155,"▁bd":7156,"▁ber":7157,"▁bam":7158,"re,":7159,"▁mix":7160,"alo\r\n":7161,"▁fú":7162,"tag":7163,"▁locos":7164,"▁teñ":7165,"▁temas\r\n":7166,"omn":7167,"▁siga\r\n":7168,"go'":7169,"uir\r\n":7170,"▁sem":7171,"▁sex\r\n":7172,"▁hay,":7173,"▁comun":7174,"▁coma\r\n":7175,"▁comuna":7176,"▁difi":7177,"▁ofer":7178,"▁paque":7179,"▁paté":7180,"chos\r\n":7181,"▁todas\r\n":7182,"▁tocando":7183,"▁parto,":7184,"▁tengan":7185,"▁tenia":7186,"▁tenido":7187,"tita,":7188,"óni":7189,"▁cub":7190,"▁ital":7191,"▁igles":7192,"dito\r\n":7193,"cada":7194,"▁estoy,":7195,"▁suyo":7196,"▁desin":7197,"▁desam":7198,"▁nace":7199,"▁nadando":7200,"▁radam":7201,"▁max":7202,"▁max\r\n":7203,"▁making":7204,"▁cagu":7205,"▁capo":7206,"▁cazar":7207,"el,":7208,"ela\r\n":7209,"▁nike\r\n":7210,"▁verás":7211,"▁ve'\r\n":7212,"▁traen":7213,"▁pasé":7214,"▁pasión":7215,"▁quieras,":7216,"▁muriendo":7217,"▁rra,":7218,"▁ron\r\n":7219,"▁¿en":7220,"▁pibi":7221,"▁pidas":7222,"▁pipp":7223,"▁pieza\r\n":7224,"pir":7225,"▁escúch":7226,"▁habían":7227,"▁está\r\n":7228,"▁poco,":7229,"▁amé,":7230,"▁ganás":7231,"mododiab":7232,"▁seres":7233,"▁arte,":7234,"▁arde\r\n":7235,"▁arcan":7236,"▁sonido\r\n":7237,"▁pego,":7238,"▁llegaste":7239,"▁mansión\r\n":7240,"▁maltra":7241,"▁calidad\r\n":7242,"▁coco":7243,"▁cobra":7244,"tarte":7245,"▁king":7246,"▁creía":7247,"ándose":7248,"▁rolex":7249,"▁clon":7250,"▁clás":7251,"▁cansa":7252,"▁cantante\r\n":7253,"▁dejado":7254,"▁dejame":7255,"▁hacerlo\r\n":7256,"▁bat":7257,"▁bati":7258,"▁motor":7259,"▁coro":7260,"▁hechi":7261,"▁hechos":7262,"▁poniendo":7263,"▁flows":7264,"▁prop":7265,"▁babe\r\n":7266,"▁city\r\n":7267,"▁cierto":7268,"▁guat":7269,"▁play\r\n":7270,"▁bebe":7271,"▁viene\r\n":7272,"▁viene,":7273,"▁palos\r\n":7274,"▁nadie,":7275,"cion\r\n":7276,"es,\r\n":7277,"▁vuelta\r\n":7278,"▁vueltas\r\n":7279,"▁abor":7280,"▁date":7281,"do,\r\n":7282,"▁pareci":7283,"▁muerte,":7284,"▁forj":7285,"▁forty":7286,"▁dog\r\n":7287,"▁organ":7288,"▁empe":7289,"▁eres\r\n":7290,"▁fumo,":7291,"▁contrato\r\n":7292,"▁expan":7293,"etumar":7294,"▁grave\r\n":7295,"▁dicen,":7296,"▁juegan":7297,"▁guay":7298,"▁conoc":7299,"▁sueno\r\n":7300,"▁¡no":7301,"▁¡wo":7302,"▁improvisado\r\n":7303,"▁voces\r\n":7304,"▁cerra":7305,"▁blin":7306,"▁onda\r\n":7307,"▁colab":7308,"▁escuché":7309,"▁clavo\r\n":7310,"▁claras\r\n":7311,"▁sueltan":7312,"▁besos\r\n":7313,"▁tag":7314,"▁gati":7315,"▁pana,":7316,"▁matar,":7317,"▁matarno":7318,"▁fui\r\n":7319,"▁giro":7320,"▁mucho'":7321,"▁tonto\r\n":7322,"▁demuestra":7323,"▁hipnoti":7324,"▁palabra\r\n":7325,"▁nuestras":7326,"▁shot":7327,"▁má'\r\n":7328,"▁basta\r\n":7329,"▁fuerte,":7330,"▁disparan":7331,"▁disparos\r\n":7332,"▁seguimo'":7333,"▁señor,":7334,"▁llegamos":7335,"▁batallar":7336,"ernos":7337,"▁broche":7338,"▁chupar":7339,"▁jah\r\n":7340,"▁ronda\r\n":7341,"▁haría":7342,"▁mujeres\r\n":7343,"▁hablai":7344,"▁tirote":7345,"▁planeta\r\n":7346,"▁buzo":7347,"▁justi":7348,"▁cruzar":7349,"pongo":7350,"pone\r\n":7351,"▁descom":7352,"▁gastando":7353,"▁superar":7354,"▁dije:":7355,"▁ayud":7356,"▁escribiendo":7357,"▁bomba\r\n":7358,"▁negro'":7359,"▁¿quieren":7360,"▁celos\r\n":7361,"▁entrando":7362,"▁borr":7363,"▁musica":7364,"▁blanco,":7365,"▁compartir":7366,"▁sirven":7367,"▁dormir,":7368,"▁brego":7369,"▁abajo,":7370,"▁adicta":7371,"▁enseñarte":7372,"▁conciencia":7373,"▁exploto":7374,"▁ándate":7375,"▁x2\r\n":7376,"▁choco":7377,"▁capitán":7378,"▁entramo'":7379,"▁clase\r\n":7380,"▁explicarte\r\n":7381,"▁ponerte":7382,"▁rostro":7383,"▁enamorar\r\n":7384,"▁diga'":7385,"▁phone,":7386,"▁shorty":7387,"▁favorito":7388,"▁favorito\r\n":7389,"▁relaj":7390,"▁erís":7391,"▁paz,":7392,"▁cuarto\r\n":7393,"▁trappin'\r\n":7394,"▁errores":7395,"▁lana,":7396,"▁haters":7397,"▁garan":7398,"▁prrrum\r\n":7399,"▁hood\r\n":7400,"▁ahoga":7401,"▁silencio,":7402,"▁típi":7403,"▁calientita,":7404,"ta'o,":7405,"▁consecuen":7406,"▁cazar,":7407,"▁motherfucker,":7408,"▁opción":7409,"▁preguntan,":7410,"▁flaco":7411,"▁enrola,":7412,"▁orgullo\r\n":7413,"▁tocar\r\n":7414,"▁converti":7415,"▁vacío":7416,"▁jugada":7417,"▁mover,":7418,"▁cuero":7419,"▁50":7420,"▁artistas":7421,"▁destruir":7422,"▁glock":7423,"▁quieto\r\n":7424,"▁dedico":7425,"-rum":7426,"▁sepan":7427,"▁24\r\n":7428,"▁semana":7429,"▁venezuela\r\n":7430,"▁twent":7431,"▁ventana\r\n":7432,"▁matemá":7433,"▁skrt,":7434,"▁blood\r\n":7435,"▁bizarrap":7436,"▁every":7437,"----":7438,"▁sonrisa":7439,"▁decían":7440,"▁reír":7441,"▁entendiste":7442,"▁desastre":7443,"▁bye":7444,"▁fiesta,":7445,"▁vámonos":7446,"▁maquin":7447,"▁montana\r\n":7448,"▁cuchillo":7449,"▁cobarde\r\n":7450,"▁ánimo":7451,"▁continente\r\n":7452,"▁sonrío":7453,"▁heart":7454,"▁desmayo":7455,"▁ocurri":7456,"▁varias":7457,"▁permiso,":7458,"▁llévame":7459,"▁dirty":7460,"▁estúpi":7461,"▁criterio\r\n":7462,"▁demonio":7463,"▁avísenle":7464,"▁lamentablemente":7465,"▁retroce":7466,"▁conchetumar":7467,"▁conseguí":7468,"▁pregúntale":7469,"▁orgulloso":7470,"▁combustible":7471,"▁dificil":7472,"▁radamanth":7473,"-v":7474,"-to":7475,"-ch":7476,"-ma":7477,"-mi":7478,"ah":7479,"ao'":7480,"ben":7481,"billo":7482,"bres\r\n":7483,"cta\r\n":7484,"cén":7485,"cino":7486,"ding":7487,"ds\r\n":7488,"ff":7489,"gia":7490,"ly\r\n":7491,"mes":7492,"ne\r\n":7493,"rro":7494,"rum":7495,"tí\r\n":7496,"wa":7497,"y-":7498,"á',":7499,"ómo,":7500,"▁eo,":7501,"▁ecu":7502,"▁era\r\n":7503,"▁mv":7504,"▁pón":7505,"▁psi":7506,"▁sty":7507,"▁lor":7508,"▁cár":7509,"▁cena\r\n":7510,"▁cúl":7511,"▁tas":7512,"▁dy":7513,"▁damo'":7514,"▁ara":7515,"▁air":7516,"▁aver":7517,"ería":7518,"▁nari":7519,"▁queden":7520,"▁quema\r\n":7521,"▁quebrar":7522,"ante,":7523,"anza\r\n":7524,"ares\r\n":7525,"aron\r\n":7526,"▁vu":7527,"onos":7528,"onces":7529,"▁lao'\r\n":7530,"▁lacos":7531,"▁elec":7532,"▁meto\r\n":7533,"▁metes":7534,"▁metí":7535,"▁bando\r\n":7536,"ramos":7537,"▁unsto":7538,"▁te-":7539,"▁sis":7540,"▁conte":7541,"ama\r\n":7542,"▁sea,":7543,"▁seis\r\n":7544,"ciente\r\n":7545,"cidad\r\n":7546,"▁gras":7547,"▁di\r\n":7548,"▁dia\r\n":7549,"▁ov":7550,"▁paul":7551,"▁patada":7552,"chos,":7553,"▁quito":7554,"▁estaria":7555,"ques\r\n":7556,"▁alar":7557,"▁ten\r\n":7558,"▁teniendo":7559,"ti,":7560,"titu":7561,"timi":7562,"▁reemp":7563,"▁revelo":7564,"ásti":7565,"▁lean":7566,"▁lejos\r\n":7567,"▁jet":7568,"▁yeh-eh-eh\r\n":7569,"▁tibur":7570,"▁sudando":7571,"▁desgra":7572,"▁naz":7573,"▁mapa":7574,"▁madu":7575,"▁maté":7576,"▁inci":7577,"▁inva":7578,"▁inneces":7579,"▁soci":7580,"▁nick":7581,"▁estaban":7582,"▁chale":7583,"illo,":7584,"▁wall":7585,"▁vean":7586,"▁trama":7587,"▁pasamos":7588,"▁ah;":7589,"▁anestes":7590,"tros,":7591,"▁puede\r\n":7592,"▁ras":7593,"umo":7594,"▁¿ha":7595,"▁¿ves":7596,"pi\r\n":7597,"▁aspi":7598,"▁aspe":7599,"▁asado":7600,"▁salta":7601,"▁caras":7602,"▁carol":7603,"▁cartas":7604,"▁ganaste":7605,"▁serán":7606,"▁putas\r\n":7607,"llas\r\n":7608,"▁pedo\r\n":7609,"▁pego\r\n":7610,"▁peke":7611,"▁peine":7612,"▁pew,":7613,"▁acces":7614,"▁llego\r\n":7615,"▁manz":7616,"▁mano,":7617,"▁camuf":7618,"▁malas\r\n":7619,"▁cola":7620,"bay":7621,"▁creciendo":7622,"....":7623,"▁nose":7624,"aria,":7625,"▁rol":7626,"▁rodi":7627,"▁roca\r\n":7628,"▁promo":7629,"▁clona":7630,"▁cancha":7631,"▁dejas":7632,"▁hablás":7633,"▁satis":7634,"▁moto":7635,"▁corta\r\n":7636,"▁corona":7637,"▁corté":7638,"ir,":7639,"tancia\r\n":7640,"▁resto\r\n":7641,"▁barco":7642,"▁distri":7643,"▁soli":7644,"▁solas":7645,"sion":7646,"▁thing":7647,"▁buenas\r\n":7648,"da,\r\n":7649,"▁lucho,":7650,"▁fallas":7651,"▁menos\r\n":7652,"▁volve":7653,"fico":7654,"ficio\r\n":7655,"▁compon":7656,"▁verdadero":7657,"▁aprendo":7658,"▁montón":7659,"▁plato":7660,"▁playa":7661,"▁mueven":7662,"encias":7663,"▁llama\r\n":7664,"cione'":7665,"▁vaso,":7666,"▁goles":7667,"▁old":7668,"▁duda":7669,"▁maría":7670,"▁hermana":7671,"▁hermanos\r\n":7672,"▁vuelvas":7673,"▁bicho\r\n":7674,"▁biza,":7675,"▁nueva\r\n":7676,"▁otra,":7677,"▁day\r\n":7678,"▁frág":7679,"▁rapear,":7680,"▁-e":7681,"▁-ar\r\n":7682,"▁doing":7683,"▁double":7684,"▁buscándome":7685,"▁empece":7686,"▁día'":7687,"▁cuento,":7688,"▁fumar\r\n":7689,"▁fumándome":7690,"▁cambié\r\n":7691,"▁tercer":7692,"ándolo":7693,"torio\r\n":7694,"▁cuales":7695,"▁puta',":7696,"▁cómo?":7697,"ción?\r\n":7698,"▁conocido":7699,"▁¡ya":7700,"▁mil,":7701,"▁volverme":7702,"▁medio\r\n":7703,"▁escuche":7704,"▁clavos":7705,"▁corazones":7706,"▁suelte":7707,"venta":7708,"▁wachos":7709,"▁tenerme":7710,"▁gatill":7711,"▁matarnos\r\n":7712,"▁visa":7713,"▁irri":7714,"▁irón":7715,"▁pregunta\r\n":7716,"▁preguntes":7717,"vela\r\n":7718,"▁demente":7719,"▁gris":7720,"▁trip":7721,"drá":7722,"▁prendí":7723,"▁basa":7724,"▁junta":7725,"▁juntando":7726,"▁cultura":7727,"▁tumbarme":7728,"▁necesario\r\n":7729,"▁perdida":7730,"▁cintura\r\n":7731,"▁balas\r\n":7732,"▁mentir\r\n":7733,"▁apare":7734,"▁aparte\r\n":7735,"▁nivel,":7736,"▁odia":7737,"▁jap":7738,"▁¿cómo,":7739,"▁revés\r\n":7740,"▁check":7741,"tria":7742,"▁haré":7743,"▁suben":7744,"▁llevamo'":7745,"▁justin":7746,"▁ciento":7747,"▁escapa":7748,"▁defien":7749,"▁robé":7750,"▁apag":7751,"▁escribes":7752,"▁aires\r\n":7753,"▁incom":7754,"▁cuida'o":7755,"▁personal\r\n":7756,"▁personaje":7757,"▁borré":7758,"▁olvidé":7759,"▁sirve\r\n":7760,"▁puerta\r\n":7761,"▁pasó,":7762,"▁amarte\r\n":7763,"▁amigas":7764,"▁normal\r\n":7765,"▁cierra":7766,"▁tortura":7767,"▁duermo,":7768,"▁papeles\r\n":7769,"▁deseas\r\n":7770,"▁armado,":7771,"▁asesina":7772,"▁maldita":7773,"▁sacó":7774,"▁soñando":7775,"▁roll\r\n":7776,"▁diez\r\n":7777,"▁alcanza\r\n":7778,"▁entera,":7779,"▁shorty,":7780,"▁luna,":7781,"▁ferra\r\n":7782,"▁regalo\r\n":7783,"▁discote":7784,"grown":7785,"▁tuyo\r\n":7786,"▁tuya,":7787,"▁sexo,":7788,"▁tirar\r\n":7789,"▁tirarme":7790,"▁ahog":7791,"▁silencio\r\n":7792,"▁quintan":7793,"▁evolu":7794,"▁rencor":7795,"▁derrite":7796,"▁convir":7797,"▁evitar":7798,"▁202":7799,"▁estrellas":7800,"▁caigo,":7801,"▁criticar":7802,"▁eterno,":7803,"▁marihuana":7804,"▁tocó":7805,"▁convertir":7806,"▁'tá'":7807,"▁policía,":7808,"▁compañero\r\n":7809,"▁respuesta\r\n":7810,"▁respuestas":7811,"▁pills":7812,"▁arrogan":7813,"▁abogado":7814,"▁friend":7815,"▁habilidad\r\n":7816,"▁pegó":7817,"▁mai'\r\n":7818,"▁motivo":7819,"▁licor,":7820,"▁septum":7821,"▁arranco":7822,"▁killah\r\n":7823,"▁actitud\r\n":7824,"▁labios":7825,"▁diego":7826,"▁blunts":7827,"▁pelotudo":7828,"ucris":7829,"▁memoria":7830,"▁tiraste":7831,"▁destroy\r\n":7832,"▁ruido":7833,"▁súper":7834,"▁búscame":7835,"▁jesucris":7836,"▁alejand":7837,"▁concepto":7838,"▁miami\r\n":7839,"▁televis":7840,"▁imita":7841,"▁conviene\r\n":7842,"▁jose":7843,"▁rifle":7844,"▁interior\r\n":7845,"▁querido":7846,"▁suficiente":7847,"▁construyo":7848,"▁clavar":7849,"▁nervios":7850,"▁crack\r\n":7851,"▁piedra":7852,"▁mercedes\r\n":7853,"▁pájar":7854,"▁peace":7855,"▁promes":7856,"▁cinturón\r\n":7857,"▁aprovecha":7858,"▁número":7859,"▁paca'":7860,"▁repeti":7861,"▁rockstar\r\n":7862,"▁pronto":7863,"▁festej":7864,"▁comenz":7865,"▁madrid\r\n":7866,"▁kush":7867,"▁sorpresa":7868,"▁temprano":7869,"▁hennessy\r\n":7870,"▁perdedor\r\n":7871,"▁ventaja":7872,"▁colombiana,":7873,"▁báj":7874,"▁shortcito":7875,"▁rally,":7876,"▁significa":7877,"▁líneas":7878,"▁vampiros":7879,"▁tyrone":7880,"▁estupide":7881,"▁jarabe":7882,"▁fiebre":7883,"▁#mododiab":7884,"▁sensei\r\n":7885,"▁inmortal":7886,"▁stone\r\n":7887,"▁david":7888,"▁piense'":7889,"▁homegrown":7890,"▁cúlpable":7891,"▁unstopp":7892,"-1":7893,"-w":7894,"-re":7895,"-car":7896,"-ina":7897,"-ina\r\n":7898,"-dad\r\n":7899,"-mor":7900,"7\r\n":7901,"ag":7902,"ct":7903,"cé\r\n":7904,"dy":7905,"dus":7906,"ex":7907,"fil":7908,"hab":7909,"h!!\r\n":7910,"ific":7911,"ibles\r\n":7912,"ko,":7913,"kes\r\n":7914,"king\r\n":7915,"lá":7916,"olo":7917,"pla":7918,"rán":7919,"se,":7920,"tencia":7921,"tones\r\n":7922,"tés\r\n":7923,"ume":7924,"uma":7925,"wi":7926,"ys\r\n":7927,"zan\r\n":7928,"zando\r\n":7929,"íb":7930,"óp":7931,"—,":7932,"▁—":7933,"▁eh-eh-eh\r\n":7934,"▁ecli":7935,"▁ss":7936,"▁samp":7937,"▁lásti":7938,"▁cy":7939,"▁cán":7940,"▁damos":7941,"▁do'\r\n":7942,"▁diente":7943,"▁dándole":7944,"▁ach":7945,"▁amp":7946,"eno,":7947,"end\r\n":7948,"▁num":7949,"▁dedos":7950,"onas\r\n":7951,"▁lados":7952,"esto":7953,"unto":7954,"▁metra":7955,"▁mete\r\n":7956,"▁bun":7957,"tel":7958,"teando":7959,"▁mio\r\n":7960,"▁lot,":7961,"▁lobo\r\n":7962,"▁tea":7963,"▁cond":7964,"▁see":7965,"▁sea\r\n":7966,"▁gla":7967,"▁gps\r\n":7968,"▁como,":7969,"▁dilo\r\n":7970,"▁diario":7971,"▁diré":7972,"▁dipl":7973,"▁dicie":7974,"▁oeste":7975,"▁patas\r\n":7976,"▁tuve,":7977,"▁quis":7978,"▁estilos":7979,"mp\r\n":7980,"que,":7981,"tica,":7982,"▁cucu":7983,"usto":7984,"▁rey,":7985,"▁vici":7986,"▁vibe\r\n":7987,"▁leo":7988,"▁sul":7989,"▁desqui":7990,"▁desli":7991,"▁naf":7992,"▁nacido":7993,"▁raja":7994,"▁saber\r\n":7995,"▁inde":7996,"▁ina,":7997,"▁ingen":7998,"▁intimi":7999,"▁in-mor":8000,"▁cata":8001,"▁caís":8002,"▁cacha,":8003,"▁estado\r\n":8004,"▁estamos\r\n":8005,"▁china\r\n":8006,"il,":8007,"▁verde\r\n":8008,"▁pasaron":8009,"▁pasaje":8010,"▁ahi":8011,"▁quieran\r\n":8012,"▁puedas":8013,"▁vaque":8014,"▁vaca":8015,"▁ring\r\n":8016,"▁ring,":8017,"▁río\r\n":8018,"umen":8019,"▁¿pa'":8020,"▁pida":8021,"▁pides":8022,"▁cuando\r\n":8023,"▁habi":8024,"cero\r\n":8025,"▁rio":8026,"▁rival":8027,"▁podí":8028,"▁sala":8029,"▁carro\r\n":8030,"▁vení":8031,"▁venden":8032,"▁ganarte":8033,"▁serte":8034,"▁sincero,":8035,"▁put":8036,"▁putos":8037,"▁armo":8038,"▁arena":8039,"ic\r\n":8040,"icos\r\n":8041,"▁pela":8042,"▁acz":8043,"▁acum":8044,"▁acaso":8045,"▁llevan":8046,"▁camale":8047,"▁cogo":8048,"▁coca\r\n":8049,"ters":8050,"termin":8051,"▁crew\r\n":8052,"tud":8053,"▁rola":8054,"▁rotos":8055,"▁roque\r\n":8056,"▁deja\r\n":8057,"▁neo":8058,"▁bañ":8059,"▁habló":8060,"▁hablo\r\n":8061,"▁saquen":8062,"▁mozar":8063,"▁cortar":8064,"tan,":8065,"▁resu":8066,"▁resca":8067,"▁barro":8068,"▁barbi":8069,"▁nunca,":8070,"▁dise":8071,"▁disque":8072,"▁discan":8073,"▁discos":8074,"lito":8075,"▁boun":8076,"▁boki":8077,"▁fuí":8078,"▁city":8079,"▁lucha":8080,"▁luces\r\n":8081,"▁jugue":8082,"▁herir":8083,"▁menos,":8084,"▁cash,":8085,"car,":8086,"ficio":8087,"rup":8088,"▁compás\r\n":8089,"▁baje":8090,"▁apor":8091,"▁apenas":8092,"▁mongo":8093,"▁llamen":8094,"▁llamando":8095,"▁llamar,":8096,"▁escupir":8097,"▁god":8098,"▁golos":8099,"▁mar,":8100,"▁mare":8101,"▁vuelvo\r\n":8102,"▁biza\r\n":8103,"▁abus":8104,"▁abuela":8105,"▁abismo\r\n":8106,"▁nuevos":8107,"▁tambien":8108,"▁fría":8109,"▁escritas\r\n":8110,"▁formas":8111,"▁-e,":8112,"▁buscaba":8113,"▁esperes":8114,"▁maso":8115,"▁ore":8116,"▁flu":8117,"▁flas":8118,"▁despre":8119,"▁cambiando":8120,"▁terra":8121,"▁pasapor":8122,"▁vale,":8123,"▁valor\r\n":8124,"▁more":8125,"▁morena,":8126,"▁pesado\r\n":8127,"▁grada\r\n":8128,"▁grabo":8129,"▁estaré":8130,"▁entrego":8131,"▁entreten":8132,"cano":8133,"▁sanar":8134,"▁joh":8135,"▁joker":8136,"▁¡p":8137,"▁días,":8138,"▁dígame":8139,"▁fea":8140,"▁andá":8141,"▁nenes\r\n":8142,"▁zan":8143,"▁cerrá":8144,"▁weón,":8145,"▁volvería":8146,"▁medicina":8147,"▁bandera\r\n":8148,"▁dime\r\n":8149,"▁noche-e-e\r\n":8150,"▁clap\r\n":8151,"▁dinam":8152,"▁cuerda":8153,"▁instin":8154,"▁insomn":8155,"▁ta-na-na\r\n":8156,"▁taka,":8157,"▁2pac":8158,"▁tener,":8159,"▁quedado":8160,"▁panor":8161,"▁panas\r\n":8162,"▁matarme":8163,"▁fui,":8164,"▁fuimos\r\n":8165,"▁importa,":8166,"▁preso\r\n":8167,"▁presid":8168,"▁11":8169,"▁12\r\n":8170,"▁grande,":8171,"▁grandes\r\n":8172,"▁vistiendo":8173,"▁tony,":8174,"▁parece,":8175,"▁pusieron":8176,"▁pelic":8177,"▁repla":8178,"▁woo":8179,"▁poder,":8180,"▁respetar":8181,"▁puntos":8182,"▁puntos\r\n":8183,"▁prenda,":8184,"▁prendido":8185,"▁adentro\r\n":8186,"▁adentro,":8187,"▁estamos,":8188,"▁encontrar,":8189,"▁bastante":8190,"▁entendí":8191,"▁cultura,":8192,"▁pollo":8193,"▁merezco\r\n":8194,"▁cine\r\n":8195,"mbre\r\n":8196,"▁dolce,":8197,"▁derrum":8198,"▁balencia":8199,"▁hands":8200,"▁morirme,":8201,"▁eh;":8202,"▁sobreval":8203,"▁danza":8204,"▁broma\r\n":8205,"▁seguir\r\n":8206,"▁llamada\r\n":8207,"▁señora\r\n":8208,"▁ey;":8209,"▁confía":8210,"▁jack":8211,"▁déjate":8212,"▁ganarle":8213,"▁buscarme":8214,"▁ronca":8215,"▁llevar\r\n":8216,"▁constante\r\n":8217,"▁consciente":8218,"▁recorr":8219,"▁escapo":8220,"▁argentino":8221,"▁descal":8222,"▁apago":8223,"-eh\r\n":8224,"puesto\r\n":8225,"▁ayudar":8226,"▁plom":8227,"▁viajo":8228,"▁viaje\r\n":8229,"▁incomo":8230,"▁celu":8231,"▁comparar":8232,"▁aguanto\r\n":8233,"▁aguanta\r\n":8234,"▁levanta":8235,"▁levanta\r\n":8236,"▁levantar":8237,"▁¿cómo?\r\n":8238,"ampamp":8239,"▁tempora":8240,"▁encontrarlo\r\n":8241,"▁whit":8242,"▁white,":8243,"▁prima":8244,"▁escondi":8245,"▁competencia\r\n":8246,"▁bolsa":8247,"▁todavía\r\n":8248,"▁mc,":8249,"▁segundos":8250,"▁déjame,":8251,"▁prefiero\r\n":8252,"▁fácil\r\n":8253,"▁nena;":8254,"▁aquellos":8255,"▁tiran\r\n":8256,"▁uoh!!\r\n":8257,"▁infar":8258,"▁explicar\r\n":8259,"▁trem":8260,"▁what's":8261,"▁vuela":8262,"▁invierno":8263,"▁enamoré,":8264,"▁frases,":8265,"▁comerte":8266,"▁phone\r\n":8267,"▁rollin\r\n":8268,"▁esquivando":8269,"ticas\r\n":8270,"▁comprom":8271,"▁gelato\r\n":8272,"-pla":8273,"urai,":8274,"▁conoce-no":8275,"▁versos\r\n":8276,"▁chapi\r\n":8277,"▁aviso\r\n":8278,"▁combin":8279,"▁cueste":8280,"▁estructura":8281,"▁despierta":8282,"▁millone'":8283,"▁firme":8284,"kers\r\n":8285,"▁renc":8286,"▁caliente,":8287,"▁crí":8288,"▁salamandra":8289,"▁pagamo'":8290,"▁pastillita":8291,"▁jurado,":8292,"▁herida\r\n":8293,"▁bailarlo\r\n":8294,"▁piedad\r\n":8295,"▁dama":8296,"▁cayó":8297,"▁manejo":8298,"▁maneje":8299,"▁tendrás":8300,"▁eterna\r\n":8301,"▁marihuana,":8302,"▁enloquezco":8303,"▁ina-ina":8304,"▁experto":8305,"▁lastim":8306,"-sco":8307,"-ta-li":8308,"▁nube":8309,"▁secreto":8310,"▁chistes":8311,"▁plakata,":8312,"▁recordarte":8313,"▁recordarte\r\n":8314,"▁castigo\r\n":8315,"▁filoso":8316,"▁corona,":8317,"▁zigzag\r\n":8318,"▁neru":8319,"▁pateo":8320,"▁reparto":8321,"▁visiones\r\n":8322,"▁apuesta":8323,"▁stick":8324,"▁nació":8325,"▁pendejo\r\n":8326,"▁messi,":8327,"▁semana\r\n":8328,"▁animal\r\n":8329,"▁pelotudo\r\n":8330,"▁pelotudos":8331,"▁pegarte":8332,"▁a.k":8333,"▁a.p":8334,"▁dámelo":8335,"▁selva\r\n":8336,"▁sport,":8337,"▁lloví":8338,"▁concepto\r\n":8339,"▁gallo":8340,"▁vayan":8341,"▁enoj":8342,"▁complicado":8343,"▁tesoro\r\n":8344,"▁gonz":8345,"▁uao\r\n":8346,"▁mové\r\n":8347,"-i-e-":8348,"▁samurai,":8349,"▁desastre\r\n":8350,"▁revienta":8351,"▁natural":8352,"▁soledad":8353,"▁embargo":8354,"▁lebron,":8355,"▁cocina\r\n":8356,"▁ubicación":8357,"▁supuesto\r\n":8358,"▁promet":8359,"▁xanax,":8360,"▁huye":8361,"▁jodiéndome\r\n":8362,"▁adrenalina\r\n":8363,"▁pastel\r\n":8364,"▁angusti":8365,"▁liricis":8366,"▁jefe\r\n":8367,"▁wosito":8368,"▁noqueo":8369,"▁costumbre":8370,"▁guacho'":8371,"▁internacional\r\n":8372,"▁vídeo":8373,"▁fms":8374,"▁izquierda\r\n":8375,"▁terreno\r\n":8376,"▁zasko":8377,"▁paguen,":8378,"▁almohada\r\n":8379,"▁blass":8380,"▁sky's":8381,"▁skrrt\r\n":8382,"▁brincando!\r\n":8383,"▁aburrido\r\n":8384,"▁hospi":8385,"▁meeting":8386,"▁pacqui":8387,"▁alrede":8388,"▁na-na,":8389,"▁escampaba,":8390,"▁hagámos":8391,"▁stuart,":8392,"▁ejemp":8393,"▁detenerme":8394,"▁toas'":8395,"▁butaca":8396,"▁pentág":8397,"▁bibli":8398,"▁agárrame,":8399,"▁copiloto,":8400,"▁lokita":8401,"▁números":8402,"▁empecemos":8403,"▁unstoppable,":8404,"▁in-mor-ta-li":8405,"▁ina-ina-ina\r\n":8406,"▁in-mor-ta-li-dad\r\n":8407,"-d":8408,"-me":8409,"-ja":8410,"-ya":8411,"600":8412,"aa\r\n":8413,"ao'\r\n":8414,"bas\r\n":8415,"cé,":8416,"dra":8417,"ela":8418,"ete\r\n":8419,"etas":8420,"fico\r\n":8421,"gelo":8422,"hh":8423,"ki\r\n":8424,"ker,":8425,"lero":8426,"m-":8427,"my":8428,"mina\r\n":8429,"pper":8430,"rom":8431,"son":8432,"sa,":8433,"s3\r\n":8434,"tf":8435,"vado":8436,"wh":8437,"yo\r\n":8438,"yal":8439,"ye\r\n":8440,"y!\r\n":8441,"zmán":8442,"ú\r\n":8443,"▁om":8444,"▁ora":8445,"▁ed":8446,"▁eck":8447,"▁even":8448,"▁edad\r\n":8449,"▁mora":8450,"▁mues":8451,"▁pom":8452,"▁stor":8453,"▁lante\r\n":8454,"▁cero,":8455,"▁duelo\r\n":8456,"▁ds3\r\n":8457,"▁alex":8458,"▁yor":8459,"▁yes":8460,"▁non":8461,"▁nal":8462,"▁que?":8463,"▁quej":8464,"▁demo":8465,"▁vv":8466,"▁vino\r\n":8467,"do'":8468,"eses":8469,"▁enf":8470,"▁ende":8471,"▁entro\r\n":8472,"▁mex":8473,"▁metro":8474,"▁bú":8475,"▁bul":8476,"▁miel":8477,"▁mienta":8478,"ini,":8479,"rame":8480,"▁fós":8481,"tada\r\n":8482,"tate,":8483,"todo":8484,"▁loui":8485,"▁loto\r\n":8486,"▁tetas":8487,"omba":8488,"▁sién":8489,"▁siente\r\n":8490,"▁concha":8491,"▁congel":8492,"▁yoh\r\n":8493,"▁yo!\r\n":8494,"amo":8495,"ro'":8496,"▁se\r\n":8497,"▁sell":8498,"cip":8499,"▁gam":8500,"▁coman":8501,"▁como\r\n":8502,"▁comba":8503,"▁common":8504,"oy\r\n":8505,"leo":8506,"leando":8507,"ientos\r\n":8508,"▁diri":8509,"▁divis":8510,"▁ox":8511,"▁opa":8512,"▁over":8513,"aban\r\n":8514,"▁pañ":8515,"▁pain,":8516,"chando":8517,"▁toos":8518,"▁total":8519,"▁parano":8520,"▁pararme,":8521,"▁alm":8522,"▁alca":8523,"▁alic":8524,"▁tenis":8525,"▁tenían":8526,"ticos":8527,"▁cura\r\n":8528,"▁cucara":8529,"▁cupido":8530,"▁ido":8531,"▁reun":8532,"▁reto":8533,"▁vira":8534,"▁vibra":8535,"▁jer":8536,"▁tiro\r\n":8537,"▁time\r\n":8538,"▁tiró":8539,"▁nav":8540,"▁rata\r\n":8541,"▁porquer":8542,"▁sabés\r\n":8543,"▁inten":8544,"▁cañ":8545,"▁caja\r\n":8546,"▁caño,":8547,"▁cacha\r\n":8548,"vidad\r\n":8549,"▁pera\r\n":8550,"▁perri":8551,"▁permi":8552,"▁soi":8553,"▁sou":8554,"▁niño\r\n":8555,"▁chas":8556,"▁che,":8557,"ila\r\n":8558,"ilidad":8559,"▁was":8560,"▁wel":8561,"▁verte,":8562,"▁verga,":8563,"▁vea\r\n":8564,"▁vela":8565,"▁ve',":8566,"▁traer":8567,"▁traté":8568,"▁trayec":8569,"▁pase,":8570,"▁pasando\r\n":8571,"▁quieres\r\n":8572,"▁pueda\r\n":8573,"▁¿vos":8574,"▁¿tú":8575,"▁escar":8576,"ajo\r\n":8577,"▁rico,":8578,"▁poquito\r\n":8579,"▁amarte":8580,"▁sala\r\n":8581,"▁caro,":8582,"▁seri":8583,"▁serp":8584,"▁servi":8585,"▁sintiendo":8586,"▁sinies":8587,"▁puño":8588,"▁entro,":8589,"ices\r\n":8590,"▁ped":8591,"▁pelo,":8592,"▁pecho,":8593,"▁acru":8594,"▁mano',":8595,"▁manito\r\n":8596,"▁camar":8597,"▁campo":8598,"▁maldad":8599,"▁copa\r\n":8600,"▁kan":8601,"▁kon":8602,"▁uy\r\n":8603,"▁utili":8604,"▁creo,":8605,"▁tanto,":8606,"ándon":8607,"turas":8608,"▁roja":8609,"▁cande":8610,"▁cantante":8611,"▁dejo,":8612,"▁dejamos":8613,"▁exci":8614,"▁extin":8615,"▁bien?\r\n":8616,"▁hacerle":8617,"▁hablé":8618,"▁hablarme":8619,"▁hablaste":8620,"▁así?\r\n":8621,"▁busqué":8622,"▁busines":8623,"▁sad":8624,"▁don,":8625,"▁hemos":8626,"▁impac":8627,"ira\r\n":8628,"daste":8629,"▁ponme":8630,"▁barra":8631,"▁bares\r\n":8632,"zada\r\n":8633,"▁disim":8634,"▁probar":8635,"▁boz":8636,"▁thre":8637,"▁think":8638,"h-ch":8639,"▁cia\r\n":8640,"▁fallan":8641,"▁juli":8642,"▁meno'":8643,"▁mirada,":8644,"key":8645,"▁compas":8646,"▁compran":8647,"▁verdades":8648,"▁guzmán":8649,"▁bajamos":8650,"▁placa\r\n":8651,"▁mueka\r\n":8652,"▁cose":8653,"▁cosa,":8654,"▁costa\r\n":8655,"ezca":8656,"▁escupe":8657,"▁duran":8658,"▁cabe":8659,"▁to'as":8660,"▁abr":8661,"▁perdámon":8662,"▁tambor":8663,"▁dates\r\n":8664,"▁dadd":8665,"▁frías\r\n":8666,"▁rapea\r\n":8667,"lante":8668,"▁use":8669,"▁pared,":8670,"▁trapa,":8671,"▁forre":8672,"▁fake\r\n":8673,"▁-e\r\n":8674,"▁doce":8675,"▁buscando,":8676,"▁buscándote":8677,"▁frecuen":8678,"la,\r\n":8679,"▁masac":8680,"▁estás?":8681,"▁estás?\r\n":8682,"▁queré'":8683,"▁fuma,":8684,"▁contrato":8685,"▁expl":8686,"▁explica":8687,"▁cambian":8688,"▁olvida\r\n":8689,"ándoles":8690,"▁mienten\r\n":8691,"▁fino,":8692,"▁drogas":8693,"▁están\r\n":8694,"▁pese":8695,"▁guagua":8696,"▁guaguas":8697,"▁sana\r\n":8698,"▁susur":8699,"▁¡b":8700,"▁nenes":8701,"▁chaqueta":8702,"▁zo":8703,"▁cerrar":8704,"▁puede,":8705,"▁fier":8706,"▁fijo":8707,"▁humor\r\n":8708,"▁escuchando\r\n":8709,"▁después\r\n":8710,"▁cuerpos":8711,"▁bese\r\n":8712,"▁beber":8713,"▁beber\r\n":8714,"▁presión":8715,"▁gim":8716,"you":8717,"▁crip":8718,"▁try":8719,"▁pregunto\r\n":8720,"▁doy\r\n":8721,"urt":8722,"▁encier":8723,"▁hipó":8724,"▁woo\r\n":8725,"▁aguante":8726,"▁quedar\r\n":8727,"▁intern":8728,"tino,":8729,"tina,":8730,"▁guerra,":8731,"▁penas\r\n":8732,"▁cabros":8733,"▁adn\r\n":8734,"▁fueran":8735,"▁polí":8736,"▁mercen":8737,"▁disparos":8738,"▁cincuen":8739,"▁flexin'":8740,"▁morirme":8741,"▁equili":8742,"▁knock":8743,"▁brr\r\n":8744,"▁aparien":8745,"cheta":8746,"▁llegamo'":8747,"▁vieja\r\n":8748,"▁confus":8749,"▁entienda":8750,"▁entiendas":8751,"▁chiqui":8752,"▁brillan":8753,"▁aleja":8754,"▁draco\r\n":8755,"▁drama,":8756,"▁acei":8757,"▁elef":8758,"▁trabaja":8759,"▁trabajando":8760,"▁trabajo,":8761,"▁golden":8762,"▁sigue\r\n":8763,"▁segura":8764,"▁llevamos":8765,"▁despiér":8766,"éndole":8767,"▁raperos\r\n":8768,"▁raperos,":8769,"▁miedo,":8770,"▁caminar\r\n":8771,"▁mediocre":8772,"▁terminar\r\n":8773,"▁horario\r\n":8774,"▁viví":8775,"▁escribo,":8776,"▁perfume\r\n":8777,"▁incre":8778,"▁incons":8779,"▁personas\r\n":8780,"▁entraste":8781,"▁borro":8782,"▁lista\r\n":8783,"▁paseo":8784,"▁piensas":8785,"▁controla":8786,"▁pasó?":8787,"▁amigos,":8788,"tá'":8789,"▁entonces,":8790,"▁novio,":8791,"▁amargo\r\n":8792,"▁duki\r\n":8793,"▁escondido":8794,"▁pelea\r\n":8795,"▁explotando":8796,"▁xan":8797,"▁luego,":8798,"▁domina":8799,"allas\r\n":8800,"▁podré":8801,"▁torre":8802,"▁digan,":8803,"▁cristal\r\n":8804,"-bla":8805,"▁infor":8806,"▁quedaron":8807,"▁señores\r\n":8808,"▁tre'":8809,"▁deseo\r\n":8810,"▁completo\r\n":8811,"▁ponerle":8812,"▁hambri":8813,"▁genu":8814,"▁genero":8815,"▁demostrando":8816,"▁quisieron":8817,"▁caps":8818,"▁perfecta":8819,"-oh\r\n":8820,"▁40":8821,"▁44":8822,"▁sacri":8823,"▁soñar":8824,"▁transform":8825,"▁atraves":8826,"▁guitar":8827,"▁activa":8828,"▁primera,":8829,"▁trope":8830,"▁ataco":8831,"▁esquivo\r\n":8832,"▁deben":8833,"▁movida":8834,"▁that's":8835,"▁instrumental":8836,"▁uhh":8837,"▁problemas,":8838,"aliza":8839,"▁confianza":8840,"▁oh-oh,":8841,"▁rebota":8842,"ficiente\r\n":8843,"▁fronteando":8844,"▁jaja":8845,"▁atento":8846,"▁tuya\r\n":8847,"▁mensaje,":8848,"wn\r\n":8849,"▁idea":8850,"▁flasheando":8851,"▁despierta\r\n":8852,"▁cór":8853,"▁pagan,":8854,"▁descanse":8855,"▁descansa":8856,"▁nuevos\r\n":8857,"▁millonario\r\n":8858,"▁swing":8859,"▁firmar":8860,"▁mantener":8861,"▁olvidarte":8862,"▁lenn":8863,"▁clicka":8864,"▁pastillas\r\n":8865,"▁contarte":8866,"▁jugar,":8867,"▁vino,":8868,"▁enrolando":8869,"▁etern":8870,"▁rapper'":8871,"▁molesta\r\n":8872,"▁egoís":8873,"▁mezclando":8874,"▁escapar,":8875,"▁muriendo\r\n":8876,"▁c.r.o,":8877,"▁bandoleros":8878,"▁suave,":8879,"▁pudiste":8880,"▁skill\r\n":8881,"▁oír":8882,"▁cocaine":8883,"▁rezando":8884,"▁chistes\r\n":8885,"▁habitación,":8886,"▁friend\r\n":8887,"▁nací\r\n":8888,"▁insistas\r\n":8889,"▁street,":8890,"▁vacía":8891,"▁gritan:":8892,"▁adelante,":8893,"▁reggaetón\r\n":8894,"▁enfermo\r\n":8895,"▁años,":8896,"▁ilumin":8897,"▁blood":8898,"▁líricas":8899,"▁situación\r\n":8900,"▁hagamos":8901,"▁riqueza":8902,"▁empresa\r\n":8903,"▁fekas":8904,"▁representando":8905,"▁hardcore":8906,"▁llov":8907,"▁mitad\r\n":8908,"▁creyeron":8909,"▁descansar":8910,"▁rimar,":8911,"▁retirar":8912,"▁ríe":8913,"▁hierba":8914,"▁pedirte":8915,"▁prueba":8916,"▁hubiese":8917,"▁encerra":8918,"▁poesía":8919,"▁kilos,":8920,"▁fiesta\r\n":8921,"▁fracaso\r\n":8922,"▁lambor":8923,"▁soledad\r\n":8924,"▁lebron\r\n":8925,"▁dembow":8926,"▁dembow\r\n":8927,"▁engancho":8928,"▁g's\r\n":8929,"▁g's,":8930,"▁idiota\r\n":8931,"▁caíste":8932,"▁pensamiento":8933,"▁underground":8934,"▁underground\r\n":8935,"▁norte":8936,"▁camarada\r\n":8937,"▁coloca":8938,"▁sueñan":8939,"▁desapare":8940,"▁especial":8941,"▁warrior\r\n":8942,"▁secund":8943,"▁au-au,":8944,"▁rockstar,":8945,"▁amenaza\r\n":8946,"▁clandes":8947,"▁aplaud":8948,"▁victoria":8949,"▁west":8950,"▁sonidos":8951,"▁kobe":8952,"▁mereces\r\n":8953,"▁brujería\r\n":8954,"▁living":8955,"▁heladera\r\n":8956,"▁casualidad\r\n":8957,"▁lapiz":8958,"▁temor,":8959,"▁letras\r\n":8960,"▁pibes":8961,"▁wannabe\r\n":8962,"▁nananananananau,":8963,"▁pleas":8964,"▁cheese,":8965,"▁13,":8966,"▁religi":8967,"▁khea,":8968,"▁philip":8969,"▁cumpleañ":8970,"▁gángs":8971,"▁ay-ay-ay":8972,"▁0-600":8973,"▁hollywood\r\n":8974,"▁snoop":8975,"▁lentamente":8976,"▁tv\r\n":8977,"▁batman":8978,"▁conocés,":8979,"▁resuci":8980,"▁louis":8981,"-ta\r\n":8982,"-gua":8983,"7,":8984,"a-a":8985,"ah!\r\n":8986,"b,":8987,"by":8988,"bra,":8989,"bando,":8990,"bala":8991,"biente":8992,"cy":8993,"com":8994,"co'":8995,"dame":8996,"fica\r\n":8997,"gran":8998,"gia\r\n":8999,"ho\r\n":9000,"ide":9001,"igo\r\n":9002,"itos\r\n":9003,"ki,":9004,"les,":9005,"mica\r\n":9006,"rus":9007,"son\r\n":9008,"ton\r\n":9009,"tbol":9010,"ule":9011,"ucin":9012,"vent":9013,"éc":9014,"éis":9015,"íste":9016,"ñas\r\n":9017,"еn":9018,"▁8":9019,"▁,\r\n":9020,"▁____":9021,"▁ea\r\n":9022,"▁e'\r\n":9023,"▁emer":9024,"▁ebay":9025,"▁sle":9026,"▁snea":9027,"▁line":9028,"▁lío\r\n":9029,"▁cd":9030,"▁cens":9031,"▁das\r\n":9032,"▁do',":9033,"▁ada":9034,"▁aci":9035,"▁aum":9036,"▁a-l":9037,"▁ysy,":9038,"▁que-":9039,"▁quedo\r\n":9040,"▁queman":9041,"▁esencia":9042,"anas":9043,"▁vom":9044,"▁vo'\r\n":9045,"ordin":9046,"dom":9047,"do?\r\n":9048,"▁nobo":9049,"▁latino":9050,"▁enciendo":9051,"▁ensa":9052,"▁enser":9053,"▁bras":9054,"▁mio,":9055,"iny":9056,"inando":9057,"▁fet":9058,"▁low":9059,"▁un,":9060,"▁tequi":9061,"om,":9062,"dado,":9063,"uida":9064,"▁se,":9065,"▁semb":9066,"▁sedu":9067,"▁secuen":9068,"cias,":9069,"cientos":9070,"▁gü":9071,"▁gun":9072,"▁gro":9073,"▁glow":9074,"▁gat":9075,"▁gár":9076,"▁game,":9077,"ero!\r\n":9078,"▁comiste":9079,"le'\r\n":9080,"▁dias":9081,"▁dici":9082,"▁dicta":9083,"▁og":9084,"▁ok":9085,"▁oz":9086,"▁ok\r\n":9087,"▁oah,":9088,"lada,":9089,"▁paj":9090,"▁pay":9091,"▁paco":9092,"▁paper":9093,"▁patri":9094,"▁patru":9095,"ches":9096,"char\r\n":9097,"chi\r\n":9098,"▁toco,":9099,"▁parra":9100,"▁parque\r\n":9101,"dembo":9102,"▁alas":9103,"▁alucin":9104,"▁tené":9105,"▁tene'":9106,"▁tensión":9107,"til":9108,"tion\r\n":9109,"tivo,":9110,"▁cum":9111,"▁culos":9112,"▁cup\r\n":9113,"usa":9114,"▁io":9115,"▁recha":9116,"▁retor":9117,"▁rezar":9118,"▁relá":9119,"dios":9120,"dies":9121,"▁vig":9122,"▁vieron\r\n":9123,"▁lego":9124,"▁león\r\n":9125,"▁lejos,":9126,"metros":9127,"iste,":9128,"▁yee":9129,"▁yea\r\n":9130,"▁yeez":9131,"▁desvis":9132,"▁racis":9133,"▁rabia":9134,"▁paraís":9135,"▁mach":9136,"▁ingl":9137,"▁indus":9138,"▁cagando":9139,"▁cadá":9140,"▁perver":9141,"▁perico":9142,"▁perdemos":9143,"▁nice\r\n":9144,"▁estación\r\n":9145,"▁chris":9146,"illos":9147,"▁verano":9148,"▁verano\r\n":9149,"▁vemo'":9150,"▁trapi":9151,"▁pasas":9152,"▁paso,":9153,"▁muñ":9154,"▁ano\r\n":9155,"▁anillo":9156,"▁run\r\n":9157,"▁miser":9158,"▁misil":9159,"▁misión":9160,"▁misil\r\n":9161,"▁pie\r\n":9162,"▁picar":9163,"▁pija":9164,"▁pibas":9165,"▁habrá":9166,"▁riding":9167,"▁yeah-e":9168,"▁yeah-yea":9169,"▁míos,":9170,"▁mírame,":9171,"▁pode":9172,"▁asal":9173,"▁asfi":9174,"▁asan\r\n":9175,"▁asi\r\n":9176,"▁am,":9177,"▁amas":9178,"▁ambiente":9179,"▁vender\r\n":9180,"▁vender,":9181,"▁ganó":9182,"▁sincero":9183,"▁pur":9184,"▁pura\r\n":9185,"▁hice\r\n":9186,"▁arder\r\n":9187,"▁son,":9188,"▁sonriendo":9189,"▁peo":9190,"▁pegando":9191,"▁peines":9192,"▁acari":9193,"▁llegas":9194,"▁mancha":9195,"▁malo'":9196,"▁cock":9197,"▁coba":9198,"▁cobro":9199,"▁klan":9200,"▁ul":9201,"▁ute":9202,"▁crean":9203,"....\r\n":9204,"▁royal":9205,"▁clica":9206,"▁canta\r\n":9207,"▁dejá":9208,"▁mambo\r\n":9209,"cuando":9210,"cuzz":9211,"▁netf":9212,"▁hablés":9213,"▁modo\r\n":9214,"▁mota\r\n":9215,"▁mocos":9216,"▁modul":9217,"▁corran":9218,"▁hecha":9219,"▁impul":9220,"▁resol":9221,"uesto":9222,"garme":9223,"▁distra":9224,"▁distancia":9225,"lique\r\n":9226,"▁proce":9227,"▁boque":9228,"▁bobol":9229,"▁that\r\n":9230,"▁babe":9231,"▁preten":9232,"▁precio\r\n":9233,"▁city,":9234,"▁fallo":9235,"▁juh\r\n":9236,"▁juh,":9237,"▁volcán\r\n":9238,"▁volumen":9239,"▁comprando":9240,"▁guía":9241,"▁bajo,":9242,"▁mono\r\n":9243,"▁monto":9244,"▁plaka\r\n":9245,"▁hot":9246,"▁hoe\r\n":9247,"▁cosa\r\n":9248,"▁costa":9249,"▁llame\r\n":9250,"ezas":9251,"cionar":9252,"▁tiempos\r\n":9253,"▁vaso\r\n":9254,"▁olví":9255,"▁dura\r\n":9256,"▁cabi":9257,"▁cable":9258,"▁cable\r\n":9259,"▁marmo":9260,"▁martin":9261,"chate":9262,"▁bicho,":9263,"▁abrí":9264,"▁pensar,":9265,"▁perdés":9266,"▁data":9267,"mbo\r\n":9268,"▁rompa\r\n":9269,"▁rapeo,":9270,"▁escritor":9271,"▁muera\r\n":9272,"▁doce\r\n":9273,"▁doin'":9274,"▁free,":9275,"▁orden":9276,"▁querer\r\n":9277,"▁gusano\r\n":9278,"ats":9279,"▁quieren\r\n":9280,"ándolos":9281,"▁fina\r\n":9282,"▁reales":9283,"etas\r\n":9284,"▁mordiendo":9285,"▁están?":9286,"▁échate":9287,"▁pesa\r\n":9288,"▁pesca":9289,"▁grabar":9290,"▁juegue":9291,"▁quien\r\n":9292,"▁jodí":9293,"▁fecha":9294,"▁zum":9295,"▁cerca\r\n":9296,"▁\"es":9297,"▁\"lo":9298,"▁banco\r\n":9299,"▁blon":9300,"▁blis":9301,"▁only":9302,"▁clack":9303,"▁papo\r\n":9304,"▁papo,":9305,"▁decirme":9306,"▁2,":9307,"▁¿qué?":9308,"▁gato\r\n":9309,"▁matarme\r\n":9310,"▁fuimos":9311,"▁importante\r\n":9312,"▁presu":9313,"▁cria":9314,"▁bailan":9315,"▁14":9316,"▁17":9317,"▁18":9318,"▁quiénes":9319,"▁visten":9320,"▁mucho\r\n":9321,"▁pussy,":9322,"▁gritando":9323,"▁allí":9324,"▁trippin'\r\n":9325,"▁hipho":9326,"▁respetan":9327,"▁palabra,":9328,"▁prendida":9329,"▁tranquila,":9330,"▁vamos,":9331,"▁niggas,":9332,"▁entendes":9333,"▁jung":9334,"▁juno\r\n":9335,"▁perdida\r\n":9336,"▁perdieron":9337,"▁cine,":9338,"▁cinco,":9339,"▁estuviste":9340,"▁diabla":9341,"▁diabla\r\n":9342,"▁lloran":9343,"▁huev":9344,"▁huevo,":9345,"▁espí":9346,"▁agarró":9347,"▁dejaré":9348,"▁pega'o":9349,"▁dijo\r\n":9350,"▁dije\r\n":9351,"▁vivido\r\n":9352,"cheo":9353,"▁niveles\r\n":9354,"▁viejo,":9355,"▁bailo":9356,"▁jacuzz":9357,"▁revuel":9358,"▁intenso\r\n":9359,"▁escena\r\n":9360,"▁escenario,":9361,"▁brillo\r\n":9362,"▁brillante":9363,"▁aprender\r\n":9364,"▁dueña":9365,"▁duele,":9366,"▁mente,":9367,"▁ron,":9368,"▁ronda":9369,"▁encuentr":9370,"miento,":9371,"▁suban":9372,"▁sube\r\n":9373,"▁golpes":9374,"▁recuerdo\r\n":9375,"▁jefa":9376,"▁justamente":9377,"▁cien,":9378,"▁cruda\r\n":9379,"▁entonce'":9380,"▁extraña":9381,"▁extraordin":9382,"▁apagar":9383,"▁apague":9384,"▁gastar":9385,"▁supera\r\n":9386,"▁diferenci":9387,"▁represento\r\n":9388,"▁pleno":9389,"▁pinche":9390,"▁viaje,":9391,"▁escribiste":9392,"▁bombo":9393,"▁¿quien":9394,"▁celesti":9395,"▁compara":9396,"▁mirando\r\n":9397,"▁ganai":9398,"▁orodembo":9399,"▁improvisación,":9400,"▁almacen":9401,"▁pasear\r\n":9402,"▁cuatro,":9403,"ctivo\r\n":9404,"▁dormido":9405,"▁dormido\r\n":9406,"▁razones":9407,"▁benito":9408,"▁rompemo'":9409,"▁priva":9410,"▁escondo":9411,"▁frente,":9412,"▁peleábamos":9413,"▁demostra":9414,"▁chanel\r\n":9415,"▁segundo\r\n":9416,"▁traigo\r\n":9417,"▁cierto,":9418,"-n\r\n":9419,"▁cadenas":9420,"▁ocupar":9421,"▁infeli":9422,"▁papel,":9423,"▁rubia":9424,"▁invas":9425,"▁inventar":9426,"▁armado":9427,"▁acabe":9428,"▁acabó":9429,"▁perfecto,":9430,"▁4am\r\n":9431,"▁contestar\r\n":9432,"▁jamas":9433,"▁soñar,":9434,"▁rollin'":9435,"▁putas,":9436,"▁historias":9437,"▁brind":9438,"▁confundi":9439,"▁confundas":9440,"▁that,":9441,"▁alcanza":9442,"▁espacio":9443,"▁partido":9444,"▁parties":9445,"▁particip":9446,"bulan":9447,"weat":9448,"▁comprendo":9449,"▁comprarme":9450,"▁regalarte":9451,"▁frontea":9452,"▁erí":9453,"▁chapiad":9454,"▁hacér":9455,"▁combo,":9456,"▁desespero\r\n":9457,"▁tuyos":9458,"▁ideolo":9459,"▁flasha":9460,"▁despierto,":9461,"▁cómo\r\n":9462,"▁cógelo":9463,"▁mayores":9464,"▁toy\r\n":9465,"▁además":9466,"▁rumor,":9467,"▁rumores":9468,"▁eventos\r\n":9469,"▁consigo":9470,"▁convierto":9471,"▁cazar\r\n":9472,"▁motherfucker\r\n":9473,"▁deprimi":9474,"▁burla":9475,"▁goteo":9476,"▁mezclo,":9477,"▁disfra":9478,"▁jugador":9479,"ko!\r\n":9480,"▁leyenda\r\n":9481,"▁meterte":9482,"▁desperté":9483,"▁hablemos":9484,"▁cocaín":9485,"▁gangster\r\n":9486,"▁trampa,":9487,"▁prometo\r\n":9488,"▁menore'":9489,"▁ferrari,":9490,"▁artista":9491,"▁atrevida":9492,"▁rayos":9493,"▁chiste\r\n":9494,"▁fluyendo":9495,"▁decís,":9496,"▁subimos":9497,"▁acostumbrando":9498,"▁fashion,":9499,"▁despedi":9500,"▁apuesto":9501,"▁licencia":9502,"▁chupan":9503,"▁feliz,":9504,"▁killah,":9505,"▁24,":9506,"▁wacho'":9507,"▁pendejo":9508,"▁capitalismo":9509,"▁adelante\r\n":9510,"▁reggaeton":9511,"▁hundí":9512,"▁veloz":9513,"▁resuelve":9514,"▁conocimiento\r\n":9515,"▁domingo":9516,"▁agradecer":9517,"-lu":9518,"-lil":9519,"▁tos'":9520,"▁vela\r\n":9521,"▁potente\r\n":9522,"▁fekas\r\n":9523,"▁detoke":9524,"▁video'":9525,"▁¿saben":9526,"▁imitar":9527,"▁ofrezco":9528,"▁cristalina":9529,"▁actuar":9530,"▁actual":9531,"▁bienveni":9532,"▁maradona,":9533,"▁samo":9534,"▁avent":9535,"▁hubiera":9536,"▁plastic\r\n":9537,"▁sicario\r\n":9538,"▁oportunidad":9539,"▁teníamos":9540,"▁revienta\r\n":9541,"▁dólar\r\n":9542,"▁yandel":9543,"▁level\r\n":9544,"▁llegué,":9545,"▁chequea":9546,"▁páli":9547,"▁inoc":9548,"▁inocent":9549,"▁cocino":9550,"▁montana":9551,"▁descontrola\r\n":9552,"▁desayuno":9553,"▁acapel":9554,"▁siguiendo":9555,"▁alumbra":9556,"▁idiota,":9557,"▁cigarri":9558,"▁alemán,":9559,"▁cacerio":9560,"▁maravi":9561,"▁derramar":9562,"▁alimentar":9563,"▁supimos":9564,"▁gobierno":9565,"▁facturando":9566,"▁advertí":9567,"▁ánimo,":9568,"▁mentalidad":9569,"▁negocios":9570,"▁world\r\n":9571,"▁continu":9572,"▁mafia\r\n":9573,"▁polola":9574,"▁publi":9575,"▁camisa":9576,"▁europa\r\n":9577,"▁detono\r\n":9578,"▁dividiendo":9579,"▁alerta\r\n":9580,"▁piquete":9581,"▁transpiro":9582,"▁madrugada\r\n":9583,"▁deudas":9584,"▁imán,":9585,"▁decididas":9586,"▁arreglábamos":9587,"▁lenguaje\r\n":9588,"▁puente":9589,"▁school\r\n":9590,"osauri":9591,"▁racek\r\n":9592,"▁revolución":9593,"▁acostumbrado":9594,"▁neuronas":9595,"▁furia":9596,"▁árbol\r\n":9597,"▁delito'":9598,"▁resentido\r\n":9599,"▁princesa\r\n":9600,"▁legendario\r\n":9601,"▁lágrimas":9602,"▁woman":9603,"▁vecind":9604,"▁shooter":9605,"▁mañanas":9606,"▁profundo":9607,"▁temática\r\n":9608,"▁piola":9609,"▁explique":9610,"▁easy...":9611,"▁avenida\r\n":9612,"▁anterior":9613,"-pi-pi":9614,"▁atiendo,":9615,"▁ojete\r\n":9616,"▁nacional":9617,"▁práctica\r\n":9618,"▁prohibido":9619,"▁absolu":9620,"▁explosión":9621,"▁chaval\r\n":9622,"▁autoestima\r\n":9623,"▁espiritu":9624,"▁reporta":9625,"▁trapeando,":9626,"▁mantuve":9627,"▁canalla\r\n":9628,"▁bayam":9629,"▁profeta":9630,"▁apuñ":9631,"▁obses":9632,"▁tráe":9633,"▁night\r\n":9634,"▁wanakin\r\n":9635,"▁cír":9636,"▁clock":9637,"▁condecor":9638,"▁provoca":9639,"▁conozco,":9640,"▁strike\r\n":9641,"▁ivy":9642,"▁na-na-na-na":9643,"▁reprodu":9644,"▁chambeo":9645,"▁original":9646,"▁tatué":9647,"▁enderez":9648,"▁iglesia":9649,"▁organiza":9650,"-rum-rum":9651,"▁chaleco":9652,"▁accesibles\r\n":9653,"▁satisfe":9654,"▁blunts;":9655,"▁john":9656,"▁instinto":9657,"▁filosof":9658,"▁hipócri":9659,"▁mercenario\r\n":9660,"▁cincuenta":9661,"▁genuino":9662,"▁adap":9663,"▁a-l-e-":9664,"▁gárgo":9665,"▁industria":9666,"▁cadáver":9667,"▁netfli":9668,"▁acostumbrandome":9669,"!!!\r\n":9670,"-0":9671,"-t":9672,"-ar":9673,"-ro":9674,"-ja\r\n":9675,"800":9676,"ay":9677,"adas":9678,"bo,":9679,"bro\r\n":9680,"caste":9681,"ctos\r\n":9682,"cciones":9683,"ctá":9684,"cción,":9685,"ean":9686,"eta,":9687,"gio":9688,"if":9689,"it\r\n":9690,"iona":9691,"jo'\r\n":9692,"ko\r\n":9693,"ky\r\n":9694,"luy":9695,"mina":9696,"mico\r\n":9697,"nas":9698,"ning":9699,"pan":9700,"pora":9701,"pens":9702,"pame":9703,"ry,":9704,"rr\r\n":9705,"rá\r\n":9706,"ss":9707,"ster\r\n":9708,"tto":9709,"tus":9710,"tty":9711,"ud\r\n":9712,"zos":9713,"zep":9714,"éx":9715,"íg":9716,"ías,":9717," s":9718,"▁?\r\n":9719,"▁ór":9720,"▁mando\r\n":9721,"▁pillo\r\n":9722,"▁pum,":9723,"▁sen":9724,"▁so'":9725,"▁scar":9726,"▁swe":9727,"▁lenta\r\n":9728,"▁léx":9729,"▁cro":9730,"▁da,":9731,"▁daba":9732,"▁ado":9733,"▁ate":9734,"▁afi":9735,"▁ak\r\n":9736,"▁a-c":9737,"▁aval":9738,"ers":9739,"ende\r\n":9740,"endés":9741,"▁yon":9742,"▁yes,":9743,"▁nel":9744,"▁que?\r\n":9745,"▁quebr":9746,"▁esa,":9747,"▁esencia\r\n":9748,"▁esni":9749,"anas\r\n":9750,"anza,":9751,"ara\r\n":9752,"arse":9753,"▁detro":9754,"▁detes":9755,"▁vui":9756,"▁varios\r\n":9757,"one'":9758,"doba":9759,"▁noto":9760,"▁note\r\n":9761,"▁nove":9762,"▁lao":9763,"▁lava":9764,"▁label":9765,"▁ela":9766,"▁ellas":9767,"▁hil":9768,"ese\r\n":9769,"undo":9770,"▁me?\r\n":9771,"▁meta,":9772,"▁metri":9773,"▁bui":9774,"▁bando,":9775,"▁bm\r\n":9776,"tea":9777,"ald":9778,"▁lobo":9779,"▁lomb":9780,"▁low\r\n":9781,"▁uno'":9782,"▁te,":9783,"▁tego":9784,"omen":9785,"▁sigas":9786,"▁yo?\r\n":9787,"▁seven":9788,"▁porta":9789,"cient":9790,"▁gas\r\n":9791,"rica\r\n":9792,"▁coma":9793,"▁comí":9794,"▁coming":9795,"▁común":9796,"▁comer,":9797,"▁comuna\r\n":9798,"ley\r\n":9799,"ienda\r\n":9800,"iento,":9801,"▁o'":9802,"▁ova":9803,"▁og,":9804,"abón":9805,"late":9806,"lazo\r\n":9807,"▁pata":9808,"▁pack":9809,"▁pa!\r\n":9810,"▁pagando":9811,"▁pa-pa":9812,"▁tu'":9813,"▁quitar":9814,"▁quieb":9815,"▁estra":9816,"▁parar,":9817,"▁partiendo":9818,"▁parlante\r\n":9819,"▁alza":9820,"▁altos":9821,"▁alber":9822,"▁aliento\r\n":9823,"cel\r\n":9824,"▁tenn":9825,"▁tené'":9826,"tia":9827,"tian":9828,"tis\r\n":9829,"tiva":9830,"▁curar":9831,"ush\r\n":9832,"▁is\r\n":9833,"▁ibas":9834,"▁retra":9835,"▁recar":9836,"▁redes":9837,"▁rezo":9838,"▁rebaj":9839,"▁rezo\r\n":9840,"▁refu":9841,"▁reac":9842,"▁leer":9843,"▁levi":9844,"▁lealta":9845,"▁yaoh":9846,"res,":9847,"entes,":9848,"▁tim":9849,"▁tigue":9850,"▁desfi":9851,"▁desha":9852,"▁nah":9853,"▁nah,":9854,"colo":9855,"▁rax":9856,"▁ratico,":9857,"▁mada":9858,"▁mack":9859,"▁mate,":9860,"▁mató":9861,"▁materi":9862,"▁sabros":9863,"▁cau":9864,"▁perco":9865,"▁perten":9866,"▁perique":9867,"▁sobres":9868,"ué\r\n":9869,"elos":9870,"▁nico":9871,"▁chala":9872,"▁wante":9873,"▁willi":9874,"▁verde,":9875,"▁vernos":9876,"▁veas\r\n":9877,"mate":9878,"orado":9879,"▁traque":9880,"▁trapo":9881,"▁traten":9882,"▁pasti":9883,"▁ahh":9884,"▁muta":9885,"▁muro\r\n":9886,"▁muñe":9887,"▁estemos":9888,"▁ró":9889,"▁run":9890,"▁rena":9891,"umen\r\n":9892,"▁¿do":9893,"▁pira":9894,"▁pican":9895,"dados\r\n":9896,"traje\r\n":9897,"▁rimo\r\n":9898,"▁mír":9899,"▁pozo\r\n":9900,"▁astr":9901,"▁ambulan":9902,"▁salgo\r\n":9903,"▁salgo,":9904,"▁salen\r\n":9905,"▁caras\r\n":9906,"▁vendi":9907,"▁venido":9908,"▁vendió":9909,"▁gane,":9910,"▁ganas,":9911,"▁ganador\r\n":9912,"▁sera":9913,"▁serie":9914,"▁pup":9915,"▁pupi":9916,"▁puros":9917,"▁putita":9918,"▁arman":9919,"▁sony":9920,"llos\r\n":9921,"▁peces":9922,"▁pegan":9923,"▁pew\r\n":9924,"▁acu":9925,"▁tún":9926,"▁vos?\r\n":9927,"▁mande":9928,"▁manic":9929,"▁mano'\r\n":9930,"▁mantien":9931,"▁manada\r\n":9932,"▁camp":9933,"▁malgas":9934,"▁calv":9935,"▁calz":9936,"▁calla":9937,"▁codi":9938,"▁coco\r\n":9939,"▁coja":9940,"▁cojo,":9941,"▁hayan":9942,"▁king\r\n":9943,"▁kurt":9944,"cka":9945,"▁uz":9946,"▁uy,":9947,"tería\r\n":9948,"teria":9949,"▁crecer":9950,"▁crece\r\n":9951,"▁tango\r\n":9952,"▁canto,":9953,"▁cancha,":9954,"▁deje'":9955,"parme":9956,"▁bae,":9957,"▁battle":9958,"▁busca\r\n":9959,"▁saga":9960,"▁sacu":9961,"▁liter":9962,"▁liga,":9963,"▁libre\r\n":9964,"▁moon":9965,"▁motos":9966,"▁cortó":9967,"enso,":9968,"▁ponle":9969,"▁barro\r\n":9970,"▁bardero\r\n":9971,"▁fue,":9972,"▁premi":9973,"h-a":9974,"h-wo":9975,"▁cimien":9976,"▁lujos":9977,"▁lupa\r\n":9978,"▁fala":9979,"▁falla":9980,"▁falla\r\n":9981,"▁judas":9982,"▁menn":9983,"▁castill":9984,"carme\r\n":9985,"▁mirame":9986,"kee":9987,"rump":9988,"▁complic":9989,"selo":9990,"▁verdadero\r\n":9991,"▁bajar,":9992,"▁mierdas":9993,"des,":9994,"▁hoci":9995,"▁hoes\r\n":9996,"▁hojas":9997,"▁cosas\r\n":9998,"▁llame,":9999},"merges":["\r \n","▁ e","▁ m","▁ p","u e","▁ s","▁ l","▁ c","▁ t","▁ d","▁ a","▁ q","e r","e n","▁ y","▁ n","▁q ue","▁e s","a n","a r","o s","▁d e","a s","▁ v","o n","o r","d o","▁n o","▁ \r\n","▁l a","▁e l","▁ h","e s","▁e n","u n","a \r\n","o \r\n","▁m e","▁ b","t e","r e","▁m i","a l","i n","r a","▁ f","t a","t o","▁l o","▁ un","▁t e","o m","▁s i","▁c on","▁y o","g o","a m","r o","d a","u i","▁s e","▁p or","▁h a","l o","c i","▁ g","r i","er o","▁c om","an do","o y","l e","i en","▁d i","▁ o","a b","l a","▁p a","▁t u","c h","▁t o","▁q ui","▁es t","▁p ar","o ,","▁l os","m p","▁com o","q ue","d e","▁a l","a ,","c e","▁t en","t i","ó n","▁c u","u s","▁ i","▁ re","h \r\n","d i","▁p ero","á s","c a","o l","▁v i","▁l e","m e","▁ j","h ,","▁es to","▁y a","r es","▁s oy","i s","en t","▁y e","▁t i","e \r\n","▁s u","o '","▁de s","▁n a","▁ten go","▁l as","c o","os \r\n","▁ ra","as \r\n","▁por que","▁par a","en te","▁un a","▁m a","▁s ab","▁ in","e mp","▁c a","ue n","▁de l","▁pa '","ar \r\n","do \r\n","v i","▁p er","▁s o","▁m ás","u é","e l","▁n i","▁es ta","▁c h","i l","ue r","▁ w","▁v er","▁v e","es \r\n","g a","m a","or a","y ,","▁t ra","▁p as","▁a h","t o\r\n","▁qui er","▁m u","▁a n","t r","▁es te","▁p ue","▁v a","▁ r","▁v oy","u m","▁mi s","▁ ¿","í a","▁p i","p i","da d","▁es c","p e","t ra","▁cu ando","▁esto y","▁ha b","c er","a j","▁ ri","te \r\n","y \r\n","▁ye a","▁est á","t a\r\n","▁m í","▁p o","▁a s","▁si emp","▁siemp re","▁a m","d a\r\n","b i","▁s al","m os","? \r\n","▁c ar","▁qui ero","q ui","▁v en","e ,","ón \r\n","▁g an","m o","▁s er","▁s in","▁p u","▁h i","▁to do","▁en t","▁a r","i c","▁s on","l l","' \r\n","▁p e","p a","ue l","▁a c","▁s é","▁t ú","▁l le","d os","p er","▁v os","▁m an","▁l l","▁c am","t ro","▁so lo","▁m al","r an","v e","▁es o","▁c al","▁c o","▁t ien","▁ah ora","d er","▁ha y","t ar","▁ k","c k","b a","▁ u","t er","▁c re","▁t an",". .","é n","▁q ué","v o","á n","g u","▁n os","ar i","t u","to ,","▁ ro","▁p r","▁c l","▁c an","r as","m i","in g","lo w","▁de j","▁e x","▁m am","' ,","ien do","c es","g o\r\n","c u","p ar","▁b ien","▁ha cer","▁el la","▁n e","▁b a","ta ,","▁ '","▁hab l","▁as í","▁b us","am os","▁ra p","▁ha ce","▁s a","▁l i","▁d on","ch o","▁m o","▁c or","en do","▁h e","en s","▁i mp","t as","b re","i r","p o","m an","t an","▁ res","d as","é s","t es","ue s","en to","▁p on","▁b ar","▁f low","g ar","▁n un","v er","z a","▁di s","l i","▁to dos","▁f ue","▁s ol","▁p ro","▁h as","▁b o","s i","os ,","! \r\n","▁yea h\r\n","or \r\n","▁t h","▁b ab","▁nun ca","c en","j o","▁b uen","da ,","▁p re","▁di ce","h -","▁f u","m as","▁c i","▁ha go","lo ,","▁quier e","▁h oy","▁l u","▁tien e","▁f al","d en","▁j u","▁h er","er a","▁m en","g an","▁s h","▁c as","q u","c ar","▁has ta","b o","▁es a","▁ve z","▁v ol","▁mi ra","k e","f i","r a\r\n","r u","r en","▁com p","a do","▁me j","al \r\n","s e","s \r\n","am e","▁ver dad","▁g u","▁b aj","▁a p","▁no ,","▁m on","▁mi er","t os","▁p la","te ,","▁m ue","d es","▁e y,","b le","▁h o","▁yea h,","▁b e","er \r\n","en ci","l o\r\n","t y","▁c os","▁ll am","e z","▁v ien","▁p al","▁na di","▁mam i","▁esc u","▁s í","in a","c a\r\n","ci on","▁ti emp","t \r\n","n o","▁v as","▁cal le","▁ go","t al","▁o l","▁d u","▁c ab","▁to '","▁m ar","ch a","▁mej or","▁sab e","ar me","▁her man","▁no ch","v is","es ,","▁en c","▁tu s","▁a un","an \r\n",". \r\n","as ,","ri m","ente \r\n","▁v uel","▁es e","▁de ci","v a","c o\r\n","ar ,","▁b i","▁si go","▁don de","▁mu y","▁aun que","▁pue do","▁a b","▁n ue","▁vi da","▁s os","▁p ens","▁o tra","í a\r\n","▁per d","r o\r\n","▁p is","▁t am","▁d a","m b","▁yo u","ro ,","ó mo","g un","ando \r\n","▁na da","▁sab en","▁r om","▁sab es","▁f r","▁ra pe","▁ac á","l an","m o'","t en","do ,","ón ,","in o","go ,","▁t om","qu í","▁ us","▁nadi e","▁par e","▁esc ri","▁tra p","an a","▁m uer","▁mier da","▁con mi","u b","ú n","▁a quí","a d","▁f or","▁f a","▁ -","▁d o","j e","é \r\n","▁bar ri","l a\r\n","▁bus c","▁m y","▁es per","▁e y\r\n","▁to da","▁f re","ci ón\r\n","m a\r\n","la ,","▁m as","▁re c","g ui","▁ or","▁est ás","d \r\n","▁e mp","r \r\n","▁d ía","▁p ien","s o","ñ o","▁e res","q ué","v o\r\n","▁que r","▁a h,","▁ven go","▁m un","▁c uen","de \r\n","g a\r\n","▁d os","▁g us","am o'","▁f l","▁th e","ci endo","▁f um","a t","▁quier en","j a","▁l es","▁con tra","▁ex p","i a","er o\r\n","▁des p","▁cam bi","d ar","n a","▁t er","▁ol vi","▁ca da","▁a y","▁p rim","▁pas a","án do","▁fu ck","z \r\n","t or","▁mi ent","▁f in","▁o h,","▁re al","▁v al","ce \r\n","e t","▁m or","▁ye h\r\n","▁si ento","c o,","g as","▁d ro","▁cl ub","▁no \r\n","▁está n","▁vien e","▁ é","▁des de","▁p es","▁ne g","s te","▁g ra","▁cu al","▁est ar","▁g ente","▁pu ta","i dad","▁ent re","▁o tro","r ar","g ue","▁an do","▁c ómo","ci ón","▁di cen","▁t ran","▁car a","▁e h\r\n","▁j ue","b e","▁gu a","▁con o","u l","▁cre o","c an","▁s uen","▁tiemp o","p or","▁s an","▁d ar","▁mu cho","in a\r\n","▁am or","▁e '","▁a h\r\n","▁qui en","▁j o","▁s us","▁ ¡","▁d í","en ti","▁lo '","ro vis","▁imp rovis","▁f e","▁an d","▁n en","▁v o","▁pue s","▁ch a","er on","▁é l","▁c ora","▁v an",", \r\n","e c","▁ z","▁c er","a '","▁w e","j os","▁ \"","▁mi l","▁fre es","i g","▁s om","▁vol ver","▁frees ty","▁w h","en \r\n","▁e h,","▁me di","▁pue de","l os","▁b an","ra ,","▁f i","▁b l","er a\r\n","▁est i","ent o\r\n","▁h um","▁di me","z o","r r","▁noch e","▁ on","▁us te","bi én","t ando","í s","▁i gu","▁c ol","▁ha ciendo","▁escu ch","▁desp ué","▁c la","▁a f","▁ri mas","▁' e","▁d in","▁pa p","▁cora z",".. .\r\n","▁c uer","▁cl ar","▁tam bién","▁s uel","le \r\n","am ente","í n","▁deci r","ó lo","▁mun do","ó \r\n","▁b es","▁s ue","▁ye h,","▁in s","z a\r\n","▁mami ,","▁mient ras","ent ro","▁t a","▁b ri","m o\r\n","v en","▁ 2","▁bab y,","▁w a","▁s ólo","ci l","▁t al","▁mí \r\n","▁ar ri","▁tan to","on \r\n","re \r\n","▁ten er","▁¿ qué","y a","me \r\n","d or","▁que da","▁g a","p p","▁p an","t ,","▁ma tar","i co","▁f ui","▁imp or","▁be b","ón de","▁p res","▁s enti","▁ah í","▁an tes","l la","▁despué s","▁g i","o' \r\n","▁na da\r\n","▁enc on","y o","▁c ri","▁o b","▁pi er","▁ba il","f er","▁ 1","▁t ar","ero ,","▁qui én","▁gus ta","▁t r","▁ve o","as te","▁g ran","i \r\n","▁vi s","▁mu ch","ari o\r\n","▁t on","ar te","▁i r","▁pre gun","▁esti lo","m m","▁pro ble","▁pare ce","d as\r\n","▁p us","▁p el","▁d oy","▁barri o","s ,","t h","t ar\r\n","u r","v el","▁de m","▁g ri","▁mon e","▁al l","c a,","▁e ra","▁t ri","▁en ci","▁hi p","▁igu al","▁to das","d r","le x","▁re g","v e\r\n","i o","▁mi n","▁hi jo","t ch","▁re p","▁w o","▁po der","▁conmi go","▁es os","▁mi ll","▁a gu","▁que d","▁in ter","▁res pe","▁fal ta","t in","▁pal ab","c í","▁p un","▁a u","▁n ues","▁al go","il l","i to","▁g uer","▁p en","in '","é ,","▁pr en","▁sh o","to y","▁tran qui","m ente","▁po co","▁ter m","j er","▁rap ero","▁pien so","▁v amos","tr os","dad \r\n","▁bab y","▁cab r","▁a d","al e","▁sal e","k a","▁mis mo","▁ri ma","c to","on es","ando ,","▁ni g","▁ve ces","▁m om","▁esta mos","▁encon tr","t as\r\n","▁m á","p \r\n","▁d entro","en ta","▁cual qui","▁b as","▁am or\r\n","m a,","w \r\n","or ,","▁' toy","c as","s a","i ta","▁lo co","▁i '","▁ent en","l ic","▁j un","▁cu l","e '","▁f uer","d os\r\n","▁p ol","▁se a","ci a","d u","l \r\n","▁m er","▁vi vo","▁tien en","▁k e","t os\r\n","▁pa pi","▁tu mb","▁ne ces","p ,","▁f am","ab a","▁freesty le","b aj","g a,","▁per di","▁u h,","▁dis par","▁c in","▁d ónde","▁mi c","▁est u","▁dej o","t re","▁ma ñ","▁mí ,","▁sí ,","▁dro ga","c os","d í","u t","▁f lex","m bre","▁herman o","▁men os","▁bi tch","▁d ol","▁un o","▁yo ,","▁quier es","▁d er","▁di ab","t es\r\n","▁h om","▁b al","▁o h\r\n","is te","r os","▁ch ic","i go","▁h an","▁i s","▁pon go","▁mor ir","v an","▁ll or","der \r\n","▁men ti","▁i' m","d ,","▁e h","▁t res","▁n ing","▁h ue","▁y o\r\n","o' ,","r ando","á \r\n","▁e qui","▁d ame","▁a y,","▁es p","▁est os","ce ,","▁so bre","▁cos as","l es","on a","h- e","\" \r\n","▁a gar","▁di go","el i","▁k no","▁dej ar","▁d an","in e","ñ os","▁c ui","▁pr in","▁m ú","▁li ke","▁pe ga","▁habl ar","m os\r\n","or m","▁buen o,","p o,","▁est as","ari o","▁baj o","b a\r\n","▁b r","▁se gui","▁o jos","▁ti ra","▁a par","▁v o'","▁di j","▁pue den","▁llam a","z ar","▁no mbre","▁se ñ","▁vi vi","- a","▁di os","▁ri t","? ,","i ,","v o,","ci o","▁di jo","h- o","ch e","▁lle g","▁ba tal","▁arri ba","an ,","m o,","▁e y","or a\r\n","▁nos o","l as","er n","▁ni vel","m ar","p a\r\n","ñ a","▁b ro","▁ch u","▁ar g","▁ll en","▁o di","▁vi e","▁man o","▁ba i","▁lu z","i a\r\n","il lo","i o\r\n","▁con f","▁j a","▁más \r\n","▁mu cha","▁¿ c","▁ent ien","▁d é","an te","▁la '","▁re v","enci a","▁som os","p o\r\n","or es","in \r\n","▁sal go","' t","b ra","i on","▁ ún","▁cu lo","▁gan ar","▁min u","er ,","▁ch i","▁cas i","e mos","▁in t","▁per s","▁esta ba","▁ch e","▁esc en","▁san g","▁bri ll","▁impor ta","e a","▁s k","▁si mp","▁ti \r\n","tr as","▁yea h","▁cuen ta","t ri","▁m es","▁a le","▁cu a","e lo","u y","▁d ra","▁el los","▁con ti","▁ap ren","e za","j o\r\n","▁d ue","▁a ce","▁bus car","▁ju ro","▁sh i","▁club ,","g \r\n","▁m ente","▁r on","▁gan o","▁tien es","▁enc uen","▁nue vo","d re","m ien","▁a g","▁el e","▁h ar","▁f o","▁su b","▁tra baj","▁mu jer","▁hab la","ing \r\n","▁go l","▁rec uer","u h\r\n","▁ os","▁si gue","▁se gu","▁ti ro","▁lle v","▁busc ando","▁prin ci","▁p lan","un g","w ,","▁ten és","▁j e","▁des pi","tr o\r\n","én do","▁sol amente","▁herman o,","▁v amo'","on o","▁en am","al ,","▁o f","▁lle ga","▁lle vo","▁habl ando","' s","b er","l ar","▁q u","▁b u","▁f res","▁con s","▁ra per","enci a\r\n","▁rec or","▁enci ma","▁f eli","▁vi da\r\n","▁j us","a do\r\n","▁c ien","ch o\r\n","de ,","▁an da","▁sal i","í o","▁ oy","▁c ru","▁mi e","▁i t","▁for ma","c es\r\n","p on","u ,","▁es ca","▁ent on","▁cam in","▁medi o","▁uste des","▁arg ent","▁m ol","▁hi ci","▁ex tra","▁bien \r\n","d iendo","▁de f","▁en se","▁g or","▁est re","▁des c","▁na da,",".. .","▁mue ve","▁suen a","c ando","l ti","r é","▁fa v","ñ o\r\n","an o","an a\r\n","▁ma ta","▁term in","z o\r\n","▁es as","▁yo ung","▁ha cen","▁sé \r\n","▁ro b","▁buen o","▁ob vi","g ,","á ,","▁a pa","▁g as","▁su per","▁dej a","- e","l lo","▁di je","▁di fer","me ,","▁clar o","j a\r\n","▁pas o","▁hi ce","▁bab y\r\n","cion es","▁bl un","▁f un","▁ci u","▁nues tro","' o","p ues","t é","▁car a\r\n","▁u h\r\n","▁rep res","▁tumb ando","f e","n i","▁de mas","▁su f","cer \r\n","▁pu ta,","▁p os","ar on","▁h or","un a","▁vi v","▁mal \r\n","▁emp i","▁ay u","▁jue go","▁p l","▁v es","▁o h","ti r","▁don 't","▁pon e","▁coraz ón","e d","i do","i ón\r\n","▁p in","ch o,","▁al gui","▁vi aj","▁hacer \r\n","▁mom ento","k i","á r","▁t ras","▁escri b","idad \r\n","t y\r\n","▁es qu","▁b om","▁per f","▁cam ino","▁tr uen","v os","▁a i","er to","an d","ás \r\n","▁des a","▁in c","▁fue ra","▁mue ro","▁fum o","ándo me","▁neg ro","í as","▁d or","▁¿ qui","▁cui da","▁pers on","▁c el","▁en tr","▁f ren","▁com e","▁b or","▁hacer lo","▁bo ca","▁m us","▁b lan","▁com par","▁cu an","▁lle gar","▁can s","▁conmi go\r\n","on e","▁di re","▁perd ón","v e,","á pi","▁v os\r\n","▁en vi","▁mi r","▁g ir","▁i ba","▁gan a","▁cas a","▁vez \r\n","▁or o","▁olvi d","▁improvis a","g ar\r\n","i m","▁l is","en to,","as h","on es\r\n","▁est an","▁al ma","▁pa' l","el o\r\n","▁pas e","um ent","▁pien s","▁agu an","▁cua tro","▁con tro","ti ll","▁bien ,","▁din ero","c ti","▁c uel","en ,","▁v am","▁si r","di o","▁le van","▁va ya","▁quiero ,","▁lle go","▁¿c ómo","▁simp le","▁dor mi","▁p uer","ci as","▁re ad","▁in fi","▁pas ó","▁am ig","bi r","▁pens ar","▁quer és","▁af ue","r ó","al a","al es\r\n","ci a\r\n","ci o\r\n","▁par te","▁ar re","▁ro ck","▁ho p","▁rom p","rr um","▁cualqui er","▁b re","▁si g","am e,","▁k i","▁much os","! !\r\n","t á","▁c e","▁la do","▁si ente","▁ra z","▁mal a","▁sang re","pa ñ","arme \r\n","▁nue vo\r\n","▁suel to","▁enton ces","c tu","t ó","an te\r\n","▁no vi","al o","am p","▁g e","▁ya h\r\n","▁pas ar","▁bus ca","▁flow ,","▁senti r","▁algui en","▁d ando","▁b en","▁te mp","▁re ci","▁am ar","▁sa car","▁baj a","▁du k","▁rape ar","▁encontr ar","▁mañ ana","i to\r\n","á g","om o","▁mí o","▁gu ar","▁rom pe","▁wh i","▁palab ras","0 0","u \r\n","v a\r\n","í a,","▁p ri","▁me to","▁am i","pp in","▁gi ve","g ando","m or","t iendo","▁d ri","▁n orm","▁ti er","il le","▁pue des","▁esc on","▁gan as","▁ab aj","▁fr ente","▁hum o","c ta","s y","▁d os\r\n","▁a di","▁h mm","▁com pe","▁ma to","▁ch am","▁ver \r\n","▁quier o\r\n","▁pi de","▁pe le","▁th is","▁cos cu","▁val e","▁ense ñ","- na","m as\r\n","▁que \r\n","▁b ol","▁f á","▁per man","▁w an","▁' ta","és \r\n","▁pla ta","▁toda v","▁vo z","g i","á m","▁m ari","▁a ños","▁de mos","▁si ,","▁con ci","▁ch an","▁sa co","▁esper ando","▁exp lo","▁respe to","▁m c","▁se gun","▁tu yo","me lo","▁sal ir","▁cam pe","▁cos a","▁pis o,","▁escri bo","th er","▁má '","b r","e ta","▁ án","▁no ta","▁sab er","▁hi zo","▁lu gar","▁sh e","cion es\r\n","▁pens ando","▁rape o","▁cuer po","▁fam il","▁dé j","d es\r\n","g ún","▁ x","▁l ue","▁d om","▁de c","al l","▁si endo","▁con ta","▁o ke","▁ch o","▁tra i","▁tra je","▁po dr","▁pe lo","▁ci er","▁mira ,","▁tiemp o\r\n","▁envi di","- n","d an","k \r\n","▁ ú","▁s ent","▁t or","▁h is","▁di gan","▁al gun","a, \r\n","▁ca den","▁pas ado","▁pre fi","▁fá cil","ñ o,","▁d uer","le ,","▁o cu","▁per der","▁hab lo","▁po ca","▁trap ,","▁fum ando","▁nen a","▁cri s","▁mú si","▁segui r","▁ún ico","i ón","▁a que","es ta","am e\r\n","que \r\n","▁vi da,","▁ti ran","▁más ,","▁pi el","▁u o","▁tan ta","▁mami \r\n","▁pis o","h a","m ando","▁d al","▁v iendo","in o\r\n","▁to ca","▁ca pi","▁pi do","▁todo '","▁fu tu","▁nadi e\r\n","▁fr on","▁proble ma","h-e h\r\n","' o\r\n","- b","t on","▁ ñ","▁mi \r\n","▁cu mp","di do","▁in f","▁vis to","▁noso tros","h !\r\n","▁d ale","▁que dar","▁en tra","▁sé ,","▁cre e","▁flow \r\n","▁fue go","▁enc an","▁emp ez","▁pap el","▁vivi r","n os","▁s low","▁l ar","ien te","▁r u","ll a\r\n","▁cl as","ing ,","▁así \r\n","bre \r\n","▁pre par","▁exp lic","▁señ or","c uen","k ,","í \r\n","▁t re","▁des e","▁as i","▁siempre \r\n","▁vol v","▁comp le","▁verdad ,","▁verdad \r\n","▁be at","▁barri o\r\n","▁prim era","b o\r\n","e '\r\n","g ra","▁s or","▁v ino","▁h u","ti s","▁in v","▁habl an","▁pon er","▁herman o\r\n","▁fin al","▁wh at","▁mone y","▁rit mo","▁os cu","c re","e b","t um","▁h am","es ti","▁me te","▁g en","▁g il","▁co pi","▁afue ra","▁ú lti","▁músi ca","b as","c or","h o","an ana","▁b ille","▁re y","ma g","▁¿ que","▁ar ma","ic o\r\n","▁cam a","▁cul pa","▁todav ía","▁demos tr","c in","f r","▁p illo","▁a tr","▁ha ga","ci ón,","▁o j","▁qui si","▁na '\r\n","▁ca p","uel a\r\n","ck \r\n","▁así ,","▁sí \r\n","▁muer te","▁equi vo","▁kno w","▁norm al","▁v ue","▁mi ro","ch a\r\n","▁le y","is \r\n","▁su be","▁in vi","▁ca us","▁¿ y","▁ac ab","▁¿qui én","c tor","d és","j e\r\n","en do\r\n","me lo\r\n","▁ch ico","▁pu to","ic a\r\n","▁cor re","das ,","▁buen o\r\n","▁rom po","▁neg ro,","▁pus e","▁perf ec","_ _","g n","x \r\n","í an","om e","il la","▁hab ía","tu r","h- y","▁ho us","▁tam po","▁quer ía","▁dí as","▁pier do","▁pun to","- o","i ca","i ado","t t","▁ 4","▁v ine","▁f lo","▁i mag","▁tra igo","▁¿ por","▁as es","▁ac uer","▁man os","▁calle ,","m \r\n","ar a","▁con tes","lo que","ri s","▁qui z","▁r os","▁res pon","▁coraz ón\r\n","▁guer ra","▁enam or","w o","al es","▁f ras","▁com er","▁di ga","▁r ápi","▁mal di","▁mam a","▁sa c","▁escu cha","▁vuel vo","▁perd í","▁prim ero","▁sue ño","▁ins tr","- \r\n","f u","z a,","í o\r\n","▁ ,","▁m ent","▁p h","▁a cer","er no","▁h ora","▁j am","▁so ñ","▁ent iendo","▁ro ll","▁he y,","▁vuel ve","▁tran s","▁obvi amente","▁tampo co","c to\r\n","d ri","g h","▁e mb","▁a tra","▁lo ca","ri endo","▁mis mo\r\n","▁club \r\n","▁din ero,","▁shi t\r\n","▁read y","b an","g e","í as\r\n","▁g ui","▁al gún","▁am an","▁pu tas","▁ac ti","li ca","ez a\r\n","▁prim er","▁fuck ing","▁real idad","▁tranqui lo","f a","i ble","▁a tre","▁si l","▁ten emos","ent ar","▁ri cto","▁vuel ta","▁tar de\r\n","▁ning un","▁bai la","▁perman ent","▁his tor","▁t ro","▁a ta","▁es pe","▁es qui","▁si ent","lo '","▁di ez","▁o tros","ti c","▁mam á","▁fu ll","▁tom o","▁conmi go,","▁au to","▁mic ro","▁mú s","▁br in","▁conf un","▁mus ic","m án","t os,","en a","▁de b","▁la do\r\n","▁b el","▁f an","▁lo co,","▁sal u","▁sin o","▁bus co","▁mo vi","▁th at","▁noch e\r\n","▁tom a","▁aquí \r\n","▁do ble","▁cambi o","▁palab ra","▁esp ero","▁cuel lo","▁instr ument","g os","▁m os","▁m ens","▁a ún","▁g ente\r\n","▁di f","▁par ty","▁al can","▁cu án","▁vi o","▁ser á","▁lle va","▁u h","▁sa ca","▁lu z\r\n","▁on e","▁proble mas","▁demas iado","▁dal e,","l as\r\n","r ,","▁es pa","▁en e","▁b ru","▁un os","▁di gas","▁par ar","▁par ti","▁i l","▁ti rar","▁des es","▁pas a,","▁ent er","ter \r\n","▁rap ,","▁buen a","▁sh or","▁flex ,","▁mie do","▁fav or","b u","w e","▁l un","▁que do","▁b oy","▁b um","al i","▁f er","▁con fi","▁o h-o","▁re la","▁re bo","▁na '","ll o\r\n","▁u h-","▁ci e","fi ci","▁comp r","▁reg al","▁inter es","▁ning ún","▁conti go","▁ge la","▁fron te","- p","p e\r\n","t ón\r\n","u ra","y as","▁e r","▁c á","▁que ,","on a\r\n","▁pa z","▁cu ar","▁va i","▁ent ro","▁ci elo\r\n","▁mue re","▁trap p","▁cono ce","▁fe el","▁uste d","k e\r\n","r .","▁a vi","▁no '","in a,","▁lo co\r\n","▁com i","▁di ces","▁per re","▁ver s","▁can to","▁mo do","li co","▁bo o","▁du ro","▁jue go\r\n","▁dar le","▁amor ,","▁pues to","▁cha pi","▁diab lo","▁minu ti","ró f","▁e rr","▁m ando","▁m mm","▁l an","▁a ño","▁es o'","an o\r\n","▁j aj","▁soy \r\n","▁cor ta","▁dis co","▁ci elo","▁col or","▁pap á","▁beb é\r\n","▁gran de","▁nig ga\r\n","▁mer e","▁ciu dad","g ro","l y","p le","▁a t","▁a vis","on i","ra z","▁te ma","▁ha c","▁com b","ien to","▁est ru","▁car r","▁ven ir","▁gan g","cu la","▁mo ther","▁bo te","▁mej or\r\n","▁cin co","▁jus to","▁c ues","en o\r\n","▁ha ter","ch i","▁ye h","il o\r\n","▁u p,","tu ra","ado ,","▁ay er","▁dro ga,","▁hum il","▁all á","▁qued an","-e -","▁deses per","▁estru ctu","- tu","t un","ó ,","▁g ar","▁tu y","res \r\n","ent a\r\n","▁ti po","▁mí a\r\n","▁ac os","▁ro pa","▁he cho","▁fue go\r\n","si ón\r\n","▁dice :","▁hom bre","▁ace p","▁oy e","▁truen o","▁mens aj","! !","p as","w n","▁d ía\r\n","▁cu lo,","▁i de","co h","▁quier a","▁pr rrum","cu l","▁ho o","▁cab eza","▁noch es","▁fl ash","▁cha in","▁despi er","▁lue go","fu ck","m er","▁ 3","▁c ó","▁t in","en d","os o","▁f on","▁si qui","▁se x","▁ha ces","▁di o","▁o ut","▁pa gan","▁ten ga","▁ti r","▁des can","▁ma y","▁vos ,","▁mier da\r\n","▁cuen to","▁gra cias","▁din ero\r\n","▁mic róf","▁recor d",". r.","d or\r\n","k a\r\n","l er","▁t ari","▁a z","▁me \r\n","ci do","▁esto ,","▁su bir","▁sal am","▁hi jos","▁li ber","tes ,","li g","▁noch e,","▁nue v","▁fl or","▁gua po,","▁fui ste","▁mill on","▁vam o","g l","h u","▁s w","▁t oy","▁a de","▁me ,","▁f ir","ien do\r\n","▁di am","▁ten ía","▁ti ,","▁ma dre","▁ah o","▁r um","▁car a,","▁man ten","▁mier da,","▁olvi dar","▁ay er\r\n","▁mone y,","▁encuen tro","▁quiz ás","▁sil enci","▁siqui era","b ar","b ol","e ta\r\n","g el","n e","o cu","s e\r\n","▁t í","▁que das","▁es o,","▁b la","▁par o","▁al coh","▁vi ve","▁pas an","▁pu ro","tar ,","▁lu gar\r\n","▁cer eb","▁segu ro","▁qu in","▁feli ci","▁novi o","f e,","j o,","k er","l ,","t án","u yo","z c","z co","í cil","▁e v","on ,","▁con si","▁ya h,","ent ro\r\n","▁na ',","▁ma ',","▁ah ora\r\n","▁r en","▁¿ s","▁cal ien","▁pr endo","▁comp ren","▁calle \r\n","▁pes a","▁suen o","▁der ri","▁chi ca","▁int ent","▁argent ina","▁simple mente","▁hmm ,","▁dif ícil","▁m é","▁s mo","▁l en","▁c r","▁f ra","ta '","▁con vi","▁con se","▁est é","ti ca\r\n","di r","me lo,","▁ti rando","▁ca z","▁ca pa","▁so la","▁esta mo'","mos ,","▁car aj","ic a,","▁mal o","▁cl ic","▁ex is","▁pro pi","▁vien en","▁to' a","▁gua po","▁fi esta","▁bes o","▁ahí \r\n","▁pus o","▁cabr ón","▁dij eron","▁cuan to","▁mother fuck","▁salam and","▁alcoh ol","j er\r\n","n os\r\n","r as\r\n","▁ za","▁e vi","▁p ú","ue la","▁t ru","▁a qui","en a\r\n","▁en fr","▁si ento\r\n","▁o p","▁pa g","ch a,","que n","▁w uh\r\n","▁pas till","▁mu jer\r\n","▁gan ar\r\n","▁ser io","▁man da","▁habl es","tas ,","ues tro","▁pasa do\r\n","▁dar te","▁nen a,","▁2 0","▁bail ando","▁nig ga","▁batal la","▁estre ll","▁fun er","▁infi erno","b a,","▁m ía","▁l in","ar te\r\n","▁de p","▁me ti","▁b ur","▁mi ran","▁mi rar","▁yo '\r\n","am os\r\n","ab le","di ó","▁vi ol","▁sab és","▁ca i","▁ni e","▁w i","▁an te","▁sa dor","▁pre ocu","▁ju ra","▁her i","▁go t","▁rape ando","▁bail ar","▁much as","▁qued ó","▁sho w","▁chic a,","éndo me","▁wan na","▁aman e","a c","d ando","e p","t al\r\n","▁e ch","an an","▁con tar","da '","▁pa dre","o, \r\n","▁ma '","▁ca e","▁ver te","▁pi e","▁hab er","▁tú ,","ens e","▁fal l","▁ju gar","▁tar de","▁pregun tan","▁cualqui era\r\n","▁flex \r\n","▁agar ro","▁recuer do","▁ciu dad\r\n","▁aque l","▁quisi era","j as","▁d am","an a,","▁b lo","▁f la","▁un i","▁ha gas","ca do","▁in te","▁ca y","▁ni ño","▁pue b","▁po bre","▁sal í","▁man e","tu a","▁sol a\r\n","▁pro f","▁go te","▁pis ta","▁muer to","▁cambi ar","▁cer ca","▁nivel \r\n","▁empi ez","▁sir ve","▁amig os","-tu -tu","m ,","t y,","u vi","▁s uer","▁c rim","▁d ien","▁v in","▁en ro","un d","▁b os","▁un der","▁ten dr","▁vi vo\r\n","▁su bo","▁ah -a","▁pu ta\r\n","▁u p","▁or gu","▁freesty le\r\n","▁clar o\r\n","▁cri ti","▁morir \r\n","▁vie ja","▁desc on","▁sor p","anana u,","▁ene mi","▁liber ta","& amp","a h\r\n","u h-","▁e ter","▁b ro\r\n","ta do","▁con t","ci s","▁to do\r\n","▁ma d","▁¿ no","▁am igo","der ,","▁res pi","▁sol o\r\n","▁ol or","▁dime ,","▁empi eza","ppin ',","▁mari hu","▁famil ia","▁podr ía","&amp ;","h i","i o,","▁l í","en o","▁en loque","▁ha z","ab an","ch os","▁to c","▁par ty\r\n","di do\r\n","ás ,","▁des ta","▁mis ma","▁sin cer","▁pu ra","▁hi t","▁man era","▁rap per","▁li bre","▁he y","▁pon en","▁bi g","▁nue va","▁we ón","▁arri ba\r\n","▁ga ta","pp in'","▁pel ig","▁papi ,","▁chu pa","▁it 's","▁mol es","▁encan ta","f or","n o\r\n","▁ &amp;","▁e go","▁me zc","▁con ver","da te","ab a\r\n","de mos","▁va cí","▁¿ d","qui to","▁ven ga","▁todo ,","▁co g","▁' tá","tan \r\n","▁dis f","▁bo ca\r\n","▁ju ga","▁perd iendo","▁perd ón,","▁pis o\r\n","▁- ín","▁quer er","▁and amos","▁tal ento","▁pel í","▁pol ic","▁conti go\r\n","▁esca par","▁esqu ina","▁improvisa ción\r\n","▁demostr ar","c ent","k o","k e,","u ra\r\n","▁que mando","▁te mas","am \r\n","▁ma tar\r\n","▁in a","uer a\r\n","▁quier as","▁mu ri","ari os","ari o,","▁ex per","▁cor ri","si ón","▁cas a\r\n","▁pis to","▁rom per","▁igu al\r\n","▁decir te","▁estu di","▁escen ario\r\n","▁cump l","▁ningun o","- c","x i","ñ a\r\n","▁m ente\r\n","▁l una","▁c .r.","▁t ren","▁de be","▁b ando","▁com pañ","▁pa ,","ch e\r\n","▁re al\r\n","▁su a","▁per der\r\n","▁ve in","▁pi diendo","▁pu di","▁ar k","▁tú \r\n","▁man o\r\n","▁mo ver","▁dis tin","▁mira da","▁ap un","▁ho te","▁and amo'","ín \r\n","▁sk ill","▁demas ia","▁cans er","▁abaj o","▁ley en","▁fan tas","▁minuti to,","▁smo ke","b ri","e te","r ari","s o\r\n","u h","v al","v os\r\n","ú s","▁c ue","▁c ero","▁a co","▁a ve","▁el lo'","▁me ter","▁con v","▁di ciendo","▁o í","▁tu ve","de '","ce p","▁re lo","ol u","▁vi ste","▁le '","▁des per","▁las ti","▁hab le","▁lle gan","▁ll uvi","▁mal ,","▁co ca","gu a","▁rap \r\n","tan te\r\n","▁buen os","▁barri o,","▁beb é,","▁ton y","▁guer ra\r\n","▁cabr ón\r\n","▁neces ito","▁ag ra","▁gol pe","▁blun t,","▁tier ra","-na -n","▁'ta mo'","▁chapi ,","▁gang s","▁micróf ono","b oy","p h","▁v í","un ,","▁un as","▁yo ',","▁g et","▁tu m","▁to que","▁ten es","▁j or","▁ver ,","▁tra mp","▁cam a\r\n","▁tan tas","▁pr ome","▁ne ed","▁ju gando","▁men or","▁vol vi","▁mon ta","▁escu cho","▁tiemp o,","arme ,","▁deci me","▁muer te\r\n","▁val or","▁volver \r\n","▁ton to,","▁pun ta","▁ad entro","h-o h\r\n","▁futu ro","▁fer rari","▁boo ty","▁inte lig","- s","- ta","j ar","m á","r ía","t í","á l","▁ 5","▁n ub","▁la m","▁mi '","▁mi rando","in ',","▁est ilo\r\n","ce '","▁vi ern","▁ra to","ente ,","▁sab e\r\n","▁ver me","▁ri co","▁ar tis","▁son ando","▁ac om","▁co de","▁ne go","▁res pues","ble \r\n","▁improvis ando","▁z ig","▁af uera\r\n","▁clar o,","▁pregun ta","▁fam a","▁bitch \r\n","▁vie jo","▁despi erto","▁esca p","▁hici ste","▁esqu ina\r\n","ám on","▁vue lo","▁atre vi","▁fon do","\" ,","e ',","l ando","r á","▁p ill","ar le","▁el la\r\n","in ,","▁f ar","▁se cre","▁ha cia","▁o ka","▁to car","▁re z","▁re mi","▁vi \r\n","▁des tr","▁na ve","▁ra y","▁ch is","▁w ar","▁pue da","▁voy \r\n","▁¿ a","▁hab ita","▁mí a,","▁sal v","▁ar ro","▁pe go","dos ,","▁tan tos","▁mam á\r\n","▁ba ck","ens a","▁sol \r\n","▁quiere '","▁pla ka","▁tom ar","▁trap \r\n","▁or o\r\n","▁fl ui","▁fl uy","▁gua po\r\n","▁cono cen","▁z ar","▁esti lo,","▁nues tra","▁kno w\r\n","▁lleg ó","▁har d","▁fo to","▁recor dar","▁mie do\r\n","▁dec ís","▁slow \r\n","h-y e","▁¿d ónde","b l","f ,","h e","u h,","… \r\n","▁p ra","▁a bo","▁es o\r\n","▁de tr","▁h on","▁f ri","▁lo ca\r\n","▁g lo","ien to\r\n","▁qui e","▁vi ,","▁na cí","▁ah or","▁¿ cu","▁hab il","▁mí o\r\n","▁siempre ,","▁ser \r\n","▁pe g","▁lle gue",".. \r\n","▁dej ó","▁bo b","▁dice ,","▁cas ti","▁vez ,","▁pla y","ez co","▁mone y\r\n","▁mañ ana\r\n","▁bitch ,","ern o\r\n","▁llen o","▁ben di","- po,","k ing","v es","▁l ento\r\n","▁de di","▁en v","▁en er","▁f il","▁si do","▁g h","▁o u","▁su bi","▁ca er","▁per ra","ter a","▁can ta","▁habl as","▁hace mos","▁li fe,","▁cor on","▁he y\r\n","den \r\n","▁ab ri","▁busc ar\r\n","▁dro ga\r\n","▁jo ven","▁we e","▁escuch ando","▁cuer po\r\n","▁wa cho","▁diab lo\r\n","▁ace l","mien to\r\n","▁raper os","▁reci én","▁mos tr","▁acos tum","ananau, n","▁zig za","- r","- y","- no","a t\r\n","b amos","i ta\r\n","i on\r\n","l ar,","▁ 6","▁d os,","er e","▁n er","▁mi ,","▁f ash","om a","ci o,","▁di cho","▁pa te","▁i gn","▁re par","▁le y\r\n","▁su r","▁des pe","▁ma g","▁ma i","▁ca er\r\n","▁an dar","▁¿ o","▁ser ía","tu ra\r\n","▁cor to","▁sol d","▁hago ,","vis te","▁rape a","ad as\r\n","▁pien sa","▁también \r\n","▁bri llo","▁enci ma\r\n","▁reg ga","▁guer r","▁pren de","▁chic o,","▁equi po","▁dij iste","▁gor do","▁difer encia","▁ayu da","▁dormi r\r\n","▁bre a","▁prefi ero","c ab","d ero","▁t é","▁y \r\n","▁v a,","on o\r\n","on e\r\n","es te","▁com ien","▁di le","▁di os\r\n","▁ten go\r\n","▁vi r","▁vi si","ent os","▁ma t","▁ni ke","▁ver so","▁ve o\r\n","▁pi den","▁sal en","▁ven gan","▁mal a,","▁pr ó","▁ex iste","par a","▁habl ar\r\n","▁mo ti","▁ap ues","▁mejor es","▁sabe '","▁bi zar","▁you r","▁prim ero\r\n","▁vo z\r\n","▁medi a","▁af ter","▁ins is","▁jun to","▁odi o","▁luz ,","▁suf ri","▁sig uen","b el","c ci","m in","p os","r os\r\n","s te\r\n","▁s ti","▁l ic","▁d as","▁y sy","▁me ta","ra '","▁se p","▁di go\r\n","▁le t","▁j oy","▁tra ta","tr a\r\n","▁po -po,","▁ar ran","▁cal l","án \r\n","▁can ciones","▁cor te","tan te","és ,","▁fu ma","▁escu po","▁mar ci","▁tam o'","▁do c","▁busc an","▁toda '","▁fl uyo","▁suel ta","▁fuer te","▁hue vos","▁nombre \r\n","▁chu p","▁feli z","▁extra ñ","▁romp iendo","▁algun a","▁instrument al\r\n","▁crim in","i do\r\n","i za","í s\r\n","▁p p","▁s tre","▁d to","▁d entro\r\n","▁a re","os o\r\n","▁b on","▁f ol","▁si \r\n","▁o cas","▁par to","que s","us t","▁re d","▁re f","▁na ci","il la\r\n","▁w or","▁tra go","▁an o","▁va c","▁ri mas\r\n","▁gan ando","▁k illa","▁habl amos","▁pro b","▁comp ro","▁mon o","▁cab eza\r\n","ándo te\r\n","▁dí a,","▁nen e","▁som o'","▁cla vo","▁bri lla","▁2 4","▁wa ch","▁pier n","▁pen de","▁sho w\r\n","▁term ina","▁der ro","▁agar ra","▁mes si","▁buscar ,","▁qu a","▁jam ás","▁acti tu","▁wi th","g ía","m is","n es","n o,","o h\r\n","▁p ág","▁s enta","▁l ín","▁c en","or o","▁la bi","▁se man","▁ha go\r\n","▁di e","▁pa d","▁tu r","ti ca","▁cu ra","▁i ce,","ol a\r\n","▁le tras","▁del in","▁so bra","▁an im","aj e","aj e\r\n","▁sal e\r\n","▁car ga","▁ven ez","▁gan g\r\n","▁pu l","▁ar te","ve lo","ter a\r\n","▁cre en","ari os\r\n","▁don t","▁cor ro","▁ap ro","▁deci r\r\n","▁bi za","▁nue vo,","▁escri bi","▁muer to\r\n","▁olvi do","▁1 0","▁gri tan","▁tri ple","▁agu a","▁enten der","▁perdi do","▁mujer es","▁princi pi","▁blun t","▁ai re","▁segun do","▁pelo tu","▁capi tal","▁ade lan","▁disf ru","▁tum ba","▁gh et","▁regga et","b ran","c os\r\n","d ía","e t\r\n","f \r\n","s a\r\n","t ien","u c","z as","er as","▁y a\r\n","an tes","▁h un","▁en fer","▁me mor","in as","ta te","▁lo ve","▁lo cu","▁par te\r\n","▁ten e","▁cu li","▁ti ras","▁des tro","il li","▁ve lo","▁va '","▁r ui","dad es","▁esc uela\r\n","▁mí o'","qui s","▁ar ru","ic o,","▁pe gar","ck ,","ter i","▁cre er","▁hacer te","▁res uel","▁bar de","▁fue go,","▁pro du","▁fal tan","▁comp ra","▁ap ri","▁pla ta,","▁esper an","▁cono ci","▁hue le","▁argent ina\r\n","▁cel ul","▁dire cto","▁abaj o\r\n","▁compe ti","▁oke y\r\n","▁ark ano","▁relo j","▁viern es","▁pp rrum","2 \r\n","b ro","g as\r\n","p l","r ar\r\n","s er","t ino","▁t w","▁a .","▁a ñ","▁v ent","▁v as\r\n","▁te x","▁con e","▁con tando","▁est o\r\n","▁ma te","il lo\r\n","▁ve ces\r\n","▁va cil","▁pi es\r\n","▁hi elo","▁son ar","▁co de,","der a\r\n","▁mam á,","▁hacer ,","▁buen as","▁baj ar","▁pal o","▁to' s","▁vuel tas","▁mun do\r\n","▁exp res","por tun","▁dí melo\r\n","▁escuch ar","▁sue lo","▁pus sy","tin o\r\n","▁enten dés","▁apar te,","▁sk r","▁shi t","▁enam ora","▁hmm \r\n","▁án gel","▁déj ame","▁dom in","▁envidi a","▁acuer do","▁rápi do","▁cuán to","▁il um","▁blo o","▁lí ri","▁agra de","▁bizar ra","▁delin cuen","- l","a v","b e\r\n","d am","e ce","x ,","▁e ver","▁s enci","▁t os","▁d r","▁d á","▁v el","▁b ra","▁mi ra\r\n","in e\r\n","▁f e\r\n","▁lo ve\r\n","om bi","▁si m","▁si tua","▁con den","da do","▁se l","▁ha g","la do","▁pa yas","▁i t\r\n","▁des n","▁ca go","▁esta do","▁pas ar\r\n","▁r an","▁ri que","▁car i","▁pe da","tar me","▁can ción\r\n","▁dej e","▁li mp","▁cor r","▁imp os","▁comp rar","▁gu cci","▁tiemp os","▁fr om","▁emp res","▁real ,","▁gente ,","▁bes os","▁pan tal","▁senti mien","▁gri ta","▁tri ste","▁mill ion","▁oy e,","▁suf rim","▁ai re\r\n","▁tier ra\r\n","▁últi mo","▁atr ás","- -","- ho","3 \r\n","c us","f o","f ic","i e","m ente\r\n","p u","á '\r\n","▁ ...\r\n","▁m y,","▁s ú","▁s por","▁d j","▁a j","▁a y\r\n","▁es \r\n","▁no mb","▁b ús","al es,","▁un a\r\n","▁te l","▁si ento,","ci to","▁pa gar","▁pa z\r\n","▁to a'","▁al to","ti \r\n","ti lla","▁cu r","▁re y\r\n","▁le g","▁j es","▁ye h-ye","tr u","▁va por","▁r é","▁po t","▁son ri","▁pe or","▁cal ma","▁co t","▁co le","▁cre o\r\n","to, \r\n","amos ,","▁res ul","▁llam o","▁perd on","▁for t","▁fum ar","ándo le","▁mient ra'","▁dí melo,","▁fe k","▁volver te","▁senti do\r\n","▁pel i","▁cualqui era","▁neces i","▁dol or\r\n","▁der e","▁bai la,","▁ja i","▁entien de","▁escen ario","▁ale j","▁due le","▁raper o\r\n","▁fav or,","▁repres ent","▁bom ba","▁dire cta","▁infi erno\r\n","▁explo ta","▁ham bre","▁tari ma\r\n","▁az ul","▁canser b","▁hard cor","a a","a o","b al","p ero","t ando\r\n","t re\r\n","v í","é r","▁e u","▁e ran","▁e h-eh\r\n","▁l lo","▁y a,","▁n ar","▁que ma","▁de to","▁de cí","▁h á","▁b ro,","▁con cep","▁g al","▁g ru","▁pa pa","▁to '\r\n","▁cu ad","di o\r\n","▁vi de","▁j ar","▁j a\r\n","il \r\n","tr an","▁va y","▁po w","▁po dés","▁tan to\r\n","▁can \r\n","▁imp er","▁bar dero","▁vuel ve,","▁pens ar\r\n","▁fr ente\r\n","▁escri bir","▁cuen ta\r\n","▁jue go,","▁cha in\r\n","▁cla p","▁ins pi","▁ga to","▁reg res","▁wo h\r\n","▁má ',","▁cul pa\r\n","▁chic os","▁tres \r\n","▁noso tro","▁brill ar","▁llev ar","▁estre lla","▁gir l\r\n","▁ami go\r\n","▁ñ en","h-y ea","▁vers os","▁¿s ab","▁tene mo'","e gu","g os\r\n","j os\r\n","l y,","n \r\n","▁m ero","▁s na","▁c ero\r\n","▁d o'","▁de v","▁en o","▁mi ta","▁mi am","ta do\r\n","▁lo g","▁te le","am a","▁com pi","▁com bo","▁o la","ch u","▁to ca\r\n","▁par arme","us ti","▁i mi","▁re ce","▁ti ren","▁ma to\r\n","ga do","▁tra je\r\n","▁pas a\r\n","▁pi be","cer ,","▁gan é","▁mal a\r\n","ter o\r\n","▁cre y","▁pr r\r\n","▁' tán","▁don \r\n","▁vol ando","▁comp lica","enci a,","▁llam an","▁calle j","▁du ro,","▁fa cil","▁esper a","▁mun di","▁cambi a","eron \r\n","▁ban g,","▁2 1","▁wo w,","▁tranqui lo,","▁mom ento\r\n","▁estu dio","▁agar re","▁dra ma\r\n","▁ele gan","▁bu ll","▁cru z","▁blun t\r\n","▁hor as\r\n","▁viaj e","▁conci erto","▁campe ón","▁déj à","▁trai cion","▁ñ er","▁uh- uh-","▁descan s","▁cereb ro","▁conv ien","▁ign or","a da","a da\r\n","h er","n a\r\n","p able","r í","t ón","▁e ras","▁l ento","▁t es","▁d en","▁a bre","as te\r\n","▁no va","▁con ec","▁se pa","▁ha ci","ci e","▁g \r\n","▁g on","▁to dos\r\n","de z\r\n","▁re í","ol \r\n","▁le y,","▁j os","▁j a,","is mo\r\n","▁des car","▁ma es","▁ca igo","▁per o\r\n","▁esta i","▁r ar","▁ri f","▁ri m","▁ri mar","▁po quito","▁as egu","▁gan g,","▁man d","▁man os\r\n","▁u u","▁dej é","▁pon ga","▁mon tón\r\n","tal e","▁perd ón\r\n","▁acá ,","▁acá \r\n","ten \r\n","▁tom ando","▁trap per","▁ter r","▁fin de\r\n","▁pes ar","▁gra ti","▁beb é","▁gi ra","▁inter i","▁fuer za","▁ke ep","▁neces ito\r\n","▁dol or","▁esp al","h-e h-eh\r\n","▁kno w,","▁apar te","▁dij o,","▁apren dí","▁due ño","▁ele g","▁of re","▁lis ta","▁dri ppin'","▁oke y,","▁cris tal","tt le","▁mama ci","▁histor ia","▁gela to,","▁cá mar","▁cuar to","▁hit boy","▁-ín a,","▁pelí cula","▁fort ni","- lo","c al","c as\r\n","g as,","i ón,","r ía\r\n","u d","u h!\r\n","y ec","▁ 0","▁m uestro","▁p ana","▁l ápi","▁c ir","▁t ab","▁a ga","▁a ma","▁que ri","▁que de","es e","re mos","ci a,","▁est ar\r\n","▁re ti","di da","▁su fici","▁per ro","▁per si","▁tra to","▁quier a\r\n","▁r í","▁r ío","▁pi ca","▁ri co\r\n","▁po cos","▁gan ar,","▁hi er","▁ent ero","▁ar te\r\n","ll os","▁pe dir","▁ac tu","▁u a","▁pr ue","▁can ción","▁bien ven","▁mo v","▁imp res","▁res to","▁fal so","▁mira da\r\n","▁pal '","▁mar ca","▁mar ad","▁pis ta\r\n","▁olvi do\r\n","ándo te","▁coraz ón,","▁qued arme","▁enten di","▁diab lo,","▁menti ra","▁ning una","▁noso tr","▁minu to","▁trabaj o\r\n","▁cons tr","▁feli z\r\n","▁hici mos","▁pos i","▁bom b","▁cuida do","▁inv ent","▁oscu ri","▁salamand ra\r\n","▁amane cer\r\n","▁sincer o\r\n","▁lluvi a","-na-n a\r\n","▁detr ás","▁impos ible","- i","d on","l la,","p a,","á '","▁ á","▁s am","▁l ento,","▁a v","▁n ana","▁es co","▁en ga","▁f ran","▁f ues","om a\r\n","▁si enta","▁con ten","▁g ame\r\n","▁pa u","▁pa ís","▁to p","▁qui se","ce l","▁i ce\r\n","▁des as","▁ma tando","▁sab or","▁sab e,","▁per ra\r\n","▁w al","▁ver te\r\n","▁quier an","▁as us","▁am ar\r\n","▁ven do","▁gan o\r\n","▁ent era\r\n","▁son \r\n","ll as","dos e","▁mal o\r\n","▁cal or","▁hay a","▁u p\r\n","▁qué \r\n","▁ro tt","▁can ,","▁hace \r\n","▁mo ja","▁res is","os, \r\n","▁pre cio","▁cas a,","▁vol ar","ez a,","▁ab ra","▁tom é","▁prim era\r\n","▁pes o","▁neg ro\r\n","▁mil \r\n","▁mil es","▁bl es","▁uste de'","▁cla v","▁ta tu","▁ton to","▁hip -ho","▁poder \r\n","▁bas ta","▁dol lar,","▁han der","▁br on","▁sang re\r\n","▁qu í","▁apa ga","▁gas to","▁tras h,","▁desa y","▁mir ar\r\n","▁arre ba","▁duk o","▁hu bi","▁últi ma","▁caus a","__ __","▁imag in","▁ases in","▁permanent ,","▁mús ica,","▁hac ía","▁carr era","▁pueb lo","▁ner vi",") \r\n","c n","d ien","g en","j a,","l am","í na","▁ (","▁m ué","▁p las","ue la,","▁c ra","▁en cer","▁b y","▁b low","▁b ir","▁f o\r\n","▁si c","ci r","▁o portun","▁ten í","▁re pi","ent os\r\n","▁ma '\r\n","▁sab iendo","▁ca ch","▁pa' ca\r\n","vi o","▁an ti","dad ,","▁ri mo","▁ri ma,","▁po es","▁gan as\r\n","▁ll an","▁k il","▁habl en","▁pro te","▁dice \r\n","▁fr ío","▁muer en","▁do wn","et ,","▁fi es","▁rimas ,","▁wa cho,","▁tener te","▁encon tra","▁mill ón\r\n","lic o\r\n","▁ke lo","baj o","▁menti ra\r\n","▁llen a","▁rev ien","▁escen a","▁dra co,","▁viv iendo","▁inc l","▁aguan to","▁raz ón","▁pri sión\r\n","▁compe tir","▁famil ia\r\n","▁caden a","▁fras es","▁manten go","▁fra cas","▁estrell as\r\n","▁suer te","▁directa mente","▁sna p","▁fues e","▁rott we","- u","b res","d d","g ü","i '","i tos","i ones","j as\r\n","é '","▁ és","▁s ana","▁s ensa","▁l la","▁d ó","▁y an","▁v ámon","▁la mb","▁h el","ra me,","▁lo ca,","▁se as","▁o tras","▁par a\r\n","ti ta","▁le tra","▁le jos","▁le vel","▁na tur","▁tengo ,","▁ra to\r\n","▁so le","▁pi ed","▁esc al","▁esc uela","▁ven eno\r\n","▁hi g","▁qué ,","▁pr os","▁dej es","▁pon es","▁bo om","▁ju z","▁cas o","▁ap oy","▁ho p\r\n","▁be e","▁muer o\r\n","▁aquí ,","▁rec ono","▁fuck in'","▁cla va","▁2 00","▁arri ba,","dor a\r\n","▁pres um","▁dem oni","▁enten der\r\n","▁jun tos","▁pol i","▁mer ce","▁lleg ué","▁che que","▁sub iendo","▁def iendo","▁rob ar","▁obvi o","▁repres ento","▁pl u","▁person as","▁olvid ar\r\n","-na -na","▁algun os","▁duer mo","▁emb ar","▁mús ica\r\n","▁silenci o","▁pú r","▁empiez o","▁dien tes","▁bando l","▁¿cu án","▁desn u","▁uh-uh- uh\r\n","- wo","a ',","c as,","d iente","g er","i d","i a,","p el","▁e e","▁e as","▁p á","▁s tu","▁a ter","▁n u","▁de bajo","▁h en","▁h ora\r\n","▁en ca","in es","ra te","▁un o\r\n","▁si ete","▁con tr","ro u","▁se an","ci as\r\n","▁di os,","▁di eron","ch e,","▁to co","us e","▁le br","▁soy ,","▁ti re","▁ti ck","▁ma qu","▁in o","▁ca g","▁esta bas","▁ch ar","▁pi es","▁po co\r\n","▁po demos","bi a","▁car ro","▁ven diendo","▁pu re","▁pe a","▁co c","▁u bi","▁ro to","ues tra","▁nun ca\r\n","▁dis co\r\n","▁lu ces","▁ju g","▁ap re","▁mon tan","▁du r","▁mar ic","▁mejor es\r\n","▁herman os","▁ab ur","▁emp a","▁cuen to\r\n","gas te","▁dí as\r\n","▁and an","▁nen e\r\n","▁freesty l","▁1 5","▁gran de\r\n","▁pel o\r\n","▁dem bo","▁pun ch","▁cabr ón,","▁ke low","▁bitch es","▁segui mos","▁ún ica","▁buscar te\r\n","▁pin ta","▁piens an","▁raz ón\r\n","▁guar do","ppin '\r\n","▁cham pa","▁equivo ca","▁esqui vo,","▁uh- uh\r\n","▁mmm ,","▁hoo d,","▁cay endo","▁prof es","▁ah-a h\r\n","▁descon tro","▁hote l\r\n","▁habil idad","▁peda zo","▁ré p","▁nosotro '","▁ñen go","▁desay un","i mos","p ura","t ero","z qui","ó g","▁ 9","▁c raz","▁a k","▁a ca","▁q e","er an","▁y endo","▁de bo","▁v ar","▁v a\r\n","on e,","or o\r\n","▁en gan","▁me tal","▁mi re","▁si gui","▁con quis","▁ha gan","▁g '","▁pa ís\r\n","▁tu ya","▁al as\r\n","▁al um","ti co\r\n","▁cu ál","▁i dio","ent es\r\n","▁su pues","▁ca í","▁del i","el \r\n","▁tra e","▁pas ó\r\n","▁voy ,","▁¿ de","▁am o","▁gan arme","▁ser io,","▁ar m","pa do","uel o\r\n","▁man \r\n","▁solo ,","▁mal o,","▁co j","ari a","▁ro ba","▁pr om","ras ,","▁ex cus","▁hacer me","▁hacer lo,","▁sa cando","▁dis cul","▁todos ,","▁bab e,","▁ci gar","▁hoy ,","▁men \r\n","▁pla ca","▁pla ta\r\n","▁be at\r\n","▁pens é","▁pens am","▁do g","▁fre e","▁suen e","▁él ,","▁z or","▁cla p,","▁tal ento\r\n","▁tri un","▁nig ga,","▁dispar o","▁ale mán","▁je fe","▁camin ando","▁termin ar","▁hor as","▁romp e\r\n","▁rompe ,","▁bol s","▁x ana","▁hous e\r\n","▁il us","▁boy \r\n","▁er re","▁sw ing\r\n","▁under gro","▁fash ion\r\n","▁púr pura","▁ater ri","' o,","c é","c on","d s","d al","i as","n ,","p re","s y\r\n","t or\r\n","v as","v in","z ,","▁e du","▁l il","▁d re","▁y ,","▁n or","▁que mar","▁h uy","▁en car","un d\r\n","▁mi o","in '\r\n","▁f amos","▁si ste","▁di ver","ab as","ab a,","▁est és","▁ten gas","ti do","▁cu lo\r\n","▁ca f","▁ca en","▁ca cer","▁ni ñ","▁pas tilla","▁mu lti","▁va ci","▁r ue","▁está '","▁ent era","▁ll ám","▁cam ina","▁cam ara","▁co lo","ter ,","▁cre er\r\n","én de","▁dis cu","h- ah\r\n","▁hoy \r\n","▁men cion","ren al","▁comp ré","▁mar a","▁fl ores","▁ter ri","▁fin \r\n","▁neg ra","▁jo di","▁¡ a","▁improvis ar","▁cer ve","▁despué '","ín ,","▁sue ñ","▁ga tas","▁proble ma\r\n","▁mill ones","▁inter na","▁pen a\r\n","▁ad renal","▁bas e","▁fuer on","▁cin tur","▁der ra","▁rit mos","▁pers ona","mien to","▁trabaj o","▁sali da\r\n","▁mol ly,","▁truen o\r\n","▁desa par","▁hous e","▁rápi do,","▁espe ci","▁gela to","▁fronte arle","▁prrrum !!","▁quedas te","▁propi a","▁pú b","▁sorp ren","▁volvi ó","▁remi x","▁war ri","▁habita ción\r\n","▁té cn","▁apro ve","a '\r\n","b rar","e a\r\n","l os\r\n","l ar\r\n","l es\r\n","t ás","u al","y s","á bamos","▁e va","▁p ab","▁s p","▁d ru","▁a van","er to\r\n","▁n ú","▁de ber","un a\r\n","▁b ha","re í","▁mi na","ta da","▁lo c","da '\r\n","▁se c","▁por ro","▁com iendo","▁com er\r\n","▁di a","▁pa ca","▁tu c","▁est r","▁al im","ce '\r\n","▁cu ch","▁re pe","▁j al","▁esto '","ent es","▁su pi","▁ma tan","▁ma ke","▁ni ños","▁tra tando","▁pas te","▁an g","▁mí o,","▁ent ero\r\n","▁co cin","▁co bar","tar on","▁k a","▁k ar","▁k ill","▁can a,","ta, \r\n","▁sa y","▁li ri","▁pon te","ru ga","ez co\r\n","▁go bi","▁saben ,","▁fa ctu","▁emp ec","▁quer í","ja te","▁gua cho","▁suen an","▁sus pi","a' o,","▁wa cha","dor ,","▁ga vio","▁gri tar","▁all á\r\n","▁au -a","▁ad ver","▁bas ura\r\n","▁perdi do\r\n","▁estu ve","▁llor ar","▁shi t,","▁compar to","▁gir l","▁amig os\r\n","▁rock s","▁chan ce\r\n","▁án i","▁ocu l","▁volv í","▁volv iendo","▁imag ina","▁maldi to","▁ment al","▁bel la","▁rebo ta,","▁jaj aj","▁bote lla","▁cai ga","▁cumpl ir","▁acom pañ","▁nego ci","▁sti g","▁wor l","gü en","▁bha vi","- li","a h,","b or","c ero","c ar\r\n","c to,","e o","e o\r\n","g ía\r\n","i to,","l lo,","m on","r y","t res","t encia\r\n","á cti","▁d arme","er en","▁es f","an os\r\n","▁de \r\n","▁de do","▁de por","▁no ta\r\n","te o","▁te c","▁con tin","▁g all","▁com ent","▁di ario\r\n","▁qui so","ti vo\r\n","▁re cu","is ta","▁ma fi","▁sab ía","▁sab es,","▁ca cha","▁so por","▁so cio","▁ver güen","▁ve ce'","▁tra jo","▁pas ando","▁pas ión\r\n","▁r un,","um a\r\n","pe ,","▁mí os","▁po lo","▁am ena","▁car go","▁ven gas","▁gan s","▁gan o,","▁pu b","▁ac ción\r\n","▁ac aba","▁cam is","▁mal os","▁cal ma\r\n","der o\r\n","tu ra,","▁pr on","▁pr r,","▁cl an","▁mo da","ver \r\n","fi t","▁pla cer","▁vien es","▁vas ,","▁you \r\n","ad or\r\n","▁fa ce\r\n","▁fre e\r\n","▁estás \r\n","▁exp lico","▁cono cer","▁¡ w","▁fe o\r\n","▁vo cab","▁hum o\r\n","▁impor ta\r\n","▁tranqui li","lic a\r\n","▁papi \r\n","▁estu vi","▁tira do","▁bro th","▁brill ando","▁simp le\r\n","▁recuer da","▁je f","▁anda ba","▁camin ar","▁camin o\r\n","▁blan co","▁perdón ame","▁puer ta","▁temp o\r\n","▁dri ppin',","▁clas e","▁¿que r","▁hous e,","▁micro ph","▁lun a\r\n","▁jaj a\r\n","▁felici dad","▁caz z","▁funer al\r\n","▁liberta d\r\n","▁exper ien","▁acel era","▁sim ón","▁eu ro","- ,","0 \r\n","c ía","c an\r\n","e ce\r\n","g res","g ues","s o,","í ,","▁ ár","▁m ón","▁p a\r\n","▁s á","▁c le","▁d ora","▁a \r\n","▁es pañ","▁de ton","▁v e\r\n","on es,","▁la dr","▁h ol","es o","un k","▁b ar\r\n","ra do","▁f en","▁f ru","▁f este","▁lo o","▁com en","▁di vi","▁o jer","▁pa ga","▁est ando","▁al er","▁al ma\r\n","▁cu ándo","▁i den","▁i t,","▁ya h","▁su po","▁na h\r\n","▁ma dri","▁in di","▁ca er,","▁w os","▁an i","▁an tes\r\n","▁¿ para","▁pi que","▁pi ola\r\n","▁ven \r\n","▁ven der","▁son r","▁ll ora","▁cam a,","▁co pa","▁k h","▁k us","▁cre es","▁cre cí","▁pr ín","▁li mi","▁mo de","▁lu ce","▁fal ta\r\n","car a","fi ca","▁mon s","▁llam ar","▁vas o","▁ol a\r\n","▁du ra","▁sabe mos","as, \r\n","▁rom pi","▁fr ío\r\n","▁for m","▁or o,","ándo me\r\n","▁real mente","▁real idad\r\n","▁neg ros","▁cono zco","▁¡ dí","▁hum o,","▁escuch an","▁sue ño,","▁matar nos","▁gran des","▁vis to\r\n","▁dem uestro","▁tranqui lo\r\n","▁ad mi","▁má qu","▁fuer te\r\n","▁menti r","▁hue vos\r\n","-a y","▁mes a","▁conti go,","▁apren der","▁plan e","▁cons um","▁fun cion","▁mir á","▁contro l\r\n","▁ami ga","▁conci encia\r\n","▁piel \r\n","▁explic ar","▁dese o","▁atr ás\r\n","▁perfec to\r\n","▁trans pi","▁deb es","▁interes a","-p ro","▁feel ing","▁calien te\r\n","▁caraj o","▁za pa","▁sorp res","▁mad ruga","▁destr uy","▁ahor a,","▁env uel","▁pró xi","▁cone x","▁rique l","▁corr er","▁spor t\r\n","▁mamaci ta,","▁impres ion","▁punch l","▁iden ti","▁prín ci","▁¡dí melo","c ame","d an\r\n","g uen","i p","i te","i za\r\n","m en","m ent","z an","é f","ó s","▁e di","▁m era","▁p s","▁a dor","er as\r\n","er ic","an os","an tes\r\n","▁de u","▁no que","▁b loque","al a\r\n","▁f is","to '","▁lo t","▁un o,","▁com pa","▁est res","▁est én","▁par ar\r\n","▁cu le","▁i mán","ca ción","ca tri","▁in se","▁ca gar","▁ve te","▁pue do\r\n","▁va yas","▁estoy \r\n","▁ri ma\r\n","e, \r\n","▁gan an","▁pe cho\r\n","▁ac or","▁lle go,","▁mal dades","▁cal or\r\n","▁co jo","▁sa i","▁sa que","▁sa qué","tas te","▁pon gan","▁fue \r\n","▁bo bo","▁ci catri","▁ap la","te, \r\n","▁cos tum","▁mejor ,","▁deci di","▁rape ar\r\n","▁fa ce","▁esper ar,","▁gus tan","▁olvi da","▁jue ga","▁gua ch","▁suen a\r\n","▁quien es","▁gi gan","▁ob je","▁bail ar\r\n","▁1 00","▁tar ado\r\n","▁wo w\r\n","▁bal l","▁pega o'","▁vo' a","▁rit mo,","▁la' o\r\n","▁ale g","▁mujer ,","▁difer ente","▁repres enta","▁escrib o\r\n","▁dormi r","▁read y\r\n","▁arre p","▁arre gl","▁temp ran","▁bol u","▁campe ón\r\n","▁cier ro","▁futu ro\r\n","▁cump le","▁tre in","▁rey es","▁at enci","-e- e\r\n","▁out fit","▁diam ante","▁consi go\r\n","▁len gu","▁motherfuck er","▁enfr ente","▁uni ver","▁lam enta","▁code ína","▁ener gía","▁zigza g,","▁mag ia","▁tel éf","▁resul ta","▁imper io","▁incl us","▁hen nes","▁interna cion","▁ojer as","b ando","b ra\r\n","c cion","e mb","h h\r\n","k er\r\n","n ab","n y\r\n","p es","u ri","ó r","▁m ar\r\n","▁p uen","▁s cho","▁d ense","▁n a\r\n","▁n ame\r\n","▁n ananau,n","▁que mo","os a","▁h uel","▁me tas","▁me ten","▁me tiendo","▁mi ren","in as\r\n","▁f o,","ta mente","▁te mo","▁con c","▁con ven","▁con tar\r\n","▁se d","ci do\r\n","▁g ue","la -lo","▁tu vi","ch \r\n","▁est ri","ti co","▁i r\r\n","▁re bel","▁le tal","▁des en","▁ra ce","▁in i","▁del ante","▁per de","el l","▁tra tar","▁an si","▁¿ te","▁po p","▁sal iendo","▁car n","▁car o","▁car o\r\n","▁car ne","▁ven ta","▁pe que","▁pe ca","▁pe cho","▁pe dí","per a","▁ll ue","▁mal e","▁mal as","▁cal i","▁cre a","▁qué ?\r\n","▁ro to\r\n","▁can tar","▁ba d","▁rap ero,","▁hace mo'","▁li ttle","▁he ar","▁imp a","ir \r\n","▁sol ,","▁baj ando","▁ap las","▁pla za\r\n","▁be bi","▁llam arte","▁escu p","▁du l","▁vuel o\r\n","▁deci le","▁esper a\r\n","▁mun do,","amo' \r\n","▁the y","▁desp ues","▁fin al\r\n","▁nen a\r\n","▁él \r\n","a' o","▁volver ,","▁ban g\r\n","▁col ch","▁col ombi","▁haciendo ,","▁suel o\r\n","▁sue ño\r\n","▁ta ke","▁pan a\r\n","▁matar on","▁all á,","▁pen diente","▁encontr é","▁bal a","▁esp an","▁bro ke","▁¿c omo","▁entien den","▁rev olu","▁plan eta","▁medio c","▁hici eron","▁difer ente\r\n","▁suf re","▁ai res","▁bor ra","▁lis to","▁puer to","▁sacar me","▁duk o\r\n","▁duk o,","▁whi te","▁ami go,","▁escon de","▁cham pi","▁pele a","▁voz ,","▁gen era","wo o","▁ph illi","▁perre a,","▁err or","▁3 0","▁capa z","▁ante '","▁gote o\r\n","▁respi rar\r\n","▁sua ve","▁ví de","▁acostum bra","ananau,n anana","▁let 's","▁qua vo,","▁kh ea","▁sai y","▁nananau,n ananau,nanana","! ,","b ien","d in","f as","k a,","m bo","o o","t ing","v en\r\n","z z","ñ e","▁s ui","▁c ent","▁t esti","▁a ten","er os","on s","▁no ta,","▁la d","▁b á","ab ri","▁al to\r\n","▁al mo","▁al go\r\n","▁ten ta","us \r\n","▁i ce","▁re co","ca te","▁vi ctor","▁j an","is te\r\n","is ta\r\n","▁des ma","▁des tino","▁in ta","▁w es","▁ve ,","▁tra tan","▁quier e,","▁pi dió","▁está ,","▁ven ,","▁ven de","▁ven go,","▁son i","▁ac omo","▁co p","▁co her","der a","▁k o","ba -","ari a\r\n","▁dej arte","▁ne ur","▁ba c","▁hace ,","tan cia","▁bo ca,","▁fu ri","gan \r\n","▁mue res","▁mue vo","▁be bo","▁cab al","▁tus si","▁vuel to","▁nue ve","lan te\r\n","ten er","▁us a","▁pare d\r\n","▁escri be","▁fa ke","▁dos is","▁pasa ?","▁cha vos","a' o\r\n","▁we ed","▁bl ing","▁ins ta","▁¿qué ?\r\n","dor es\r\n","▁beb iendo","▁bail amos","▁ton y\r\n","▁reg alo","▁respe to\r\n","▁pen a","▁cul pable","▁mer ec","▁fam a\r\n","▁is la","▁llor ando","▁pega do","▁vivi r\r\n","▁batal las\r\n","▁segu í","▁sali ó","▁def ec","▁gor ra","▁pos ible","▁cuida o'","▁entr ar","▁fren o,","▁aguan ta","▁raz ón,","▁ben de","▁chan ce,","▁cier to\r\n","▁sent ía","▁ocu r","▁papel \r\n","▁slow ,","▁gil ,","▁respon do","▁permanent \r\n","▁shor t","▁trapp in',","▁ide as","▁may or","▁bla ck","▁mé tri","▁caraj o\r\n","▁clic k,","▁pastill as","-tu-tu -tu-tu","▁polic ía\r\n","▁ferrari \r\n","▁oka y\r\n","▁pra cti","▁ou t,","▁wee d\r\n","▁ghet to\r\n","▁celul ar","▁payas o","▁bienven ido","▁hip-ho p","▁mué velo","▁hig h\r\n","▁freestyl er\r\n","▁champa gn","▁dre f","▁dru g","▁ár bol","▁máqu ina","- de","b rando","c \r\n","c ción\r\n","d ente\r\n","d ía\r\n","e ando","e lo,","i z","i mm","j o'","j os,","s te,","y a\r\n","▁e je","▁s to","▁a la","er a,","en de","▁que riendo","▁es que","▁v ari","▁v es,","▁v arios","▁no w\r\n","▁en cen","▁mi res","al o,","in i","▁f m","▁lo ve,","am ente\r\n","ui r","ci endo\r\n","le y","ch ar","▁par ezco","▁al qui","ti er","ti co,","ti va\r\n","▁i zqui","▁re me","di ab","ca pi","▁des i","▁porque \r\n","▁del ito","▁pa' \r\n","▁per mis","▁ch or","▁ver sa","▁va ina","▁r all","▁pi di","pi do","▁esc uela,","▁ri mando","▁po des","▁po eta","▁sal ga","▁car ame","▁pu do","▁hi elo,","per \r\n","▁man i","▁ll é","ter a,","▁ro bo","▁cl i","▁can cion","▁ne w","▁li ga","▁li ma","▁cor riendo","▁he av","▁res enti","▁ju gar\r\n","▁men ores","▁baj ar\r\n","▁pal iza\r\n","▁bi cho","▁you ,","▁saben \r\n","▁fr í","▁fr us","mo' \r\n","ad \r\n","▁fa ctor","▁busc as","▁estás ,","▁quer ías","▁fl y","▁cambi ar\r\n","▁fin de","▁gra ve","▁san ta","▁jo da","▁we on","▁som os\r\n","▁col ores","▁escuch en","▁cuer vo","▁bes ti","▁pres ente\r\n","▁1 3\r\n","▁vis ta\r\n","▁pregun to","▁proble mas\r\n","▁tri ste\r\n","▁mill ón","▁sho ut","▁veces ,","▁hom bre\r\n","▁bal as","▁prin ces","▁la' o","▁encuen tro\r\n","▁fo tos","▁princi pe","▁sali mos","▁extra ño\r\n","▁entr en","▁sangre ,","▁temp o","▁whi ppin","▁whi ppin',","▁cham a","▁lue go\r\n","▁oke y","▁envidi a\r\n","▁sent ís","▁futu ro,","-b l","▁prepar a","▁bille te","▁arma da","▁acab o","-o ut","▁sient as","▁bru jer","▁oh-o h-oh\r\n","▁avi ón","▁comi da","▁comi da\r\n","▁mmm \r\n","▁tari ma","▁propi o","▁alcohol ,","▁lin da","▁pelig ros","▁ego cent","▁zar pa","▁pprrum m","▁skr t\r\n","▁enamora da","▁leg end","▁yeh-ye h\r\n","▁cot to\r\n","▁hardcor e\r\n","▁gru po","▁terr or","▁cámar a","▁lápi z","▁kelo ke,","▁demoni os","▁multi p","▁llám ame","▁izqui er","▁whippin ,","▁egocent ris","- qué",". a","a i","c ina","i ó","i es","i que","s y,","t ándome","u la","u me\r\n","z o,","é ri","ñ as","▁e re","▁p í","▁p il","▁s es","▁l ui","▁l ág","▁d ar\r\n","▁a ven","en a,","▁n as","▁n anan","▁que m","▁v es\r\n","▁v u,","on as","▁el i","▁me lo","▁f aj","▁f abri","ta me","▁te or","▁con di","am ,","▁se is","ci ar","▁g re","le g","le ta","▁di r","▁di v","▁di go,","ab le\r\n","la 'o\r\n","▁pa cto","▁tu \r\n","▁tu vo","▁to ca,","▁est ú","de l","▁al i","▁re ina","di a","ol ,","▁vi ven","res i","▁ti ki","▁su '","▁des or","▁des tre","▁del ante\r\n","▁esta ba\r\n","▁ch il","▁w om","▁ve cin","▁tra b","▁tra ck","▁tra ba","▁quier a,","▁r us","▁ri v","▁ri car","▁po cas","▁sal es","▁gan e","▁gan a\r\n","▁ser io\r\n","▁hi elo\r\n","▁hi gh","▁ar tes","▁co ño","tar le","▁u r","▁cre w","▁cre ar","▁qué ?","án ,","▁ne gar","▁li t","▁li v","▁cor te\r\n","▁he la","ens o\r\n","man \r\n","▁res t","▁bar a","za do","▁bo la","▁her mos","▁cas ual","▁vol ar\r\n","▁baj e\r\n","▁llam ó","▁vien to\r\n","▁go o","▁du ro\r\n","▁sigo ,","▁ab ro","▁ab and","▁da y","▁da ño","▁us ar","▁pare cer","ad os\r\n","▁mas ta","▁ter ren","▁olvi des","▁val go","▁gra ba","gue \r\n","▁jo dido","▁z as","ig h","▁wh en","▁bl ue","▁col or\r\n","▁af ec","▁pap á\r\n","▁sue ños","▁beb a,","▁senti do","▁cri ter","▁1 2","▁dem on","▁igual ,","▁pren das","▁sho o","▁sho w,","▁mom entos","▁neces ita","▁freestyle ,","▁dispar a","▁mañ an","▁llor ar\r\n","▁batal las","▁bro ther","▁int ento","▁princi pe\r\n","▁fav or\r\n","▁mata mos\r\n","▁person a\r\n","▁cans é","▁gir l,","▁improvisa ciones\r\n","▁cuel lo,","▁¿cómo ?","▁arre g","▁sig ni","▁clas es","▁vue lo,","▁contes ta","▁confun das\r\n","▁salu do","▁movi e","▁shor ty\r\n","▁oh-o h\r\n","▁rela ja","▁avi ón\r\n","▁carr era\r\n","▁cues ti","▁desesper a\r\n","▁despier to\r\n","▁nuev as","▁pesa di","▁conse gui","▁pag uen","▁prof un","hi bi","▁vein ti","▁pudi era","▁oí do","▁tramp a","▁oka y,","▁crimin al","▁senta do","▁lín e","▁bizarra p\r\n","▁sentimien tos","▁jai me","▁¿sab es","▁mita d","▁haci éndo","▁tatu aj","▁rép lica","▁empec é","▁vocab ul","▁hol ly","▁mons tru","▁almo ha","▁eje cu","- 4","- g","- pa","b os","c ón\r\n","c os,","g les","l u","l os,","o h","p s","t ú","t ina","v é","ú l","▁e f","▁e dad","▁m d","▁m ero,","▁s tar","▁l ana\r\n","▁a tro","▁a ño\r\n","an o,","▁de la","on a,","▁la pi","▁la do,","▁h ones","un \r\n","▁me l","▁mi ?\r\n","▁mi ente\r\n","▁f as","▁f ern","▁lo t\r\n","▁te m","▁te am\r\n","▁te má","▁si go\r\n","▁con du","▁se ca","▁se d\r\n","ci ente","▁g rou","▁com bi","▁par a,","▁par ty,","ti do\r\n","▁i m","di \r\n","▁le tr","▁j ui","▁ra da","▁porque ría\r\n","▁ma de","▁sab or\r\n","▁in ver","▁ca j","▁pa' ,","▁per ros","▁so la,","▁so bran","▁ch ill","▁tra es","▁tra ck\r\n","▁pue s\r\n","▁va g","▁pi b","▁pi o","▁pi co","mos ,\r\n","▁gan ado","▁ser ia","▁pu de","▁mal i","▁cal ent","én ,","én \r\n","▁' el","▁' tan","▁li ga\r\n","▁mo ta","▁sol ita","▁bo o\r\n","▁pre cis","▁ju ro,","▁cas h","▁mue ra","▁ho p,","▁cos a'","▁du das\r\n","▁cab eza,","▁mar ía,","▁ab ar","▁pare des","▁muer to,","▁do ctor","▁busc ándote\r\n","▁esper a,","▁exp or","▁exp li","▁improvis ar\r\n","▁improvis ando\r\n","▁fe ka","▁nen e,","▁pues ta","▁freesty ler","▁ban da","▁ban dido","▁bl as","▁sue ña","dor es","▁ob ser","▁bail a\r\n","▁enci ma,","▁wo w","▁agu a\r\n","▁encontr ar\r\n","▁cin tura","▁mic ro,","h-e h,","▁dejar lo","h-o h-oh\r\n","ion es\r\n","▁chi le","▁brill ar\r\n","▁sk y","▁sk rr","▁llev ó","▁of f","▁fres co","▁fres co\r\n","▁fres co,","▁cien \r\n","▁sali da","▁oy e\r\n","▁extra ño","▁termin an","▁rob é\r\n","▁pin to","▁desa f","▁vam pi","▁levan to","▁afue ra,","▁novi a","▁duk i,","▁wan nab","▁dec ía","▁oj o'","▁oj os\r\n","▁perfec to","▁respon de","▁soñ ar\r\n","▁histor ia\r\n","▁sient es","tic \r\n","▁brin cando","▁bum ,","▁compr ar\r\n","▁cues ta","▁humil de","▁tin ta","▁sex o","▁rum or","▁za pas","▁jura do","▁heri das","▁dam n,","▁enemi gos","▁-ín a\r\n","▁flui dez\r\n","▁sufri r\r\n","▁doc ument","▁are a","▁ano che","▁qua vo\r\n","▁actitu d","▁pág ame,","▁memor ia\r\n","▁pprrum m\r\n","▁vent ana","▁ilum ina","▁cole cti","▁há z","▁inspi ra","h-yea h\r\n","▁av ís","▁eas y","▁abur ri","▁técn ic","▁tuc un,","▁stig ma","▁¡w uh!\r\n","▁prínci pe","▁lamenta ble","▁sui ci","▁shout -out","▁aven i","▁nanan anan","▁grou pi","' re","- m","- po",". i","b \r\n","c ción","d á","d arme","g or","g re","g er\r\n","j an","j ando","k in'","m iendo","m ento","n o'","t ó\r\n","v ar","z os\r\n","▁ 7","▁e mo","▁p é","▁p le","▁t y","▁a ero","▁n a,","▁n ame","an za","▁de tal","on o,","▁h os","▁me et","ra do\r\n","▁f e,","▁si ti","▁si ll","▁ha y\r\n","le ta\r\n","ien tos","▁o jo","▁o tro\r\n","▁o tra\r\n","la '\r\n","▁pa go","▁to al","▁ten er\r\n","ti li","ti r\r\n","ón ?\r\n","▁i leg","▁re tro","▁re tras","di a\r\n","is ,","▁des pa","▁des cu","▁na dar","▁na -na-na\r\n","▁ca ga","▁per se","▁ver e","▁pas aj","▁pas ar,","▁quier e\r\n","▁an do\r\n","▁an teri","tr os\r\n","▁r ing","um ,","▁esc ab","▁esc ol","▁ri mo,","▁am a,","▁ar oma","▁son reí","▁ac lar","▁lle vo\r\n","▁lle ga\r\n","▁man era\r\n","ran \r\n","▁cal enti","▁cal or,","▁cal iente","▁co je","tar me\r\n","▁u lti","▁can tan","▁can tando","▁dej an","▁dej ando","▁ne ver","▁li b","▁mo ve","▁pon gas","▁dis te","▁sol as\r\n","▁th u","▁ci ma","▁ci ma\r\n","▁fal lar","▁ju ro\r\n","▁cas er","▁cas h\r\n","car me","▁mue va","▁ho la","▁be ba","▁cab o","▁vuel va","▁puedo ,","▁pens ás","▁escri to","je me","▁or ig","▁cuen tas","amo' ,","▁fuck \r\n","▁val en","▁pes os","▁san to","▁dar ía","▁vo ces","▁pues ,","▁\" el","▁som e","▁som bra","▁ban g","▁uste des\r\n","▁pap á,","▁coraz on","▁cuer o\r\n","▁sue lo,","▁pan as","▁pier de","▁pier des","▁au tor","▁pren di","▁pren der","▁tumb ar","▁fam a,","▁estu pi","▁menti ra,","▁tres ,","▁sobre vi","▁apar ezco","▁bai le\r\n","▁minu tos","▁int enci","▁int ento\r\n","▁princi \r\n","▁def or","▁truen o,","▁piens o,","▁contro l","▁contro lo","▁vam os\r\n","▁ce ba","▁sacar te","▁dri ppin'\r\n","▁'ta mos","▁mc \r\n","▁campe ón,","▁digan \r\n","▁inf in","▁ham bre\r\n","▁gil \r\n","▁copi a","▁trans for","▁realidad ,","▁full \r\n","▁cie lo,","▁interes a\r\n","▁perre o","▁mere ce","▁gar gan","▁dice: \r\n","▁acep tar","▁mensaj e","▁mensaj e\r\n","▁millon ario","▁clic k","▁enfr ent","▁meti do","▁heri da","▁orgu llo","▁mad re\r\n","▁pelí cu","▁leyen da,","▁prome to","▁decime :","▁artis ta\r\n","▁escap ar\r\n","▁peg ué","▁joven ,","-no -no","▁guerr ero","▁ref le","▁lín ea","▁vacil ando","▁jar ab","▁pow er\r\n","▁miam i","▁concierto '","▁convien e","▁interi or","▁espal da","▁aga in\r\n","▁bles se","▁púb lico","▁jajaj a\r\n","▁vergüen za","▁conex ión\r\n",".a .","▁ház melo","- f","- pi","b ur","c ri","c ina\r\n","d é","f al","i ta,","k y","l or","r on","r endo","t ía","▁ ‘","▁e cho","▁m m","▁m as\r\n","▁p ás","▁s ta","▁s ni","▁l óg","▁t a'","▁a us","▁a bi","▁a tiendo","▁que res","▁que remos","▁de capi","▁la g","▁el im","▁h ust","▁b \r\n","▁mi a","▁mi ento","al á","in k","ra !\r\n","▁f ina","▁te mor","▁si ga","▁si gan","▁con ch","▁con tras","▁yo '","da ?\r\n","▁se i'","ci do,","ri a\r\n","ri mi","▁di ría","▁o cho","▁o je","▁pa c","▁pa tr","▁tu viste","▁to a","▁to can","▁qui ta","▁par e\r\n","▁par tir","▁al re","▁i f","▁re vis","ol ver","▁vi p\r\n","▁vi vo,","▁ti ro,","▁na cer","▁na cen","▁na cion","▁na -n","▁porque ría","▁ma ta\r\n","▁sab es\r\n","▁in yec","▁per ras","▁per ro,","▁ch in","▁w ana","▁w ill","▁w uh","▁ver de","▁ve '","▁ve as","▁tra gos","▁quier es,","▁an ali","tr al","▁r in","um \r\n","▁¿ es","▁pi do\r\n","▁pi f,","▁esc amp","▁as a","▁am bi","▁sal tar","▁sal va","▁car g","▁car ros","qui to\r\n","▁ven ís","▁son ido","▁son ris","▁pe cado","pa c","pa ña","▁co co,","▁tien e\r\n","tar i","▁k en","▁k ri","▁cre cer\r\n","▁qué date","▁ro que","▁ro la\r\n","▁pr r","▁pr ácti","▁dej aste","▁mam a\r\n","▁ella ,","▁' ca","▁habl ando\r\n","▁sa po","▁li gh","▁mo du","▁cor o\r\n","▁he cho,","▁sol tando","▁pro hibi","▁bo bo\r\n","▁fal le","den ,","▁sh a","▁baj en","▁baj ame","▁ho la,","▁vien to","▁pal a,","▁go ing","tal o","▁du ki","▁mar ía\r\n","▁ab s","▁ab raz","▁fr ía\r\n","▁pare cen","▁- s","▁busc o,","▁gus to","▁exp los",
[...]
