{"version":"1.0","truncation":null,"padding":null,"added_tokens":[{"id":0,"special":true,"content":"[UNK]","single_word":false,"lstrip":false,"rstrip":false,"normalized":false},{"id":1,"special":true,"content":"[SEP]","single_word":false,"lstrip":false,"rstrip":false,"normalized":false}],"normalizer":null,"pre_tokenizer":{"type":"Metaspace","replacement":"▁","str_rep":"▁","add_prefix_space":true},"post_processor":{"type":"TemplateProcessing","single":[{"Sequence":{"id":"A","type_id":0}},{"SpecialToken":{"id":"[SEP]","type_id":0}}],"pair":[{"Sequence":{"id":"A","type_id":0}},{"Sequence":{"id":"B","type_id":1}}],"special_tokens":{"[SEP]":{"id":"[SEP]","ids":[1],"tokens":["[SEP]"]}}},"decoder":null,"model":{"type":"BPE","dropout":null,"unk_token":"[UNK]","continuing_subword_prefix":null,"end_of_word_suffix":null,"fuse_unk":false,"vocab":{"[UNK]":0,"[SEP]":1,"\n":2,"\r":3,"!":4,"\"":5,"#":6,"$":7,"&":8,"'":9,"(":10,")":11,",":12,"-":13,".":14,"/":15,"0":16,"1":17,"2":18,"3":19,"4":20,"5":21,"6":22,"7":23,"8":24,"9":25,":":26,";":27,"?":28,"_":29,"a":30,"b":31,"c":32,"d":33,"e":34,"f":35,"g":36,"h":37,"i":38,"j":39,"k":40,"l":41,"m":42,"n":43,"o":44,"p":45,"q":46,"r":47,"s":48,"t":49,"u":50,"v":51,"w":52,"x":53,"y":54,"z":55,"":56,"":57,"":58,"¡":59,"¿":60,"à":61,"á":62,"é":63,"í":64,"ñ":65,"ó":66,"ú":67,"ü":68,"е":69," ":70,"—":71,"‘":72,"‚":73,"…":74," ":75,"▁":76,"\r\n":77,"▁e":78,"▁m":79,"▁p":80,"ue":81,"▁s":82,"▁l":83,"▁c":84,"▁t":85,"▁d":86,"▁a":87,"▁q":88,"er":89,"en":90,"▁y":91,"▁n":92,"▁que":93,"▁es":94,"an":95,"ar":96,"os":97,"▁de":98,"as":99,"▁v":100,"on":101,"or":102,"do":103,"▁no":104,"▁\r\n":105,"▁la":106,"▁el":107,"▁h":108,"es":109,"▁en":110,"un":111,"a\r\n":112,"o\r\n":113,"▁me":114,"▁b":115,"te":116,"re":117,"▁mi":118,"al":119,"in":120,"ra":121,"▁f":122,"ta":123,"to":124,"▁lo":125,"▁un":126,"▁te":127,"om":128,"▁si":129,"▁con":130,"▁yo":131,"go":132,"am":133,"ro":134,"da":135,"ui":136,"▁se":137,"▁por":138,"▁ha":139,"lo":140,"ci":141,"▁g":142,"ri":143,"ero":144,"▁com":145,"ando":146,"oy":147,"le":148,"ien":149,"▁di":150,"▁o":151,"la":152,"ab":153,"▁tu":154,"▁pa":155,"ch":156,"▁to":157,"▁qui":158,"▁est":159,"▁par":160,"▁los":161,"o,":162,"mp":163,"▁como":164,"que":165,"de":166,"▁al":167,"a,":168,"ce":169,"▁ten":170,"ti":171,"ón":172,"▁cu":173,"us":174,"▁i":175,"▁re":176,"h\r\n":177,"di":178,"▁pero":179,"ás":180,"ca":181,"ol":182,"▁vi":183,"▁le":184,"me":185,"▁j":186,"h,":187,"▁esto":188,"res":189,"▁ya":190,"▁soy":191,"is":192,"ent":193,"▁ye":194,"▁ti":195,"e\r\n":196,"▁su":197,"o'":198,"▁des":199,"▁na":200,"▁las":201,"▁tengo":202,"co":203,"os\r\n":204,"▁ra":205,"as\r\n":206,"▁porque":207,"▁para":208,"ente":209,"▁una":210,"▁ma":211,"▁sab":212,"▁in":213,"emp":214,"▁ca":215,"uen":216,"▁del":217,"▁pa'":218,"ar\r\n":219,"do\r\n":220,"vi":221,"ll":222,"▁so":223,"▁per":224,"▁más":225,"ué":226,"▁esta":227,"▁ni":228,"▁ve":229,"▁ch":230,"▁w":231,"uer":232,"▁ver":233,"ma":234,"es\r\n":235,"ga":236,"▁pi":237,"ora":238,"y,":239,"▁tra":240,"▁pas":241,"▁ah":242,"to\r\n":243,"▁quier":244,"▁mu":245,"el":246,"cu":247,"▁an":248,"tr":249,"▁este":250,"▁pue":251,"▁va":252,"▁r":253,"pi":254,"▁voy":255,"▁mis":256,"mo":257,"▁¿":258,"ía":259,"pe":260,"dad":261,"bi":262,"tra":263,"▁cuando":264,"▁estoy":265,"aj":266,"cer":267,"y\r\n":268,"▁ri":269,"te\r\n":270,"▁yea":271,"▁está":272,"ta\r\n":273,"▁mí":274,"▁po":275,"mi":276,"▁as":277,"▁hab":278,"▁siemp":279,"▁siempre":280,"da\r\n":281,"▁sal":282,"mos":283,"?\r\n":284,"▁car":285,"▁quiero":286,"qui":287,"▁ven":288,"e,":289,"▁pu":290,"▁hi":291,"ón\r\n":292,"▁gan":293,"▁ser":294,"▁sin":295,"▁ent":296,"▁todo":297,"▁ar":298,"li":299,"▁son":300,"uel":301,"pa":302,"'\r\n":303,"▁pe":304,"▁sé":305,"▁tú":306,"▁lle":307,"dos":308,"per":309,"▁ac":310,"um":311,"ck":312,"▁vos":313,"▁man":314,"▁ll":315,"▁cam":316,"▁solo":317,"tro":318,"▁mal":319,"▁co":320,"ran":321,"ve":322,"..":323,"▁cal":324,"▁eso":325,"ari":326,"▁tien":327,"▁ahora":328,"der":329,"▁hay":330,"▁am":331,"▁k":332,"ba":333,"▁u":334,"ter":335,"tu":336,"▁cre":337,"tar":338,"▁tan":339,"én":340,"vo":341,"▁qué":342,"án":343,"gu":344,"▁nos":345,"▁pr":346,"to,":347,"▁esc":348,"▁ro":349,"▁can":350,"ras":351,"ing":352,"low":353,"▁dej":354,"▁ex":355,"▁mam":356,"',":357,"▁li":358,"iendo":359,"ces":360,"go\r\n":361,"par":362,"▁ne":363,"▁hacer":364,"▁bien":365,"▁ella":366,"il":367,"▁'":368,"▁ba":369,"ta,":370,"▁cl":371,"si":372,"▁así":373,"▁habl":374,"▁bus":375,"amos":376,"▁rap":377,"▁sa":378,"▁hace":379,"▁don":380,"cho":381,"▁fu":382,"▁mo":383,"▁cor":384,"▁he":385,"endo":386,"▁imp":387,"tas":388,"bre":389,"man":390,"po":391,"tan":392,"▁res":393,"ens":394,"das":395,"tes":396,"és":397,"ues":398,"ento":399,"▁pon":400,"▁bar":401,"ir":402,"▁flow":403,"!\r\n":404,"gar":405,"▁nun":406,"za":407,"ver":408,"▁todos":409,"ic":410,"▁fue":411,"▁has":412,"▁pro":413,"▁sol":414,"▁bo":415,"▁dis":416,"▁cos":417,"cen":418,"or\r\n":419,"os,":420,"▁th":421,"▁bab":422,"▁yeah\r\n":423,"▁nunca":424,"jo":425,"car":426,"▁buen":427,"da,":428,"▁pre":429,"▁dice":430,"h-":431,"mas":432,"lo,":433,"▁ci":434,"▁hago":435,"▁quiere":436,"▁hoy":437,"▁lu":438,"ru":439,"▁tiene":440,"▁fal":441,"▁ju":442,"den":443,"▁her":444,"era":445,"▁men":446,"▁sh":447,"gan":448,"▁cas":449,"qu":450,"bo":451,"fi":452,"▁vez":453,"▁hasta":454,"▁esa":455,"▁vol":456,"▁mira":457,"ke":458,"ra\r\n":459,"ca\r\n":460,"ren":461,"▁comp":462,"ado":463,"▁mej":464,"al\r\n":465,"s\r\n":466,"se":467,"ame":468,"▁verdad":469,"▁gu":470,"▁baj":471,"▁no,":472,"▁mon":473,"▁be":474,"▁ap":475,"▁mier":476,"tos":477,"▁pla":478,"te,":479,"▁mue":480,"des":481,"ble":482,"▁ey,":483,"▁ho":484,"▁yeah,":485,"er\r\n":486,"ty":487,"cion":488,"▁llam":489,"ez":490,"▁vien":491,"▁mami":492,"▁pal":493,"▁nadi":494,"ten":495,"▁escu":496,"▁sí":497,"co\r\n":498,"ina":499,"t\r\n":500,"▁tiemp":501,"no":502,"▁vas":503,"▁calle":504,".\r\n":505,"▁go":506,"tal":507,"▁du":508,"▁ol":509,"▁cab":510,"▁to'":511,"cha":512,"can":513,"▁mejor":514,"▁sabe":515,"▁herman":516,"▁noch":517,"lo\r\n":518,"vis":519,"▁aun":520,"arme":521,"es,":522,"▁tus":523,"▁bi":524,"as,":525,"rim":526,"ente\r\n":527,"ar,":528,"▁ese":529,"▁vuel":530,"va":531,"▁deci":532,"▁aunque":533,"▁donde":534,"▁sigo":535,"▁muy":536,"lan":537,"▁puedo":538,"▁ab":539,"▁nue":540,"▁vida":541,"▁mar":542,"▁sos":543,"▁pens":544,"▁otra":545,"ía\r\n":546,"ro\r\n":547,"▁perd":548,"▁pis":549,"▁you":550,"▁tam":551,"mb":552,"▁da":553,"ro,":554,"ómo":555,"gun":556,"▁sabes":557,"ando\r\n":558,"▁nada":559,"▁rom":560,"▁saben":561,"▁fr":562,"▁rape":563,"▁acá":564,"con":565,"enci":566,"mo'":567,"do,":568,"ón,":569,"ino":570,"go,":571,"▁tom":572,"la,":573,"quí":574,"▁us":575,"▁nadie":576,"▁pare":577,"▁escri":578,"an\r\n":579,"▁trap":580,"▁muer":581,"▁conmi":582,"▁mierda":583,"ana":584,"ción\r\n":585,"ub":586,"ún":587,"ad":588,"▁aquí":589,"▁fa":590,"▁for":591,"▁do":592,"é\r\n":593,"je":594,"▁barri":595,"▁-":596,"▁my":597,"▁esper":598,"▁ey\r\n":599,"▁toda":600,"ma\r\n":601,"▁fre":602,"▁mas":603,"▁or":604,"gui":605,"r\r\n":606,"▁estás":607,"d\r\n":608,"▁emp":609,"▁pien":610,"co,":611,"▁día":612,"so":613,"ño":614,"▁eres":615,"qué":616,"vo\r\n":617,"▁quer":618,"▁ah,":619,"▁mun":620,"▁vengo":621,"▁cuen":622,"de\r\n":623,"▁the":624,"ga\r\n":625,"▁dos":626,"amo'":627,"▁gus":628,"▁fl":629,"ciendo":630,"at":631,"▁quieren":632,"ja":633,"▁les":634,"▁contra":635,"▁exp":636,"ero\r\n":637,"▁rec":638,"▁and":639,"▁desp":640,"▁ter":641,"▁cambi":642,"na":643,"▁olvi":644,"▁cada":645,"▁ay":646,"la\r\n":647,"z\r\n":648,"▁prim":649,"▁pasa":650,"et":651,"ándo":652,"▁fuck":653,"tor":654,"arte":655,"▁mient":656,"▁real":657,"▁fin":658,"▁oh,":659,"▁val":660,"ce\r\n":661,"▁yeh\r\n":662,"gas":663,"▁mor":664,"▁siento":665,"▁dro":666,"▁no\r\n":667,"▁están":668,"▁viene":669,"▁é":670,"▁desde":671,"▁club":672,"▁pes":673,"▁neg":674,"ción":675,"ste":676,"▁busc":677,"▁gra":678,"▁estar":679,"▁cual":680,"▁gente":681,"▁puta":682,"▁entre":683,"▁otro":684,"dad\r\n":685,"gue":686,"▁ando":687,"▁cómo":688,"▁tran":689,"be":690,"▁dicen":691,"▁eh\r\n":692,"▁cara":693,"▁jue":694,"▁cono":695,"▁gua":696,"▁jo":697,"▁creo":698,"▁suen":699,"▁fe":700,"▁tiempo":701,"a'":702,"por":703,"▁san":704,"▁mucho":705,"ina\r\n":706,"▁quien":707,"▁amor":708,"▁e'":709,"▁ah\r\n":710,"▁¡":711,"▁sus":712,"▁dí":713,"ul":714,"enti":715,"▁qued":716,"▁lo'":717,"▁vo":718,"rovis":719,"▁improvis":720,"▁nen":721,"▁pues":722,"▁cha":723,"eron":724,"▁él":725,"▁cer":726,"▁cora":727,"▁hu":728,"▁fi":729,"▁we":730,"ec":731,"▁van":732,"rar":733,"▁z":734,",\r\n":735,"▁som":736,"...\r\n":737,"jos":738,"▁\"":739,"▁mil":740,"▁frees":741,"▁wh":742,"▁volver":743,"▁freesty":744,"en\r\n":745,"▁eh,":746,"▁medi":747,"▁puede":748,"▁ban":749,"ra,":750,"eli":751,"rr":752,"▁bl":753,"▁esti":754,"era\r\n":755,"▁dime":756,"ento\r\n":757,"los":758,"zo":759,"ia":760,"▁noche":761,"▁on":762,"▁uste":763,"bién":764,"tando":765,"▁igu":766,"▁haciendo":767,"▁escuch":768,"▁despué":769,"▁cla":770,"▁rimas":771,"▁'e":772,"▁din":773,"▁coraz":774,"▁af":775,"▁cuer":776,"le\r\n":777,"▁chi":778,"▁clar":779,"▁también":780,"ca,":781,"ín":782,"▁suel":783,"amente":784,"▁decir":785,"ólo":786,"▁mundo":787,"▁ami":788,"▁pap":789,"ó\r\n":790,"▁bes":791,"▁col":792,"ís":793,"▁sue":794,"▁yeh,":795,"▁ins":796,"▁wa":797,"lla":798,"za\r\n":799,"▁mientras":800,"ven":801,"▁mami,":802,"entro":803,"▁ta":804,"▁bri":805,"▁dar":806,"mo\r\n":807,"▁2":808,"▁baby,":809,"▁tal":810,"▁sólo":811,"cil":812,"on\r\n":813,"▁mí\r\n":814,"▁arri":815,"▁tanto":816,"re\r\n":817,"▁tener":818,"me\r\n":819,"▁¿qué":820,"ya":821,"dor":822,"▁queda":823,"▁ga":824,"pp":825,"▁pan":826,"t,":827,"▁matar":828,"▁fui":829,"▁impor":830,"▁beb":831,"ónde":832,"▁coscu":833,"▁gi":834,"▁fum":835,"llo":836,"▁pres":837,"▁senti":838,"▁ahí":839,"▁antes":840,"ario\r\n":841,"cuen":842,"▁después":843,"yo":844,"▁encon":845,"o'\r\n":846,"▁nada\r\n":847,"▁cri":848,"▁ob":849,"▁pier":850,"fer":851,"▁1":852,"▁tar":853,"▁quién":854,"▁gusta":855,"▁tr":856,"▁veo":857,"▁bail":858,"cas":859,"i\r\n":860,"▁gran":861,"▁vis":862,"ero,":863,"▁much":864,"▁ton":865,"▁ir":866,"▁pregun":867,"▁estilo":868,"mm":869,"▁proble":870,"▁parece":871,"tar\r\n":872,"▁pus":873,"▁doy":874,"▁barrio":875,"s,":876,"th":877,"vel":878,"▁dem":879,"▁gri":880,"▁mone":881,"das\r\n":882,"▁all":883,"ur":884,"▁era":885,"▁tri":886,"▁enci":887,"lex":888,"▁hip":889,"▁igual":890,"▁todas":891,"dr":892,"ve\r\n":893,"▁reg":894,"▁min":895,"▁hijo":896,"▁conmigo":897,"tch":898,"▁rep":899,"▁wo":900,"▁poder":901,"▁esos":902,"tin":903,"▁mill":904,"▁agu":905,"cia":906,"▁inter":907,"▁respe":908,"▁falta":909,"▁palab":910,"cí":911,"▁pun":912,"▁au":913,"▁nues":914,"▁algo":915,"▁pen":916,"▁guer":917,"in'":918,"é,":919,"▁pren":920,"▁sho":921,"mente":922,"aste":923,"toy":924,"tros":925,"▁tranqui":926,"io":927,"ito":928,"▁baby":929,"▁poco":930,"▁pienso":931,"▁term":932,"jer":933,"▁rapero":934,"▁cabr":935,"▁vamos":936,"ale":937,"▁ad":938,"▁sale":939,"cto":940,"ki":941,"▁mismo":942,"▁rima":943,"ando,":944,"▁nig":945,"▁veces":946,"▁mom":947,"▁estamos":948,"▁encontr":949,"tas\r\n":950,"▁má":951,"▁papi":952,"p\r\n":953,"▁dentro":954,"enta":955,"▁cualqui":956,"▁bas":957,"▁amor\r\n":958,"ma,":959,"w\r\n":960,"or,":961,"▁'toy":962,"cos":963,"ga,":964,"sa":965,"▁enten":966,"ones":967,"▁loco":968,"▁i'":969,"▁jun":970,"▁ke":971,"ka":972,"▁cul":973,"e'":974,"▁fuer":975,"dos\r\n":976,"▁pol":977,"▁sea":978,"du":979,"▁mer":980,"▁vivo":981,"▁tienen":982,"l\r\n":983,"tos\r\n":984,"▁tumb":985,"▁neces":986,"p,":987,"▁fam":988,"▁freestyle":989,"baj":990,"▁perdi":991,"▁uh,":992,"▁dispar":993,"tre":994,"▁cin":995,"▁dónde":996,"▁mic":997,"▁estu":998,"▁dejo":999,"▁mañ":1000,"▁mí,":1001,"▁sí,":1002,"▁droga":1003,"dí":1004,"ut":1005,"▁flex":1006,"mbre":1007,"▁hermano":1008,"▁menos":1009,"▁bitch":1010,"dar":1011,"▁dol":1012,"▁uno":1013,"▁yo,":1014,"▁quieres":1015,"▁der":1016,"▁diab":1017,"tes\r\n":1018,"▁hom":1019,"▁bal":1020,"▁oh\r\n":1021,"iste":1022,"ros":1023,"▁is":1024,"▁ning":1025,"▁han":1026,"der\r\n":1027,"▁prin":1028,"▁pongo":1029,"▁morir":1030,"van":1031,"▁hue":1032,"▁llor":1033,"▁menti":1034,"▁i'm":1035,"d,":1036,"▁eh":1037,"▁tres":1038,"aba":1039,"▁trai":1040,"▁yo\r\n":1041,"o',":1042,"les":1043,"rando":1044,"á\r\n":1045,"▁equi":1046,"▁dame":1047,"▁ay,":1048,"▁esp":1049,"▁estos":1050,"ce,":1051,"▁sobre":1052,"▁cosas":1053,"ine":1054,"h-e":1055,"\"\r\n":1056,"ba\r\n":1057,"▁agar":1058,"▁digo":1059,"lla\r\n":1060,"▁kno":1061,"▁dejar":1062,"▁dan":1063,"ario":1064,"ños":1065,"▁cui":1066,"ona":1067,"▁mú":1068,"▁like":1069,"gi":1070,"▁pega":1071,"▁hablar":1072,"mos\r\n":1073,"orm":1074,"▁chic":1075,"▁bueno,":1076,"po,":1077,"▁estas":1078,"▁bajo":1079,"▁br":1080,"▁segui":1081,"▁ojos":1082,"idad":1083,"▁tira":1084,"▁apar":1085,"▁vo'":1086,"▁dij":1087,"▁pueden":1088,"▁llama":1089,"zar":1090,"▁nombre":1091,"▁señ":1092,"▁vivi":1093,"▁músi":1094,"-a":1095,"cio":1096,"▁dios":1097,"▁dijo":1098,"▁rit":1099,"▁noso":1100,"?,":1101,"pa\r\n":1102,"vo,":1103,"che":1104,"h-o":1105,"las":1106,"▁ey":1107,"▁lleg":1108,"▁batal":1109,"▁arriba":1110,"mo,":1111,"ora\r\n":1112,"ern":1113,"▁nivel":1114,"▁bai":1115,"mar":1116,"ña":1117,"▁plan":1118,"▁bro":1119,"▁chu":1120,"▁arg":1121,"▁llen":1122,"▁odi":1123,"▁vie":1124,"▁mano":1125,"▁luz":1126,"uela":1127,"▁ja":1128,"▁entien":1129,"▁conf":1130,"▁habla":1131,"▁ki":1132,"▁somos":1133,"▁rev":1134,"▁más\r\n":1135,"▁mucha":1136,"▁dé":1137,"an,":1138,"ante":1139,"▁la'":1140,"po\r\n":1141,"ores":1142,"in\r\n":1143,"▁salgo":1144,"▁casi":1145,"'t":1146,"bra":1147,"emos":1148,"▁ún":1149,"▁culo":1150,"▁ganar":1151,"▁minu":1152,"er,":1153,"▁pers":1154,"▁estaba":1155,"ion":1156,"tri":1157,"▁encuen":1158,"▁ti\r\n":1159,"▁che":1160,"▁escen":1161,"▁sang":1162,"▁importa":1163,"▁princi":1164,"ea":1165,"ni":1166,"▁simp":1167,"tras":1168,"▁yeah":1169,"▁cuenta":1170,"▁mes":1171,"▁dra":1172,"▁ale":1173,"▁cua":1174,"▁¿c":1175,"elo":1176,"ico":1177,"▁ellos":1178,"▁conti":1179,"▁shi":1180,"▁apren":1181,"eza":1182,"g\r\n":1183,"jo\r\n":1184,"lar":1185,"▁ace":1186,"▁buscar":1187,"▁juro":1188,"▁club,":1189,"▁mente":1190,"▁ron":1191,"▁gano":1192,"...":1193,"▁tienes":1194,"▁nuevo":1195,"dre":1196,"mien":1197,"▁ele":1198,"▁har":1199,"▁bu":1200,"▁fo":1201,"▁sub":1202,"▁trabaj":1203,"▁mujer":1204,"elo\r\n":1205,"ing\r\n":1206,"▁gol":1207,"▁recuer":1208,"▁os":1209,"▁sigue":1210,"▁segu":1211,"▁je":1212,"▁tiro":1213,"tro\r\n":1214,"▁llev":1215,"▁expli":1216,"▁buscando":1217,"ung":1218,"llo\r\n":1219,"▁coscull":1220,"w,":1221,"▁due":1222,"▁tenés":1223,"▁despi":1224,"▁vamo'":1225,"éndo":1226,"▁solamente":1227,"▁hermano,":1228,"'s":1229,"ber":1230,"▁qu":1231,"▁enam":1232,"al,":1233,"▁feli":1234,"▁of":1235,"▁llega":1236,"▁llevo":1237,"▁hablando":1238,"▁recor":1239,"cando":1240,"▁fres":1241,"▁cons":1242,"▁raper":1243,"▁encima":1244,"ita":1245,"▁vida\r\n":1246,"▁jus":1247,"ado\r\n":1248,"ces\r\n":1249,"gra":1250,"io\r\n":1251,"▁oy":1252,"▁cien":1253,"cho\r\n":1254,"de,":1255,"▁anda":1256,"▁sali":1257,"u,":1258,"uh\r\n":1259,"ío":1260,"▁cru":1261,"▁mie":1262,"cia\r\n":1263,"▁it":1264,"▁enton":1265,"▁forma":1266,"pon":1267,"▁esca":1268,"▁camin":1269,"▁medio":1270,"▁ustedes":1271,"▁argent":1272,"▁mol":1273,"aron":1274,"▁estre":1275,"▁hici":1276,"▁extra":1277,"▁bien\r\n":1278,"diendo":1279,"ré":1280,"▁def":1281,"▁ense":1282,"▁gor":1283,"▁nada,":1284,"▁mueve":1285,"▁suena":1286,"▁brill":1287,"lti":1288,"▁fav":1289,"ño\r\n":1290,"ano":1291,"ana\r\n":1292,"▁mata":1293,"ciones":1294,"▁termin":1295,"zo\r\n":1296,"▁mari":1297,"▁esas":1298,"▁young":1299,"▁hacen":1300,"▁sé\r\n":1301,"▁rob":1302,"▁bueno":1303,"encia":1304,"▁obvi":1305,"-e":1306,"g,":1307,"gos":1308,"á,":1309,"▁apa":1310,"▁gas":1311,"▁super":1312,"▁int":1313,"▁deja":1314,"fe":1315,"▁dije":1316,"▁difer":1317,"me,":1318,"▁paso":1319,"▁claro":1320,"ja\r\n":1321,"▁fun":1322,"▁hice":1323,"▁baby\r\n":1324,"▁blun":1325,"una":1326,"▁ciu":1327,"▁nuestro":1328,"pues":1329,"té":1330,"and":1331,"▁cara\r\n":1332,"uela\r\n":1333,"▁uh\r\n":1334,"▁repres":1335,"▁tumbando":1336,"hi":1337,"▁demas":1338,"▁suf":1339,"cer\r\n":1340,"▁puta,":1341,"vos":1342,"▁pos":1343,"▁hor":1344,"▁oh":1345,"▁mal\r\n":1346,"▁empi":1347,"▁olvid":1348,"▁ayu":1349,"▁juego":1350,"▁ves":1351,"tir":1352,"▁don't":1353,"▁pone":1354,"▁corazón":1355,"ed":1356,"▁pin":1357,"cho,":1358,"▁algui":1359,"▁viaj":1360,"▁hacer\r\n":1361,"▁escrib":1362,"▁momento":1363,"ár":1364,"▁tras":1365,"▁ai":1366,"'o":1367,"ty\r\n":1368,"▁esqu":1369,"▁bom":1370,"▁viv":1371,"▁perf":1372,"▁camino":1373,"▁truen":1374,"erto":1375,"ás\r\n":1376,"▁desa":1377,"▁fumo":1378,"▁fuera":1379,"▁muero":1380,"ándome":1381,"▁negro":1382,"ías":1383,"▁dor":1384,"▁mir":1385,"▁¿qui":1386,"▁cuida":1387,"▁person":1388,"i,":1389,"ión\r\n":1390,"▁entr":1391,"▁fren":1392,"▁come":1393,"▁mus":1394,"▁bor":1395,"▁hacerlo":1396,"▁boca":1397,"ve,":1398,"▁blan":1399,"▁compar":1400,"▁cuan":1401,"▁llegar":1402,"▁cans":1403,"▁conmigo\r\n":1404,"▁piens":1405,"uy":1406,"one":1407,"▁dire":1408,"▁vez\r\n":1409,"▁perdón":1410,"ápi":1411,"▁vos\r\n":1412,"▁envi":1413,"▁gir":1414,"▁iba":1415,"▁gana":1416,"▁casa":1417,"▁oro":1418,"▁improvisa":1419,"gar\r\n":1420,"▁lis":1421,"ento,":1422,"amp":1423,"▁estan":1424,"▁alma":1425,"dio":1426,"▁pa'l":1427,"▁pase":1428,"▁aguan":1429,"▁cuatro":1430,"▁cel":1431,"en,":1432,"▁contro":1433,"▁bien,":1434,"encia\r\n":1435,"▁dinero":1436,"cti":1437,"▁puer":1438,"▁vam":1439,"ali":1440,"▁sir":1441,"▁levan":1442,"▁vaya":1443,"▁quiero,":1444,"▁llego":1445,"▁pensar":1446,"▁simple":1447,"▁¿cómo":1448,"▁dormi":1449,"▁habi":1450,"cias":1451,"▁parte":1452,"▁read":1453,"▁infi":1454,"▁pasó":1455,"bir":1456,"▁querés":1457,"▁afue":1458,"ró":1459,"▁ce":1460,"▁cuel":1461,"ala":1462,"ales\r\n":1463,"cio\r\n":1464,"▁arre":1465,"▁rock":1466,"▁hop":1467,"▁romp":1468,"▁whi":1469,"rrum":1470,"▁cualquier":1471,"cre":1472,"h!\r\n":1473,"▁bre":1474,"▁sig":1475,"ame,":1476,"▁muchos":1477,"!!\r\n":1478,"ig":1479,"tá":1480,"▁pl":1481,"ones\r\n":1482,"▁lado":1483,"▁siente":1484,"▁raz":1485,"▁mala":1486,"▁sangre":1487,"pañ":1488,"arme\r\n":1489,"▁nuevo\r\n":1490,"▁suelto":1491,"▁entonces":1492,"ctu":1493,"tó":1494,"▁peli":1495,"ante\r\n":1496,"▁novi":1497,"alo":1498,"omo":1499,"▁ge":1500,"▁yah\r\n":1501,"▁pasar":1502,"▁busca":1503,"▁flow,":1504,"▁sentir":1505,"▁alguien":1506,"▁dando":1507,"▁hum":1508,"▁ben":1509,"▁temp":1510,"▁reci":1511,"▁sacar":1512,"▁baja":1513,"▁rapear":1514,"▁encontrar":1515,"▁mañana":1516,"cor":1517,"▁mío":1518,"▁guar":1519,"▁rompe":1520,"▁palabras":1521,"00":1522,"u\r\n":1523,"va\r\n":1524,"ág":1525,"ía,":1526,"▁pri":1527,"▁meto":1528,"▁tier":1529,"▁this":1530,"ppin":1531,"▁give":1532,"gando":1533,"ha":1534,"ili":1535,"mor":1536,"tiendo":1537,"▁dri":1538,"▁norm":1539,"▁puedes":1540,"▁ganas":1541,"▁escon":1542,"▁abaj":1543,"▁frente":1544,"▁humo":1545,"cta":1546,"ido":1547,"ito\r\n":1548,"mas\r\n":1549,"sy":1550,"▁dos\r\n":1551,"▁adi":1552,"▁hmm":1553,"▁compe":1554,"▁mato":1555,"▁cham":1556,"▁ver\r\n":1557,"▁pide":1558,"▁quiero\r\n":1559,"▁pele":1560,"▁vale":1561,"▁enseñ":1562,"-na":1563,"▁que\r\n":1564,"▁bol":1565,"▁fá":1566,"▁perman":1567,"▁wan":1568,"▁'ta":1569,"▁saco":1570,"és\r\n":1571,"▁plata":1572,"▁todav":1573,"▁voz":1574,"br":1575,"im":1576,"▁sk":1577,"▁años":1578,"▁demos":1579,"▁si,":1580,"▁conci":1581,"▁chan":1582,"cul":1583,"▁esperando":1584,"▁explo":1585,"▁respeto":1586,"eta":1587,"▁mc":1588,"▁segun":1589,"▁tuyo":1590,"melo":1591,"▁capi":1592,"▁salir":1593,"▁campe":1594,"▁cosa":1595,"▁pensando":1596,"▁piso,":1597,"▁escribo":1598,"ther":1599,"▁má'":1600,"cin":1601,"ia\r\n":1602,"oo":1603,"▁án":1604,"▁nota":1605,"▁saber":1606,"▁hizo":1607,"▁lugar":1608,"▁she":1609,"ciones\r\n":1610,"▁rapeo":1611,"▁cuerpo":1612,"▁déj":1613,"des\r\n":1614,"fon":1615,"gún":1616,"▁x":1617,"▁lue":1618,"▁dom":1619,"▁siendo":1620,"▁conta":1621,"le,":1622,"▁oke":1623,"▁cho":1624,"▁traje":1625,"▁podr":1626,"▁pelo":1627,"▁cier":1628,"▁mira,":1629,"▁tiempo\r\n":1630,"▁envidi":1631,"__":1632,"dan":1633,"▁ú":1634,"▁sent":1635,"▁tor":1636,"▁his":1637,"▁digan":1638,"▁algun":1639,"▁caden":1640,"▁pasti":1641,"▁pasado":1642,"▁prefi":1643,"▁fumando":1644,"▁nosotros":1645,"▁fácil":1646,"-n":1647,"ám":1648,"ño,":1649,"▁duer":1650,"all":1651,"ame\r\n":1652,"que\r\n":1653,"▁perder":1654,"▁poca":1655,"▁hablo":1656,"ument":1657,"▁mami\r\n":1658,"▁trap,":1659,"▁nena":1660,"▁cris":1661,"▁seguir":1662,"▁único":1663,"ión":1664,"ton":1665,"▁pel":1666,"▁aque":1667,"esta":1668,"a,\r\n":1669,"▁vida,":1670,"▁tiran":1671,"▁más,":1672,"▁piel":1673,"▁uo":1674,"▁tanta":1675,"▁piso":1676,"mando":1677,"▁dal":1678,"▁viendo":1679,"▁mi\r\n":1680,"▁toca":1681,"▁pido":1682,"▁todo'":1683,"ck\r\n":1684,"▁futu":1685,"▁nadie\r\n":1686,"▁fron":1687,"▁problema":1688,"h-eh\r\n":1689,"-b":1690,"gh":1691,"ye":1692,"▁ñ":1693,"▁cump":1694,"dido":1695,"▁inf":1696,"▁cai":1697,"▁amar":1698,"▁clas":1699,"▁visto":1700,"▁famili":1701,"nos":1702,"▁cli":1703,"▁dale":1704,"▁entra":1705,"▁encan":1706,"▁asi":1707,"▁sé,":1708,"▁cree":1709,"▁flow\r\n":1710,"▁fuego":1711,"▁empez":1712,"▁vivir":1713,"k\r\n":1714,"▁slow":1715,"▁lar":1716,"iente":1717,"llas":1718,"▁ru":1719,"ing,":1720,"▁así\r\n":1721,"bre\r\n":1722,"▁prepar":1723,"▁señor":1724,"bas":1725,"bo\r\n":1726,"eb":1727,"í\r\n":1728,"▁sor":1729,"▁tre":1730,"▁dese":1731,"▁siempre\r\n":1732,"▁volv":1733,"▁comple":1734,"▁verdad,":1735,"▁verdad\r\n":1736,"▁beat":1737,"▁barrio\r\n":1738,"▁primera":1739,"▁papel":1740,"ho":1741,"ara":1742,"▁vino":1743,"ille":1744,"▁hablan":1745,"▁poner":1746,"▁hermano\r\n":1747,"▁what":1748,"▁money":1749,"▁ritmo":1750,"▁oscu":1751,"▁demasi":1752,"'o\r\n":1753,"tum":1754,"▁ham":1755,"esti":1756,"▁mete":1757,"ino\r\n":1758,"ción,":1759,"▁gen":1760,"▁arma":1761,"▁copi":1762,"▁música":1763,"▁afuera":1764,"▁últi":1765,"e'\r\n":1766,"anana":1767,"▁bille":1768,"tis":1769,"mag":1770,"▁¿que":1771,"▁cama":1772,"▁duk":1773,"▁culpa":1774,"▁todavía":1775,"▁demostr":1776,"fr":1777,"m\r\n":1778,"▁atr":1779,"▁haga":1780,"▁oj":1781,"▁quisi":1782,"▁na'\r\n":1783,"▁pillo":1784,"▁así,":1785,"▁sí\r\n":1786,"▁muerte":1787,"▁equivo":1788,"▁know":1789,"▁normal":1790,"cía":1791,"je\r\n":1792,"▁miro":1793,"ales":1794,"cha\r\n":1795,"▁ley":1796,"is\r\n":1797,"▁sube":1798,"▁inv":1799,"▁invi":1800,"▁caus":1801,"▁¿y":1802,"▁acab":1803,"▁corre":1804,"▁¿quién":1805,"ctor":1806,"dés":1807,"gro":1808,"endo\r\n":1809,"▁gil":1810,"▁rey":1811,"melo\r\n":1812,"▁wi":1813,"▁ases":1814,"▁puto":1815,"das,":1816,"▁bueno\r\n":1817,"▁rompo":1818,"▁negro,":1819,"▁chico":1820,"▁puse":1821,"▁perfec":1822,"cto\r\n":1823,"gn":1824,"tt":1825,"x\r\n":1826,"ían":1827,"ome":1828,"▁había":1829,"tur":1830,"▁hous":1831,"▁tampo":1832,"▁quería":1833,"▁días":1834,"▁pierdo":1835,"▁punto":1836,"▁4":1837,"▁vine":1838,"▁flo":1839,"▁imag":1840,"▁¿por":1841,"▁acuer":1842,"▁manos":1843,"▁calle,":1844,"▁traigo":1845,"-o":1846,"▁blo":1847,"▁contes":1848,"ris":1849,"▁quiz":1850,"▁ros":1851,"▁respon":1852,"▁corazón\r\n":1853,"▁guerra":1854,"▁enamor":1855,"-\r\n":1856,"ban":1857,"▁fras":1858,"▁comer":1859,"▁diga":1860,"▁cap":1861,"▁rápi":1862,"▁maldi":1863,"▁mama":1864,"▁escucha":1865,"▁vuelvo":1866,"▁perdí":1867,"▁primero":1868,"▁sueño":1869,"▁instr":1870,"dri":1871,"fu":1872,"za,":1873,"ío\r\n":1874,"▁ment":1875,"▁acer":1876,"erno":1877,"▁hora":1878,"chi":1879,"▁jam":1880,"▁soñ":1881,"▁entiendo":1882,"▁hey,":1883,"▁vuelve":1884,"▁trans":1885,"▁quedar":1886,"▁obviamente":1887,"▁tampoco":1888,"ge":1889,"we":1890,"▁emb":1891,"▁ag":1892,"▁atra":1893,"▁loca":1894,"riendo":1895,"▁inc":1896,"▁mismo\r\n":1897,"▁final":1898,"▁dinero,":1899,"▁tranquilo":1900,"▁baila":1901,"▁shit\r\n":1902,"▁ready":1903,"pli":1904,"ías\r\n":1905,"lo'":1906,"▁gui":1907,"▁algún":1908,"▁tenemos":1909,"▁putas":1910,"▁acti":1911,"▁aman":1912,"eza\r\n":1913,"▁primer":1914,"▁fucking":1915,"▁realidad":1916,"▁club\r\n":1917,"▁humi":1918,"fa":1919,"▁atre":1920,"▁sil":1921,"entar":1922,"▁ricto":1923,"▁roll":1924,"▁vuelta":1925,"▁flas":1926,"▁tarde\r\n":1927,"▁ningun":1928,"▁record":1929,"▁permanent":1930,"▁histor":1931,"mán":1932,"▁tro":1933,"▁ata":1934,"ena":1935,"▁espe":1936,"▁esqui":1937,"▁sient":1938,"▁diez":1939,"▁otros":1940,"▁vio":1941,"▁kil":1942,"▁mamá":1943,"▁full":1944,"▁compr":1945,"ado,":1946,"▁tomo":1947,"▁conmigo,":1948,"▁auto":1949,"▁micro":1950,"▁brin":1951,"▁confun":1952,"▁music":1953,"tos,":1954,"▁mens":1955,"▁lado\r\n":1956,"▁boy":1957,"▁fan":1958,"▁loco,":1959,"▁salu":1960,"▁sino":1961,"▁busco":1962,"▁movi":1963,"▁that":1964,"▁noche\r\n":1965,"▁toma":1966,"▁aquí\r\n":1967,"▁doble":1968,"▁cambio":1969,"▁one":1970,"▁palabra":1971,"▁espero":1972,"▁cosculluela":1973,"▁cuello":1974,"▁instrument":1975,"bu":1976,"r,":1977,"▁mos":1978,"▁aún":1979,"▁espa":1980,"▁gente\r\n":1981,"▁digas":1982,"▁party":1983,"▁alcan":1984,"▁cuán":1985,"▁jaj":1986,"▁será":1987,"▁lleva":1988,"▁uh":1989,"▁uh-":1990,"▁saca":1991,"ico\r\n":1992,"▁luz\r\n":1993,"▁problemas":1994,"▁dale,":1995,"▁vue":1996,"▁ene":1997,"▁bru":1998,"▁unos":1999,"▁parar":2000,"▁parti":2001,"▁il":2002,"▁deses":2003,"▁pasa,":2004,"▁enter":2005,"ter\r\n":2006,"▁rap,":2007,"▁buena":2008,"▁shor":2009,"▁flex,":2010,"▁miedo":2011,"▁favor":2012,"bli":2013,"pe\r\n":2014,"▁lun":2015,"▁quedo":2016,"▁bum":2017,"▁fer":2018,"▁confi":2019,"▁oh-o":2020,"tic":2021,"▁rela":2022,"▁rebo":2023,"▁tir":2024,"▁na'":2025,"▁cie":2026,"fici":2027,"▁regal":2028,"▁interes":2029,"▁ningún":2030,"▁contigo":2031,"▁gela":2032,"▁fronte":2033,"-p":2034,"idad\r\n":2035,"las\r\n":2036,"tón\r\n":2037,"ura":2038,"yas":2039,"▁er":2040,"▁cá":2041,"▁que,":2042,"▁dif":2043,"▁paz":2044,"▁cuar":2045,"cula":2046,"▁vai":2047,"▁entro":2048,"▁cielo\r\n":2049,"▁muere":2050,"▁trapp":2051,"▁conoce":2052,"▁feel":2053,"▁usted":2054,"ke\r\n":2055,"r.":2056,"▁avi":2057,"ano\r\n":2058,"oni":2059,"▁no'":2060,"ina,":2061,"▁loco\r\n":2062,"▁comi":2063,"▁dices":2064,"cado":2065,"res\r\n":2066,"▁descon":2067,"llas\r\n":2068,"▁perre":2069,"▁vers":2070,"▁canto":2071,"▁modo":2072,"▁boo":2073,"▁duro":2074,"▁juego\r\n":2075,"▁amor,":2076,"▁puesto":2077,"▁chapi":2078,"▁darle":2079,"▁diablo":2080,"▁minuti":2081,"▁err":2082,"▁mando":2083,"▁mmm":2084,"▁lan":2085,"▁año":2086,"▁eso'":2087,"ona\r\n":2088,"▁ocu":2089,"▁soy\r\n":2090,"▁sac":2091,"▁corta":2092,"▁disco":2093,"▁cielo":2094,"ble\r\n":2095,"▁papá":2096,"▁color":2097,"▁bebé\r\n":2098,"▁grande":2099,"▁nigga\r\n":2100,"▁mere":2101,"▁ciudad":2102,"ple":2103,"▁avis":2104,"raz":2105,"▁tema":2106,"▁comb":2107,"iento":2108,"▁estru":2109,"▁carr":2110,"▁venir":2111,"▁gang":2112,"▁mother":2113,"▁bote":2114,"▁mejor\r\n":2115,"▁cinco":2116,"▁justo":2117,"▁cues":2118,"eno\r\n":2119,"▁hater":2120,"▁gar":2121,"▁yeh":2122,"ck,":2123,"▁up,":2124,"tura":2125,"▁ayer":2126,"▁droga,":2127,"▁quedan":2128,"▁allá":2129,"-e-":2130,"▁mensaj":2131,"▁desesper":2132,"▁estructu":2133,"-tu":2134,"he":2135,"ica":2136,"tun":2137,"wn":2138,"ó,":2139,"▁deb":2140,"▁fon":2141,"▁tuy":2142,"enta\r\n":2143,"▁tipo":2144,"▁mía\r\n":2145,"▁acos":2146,"▁ropa":2147,"▁hecho":2148,"▁fuego\r\n":2149,"▁dice:":2150,"▁hombre":2151,"▁acep":2152,"▁oye":2153,"▁trueno":2154,"!!":2155,"pas":2156,"▁día\r\n":2157,"▁dec":2158,"▁culo,":2159,"▁ide":2160,"▁tirar":2161,"coh":2162,"▁quiera":2163,"▁prrrum":2164,"▁hoo":2165,"▁cabeza":2166,"▁noches":2167,"▁chain":2168,"▁despier":2169,"▁luego":2170,"▁demasiado":2171,"fuck":2172,"k,":2173,"ler":2174,"m,":2175,"mer":2176,"▁3":2177,"▁có":2178,"end":2179,"oso":2180,"▁siqui":2181,"▁sex":2182,"▁haces":2183,"▁dio":2184,"▁out":2185,"▁pagan":2186,"▁tenga":2187,"▁descan":2188,"▁may":2189,"▁vos,":2190,"▁mierda\r\n":2191,"▁nuev":2192,"▁cuento":2193,"▁gracias":2194,"▁dinero\r\n":2195,"▁micró":2196,"▁micrófon":2197,".r.":2198,"dor\r\n":2199,"gos\r\n":2200,"l,":2201,"ly":2202,"tien":2203,"▁tari":2204,"▁az":2205,"▁me\r\n":2206,"▁bla":2207,"cido":2208,"▁esto,":2209,"▁subir":2210,"▁salam":2211,"▁hijos":2212,"▁manten":2213,"▁liber":2214,"sión\r\n":2215,"tes,":2216,"▁noche,":2217,"▁flor":2218,"▁guapo,":2219,"▁cereb":2220,"▁fuiste":2221,"▁millon":2222,"▁vamo":2223,"▁humil":2224,"hu":2225,"ne":2226,"▁sw":2227,"▁toy":2228,"▁ade":2229,"▁me,":2230,"▁fas":2231,"▁fir":2232,"▁diam":2233,"▁tenía":2234,"▁ti,":2235,"▁madre":2236,"▁aho":2237,"▁rum":2238,"▁cara,":2239,"▁mierda,":2240,"▁ayer\r\n":2241,"▁money,":2242,"▁encuentro":2243,"▁quin":2244,"▁quizás":2245,"▁silenci":2246,"▁siquiera":2247,"&amp":2248,"bar":2249,"bol":2250,"eta\r\n":2251,"gl":2252,"ka\r\n":2253,"ocu":2254,"se\r\n":2255,"▁tí":2256,"▁tin":2257,"▁quedas":2258,"▁eso,":2259,"on,":2260,"▁estil":2261,"▁paro":2262,"▁alcoh":2263,"▁vive":2264,"melo,":2265,"▁desc":2266,"▁caz":2267,"▁pasan":2268,"▁puro":2269,"tar,":2270,"▁lugar\r\n":2271,"▁calle\r\n":2272,"▁chica":2273,"▁seguro":2274,"▁felici":2275,"▁novio":2276,"&amp;":2277,"fe,":2278,"gel":2279,"jo,":2280,"ker":2281,"tán":2282,"uh":2283,"uyo":2284,"zco":2285,"ícil":2286,"▁ev":2287,"uela,":2288,"▁consi":2289,"▁yah,":2290,"entro\r\n":2291,"▁na',":2292,"▁ma',":2293,"▁sola":2294,"▁ahora\r\n":2295,"▁ren":2296,"▁¿s":2297,"▁calien":2298,"▁prendo":2299,"▁compren":2300,"▁pesa":2301,"▁sueno":2302,"▁derri":2303,"▁argentina":2304,"▁intent":2305,"▁simplemente":2306,"▁hmm,":2307,"▁difícil":2308,"▁&amp;":2309,"▁mé":2310,"▁smo":2311,"▁len":2312,"▁cr":2313,"▁fra":2314,"ta'":2315,"▁convi":2316,"▁conse":2317,"▁esté":2318,"tica\r\n":2319,"dir":2320,"▁tirando":2321,"▁capa":2322,"▁estamo'":2323,"mos,":2324,"▁caraj":2325,"▁malo":2326,"▁exis":2327,"▁propi":2328,"▁compli":2329,"▁vienen":2330,"▁to'a":2331,"▁guapo":2332,"▁fiesta":2333,"▁beso":2334,"▁ahí\r\n":2335,"▁puso":2336,"▁cabrón":2337,"▁nigga":2338,"▁dijeron":2339,"▁funer":2340,"▁cuanto":2341,"▁motherfuck":2342,"▁salamand":2343,"▁alcohol":2344,"ba,":2345,"jer\r\n":2346,"nos\r\n":2347,"ras\r\n":2348,"▁za":2349,"▁evi":2350,"▁pú":2351,"▁tru":2352,"▁darte":2353,"▁aqui":2354,"ena\r\n":2355,"▁vari":2356,"▁enfr":2357,"▁siento\r\n":2358,"▁op":2359,"cha,":2360,"quen":2361,"▁wuh\r\n":2362,"▁mujer\r\n":2363,"▁ganar\r\n":2364,"▁serio":2365,"▁manda":2366,"▁hables":2367,"tas,":2368,"uestro":2369,"▁pasado\r\n":2370,"▁nena,":2371,"▁20":2372,"▁bailando":2373,"▁batalla":2374,"▁infierno":2375,"wo":2376,"▁mía":2377,"▁lin":2378,"▁dep":2379,"▁meti":2380,"▁bel":2381,"▁bur":2382,"▁miran":2383,"▁yo'\r\n":2384,"amos\r\n":2385,"loque":2386,"▁pag":2387,"dió":2388,"▁sabés":2389,"▁nie":2390,"▁ante":2391,"▁sador":2392,"▁preocu":2393,"▁jura":2394,"▁heri":2395,"▁got":2396,"▁rapeando":2397,"▁quedó":2398,"▁criti":2399,"▁bailar":2400,"▁muchas":2401,"▁show":2402,"▁chica,":2403,"éndome":2404,"▁wanna":2405,"▁amane":2406,"dando":2407,"tal\r\n":2408,"zc":2409,"▁ech":2410,"anan":2411,"ini":2412,"▁contar":2413,"da'":2414,"able":2415,"▁padre":2416,"▁ma'":2417,"▁cae":2418,"▁verte":2419,"▁pie":2420,"▁haber":2421,"▁tú,":2422,"ense":2423,"▁jugar":2424,"▁tarde":2425,"▁preguntan":2426,"▁cualquiera\r\n":2427,"▁flex\r\n":2428,"▁agarro":2429,"▁recuerdo":2430,"▁ciudad\r\n":2431,"▁aquel":2432,"▁quisiera":2433,"ep":2434,"jas":2435,"ment":2436,"▁dam":2437,"ana,":2438,"▁fla":2439,"▁uni":2440,"▁hagas":2441,"▁viol":2442,"▁inte":2443,"▁cay":2444,"▁niño":2445,"▁pueb":2446,"▁pobre":2447,"▁salí":2448,"▁mane":2449,"tua":2450,"▁prof":2451,"▁sola\r\n":2452,"▁gote":2453,"▁pista":2454,"▁muerto":2455,"▁cambiar":2456,"▁cerca":2457,"▁amigos":2458,"▁nivel\r\n":2459,"▁empiez":2460,"▁sirve":2461,"-tu-tu":2462,"ah\r\n":2463,"ty,":2464,"uvi":2465,"▁suer":2466,"▁crim":2467,"▁dien":2468,"▁enro":2469,"und":2470,"▁bos":2471,"▁under":2472,"o,\r\n":2473,"▁tendr":2474,"▁vivo\r\n":2475,"▁subo":2476,"▁ah-a":2477,"▁puta\r\n":2478,"lig":2479,"▁up":2480,"▁orgu":2481,"▁freestyle\r\n":2482,"▁claro\r\n":2483,"▁morir\r\n":2484,"▁vieja":2485,"▁sorp":2486,"ananau,":2487,"▁enemi":2488,"▁liberta":2489,"ac":2490,"fic":2491,"so\r\n":2492,"uh-":2493,"xi":2494,"▁,":2495,"▁eter":2496,"osi":2497,"▁bro\r\n":2498,"tado":2499,"▁todo\r\n":2500,"▁mad":2501,"▁war":2502,"▁¿no":2503,"der,":2504,"▁hey":2505,"▁respi":2506,"▁solo\r\n":2507,"▁casti":2508,"▁olor":2509,"▁andamos":2510,"▁dime,":2511,"▁amigo":2512,"▁marihu":2513,"▁posi":2514,"▁empieza":2515,"ppin',":2516,"▁podría":2517,"▁familia":2518,"▁lí":2519,"eno":2520,"▁enloque":2521,"▁mirar":2522,"▁haz":2523,"chos":2524,"▁party\r\n":2525,"dido\r\n":2526,"ás,":2527,"▁desta":2528,"▁misma":2529,"▁pura":2530,"▁hit":2531,"▁sincer":2532,"▁manera":2533,"▁libre":2534,"▁rapper":2535,"▁ponen":2536,"▁fall":2537,"▁big":2538,"▁nueva":2539,"▁weón":2540,"▁talento":2541,"▁arriba\r\n":2542,"▁gata":2543,"ppin'":2544,"▁papi,":2545,"▁chupa":2546,"▁it's":2547,"▁moles":2548,"▁encanta":2549,"▁demostrar":2550,"for":2551,"io,":2552,"ko":2553,"no\r\n":2554,"▁ego":2555,"▁mezc":2556,"▁conver":2557,"date":2558,"demos":2559,"▁quieras":2560,"▁vací":2561,"▁¿d":2562,"quito":2563,"▁venga":2564,"▁todo,":2565,"▁cog":2566,"ario,":2567,"▁'tá":2568,"tan\r\n":2569,"▁boca\r\n":2570,"▁disf":2571,"▁juga":2572,"▁perdiendo":2573,"▁perdón,":2574,"▁piso\r\n":2575,"▁-ín":2576,"▁querer":2577,"▁olvidar":2578,"kill":2579,"▁polic":2580,"▁contigo\r\n":2581,"▁escapar":2582,"▁esquina":2583,"▁improvisación\r\n":2584,"▁pelí":2585,"cent":2586,"ke,":2587,"ura\r\n":2588,"▁luna":2589,"▁quemando":2590,"▁temas":2591,"▁cont":2592,"am\r\n":2593,"che\r\n":2594,"▁matar\r\n":2595,"▁ina":2596,"uera\r\n":2597,"▁muri":2598,"▁pudi":2599,"▁exper":2600,"▁corri":2601,"▁casa\r\n":2602,"▁pisto":2603,"▁romper":2604,"▁igual\r\n":2605,"▁decirte":2606,"▁estudi":2607,"▁escenario\r\n":2608,"▁ninguno":2609,"vien":2610,"ña\r\n":2611,"▁mente\r\n":2612,"▁skill":2613,"▁c.r.":2614,"▁tren":2615,"▁debe":2616,"▁bando":2617,"▁far":2618,"cis":2619,"▁compañ":2620,"aban":2621,"▁pa,":2622,"▁relo":2623,"▁real\r\n":2624,"olu":2625,"▁visi":2626,"▁jor":2627,"▁sua":2628,"llos":2629,"▁perder\r\n":2630,"▁vein":2631,"▁pidiendo":2632,"▁ark":2633,"▁tú\r\n":2634,"▁mano\r\n":2635,"▁mover":2636,"▁distin":2637,"▁mirada":2638,"▁apun":2639,"▁hote":2640,"▁andamo'":2641,"ín\r\n":2642,"▁guerra\r\n":2643,"▁canser":2644,"▁abajo":2645,"▁leyen":2646,"▁fantas":2647,"▁minutito,":2648,"▁smoke":2649,"bri":2650,"car\r\n":2651,"hon":2652,"jar":2653,"rari":2654,"vos\r\n":2655,"ús":2656,"▁cue":2657,"▁cero":2658,"▁aco":2659,"▁ave":2660,"▁agra":2661,"▁ello'":2662,"▁meter":2663,"▁diciendo":2664,"▁oí":2665,"▁tuve":2666,"▁toque":2667,"de'":2668,"cep":2669,"▁viste":2670,"▁le'":2671,"▁desper":2672,"▁lasti":2673,"lli":2674,"▁hable":2675,"▁llegan":2676,"▁lluvi":2677,"▁mal,":2678,"▁coca":2679,"gua":2680,"▁rap\r\n":2681,"tante\r\n":2682,"▁buenos":2683,"▁perdon":2684,"▁barrio,":2685,"▁bebé,":2686,"▁tony":2687,"▁cabrón\r\n":2688,"▁necesito":2689,"▁golpe":2690,"▁blunt,":2691,"▁tierra":2692,"-na-n":2693,"▁'tamo'":2694,"▁chapi,":2695,"▁gangs":2696,"▁micrófono":2697,"boy":2698,"les\r\n":2699,"val":2700,"…\r\n":2701,"▁ví":2702,"un,":2703,"▁unas":2704,"▁yo',":2705,"▁get":2706,"▁tum":2707,"▁tenes":2708,"▁ver,":2709,"▁tramp":2710,"▁cama\r\n":2711,"▁tantas":2712,"▁prome":2713,"▁need":2714,"▁buscan":2715,"▁jugando":2716,"▁menor":2717,"▁volvi":2718,"▁monta":2719,"▁escucho":2720,"▁tiempo,":2721,"arme,":2722,"▁decime":2723,"▁muerte\r\n":2724,"▁valor":2725,"▁volver\r\n":2726,"▁tonto,":2727,"▁punta":2728,"▁adentro":2729,"h-oh\r\n":2730,"▁explicar":2731,"▁futuro":2732,"▁ferrari":2733,"▁booty":2734,"▁intelig":2735,"-s":2736,"-ta":2737,"dero":2738,"ete":2739,"má":2740,"pan":2741,"ría":2742,"tí":2743,"yea":2744,"▁5":2745,"▁nub":2746,"▁mi'":2747,"▁mirando":2748,"in',":2749,"▁secre":2750,"▁comien":2751,"▁ou":2752,"▁tocar":2753,"ce'":2754,"▁viern":2755,"▁rato":2756,"ente,":2757,"▁sabe\r\n":2758,"▁verme":2759,"▁rico":2760,"▁artis":2761,"▁sonando":2762,"▁acom":2763,"▁code":2764,"..\r\n":2765,"▁nego":2766,"▁respues":2767,"▁improvisando":2768,"▁zig":2769,"▁afuera\r\n":2770,"▁claro,":2771,"▁pregunta":2772,"▁fama":2773,"▁bitch\r\n":2774,"▁viejo":2775,"▁despierto":2776,"▁hiciste":2777,"▁esquina\r\n":2778,"ámon":2779,"▁atrevi":2780,"▁vuelo":2781,"▁fondo":2782,"▁estilo\r\n":2783,"\",":2784,"gas\r\n":2785,"rá":2786,"ál":2787,"▁ella\r\n":2788,"in,":2789,"▁hacia":2790,"▁oka":2791,"▁rez":2792,"▁remi":2793,"▁vi\r\n":2794,"▁destr":2795,"▁nave":2796,"▁chis":2797,"▁pueda":2798,"▁voy\r\n":2799,"▁¿a":2800,"▁mía,":2801,"▁salv":2802,"▁arro":2803,"lidad":2804,"▁pego":2805,"dos,":2806,"▁tantos":2807,"▁mamá\r\n":2808,"ensa":2809,"▁sol\r\n":2810,"▁quiere'":2811,"▁plaka":2812,"▁tomar":2813,"▁trap\r\n":2814,"▁oro\r\n":2815,"▁flui":2816,"▁fluy":2817,"▁conocen":2818,"▁guapo\r\n":2819,"▁zar":2820,"▁estilo,":2821,"▁nuestra":2822,"▁know\r\n":2823,"▁llegó":2824,"▁hard":2825,"▁foto":2826,"▁miedo\r\n":2827,"▁habita":2828,"▁slow\r\n":2829,"▁decís":2830,"▁¿dónde":2831,"cab":2832,"cos\r\n":2833,"f,":2834,"uh,":2835,"▁pra":2836,"▁abo":2837,"▁eso\r\n":2838,"▁dedi":2839,"▁detr":2840,"▁hon":2841,"▁fri":2842,"▁loca\r\n":2843,"▁glo":2844,"iento\r\n":2845,"▁quie":2846,"▁vi,":2847,"▁nací":2848,"▁ahor":2849,"▁¿cu":2850,"▁mío\r\n":2851,"▁siempre,":2852,"▁ser\r\n":2853,"▁llegue":2854,"▁dejó":2855,"▁bob":2856,"▁dice,":2857,"h-ye":2858,"▁vez,":2859,"▁play":2860,"ezco":2861,"adas\r\n":2862,"▁money\r\n":2863,"▁mañana\r\n":2864,"▁bitch,":2865,"erno\r\n":2866,"▁lleno":2867,"▁bendi":2868,"-po,":2869,"lar,":2870,"ves":2871,"▁sti":2872,"▁lento\r\n":2873,"▁aten":2874,"▁env":2875,"▁ener":2876,"▁fil":2877,"▁sido":2878,"▁gh":2879,"▁subi":2880,"▁caer":2881,"▁perra":2882,"▁pill":2883,"▁peg":2884,"tera":2885,"▁canta":2886,"▁life,":2887,"illo":2888,"▁hablas":2889,"▁hacemos":2890,"▁coron":2891,"▁hey\r\n":2892,"den\r\n":2893,"▁abri":2894,"▁droga\r\n":2895,"▁buscar\r\n":2896,"▁joven":2897,"▁wee":2898,"▁escuchando":2899,"▁cuerpo\r\n":2900,"▁wacho":2901,"▁diablo\r\n":2902,"▁acel":2903,"miento\r\n":2904,"▁raperos":2905,"▁recién":2906,"▁mostr":2907,"▁acostum":2908,"ananau,n":2909,"▁zigza":2910,"-r":2911,"-no":2912,"at\r\n":2913,"bamos":2914,"lando":2915,"▁6":2916,"▁dos,":2917,"ere":2918,"▁ner":2919,"▁mi,":2920,"oma":2921,"cio,":2922,"▁dicho":2923,"aba\r\n":2924,"▁pate":2925,"▁ign":2926,"▁repar":2927,"▁ley\r\n":2928,"▁sur":2929,"▁despe":2930,"▁mai":2931,"▁caer\r\n":2932,"▁¿o":2933,"▁sería":2934,"tura\r\n":2935,"▁back":2936,"▁corto":2937,"▁sold":2938,"▁hago,":2939,"viste":2940,"▁your":2941,"▁rapea":2942,"▁piensa":2943,"▁andar":2944,"▁también\r\n":2945,"▁brillo":2946,"▁encima\r\n":2947,"▁regga":2948,"▁guerr":2949,"▁prende":2950,"▁equipo":2951,"▁chico,":2952,"▁dijiste":2953,"▁gordo":2954,"▁diferencia":2955,"▁ayuda":2956,"▁dormir\r\n":2957,"▁brea":2958,"▁prefiero":2959,"king":2960,"▁té":2961,"▁y\r\n":2962,"arle":2963,"▁va,":2964,"este":2965,"ami":2966,"▁dile":2967,"▁dios\r\n":2968,"ques":2969,"▁tengo\r\n":2970,"▁vir":2971,"▁let":2972,"▁ray":2973,"▁mat":2974,"▁nike":2975,"▁veo\r\n":2976,"▁verso":2977,"▁piden":2978,"▁salen":2979,"▁vengan":2980,"▁mala,":2981,"▁pró":2982,"▁existe":2983,"para":2984,"▁hablar\r\n":2985,"▁moti":2986,"▁apues":2987,"▁mejores":2988,"▁sabe'":2989,"▁bizar":2990,"▁primero\r\n":2991,"▁voz\r\n":2992,"▁media":2993,"▁after":2994,"▁insis":2995,"▁junto":2996,"▁odio":2997,"▁luz,":2998,"▁sufri":2999,"▁siguen":3000,"cci":3001,"e',":3002,"min":3003,"ros\r\n":3004,"ste\r\n":3005,"▁das":3006,"▁ysy":3007,"arte\r\n":3008,"▁meta":3009,"ra'":3010,"▁love":3011,"▁digo\r\n":3012,"▁joy":3013,"▁trata":3014,"tra\r\n":3015,"▁po-po,":3016,"▁arran":3017,"▁canciones":3018,"▁fuma":3019,"▁corte":3020,"tante":3021,"és,":3022,"▁escupo":3023,"▁marci":3024,"▁tamo'":3025,"▁toda'":3026,"▁fluyo":3027,"▁suelta":3028,"▁brilla":3029,"▁fuerte":3030,"▁huevos":3031,"▁nombre\r\n":3032,"▁feliz":3033,"▁escap":3034,"▁extrañ":3035,"▁rompiendo":3036,"▁alguna":3037,"▁killa":3038,"▁instrumental\r\n":3039,"▁crimin":3040,"dien":3041,"llo,":3042,"ís\r\n":3043,"▁pp":3044,"▁stre":3045,"▁dto":3046,"▁dentro\r\n":3047,"▁are":3048,"▁bon":3049,"▁fol":3050,"▁si\r\n":3051,"▁ocas":3052,"▁esto\r\n":3053,"▁parto":3054,"ust":3055,"▁red":3056,"▁tiras":3057,"▁naci":3058,"▁wor":3059,"▁trago":3060,"▁ano":3061,"▁rimas\r\n":3062,"▁ganando":3063,"▁mand":3064,"án\r\n":3065,"▁hablamos":3066,"▁prob":3067,"▁compro":3068,"▁mono":3069,"▁cabeza\r\n":3070,"ándote\r\n":3071,"▁día,":3072,"▁nene":3073,"▁somo'":3074,"▁clavo":3075,"▁wach":3076,"▁24":3077,"▁piern":3078,"▁pende":3079,"▁show\r\n":3080,"▁termina":3081,"▁necesi":3082,"▁derro":3083,"▁agarra":3084,"▁messi":3085,"▁buscar,":3086,"▁qua":3087,"▁with":3088,"▁jamás":3089,"▁actitu":3090,"-c":3091,"aa":3092,"av":3093,"gía":3094,"ido\r\n":3095,"lé":3096,"mis":3097,"nes":3098,"no,":3099,"pa,":3100,"zas":3101,"▁pág":3102,"▁senta":3103,"▁lín":3104,"▁cen":3105,"▁at":3106,"eras":3107,"antes":3108,"▁vin":3109,"▁labi":3110,"▁tex":3111,"▁seman":3112,"▁hago\r\n":3113,"▁die":3114,"▁tur":3115,"▁pad":3116,"tica":3117,"▁cura":3118,"▁ice,":3119,"▁ref":3120,"ola\r\n":3121,"▁letras":3122,"▁delin":3123,"▁sobra":3124,"▁anim":3125,"aje":3126,"aje\r\n":3127,"▁sale\r\n":3128,"▁carga":3129,"▁venez":3130,"▁gang\r\n":3131,"▁arte":3132,"velo":3133,"teri":3134,"tera\r\n":3135,"▁creen":3136,"▁dont":3137,"▁corro":3138,"▁bardero":3139,"▁apro":3140,"▁pali":3141,"▁biza":3142,"▁decir\r\n":3143,"▁nuevo,":3144,"▁escribi":3145,"▁muerto\r\n":3146,"▁olvido":3147,"▁10":3148,"▁gritan":3149,"▁triple":3150,"▁agua":3151,"▁entender":3152,"▁perdido":3153,"▁principi":3154,"▁mujeres":3155,"▁blunt":3156,"▁aire":3157,"▁segundo":3158,"▁capital":3159,"▁pelotu":3160,"▁adelan":3161,"▁disfru":3162,"▁tumba":3163,"▁ghet":3164,"▁reggaet":3165,"be\r\n":3166,"bran":3167,"día":3168,"et\r\n":3169,"f\r\n":3170,"sa\r\n":3171,"▁tos":3172,"▁ya\r\n":3173,"▁hun":3174,"▁enfer":3175,"▁memor":3176,"inas":3177,"tate":3178,"▁locu":3179,"▁parte\r\n":3180,"▁tene":3181,"▁culi":3182,"entos":3183,"▁velo":3184,"▁va'":3185,"▁rui":3186,"dades":3187,"▁mío'":3188,"quis":3189,"▁arru":3190,"▁pegar":3191,"▁creer":3192,"▁escuela\r\n":3193,"▁hacerte":3194,"sión":3195,"▁resuel":3196,"▁barde":3197,"▁fuego,":3198,"▁produ":3199,"▁faltan":3200,"▁compra":3201,"▁apri":3202,"▁plata,":3203,"▁esperan":3204,"▁conoci":3205,"▁gati":3206,"▁huele":3207,"▁cosculluela\r\n":3208,"▁argentina\r\n":3209,"▁directo":3210,"▁celul":3211,"▁abajo\r\n":3212,"▁competi":3213,"▁okey\r\n":3214,"▁reloj":3215,"▁arkano":3216,"▁viernes":3217,"▁pprrum":3218,"2\r\n":3219,"bro":3220,"bel":3221,"gas,":3222,"her":3223,"pos":3224,"rar\r\n":3225,"ser":3226,"tino":3227,"uc":3228,"▁tw":3229,"▁dj":3230,"▁a.":3231,"▁añ":3232,"▁vent":3233,"▁vas\r\n":3234,"oro":3235,"▁cone":3236,"▁contando":3237,"lado":3238,"▁destro":3239,"▁mag":3240,"▁mate":3241,"▁veces\r\n":3242,"▁pies\r\n":3243,"▁vacil":3244,"▁cari":3245,"▁hielo":3246,"▁sonar":3247,"▁code,":3248,"dera\r\n":3249,"▁mamá,":3250,"▁hacer,":3251,"▁buenas":3252,"▁bajar":3253,"▁palo":3254,"▁to's":3255,"▁vueltas":3256,"▁mundo\r\n":3257,"▁expres":3258,"portun":3259,"▁dímelo\r\n":3260,"▁dímelo,":3261,"▁escuchar":3262,"▁suelo":3263,"▁pussy":3264,"tino\r\n":3265,"▁entendés":3266,"▁aparte,":3267,"▁entiende":3268,"▁shit":3269,"▁enamora":3270,"▁oye,":3271,"▁tierra\r\n":3272,"▁hmm\r\n":3273,"▁skr":3274,"▁ángel":3275,"▁déjame":3276,"▁envidia":3277,"▁acuerdo":3278,"▁bloo":3279,"▁rápido":3280,"▁cuánto":3281,"▁ilum":3282,"▁líri":3283,"▁agrade":3284,"▁bizarra":3285,"▁delincuen":3286,"cé":3287,"cal":3288,"ece":3289,"x,":3290,"▁ever":3291,"▁phi":3292,"▁senci":3293,"▁dr":3294,"▁dá":3295,"▁lam":3296,"▁bra":3297,"▁mira\r\n":3298,"ine\r\n":3299,"▁fe\r\n":3300,"▁love\r\n":3301,"ombi":3302,"▁situa":3303,"▁conden":3304,"dado":3305,"cia,":3306,"▁gon":3307,"▁papa":3308,"▁payas":3309,"▁cur":3310,"▁it\r\n":3311,"▁desn":3312,"▁cago":3313,"▁estado":3314,"▁pasar\r\n":3315,"▁ran":3316,"▁rique":3317,"▁pul":3318,"▁peda":3319,"▁calma":3320,"tarme":3321,"▁canción\r\n":3322,"▁deje":3323,"▁limp":3324,"▁corr":3325,"▁gucci":3326,"▁tiempos":3327,"▁from":3328,"▁empres":3329,"▁real,":3330,"▁gente,":3331,"▁besos":3332,"▁pantal":3333,"▁sentimien":3334,"▁grita":3335,"▁triste":3336,"▁million":3337,"▁jai":3338,"▁demasia":3339,"▁sufrim":3340,"▁aire\r\n":3341,"▁pelig":3342,"____":3343,"▁último":3344,"▁atrás":3345,"--":3346,"-ho":3347,"3\r\n":3348,"cus":3349,"fo":3350,"mente\r\n":3351,"oh\r\n":3352,"pu":3353,"á'\r\n":3354,"▁my,":3355,"▁sú":3356,"▁spor":3357,"▁aj":3358,"▁ay\r\n":3359,"▁es\r\n":3360,"▁nomb":3361,"▁bús":3362,"▁una\r\n":3363,"▁siento,":3364,"cito":3365,"▁pagar":3366,"▁paz\r\n":3367,"▁toa'":3368,"▁alto":3369,"ti\r\n":3370,"▁rey\r\n":3371,"▁jes":3372,"▁yeh-ye":3373,"tru":3374,"▁vapor":3375,"▁ré":3376,"▁sonri":3377,"▁peor":3378,"▁cot":3379,"▁cole":3380,"▁creo\r\n":3381,"to,\r\n":3382,"amos,":3383,"▁resul":3384,"▁llamo":3385,"▁fort":3386,"▁terr":3387,"ándole":3388,"▁mientra'":3389,"▁fek":3390,"▁volverte":3391,"▁fumar":3392,"▁sentido\r\n":3393,"▁cualquiera":3394,"▁dolor\r\n":3395,"▁dere":3396,"▁baila,":3397,"▁escenario":3398,"▁duele":3399,"▁rapero\r\n":3400,"▁favor,":3401,"▁represent":3402,"▁bomba":3403,"▁directa":3404,"▁infierno\r\n":3405,"▁explota":3406,"▁domin":3407,"▁hambre":3408,"▁tarima\r\n":3409,"▁azul":3410,"▁canserb":3411,"▁hardcor":3412,"▁bardero$":3413,"ao":3414,"bal":3415,"cas\r\n":3416,"cón\r\n":3417,"jos\r\n":3418,"lla,":3419,"pero":3420,"tando\r\n":3421,"tre\r\n":3422,"uh!\r\n":3423,"ví":3424,"▁eu":3425,"▁eran":3426,"▁eh-eh\r\n":3427,"▁llo":3428,"▁ya,":3429,"▁quema":3430,"oso\r\n":3431,"▁deto":3432,"▁decí":3433,"▁nova":3434,"▁há":3435,"▁bro,":3436,"▁concep":3437,"▁hag":3438,"▁gal":3439,"▁gru":3440,"▁toc":3441,"▁to'\r\n":3442,"▁cuad":3443,"dio\r\n":3444,"▁vide":3445,"▁leg":3446,"▁jar":3447,"▁ja\r\n":3448,"tran":3449,"▁vay":3450,"▁pow":3451,"▁podés":3452,"arios\r\n":3453,"▁tanto\r\n":3454,"▁can\r\n":3455,"il\r\n":3456,"▁imper":3457,"▁duki":3458,"▁vuelve,":3459,"▁pensar\r\n":3460,"▁frente\r\n":3461,"▁escribir":3462,"▁cuenta\r\n":3463,"▁juego,":3464,"▁chain\r\n":3465,"▁clap":3466,"▁amigo\r\n":3467,"▁inspi":3468,"▁gato":3469,"▁regres":3470,"▁woh\r\n":3471,"▁má',":3472,"▁culpa\r\n":3473,"▁tres\r\n":3474,"▁chicos":3475,"▁nosotro":3476,"▁alej":3477,"▁llevar":3478,"▁recordar":3479,"▁estrella":3480,"▁brillar":3481,"▁girl\r\n":3482,"▁ñen":3483,"▁flash":3484,"▁versos":3485,"▁¿sab":3486,"▁tenemo'":3487,"-li":3488,"egu":3489,"ie":3490,"n\r\n":3491,"ud":3492,"▁...\r\n":3493,"▁mero":3494,"▁sna":3495,"▁cero\r\n":3496,"▁do'":3497,"▁nar":3498,"▁dev":3499,"▁eno":3500,"▁mita":3501,"ales,":3502,"tado\r\n":3503,"▁tele":3504,"▁convien":3505,"ama":3506,"▁sel":3507,"▁compi":3508,"▁combo":3509,"▁ola":3510,"chu":3511,"▁toca\r\n":3512,"▁pararme":3513,"usti":3514,"▁imi":3515,"▁rece":3516,"▁recon":3517,"▁tiren":3518,"▁mato\r\n":3519,"gado":3520,"▁pibe":3521,"▁traje\r\n":3522,"▁pasa\r\n":3523,"cer,":3524,"▁gané":3525,"▁mala\r\n":3526,"▁call":3527,"tero\r\n":3528,"▁crey":3529,"▁prr\r\n":3530,"▁'tán":3531,"▁don\r\n":3532,"▁imposi":3533,"h-yea":3534,"▁volando":3535,"▁llaman":3536,"▁callej":3537,"▁duro,":3538,"▁facil":3539,"▁espera":3540,"▁mundi":3541,"▁cambia":3542,"eron\r\n":3543,"▁bang,":3544,"▁21":3545,"▁wow,":3546,"▁tranquilo,":3547,"▁momento\r\n":3548,"▁estudio":3549,"▁ninguna":3550,"▁traicion":3551,"▁agarre":3552,"▁drama\r\n":3553,"▁elegan":3554,"▁bull":3555,"▁cruz":3556,"▁blunt\r\n":3557,"▁horas\r\n":3558,"▁viaje":3559,"▁concierto":3560,"▁campeón":3561,"▁déjà":3562,"▁ñer":3563,"▁click":3564,"▁uh-uh-":3565,"▁descans":3566,"▁cerebro":3567,"▁ignor":3568,"-y":3569,"ada":3570,"ada\r\n":3571,"na\r\n":3572,"pable":3573,"rí":3574,"tón":3575,"▁eras":3576,"▁lento":3577,"▁tes":3578,"▁den":3579,"▁abre":3580,"aste\r\n":3581,"▁log":3582,"▁conec":3583,"▁sepa":3584,"▁haci":3585,"cie":3586,"▁g\r\n":3587,"▁todos\r\n":3588,"dez\r\n":3589,"▁reí":3590,"cado\r\n":3591,"ol\r\n":3592,"▁ley,":3593,"▁jos":3594,"▁ja,":3595,"ismo\r\n":3596,"▁descar":3597,"▁maes":3598,"▁pero\r\n":3599,"▁estai":3600,"▁rar":3601,"▁rif":3602,"▁rim":3603,"▁rimar":3604,"▁poquito":3605,"▁asegu":3606,"▁gang,":3607,"▁manos\r\n":3608,"▁uu":3609,"▁dejé":3610,"▁ponga":3611,"▁comprar":3612,"▁montón\r\n":3613,"ten\r\n":3614,"tale":3615,"can\r\n":3616,"▁perdón\r\n":3617,"▁acá,":3618,"▁acá\r\n":3619,"▁tomando":3620,"▁trapper":3621,"▁finde\r\n":3622,"▁pesar":3623,"▁grati":3624,"▁bebé":3625,"▁gira":3626,"▁interi":3627,"▁keep":3628,"▁fuerza":3629,"▁necesito\r\n":3630,"▁dolor":3631,"▁espal":3632,"h-eh-eh\r\n":3633,"▁know,":3634,"▁aparte":3635,"▁dijo,":3636,"▁aprendí":3637,"▁dueño":3638,"▁ofre":3639,"▁lista":3640,"▁drippin'":3641,"▁okey,":3642,"▁cristal":3643,"▁cumpli":3644,"▁caigo":3645,"ttle":3646,"▁mamaci":3647,"▁gelato,":3648,"▁cámar":3649,"▁cuarto":3650,"▁hitboy":3651,"▁-ína,":3652,"▁película":3653,"▁fortni":3654,"-lo":3655,"ría\r\n":3656,"yec":3657,"▁0":3658,"▁muestro":3659,"▁pana":3660,"▁lápi":3661,"▁cir":3662,"▁tab":3663,"▁ama":3664,"▁aga":3665,"▁queri":3666,"▁quede":3667,"ese":3668,"remos":3669,"▁fran":3670,"▁estar\r\n":3671,"▁reti":3672,"dida":3673,"▁sufici":3674,"▁desas":3675,"▁perro":3676,"▁persi":3677,"▁wal":3678,"▁pica":3679,"▁trato":3680,"▁quiera\r\n":3681,"▁ani":3682,"▁rí":3683,"▁río":3684,"▁rico\r\n":3685,"▁pocos":3686,"▁asus":3687,"▁hier":3688,"▁ganar,":3689,"▁entero":3690,"▁arte\r\n":3691,"▁pedir":3692,"▁actu":3693,"arios":3694,"▁ua":3695,"▁prue":3696,"▁rott":3697,"▁canción":3698,"▁bienven":3699,"▁impres":3700,"▁resto":3701,"▁falso":3702,"▁mirada\r\n":3703,"▁pal'":3704,"▁marca":3705,"▁marad":3706,"▁pista\r\n":3707,"▁olvido\r\n":3708,"ándote":3709,"▁quedarme":3710,"▁corazón,":3711,"▁entendi":3712,"▁diablo,":3713,"▁mentira":3714,"▁nosotr":3715,"▁minuto":3716,"▁trabajo\r\n":3717,"▁feliz\r\n":3718,"▁constr":3719,"▁moll":3720,"▁hicimos":3721,"▁cuidado":3722,"▁oscuri":3723,"▁invent":3724,"▁asesin":3725,"▁salamandra\r\n":3726,"▁amanecer\r\n":3727,"▁sincero\r\n":3728,"▁lluvia":3729,"-na-na\r\n":3730,"▁detrás":3731,"-i":3732,"dd":3733,"don":3734,"nic":3735,"á'":3736,"▁á":3737,"▁sam":3738,"▁lento,":3739,"▁av":3740,"▁nana":3741,"▁esco":3742,"▁enga":3743,"▁fues":3744,"oma\r\n":3745,"▁sim":3746,"▁sienta":3747,"▁conten":3748,"▁hacía":3749,"▁game\r\n":3750,"▁pau":3751,"▁país":3752,"▁top":3753,"▁quise":3754,"▁ice\r\n":3755,"▁matando":3756,"▁sabor":3757,"▁sabe,":3758,"▁perra\r\n":3759,"▁verte\r\n":3760,"▁quieran":3761,"▁anti":3762,"▁vendo":3763,"▁gano\r\n":3764,"▁entera\r\n":3765,"▁son\r\n":3766,"dose":3767,"▁malo\r\n":3768,"▁calor":3769,"▁haya":3770,"▁amar\r\n":3771,"▁up\r\n":3772,"▁qué\r\n":3773,"▁can,":3774,"▁hace\r\n":3775,"▁moja":3776,"▁resis":3777,"▁precio":3778,"▁casa,":3779,"▁volar":3780,"eza,":3781,"▁abra":3782,"▁tomé":3783,"▁primera\r\n":3784,"▁peso":3785,"▁negro\r\n":3786,"▁hubi":3787,"▁mil\r\n":3788,"▁miles":3789,"▁bles":3790,"▁ustede'":3791,"▁clav":3792,"▁tatu":3793,"▁tonto":3794,"▁hip-ho":3795,"▁poder\r\n":3796,"▁basta":3797,"▁dollar,":3798,"▁hander":3799,"▁bron":3800,"▁música,":3801,"▁sangre\r\n":3802,"▁quí":3803,"▁apaga":3804,"▁gasto":3805,"▁trash,":3806,"▁desay":3807,"▁mirar\r\n":3808,"▁arreba":3809,"▁última":3810,"▁duko":3811,"▁causa":3812,"▁imagin":3813,"▁permanent,":3814,"▁historia":3815,"▁carrera":3816,"▁pueblo":3817,"▁nervi":3818,")\r\n":3819,"gen":3820,"ja,":3821,"lam":3822,"ph":3823,"ína":3824,"▁(":3825,"▁mué":3826,"▁plas":3827,"▁cra":3828,"▁yan":3829,"▁encer":3830,"▁blow":3831,"▁bir":3832,"▁fo\r\n":3833,"▁sic":3834,"cir":3835,"▁oportun":3836,"cel":3837,"▁tení":3838,"▁repi":3839,"▁lejos":3840,"▁ma'\r\n":3841,"▁sabiendo":3842,"▁cach":3843,"▁pa'ca\r\n":3844,"vio":3845,"▁vac":3846,"▁rimo":3847,"▁rima,":3848,"▁poes":3849,"▁ganas\r\n":3850,"▁llan":3851,"▁hablen":3852,"▁mov":3853,"▁prote":3854,"os,\r\n":3855,"▁dice\r\n":3856,"▁frío":3857,"▁mueren":3858,"▁down":3859,"et,":3860,"▁fies":3861,"▁rimas,":3862,"▁wacho,":3863,"▁tenerte":3864,"▁encontra":3865,"▁millón\r\n":3866,"▁entender\r\n":3867,"▁kelo":3868,"bajo":3869,"▁mentira\r\n":3870,"▁llena":3871,"▁revien":3872,"▁escena":3873,"▁draco,":3874,"▁estrellas\r\n":3875,"▁viviendo":3876,"▁aguanto":3877,"▁razón":3878,"▁prisión\r\n":3879,"▁competir":3880,"▁cadena":3881,"▁familia\r\n":3882,"▁frases":3883,"▁incl":3884,"▁mantengo":3885,"▁fracas":3886,"▁suerte":3887,"▁directamente":3888,"▁snap":3889,"▁rottwe":3890,"▁fuese":3891,"-u":3892,"bl":3893,"bres":3894,"dam":3895,"gü":3896,"i'":3897,"itos":3898,"jas\r\n":3899,"lle":3900,"é'":3901,"ísi":3902,"▁és":3903,"▁phon":3904,"▁sana":3905,"▁sensa":3906,"▁lla":3907,"▁dó":3908,"▁vámon":3909,"▁lamb":3910,"rame,":3911,"▁loca,":3912,"▁seas":3913,"▁otras":3914,"▁para\r\n":3915,"▁letra":3916,"▁level":3917,"▁natur":3918,"▁tengo,":3919,"▁rato\r\n":3920,"▁inten":3921,"▁sole":3922,"▁pied":3923,"▁pot":3924,"▁veneno\r\n":3925,"▁hig":3926,"▁qué,":3927,"▁escal":3928,"▁escuela":3929,"▁dejes":3930,"▁pones":3931,"▁boom":3932,"▁juz":3933,"▁caso":3934,"▁bee":3935,"▁apoy":3936,"▁hop\r\n":3937,"encia,":3938,"▁muero\r\n":3939,"▁aquí,":3940,"▁fuckin'":3941,"a'o,":3942,"▁clava":3943,"▁200":3944,"▁arriba,":3945,"dora\r\n":3946,"▁demoni":3947,"▁juntos":3948,"▁poli":3949,"▁merce":3950,"▁música\r\n":3951,"▁llegué":3952,"▁cheque":3953,"▁subiendo":3954,"▁cosculluela,":3955,"▁defiendo":3956,"▁robar":3957,"▁obvio":3958,"▁represento":3959,"▁olvidar\r\n":3960,"▁personas":3961,"▁plu":3962,"-na-na":3963,"▁algunos":3964,"▁duermo":3965,"▁embar":3966,"▁boy\r\n":3967,"▁silencio":3968,"▁púr":3969,"▁empiezo":3970,"▁dientes":3971,"▁warri":3972,"▁bandol":3973,"▁¿cuán":3974,"▁recono":3975,"▁uh-uh-uh\r\n":3976,"-wo":3977,"a',":3978,"cas,":3979,"diente":3980,"ger":3981,"id":3982,"ión,":3983,"men":3984,"pl":3985,"▁ee":3986,"▁eas":3987,"▁pá":3988,"▁pelo\r\n":3989,"▁stu":3990,"▁qe":3991,"▁nu":3992,"▁debajo":3993,"▁hen":3994,"▁hora\r\n":3995,"▁enca":3996,"ines":3997,"rate":3998,"▁uno\r\n":3999,"▁siete":4000,"▁contr":4001,"rou":4002,"▁sean":4003,"cias\r\n":4004,"▁dios,":4005,"▁dieron":4006,"che,":4007,"▁toco":4008,"use":4009,"▁lebr":4010,"▁soy,":4011,"▁tire":4012,"▁tick":4013,"▁maqu":4014,"▁ino":4015,"▁cag":4016,"▁estabas":4017,"▁char":4018,"▁pies":4019,"bia":4020,"▁poco\r\n":4021,"▁podemos":4022,"▁carro":4023,"▁vendiendo":4024,"▁pure":4025,"lip":4026,"▁pea":4027,"▁coc":4028,"aria":4029,"▁ubi":4030,"▁roto":4031,"uestra":4032,"▁nunca\r\n":4033,"▁disco\r\n":4034,"▁luces":4035,"▁jug":4036,"▁montan":4037,"▁apre":4038,"▁dur":4039,"▁mejores\r\n":4040,"▁hermanos":4041,"▁abur":4042,"▁empa":4043,"▁cuento\r\n":4044,"▁andan":4045,"gaste":4046,"▁días\r\n":4047,"▁nene\r\n":4048,"▁freestyl":4049,"▁15":4050,"▁grande\r\n":4051,"▁dembo":4052,"▁punch":4053,"▁cabrón,":4054,"▁kelow":4055,"▁bitches":4056,"▁seguimos":4057,"▁única":4058,"▁buscarte\r\n":4059,"▁jefe":4060,"▁pinta":4061,"▁piensan":4062,"▁habilidad":4063,"▁razón\r\n":4064,"▁guardo":4065,"ppin'\r\n":4066,"▁champa":4067,"▁esquivo,":4068,"▁uh-uh\r\n":4069,"▁descontro":4070,"▁mmm,":4071,"▁hood,":4072,"▁cayendo":4073,"▁profes":4074,"▁ah-ah\r\n":4075,"▁hotel\r\n":4076,"▁téc":4077,"▁pedazo":4078,"▁répli":4079,"▁nosotro'":4080,"▁ñengo":4081,"▁imposible":4082,"▁desayun":4083,"-l":4084,"bor":4085,"iones":4086,"mu":4087,"pen":4088,"pura":4089,"tero":4090,"zqui":4091,"▁9":4092,"▁craz":4093,"▁ak":4094,"▁aca":4095,"▁amo":4096,"▁ater":4097,"eran":4098,"▁yendo":4099,"▁debo":4100,"▁va\r\n":4101,"▁encar":4102,"▁engan":4103,"▁metal":4104,"▁mire":4105,"▁sigui":4106,"▁conquis":4107,"▁hagan":4108,"▁g'":4109,"▁tuya":4110,"▁país\r\n":4111,"▁alas\r\n":4112,"▁alum":4113,"tico\r\n":4114,"▁cuál":4115,"▁idio":4116,"entos\r\n":4117,"▁supues":4118,"▁caí":4119,"▁deli":4120,"▁trae":4121,"▁pasó\r\n":4122,"el\r\n":4123,"▁voy,":4124,"▁¿de":4125,"dad,":4126,"▁ganarme":4127,"▁serio,":4128,"▁arm":4129,"uelo\r\n":4130,"pado":4131,"▁man\r\n":4132,"▁solo,":4133,"▁malo,":4134,"▁coj":4135,"▁prom":4136,"▁roba":4137,"ras,":4138,"▁excus":4139,"▁hacerme":4140,"▁hacerlo,":4141,"▁sacando":4142,"▁todos,":4143,"ica\r\n":4144,"▁discul":4145,"▁babe,":4146,"▁cigar":4147,"▁hoy,":4148,"▁men\r\n":4149,"▁beat\r\n":4150,"▁placa":4151,"▁plata\r\n":4152,"▁pensé":4153,"▁pensam":4154,"▁dog":4155,"▁free":4156,"▁suene":4157,"a'o":4158,"▁él,":4159,"▁zor":4160,"▁clap,":4161,"▁talento\r\n":4162,"▁triun":4163,"▁nigga,":4164,"▁disparo":4165,"▁alemán":4166,"▁eleg":4167,"▁caminando":4168,"▁terminar":4169,"hion\r\n":4170,"▁horas":4171,"▁rompe\r\n":4172,"▁rompe,":4173,"▁xana":4174,"▁house\r\n":4175,"▁jajaj":4176,"▁ilus":4177,"▁erre":4178,"▁swing\r\n":4179,"▁fashion\r\n":4180,"▁undergro":4181,"▁desnu":4182,"▁púrpura":4183,"▁aterri":4184,"ds":4185,"dal":4186,"ea\r\n":4187,"ia,":4188,"los\r\n":4189,"lar\r\n":4190,"n,":4191,"pre":4192,"sy\r\n":4193,"tres":4194,"tor\r\n":4195,"vas":4196,"vin":4197,"z,":4198,"▁edu":4199,"▁dre":4200,"▁ala":4201,"▁y,":4202,"▁nor":4203,"▁quemar":4204,"▁deton":4205,"und\r\n":4206,"▁mio":4207,"in'\r\n":4208,"▁famos":4209,"▁tec":4210,"▁siste":4211,"▁sep":4212,"iendo\r\n":4213,"▁diver":4214,"▁estés":4215,"▁tengas":4216,"tido":4217,"▁culo\r\n":4218,"entes\r\n":4219,"▁supi":4220,"▁caf":4221,"▁caen":4222,"▁cacer":4223,"▁niñ":4224,"▁multi":4225,"▁vaci":4226,"▁rue":4227,"▁está'":4228,"▁veni":4229,"▁entera":4230,"▁llám":4231,"▁camina":4232,"▁camara":4233,"▁colo":4234,"ter,":4235,"▁creer\r\n":4236,"énde":4237,"ico,":4238,"▁discu":4239,"h-ah\r\n":4240,"▁hoy\r\n":4241,"▁mencion":4242,"renal":4243,"▁compré":4244,"▁mara":4245,"▁you\r\n":4246,"▁docu":4247,"▁flores":4248,"▁terri":4249,"▁fin\r\n":4250,"▁negra":4251,"▁jodi":4252,"▁¡a":4253,"▁improvisar":4254,"▁cerve":4255,"▁despué'":4256,"ín,":4257,"▁sueñ":4258,"▁gatas":4259,"▁problema\r\n":4260,"▁millones":4261,"▁interna":4262,"▁pena\r\n":4263,"▁adrenal":4264,"▁base":4265,"▁fueron":4266,"▁cintur":4267,"▁derra":4268,"▁ritmos":4269,"▁persona":4270,"▁shit,":4271,"miento":4272,"▁trabajo":4273,"▁salida\r\n":4274,"▁bomb":4275,"▁trueno\r\n":4276,"▁desapar":4277,"alidad\r\n":4278,"▁pastilla":4279,"▁house":4280,"▁rápido,":4281,"▁especi":4282,"▁jaja\r\n":4283,"▁gelato":4284,"▁frontearle":4285,"▁prrrum!!":4286,"▁quedaste":4287,"▁cazz":4288,"▁propia":4289,"▁públi":4290,"▁sorpren":4291,"▁volvió":4292,"▁remix":4293,"▁habitación\r\n":4294,"▁aprove":4295,"▁molly,":4296,"a'\r\n":4297,"gos,":4298,"mon":4299,"tás":4300,"ys":4301,"ábamos":4302,"ér":4303,"▁eva":4304,"▁pab":4305,"▁sp":4306,"▁dru":4307,"▁avan":4308,"erto\r\n":4309,"▁nú":4310,"▁deber":4311,"▁hel":4312,"una\r\n":4313,"▁bha":4314,"▁mina":4315,"tada":4316,"▁loc":4317,"da'\r\n":4318,"▁sec":4319,"▁porro":4320,"▁hac":4321,"▁comiendo":4322,"▁comer\r\n":4323,"▁dia":4324,"▁ocul":4325,"aba,":4326,"▁paca":4327,"▁estr":4328,"▁alim":4329,"ce'\r\n":4330,"▁repe":4331,"▁jal":4332,"▁esto'":4333,"▁matan":4334,"▁make":4335,"▁sabes,":4336,"▁niños":4337,"▁tratando":4338,"▁paste":4339,"▁ang":4340,"▁mío,":4341,"▁entero\r\n":4342,"▁cocin":4343,"▁cobar":4344,"▁amena":4345,"▁ka":4346,"▁kar":4347,"taron":4348,"▁pros":4349,"▁prín":4350,"▁cana,":4351,"▁liri":4352,"ta,\r\n":4353,"▁say":4354,"▁ponte":4355,"ruga":4356,"ezco\r\n":4357,"tencia\r\n":4358,"▁gobi":4359,"▁saben,":4360,"▁factu":4361,"▁empec":4362,"▁querí":4363,"jate":4364,"▁guacho":4365,"▁suenan":4366,"a'o\r\n":4367,"▁¡w":4368,"▁suspi":4369,"▁amigos\r\n":4370,"▁wacha":4371,"dor,":4372,"▁gavio":4373,"▁gritar":4374,"▁allá\r\n":4375,"▁au-a":4376,"▁adver":4377,"▁basura\r\n":4378,"▁perdido\r\n":4379,"▁estuve":4380,"▁llorar":4381,"▁kill":4382,"▁comparto":4383,"▁girl":4384,"▁rocks":4385,"▁chance\r\n":4386,"▁áni":4387,"▁caiga":4388,"▁volví":4389,"▁volviendo":4390,"▁imagina":4391,"▁maldito":4392,"▁rebota,":4393,"▁botella":4394,"▁bella":4395,"▁acompañ":4396,"▁negoci":4397,"▁stig":4398,"▁worl":4399,"güen":4400,"▁bhavi":4401,"▁prínci":4402,"ah,":4403,"cero":4404,"cto,":4405,"eo\r\n":4406,"gía\r\n":4407,"ry":4408,"ácti":4409,"▁darme":4410,"eren":4411,"▁esf":4412,"anos\r\n":4413,"▁de\r\n":4414,"▁dedo":4415,"▁depor":4416,"▁nota\r\n":4417,"teo":4418,"▁contin":4419,"▁gall":4420,"▁coment":4421,"▁diario\r\n":4422,"▁tuc":4423,"▁quiso":4424,"tivo\r\n":4425,"▁recu":4426,"ista":4427,"entes":4428,"▁mafi":4429,"▁sabía":4430,"▁cacha":4431,"▁sopor":4432,"▁socio":4433,"▁vece'":4434,"▁vergüen":4435,"▁trajo":4436,"▁pasando":4437,"▁pasión\r\n":4438,"▁run,":4439,"pe,":4440,"▁míos":4441,"▁polo":4442,"▁cargo":4443,"▁vengas":4444,"▁gans":4445,"▁gano,":4446,"▁acción\r\n":4447,"▁acaba":4448,"▁mani":4449,"▁camis":4450,"▁malos":4451,"▁cola":4452,"▁cali":4453,"▁calma\r\n":4454,"tura,":4455,"▁pron":4456,"▁prr,":4457,"▁clan":4458,"▁moda":4459,"ver\r\n":4460,"fit":4461,"▁placer":4462,"▁vienes":4463,"▁vas,":4464,"ador\r\n":4465,"▁face\r\n":4466,"▁free\r\n":4467,"▁estás\r\n":4468,"▁conocer":4469,"▁feo\r\n":4470,"▁vocab":4471,"▁matarnos":4472,"▁importa\r\n":4473,"▁papi\r\n":4474,"▁estuvi":4475,"▁tirado":4476,"▁broth":4477,"▁simple\r\n":4478,"▁recuerda":4479,"▁jef":4480,"▁explico":4481,"▁andaba":4482,"▁caminar":4483,"▁camino\r\n":4484,"▁brillando":4485,"▁perfu":4486,"▁blanco":4487,"▁perdóname":4488,"▁puerta":4489,"▁humo\r\n":4490,"▁tempo\r\n":4491,"▁drippin',":4492,"▁cumpl":4493,"▁clase":4494,"▁¿quer":4495,"▁house,":4496,"▁luna\r\n":4497,"▁felicidad":4498,"▁funeral\r\n":4499,"▁libertad\r\n":4500,"▁experien":4501,"▁acelera":4502,"▁euro":4503,"▁simón":4504,"-,":4505,"0\r\n":4506,"brar":4507,"came":4508,"eo":4509,"ece\r\n":4510,"gre":4511,"gres":4512,"gues":4513,"it":4514,"rri":4515,"so,":4516,"í,":4517,"▁ár":4518,"▁món":4519,"▁pa\r\n":4520,"▁sá":4521,"▁ló":4522,"▁cle":4523,"▁dora":4524,"▁a\r\n":4525,"▁españ":4526,"▁ve\r\n":4527,"▁ladr":4528,"▁hol":4529,"eso":4530,"unk":4531,"▁bar\r\n":4532,"alidad":4533,"rado":4534,"▁fen":4535,"▁fru":4536,"▁feste":4537,"▁loo":4538,"▁comen":4539,"▁divi":4540,"▁ojer":4541,"abas":4542,"▁paga":4543,"▁estando":4544,"del":4545,"▁aler":4546,"▁alma\r\n":4547,"▁cuándo":4548,"▁iden":4549,"▁it,":4550,"resi":4551,"▁yah":4552,"▁supo":4553,"▁nah\r\n":4554,"▁madri":4555,"▁indi":4556,"▁caer,":4557,"▁pique":4558,"▁piola\r\n":4559,"▁antes\r\n":4560,"▁¿para":4561,"▁ven\r\n":4562,"▁vender":4563,"▁sonr":4564,"▁llora":4565,"▁cama,":4566,"▁copa":4567,"▁kh":4568,"▁kus":4569,"▁crees":4570,"▁crecí":4571,"▁limi":4572,"cara":4573,"▁luce":4574,"▁falta\r\n":4575,"▁mons":4576,"▁llamar":4577,"▁vaso":4578,"▁dura":4579,"▁ola\r\n":4580,"▁sabemos":4581,"as,\r\n":4582,"▁rompi":4583,"▁frío\r\n":4584,"▁face":4585,"▁oro,":4586,"ándome\r\n":4587,"▁realmente":4588,"▁realidad\r\n":4589,"▁negros":4590,"▁conozco":4591,"▁quienes":4592,"▁¡dí":4593,"▁escuchan":4594,"▁amiga":4595,"▁sueño,":4596,"▁grandes":4597,"▁visto\r\n":4598,"▁demuestro":4599,"▁tranquilo\r\n":4600,"▁cabron":4601,"▁admi":4602,"▁máqu":4603,"▁fuerte\r\n":4604,"▁huevos\r\n":4605,"▁mentir":4606,"-ay":4607,"▁mesa":4608,"▁contigo,":4609,"▁aprender":4610,"▁funcion":4611,"▁mirá":4612,"▁control\r\n":4613,"▁white":4614,"▁humo,":4615,"▁conciencia\r\n":4616,"▁piel\r\n":4617,"▁deseo":4618,"▁atrás\r\n":4619,"▁perfecto\r\n":4620,"▁transpi":4621,"▁interesa":4622,"-pro":4623,"▁feeling":4624,"▁debes":4625,"▁caliente\r\n":4626,"▁carajo":4627,"▁zapa":4628,"▁madruga":4629,"▁destruy":4630,"▁ahora,":4631,"▁envuel":4632,"▁próxi":4633,"▁conex":4634,"▁riquel":4635,"▁correr":4636,"▁sport\r\n":4637,"▁cumplir":4638,"▁mamacita,":4639,"▁impresion":4640,"▁punchl":4641,"▁técnic":4642,"▁identi":4643,"▁¡dímelo":4644,"'o,":4645,"bando":4646,"dan\r\n":4647,"guen":4648,"ias":4649,"ya\r\n":4650,"zan":4651,"zon":4652,"ós":4653,"▁edi":4654,"▁mera":4655,"▁pé":4656,"▁ador":4657,"eras\r\n":4658,"eric":4659,"anos":4660,"▁deu":4661,"▁noque":4662,"ala\r\n":4663,"▁fis":4664,"to'":4665,"▁lot":4666,"▁uno,":4667,"▁telé":4668,"▁gue":4669,"▁compa":4670,"char":4671,"▁estres":4672,"▁estén":4673,"▁parar\r\n":4674,"▁cule":4675,"▁imán":4676,"cate":4677,"cación":4678,"catri":4679,"▁inse":4680,"▁cagar":4681,"▁vete":4682,"▁puedo\r\n":4683,"▁vayas":4684,"▁estoy\r\n":4685,"▁rima\r\n":4686,"e,\r\n":4687,"▁ganan":4688,"lidad\r\n":4689,"▁pecho\r\n":4690,"▁llego,":4691,"▁acor":4692,"▁maldades":4693,"▁cojo":4694,"▁calor\r\n":4695,"▁'el":4696,"▁sai":4697,"▁saque":4698,"▁saqué":4699,"taste":4700,"▁pongan":4701,"▁fue\r\n":4702,"▁bobo":4703,"▁costum":4704,"▁cicatri":4705,"fica":4706,"▁apla":4707,"te,\r\n":4708,"▁mejor,":4709,"▁decidi":4710,"▁rapear\r\n":4711,"▁esperar,":4712,"▁gustan":4713,"▁olvida":4714,"▁juega":4715,"▁guach":4716,"▁suena\r\n":4717,"▁gigan":4718,"▁obje":4719,"▁100":4720,"▁tarado\r\n":4721,"▁bailar\r\n":4722,"▁wow\r\n":4723,"▁ball":4724,"▁pegao'":4725,"▁vo'a":4726,"▁ritmo,":4727,"▁planeta":4728,"▁revolu":4729,"▁la'o\r\n":4730,"▁¿como":4731,"▁mujer,":4732,"▁diferente":4733,"▁representa":4734,"▁escribo\r\n":4735,"▁dormir":4736,"▁ready\r\n":4737,"▁arrep":4738,"▁tempran":4739,"▁bolu":4740,"▁campeón\r\n":4741,"▁cierro":4742,"▁futuro\r\n":4743,"▁cumple":4744,"▁trein":4745,"▁reyes":4746,"-e-e\r\n":4747,"▁outfit":4748,"▁diamante":4749,"▁consigo\r\n":4750,"▁lengu":4751,"▁motherfucker":4752,"▁enfrente":4753,"▁univer":4754,"▁codeína":4755,"▁energía":4756,"▁zigzag,":4757,"▁let's":4758,"▁magia":4759,"▁lamenta":4760,"▁resulta":4761,"▁imperio":4762,"▁inclus":4763,"▁hennes":4764,"▁internacion":4765,"▁ojeras":4766,"▁teléfon":4767,"bra\r\n":4768,"ccion":4769,"emb":4770,"hh\r\n":4771,"ker\r\n":4772,"las,":4773,"mento":4774,"nab":4775,"ny\r\n":4776,"rum":4777,"uri":4778,"zz":4779,"ór":4780,"▁mar\r\n":4781,"▁puen":4782,"▁scho":4783,"▁dense":4784,"▁na\r\n":4785,"▁name\r\n":4786,"▁nananau,n":4787,"▁quemo":4788,"osa":4789,"oro\r\n":4790,"▁metas":4791,"▁meten":4792,"▁metiendo":4793,"▁miren":4794,"inas\r\n":4795,"▁fo,":4796,"tamente":4797,"▁love,":4798,"▁temo":4799,"▁conc":4800,"▁conven":4801,"▁contar\r\n":4802,"▁sed":4803,"cido\r\n":4804,"la-lo":4805,"▁tuvi":4806,"ch\r\n":4807,"▁estri":4808,"tico":4809,"▁ir\r\n":4810,"▁rebel":4811,"▁letal":4812,"▁desen":4813,"▁race":4814,"▁ini":4815,"▁delante":4816,"▁perde":4817,"▁tratar":4818,"▁ansi":4819,"▁¿te":4820,"▁pop":4821,"▁saliendo":4822,"▁carn":4823,"▁caro":4824,"▁caro\r\n":4825,"▁carne":4826,"▁venta":4827,"▁high":4828,"▁peque":4829,"▁pecho":4830,"▁pedí":4831,"pera":4832,"▁llue":4833,"▁male":4834,"▁malas":4835,"aria\r\n":4836,"▁ko":4837,"▁crea":4838,"▁qué?\r\n":4839,"▁roto\r\n":4840,"▁cantar":4841,"▁little":4842,"▁bad":4843,"▁rapero,":4844,"▁hacemo'":4845,"▁hear":4846,"▁impa":4847,"▁sol,":4848,"rutu":4849,"▁bajando":4850,"▁bebi":4851,"▁aplas":4852,"▁plaza\r\n":4853,"▁llamarte":4854,"▁dul":4855,"▁vuelo\r\n":4856,"▁decile":4857,"▁form":4858,"▁espera\r\n":4859,"▁mundo,":4860,"▁they":4861,"amo'\r\n":4862,"▁despues":4863,"▁final\r\n":4864,"▁nena\r\n":4865,"▁él\r\n":4866,"▁volver,":4867,"▁bang\r\n":4868,"▁haciendo,":4869,"▁suelo\r\n":4870,"▁amigo,":4871,"▁colch":4872,"▁colombi":4873,"▁sueño\r\n":4874,"▁take":4875,"▁pana\r\n":4876,"▁mataron":4877,"▁presu":4878,"caste":4879,"▁allá,":4880,"▁pendiente":4881,"▁encontré":4882,"▁bala":4883,"▁espan":4884,"▁broke":4885,"▁entienden":4886,"▁medioc":4887,"▁hicieron":4888,"▁diferente\r\n":4889,"▁sufre":4890,"▁aires":4891,"▁borra":4892,"▁listo":4893,"▁puerto":4894,"▁arregl":4895,"▁sacarme":4896,"▁esconde":4897,"▁champi":4898,"▁pelea":4899,"▁voz,":4900,"▁genera":4901,"▁duko\r\n":4902,"▁duko,":4903,"▁perrea,":4904,"▁error":4905,"▁30":4906,"▁capaz":4907,"▁ante'":4908,"▁goteo\r\n":4909,"▁respirar\r\n":4910,"▁suave":4911,"▁víde":4912,"▁acostumbra":4913,"ananau,nanana":4914,"▁quavo,":4915,"▁philli":4916,"▁terror":4917,"▁khea":4918,"▁saiy":4919,"▁nananau,nananau,nanana":4920,"!,":4921,"ai":4922,"bien":4923,"c\r\n":4924,"cos,":4925,"din":4926,"fas":4927,"ib":4928,"ita\r\n":4929,"mbo":4930,"pes":4931,"ven\r\n":4932,"woo":4933,"ñe":4934,"▁sui":4935,"▁cent":4936,"▁testi":4937,"eros":4938,"▁nota,":4939,"▁lad":4940,"▁eli":4941,"▁huel":4942,"▁bá":4943,"▁físi":4944,"abri":4945,"▁alto\r\n":4946,"▁almo":4947,"▁algo\r\n":4948,"▁tenta":4949,"us\r\n":4950,"▁ice":4951,"▁reco":4952,"cada":4953,"▁victor":4954,"▁jan":4955,"iste\r\n":4956,"ista\r\n":4957,"▁desma":4958,"▁destino":4959,"▁inta":4960,"▁pa'\r\n":4961,"▁ve,":4962,"▁wes":4963,"▁pidió":4964,"▁tratan":4965,"▁quiere,":4966,"▁está,":4967,"▁ven,":4968,"▁vende":4969,"▁vengo,":4970,"▁publi":4971,"▁soni":4972,"▁acomo":4973,"▁coher":4974,"dera":4975,"ba-":4976,"▁dejarte":4977,"▁lic":4978,"▁lil":4979,"▁neur":4980,"▁hace,":4981,"▁furi":4982,"tancia":4983,"▁boca,":4984,"gan\r\n":4985,"▁bebo":4986,"▁mueres":4987,"▁muevo":4988,"tener":4989,"▁cabal":4990,"▁tussi":4991,"▁vuelto":4992,"lante\r\n":4993,"▁nueve":4994,"▁usa":4995,"▁pared\r\n":4996,"▁escribe":4997,"▁fake":4998,"▁dosis":4999,"▁pasa?":5000,"▁chavos":5001,"▁weed":5002,"▁somos\r\n":5003,"▁bling":5004,"▁insta":5005,"▁¿qué?\r\n":5006,"dores\r\n":5007,"▁bebiendo":5008,"▁bailamos":5009,"▁tony\r\n":5010,"▁regalo":5011,"▁respeto\r\n":5012,"▁pena":5013,"▁culpable":5014,"▁merec":5015,"▁fama\r\n":5016,"▁isla":5017,"▁llorando":5018,"▁pegado":5019,"▁vivir\r\n":5020,"▁batallas\r\n":5021,"▁plane":5022,"▁principe":5023,"▁seguí":5024,"▁salió":5025,"▁defec":5026,"▁gorra":5027,"▁cuidao'":5028,"▁entrar":5029,"▁freno,":5030,"▁aguanta":5031,"▁razón,":5032,"▁bende":5033,"▁chance,":5034,"▁cierto\r\n":5035,"▁sentía":5036,"▁pastillas":5037,"▁click,":5038,"▁slow,":5039,"▁papel\r\n":5040,"▁equivoca":5041,"▁gil,":5042,"▁bloque":5043,"▁respondo":5044,"▁permanent\r\n":5045,"▁short":5046,"▁trappin',":5047,"▁ideas":5048,"▁mayor":5049,"▁black":5050,"▁métri":5051,"▁carajo\r\n":5052,"-tu-tu-tu-tu":5053,"▁policía\r\n":5054,"▁ferrari\r\n":5055,"▁out,":5056,"▁okay\r\n":5057,"▁practi":5058,"▁weed\r\n":5059,"▁ghetto\r\n":5060,"▁celular":5061,"▁payaso":5062,"▁bienvenido":5063,"▁hip-hop":5064,"▁muévelo":5065,"▁high\r\n":5066,"▁freestyler\r\n":5067,"▁champagn":5068,"▁dref":5069,"▁drug":5070,"▁árbol":5071,"▁máquina":5072,"-de":5073,"brando":5074,"cción\r\n":5075,"dente\r\n":5076,"día\r\n":5077,"elo,":5078,"imm":5079,"jo'":5080,"jos,":5081,"ste,":5082,"▁eje":5083,"▁psi":5084,"▁sto":5085,"▁acu":5086,"era,":5087,"▁queriendo":5088,"▁esque":5089,"▁ves,":5090,"▁now\r\n":5091,"▁encen":5092,"▁mires":5093,"alo,":5094,"▁fm":5095,"amente\r\n":5096,"uir":5097,"ciendo\r\n":5098,"ley":5099,"▁parezco":5100,"▁alqui":5101,"tier":5102,"tico,":5103,"tiva\r\n":5104,"▁izqui":5105,"▁reme":5106,"diab":5107,"capi":5108,"▁porque\r\n":5109,"▁delito":5110,"▁permis":5111,"▁chor":5112,"▁wos":5113,"▁versa":5114,"▁pidi":5115,"▁vaina":5116,"▁rall":5117,"pido":5118,"▁riv":5119,"▁rimando":5120,"▁podes":5121,"▁poeta":5122,"▁salga":5123,"▁carame":5124,"▁pudo":5125,"▁hielo,":5126,"▁artes":5127,"▁sonre":5128,"per\r\n":5129,"▁llé":5130,"▁mali":5131,"▁ur":5132,"tera,":5133,"▁escuela,":5134,"▁robo":5135,"▁cancion":5136,"▁lit":5137,"▁lima":5138,"▁liga":5139,"▁new":5140,"▁bac":5141,"▁mode":5142,"▁coro\r\n":5143,"▁corriendo":5144,"▁heav":5145,"▁resenti":5146,"▁jugar\r\n":5147,"▁hermos":5148,"▁menores":5149,"▁casu":5150,"▁bajar\r\n":5151,"▁duro\r\n":5152,"▁bicho":5153,"▁you,":5154,"▁saben\r\n":5155,"▁frí":5156,"▁frus":5157,"mo'\r\n":5158,"ad\r\n":5159,"▁factor":5160,"▁estás,":5161,"▁querías":5162,"▁fly":5163,"▁cambiar\r\n":5164,"▁finde":5165,"▁buscas":5166,"▁grave":5167,"▁joda":5168,"▁santa":5169,"▁weon":5170,"▁escuchen":5171,"▁cuervo":5172,"▁besti":5173,"▁colores":5174,"▁presente\r\n":5175,"▁13\r\n":5176,"▁vista\r\n":5177,"▁pregunto":5178,"▁problemas\r\n":5179,"▁demon":5180,"▁triste\r\n":5181,"▁millón":5182,"▁shout":5183,"▁tranquili":5184,"▁veces,":5185,"▁hombre\r\n":5186,"▁balas":5187,"▁princes":5188,"▁la'o":5189,"▁encuentro\r\n":5190,"▁principe\r\n":5191,"▁fotos":5192,"▁salimos":5193,"▁extraño\r\n":5194,"▁entren":5195,"▁arreg":5196,"▁whippin":5197,"▁whippin',":5198,"▁sangre,":5199,"▁tempo":5200,"▁chama":5201,"▁luego\r\n":5202,"▁okey":5203,"▁envidia\r\n":5204,"▁sentís":5205,"▁futuro,":5206,"-bl":5207,"▁prepara":5208,"▁armada":5209,"▁billete":5210,"▁acabo":5211,"-out":5212,"▁sientas":5213,"▁brujer":5214,"▁oh-oh-oh\r\n":5215,"▁avión":5216,"▁comida":5217,"▁comida\r\n":5218,"▁mmm\r\n":5219,"▁nuevas":5220,"▁tarima":5221,"▁diaman":5222,"▁propio":5223,"▁alcohol,":5224,"▁varios":5225,"▁linda":5226,"▁sorpres":5227,"▁egocent":5228,"▁zarpa":5229,"▁paliza\r\n":5230,"▁pprrumm":5231,"▁enamorada":5232,"▁skrt\r\n":5233,"▁peligros":5234,"▁yeh-yeh\r\n":5235,"▁cotto\r\n":5236,"▁hardcore\r\n":5237,"▁grupo":5238,"▁legend":5239,"▁cámara":5240,"▁lápiz":5241,"phone":5242,"▁keloke,":5243,"▁demonios":5244,"▁multipli":5245,"▁llámame":5246,"▁príncipe":5247,"▁izquier":5248,"▁whippin,":5249,"▁egocentris":5250,"-qué":5251,".a":5252,"cina":5253,"ies":5254,"iza":5255,"ka,":5256,"los,":5257,"sy,":5258,"tándome":5259,"uu":5260,"zo,":5261,"ñas":5262,"▁ere":5263,"▁pí":5264,"▁ses":5265,"▁lui":5266,"▁lág":5267,"▁dar\r\n":5268,"▁aven":5269,"ende":5270,"ena,":5271,"▁nas":5272,"▁nanan":5273,"▁quem":5274,"▁ves\r\n":5275,"▁vu,":5276,"▁melo":5277,"▁faj":5278,"▁fabri":5279,"tame":5280,"▁teor":5281,"▁condi":5282,"am,":5283,"▁seis":5284,"ciar":5285,"▁gre":5286,"leta":5287,"▁dir":5288,"▁div":5289,"▁digo,":5290,"la'o\r\n":5291,"▁tu\r\n":5292,"▁tuvo":5293,"▁pacto":5294,"▁toca,":5295,"▁estú":5296,"▁ali":5297,"▁im":5298,"▁reli":5299,"▁reina":5300,"dia":5301,"ol,":5302,"▁viven":5303,"▁tiki":5304,"▁su'":5305,"▁desor":5306,"▁destre":5307,"▁delante\r\n":5308,"▁estaba\r\n":5309,"▁vecin":5310,"▁wom":5311,"▁trab":5312,"▁track":5313,"▁traba":5314,"▁quiera,":5315,"▁rus":5316,"▁ricar":5317,"▁pocas":5318,"▁sales":5319,"mos,\r\n":5320,"▁hielo\r\n":5321,"▁gane":5322,"▁gana\r\n":5323,"▁serio\r\n":5324,"umen":5325,"▁coño":5326,"dero\r\n":5327,"▁crew":5328,"▁crear":5329,"tarle":5330,"▁qué?":5331,"án,":5332,"▁liv":5333,"▁negar":5334,"▁corte\r\n":5335,"▁hela":5336,"man\r\n":5337,"▁rest":5338,"enso\r\n":5339,"▁bara":5340,"ir\r\n":5341,"zado":5342,"▁bola":5343,"▁volar\r\n":5344,"▁baje\r\n":5345,"▁llamó":5346,"▁viento\r\n":5347,"▁goo":5348,"▁sigo,":5349,"▁abro":5350,"▁aband":5351,"▁day":5352,"▁daño":5353,"▁usar":5354,"▁parecer":5355,"ados\r\n":5356,"▁masta":5357,"▁terren":5358,"▁olvides":5359,"▁valgo":5360,"▁graba":5361,"gue\r\n":5362,"▁jodido":5363,"▁zas":5364,"▁when":5365,"▁blue":5366,"▁blas":5367,"▁afec":5368,"▁chill":5369,"▁papá\r\n":5370,"▁color\r\n":5371,"▁sueños":5372,"▁beba,":5373,"▁sentido":5374,"▁criter":5375,"▁12":5376,"▁igual,":5377,"▁prendas":5378,"▁shoo":5379,"▁show,":5380,"▁momentos":5381,"▁necesita":5382,"▁freestyle,":5383,"▁dispara":5384,"▁mañan":5385,"▁llorar\r\n":5386,"▁batallas":5387,"▁brother":5388,"▁chup":5389,"▁princi\r\n":5390,"▁aleg":5391,"▁favor\r\n":5392,"▁matamos\r\n":5393,"▁intento":5394,"hibi":5395,"▁persona\r\n":5396,"▁cansé":5397,"▁girl,":5398,"▁improvisaciones\r\n":5399,"▁¿cómo?":5400,"▁cuello,":5401,"▁signi":5402,"ght\r\n":5403,"▁clases":5404,"▁contesta":5405,"▁confundas\r\n":5406,"▁saludo":5407,"▁movie":5408,"▁vuelo,":5409,"▁shorty\r\n":5410,"▁oh-oh\r\n":5411,"▁relaja":5412,"▁avión\r\n":5413,"▁carrera\r\n":5414,"▁cuesti":5415,"▁desespera\r\n":5416,"▁despierto\r\n":5417,"▁pesadi":5418,"▁consegui":5419,"▁paguen":5420,"▁profun":5421,"▁pudiera":5422,"▁veinti":5423,"▁oído":5424,"▁trampa":5425,"▁okay,":5426,"▁sentado":5427,"▁líne":5428,"▁bizarrap\r\n":5429,"▁sentimientos":5430,"▁jaime":5431,"▁¿sabes":5432,"▁mitad":5433,"▁haciéndo":5434,"▁tatuaj":5435,"▁rottweil":5436,"▁réplica":5437,"▁empecé":5438,"▁vocabul":5439,"▁holly":5440,"▁monstru":5441,"▁almoha":5442,"▁ejecu":5443,"-4":5444,"-g":5445,"-pa":5446,"bos":5447,"gles":5448,"ique":5449,"jan":5450,"lor":5451,"oh":5452,"tú":5453,"ting":5454,"tina":5455,"vé":5456,"ye\r\n":5457,"zando":5458,"zas\r\n":5459,"éri":5460,"úl":5461,"▁ef":5462,"▁edad":5463,"▁md":5464,"▁mero,":5465,"▁star":5466,"▁lana\r\n":5467,"▁atro":5468,"▁año\r\n":5469,"ano,":5470,"▁dela":5471,"▁decía":5472,"▁var":5473,"onas":5474,"▁lapi":5475,"▁lado,":5476,"▁hones":5477,"un\r\n":5478,"▁mel":5479,"▁mi?\r\n":5480,"▁miente\r\n":5481,"▁fern":5482,"▁lot\r\n":5483,"▁tem":5484,"▁team\r\n":5485,"▁temá":5486,"▁sigo\r\n":5487,"▁condu":5488,"▁seca":5489,"▁sed\r\n":5490,"ciente":5491,"▁grou":5492,"▁combi":5493,"able\r\n":5494,"▁para,":5495,"▁party,":5496,"tido\r\n":5497,"▁cuch":5498,"di\r\n":5499,"▁letr":5500,"▁jui":5501,"▁rada":5502,"▁porquería\r\n":5503,"▁made":5504,"▁sabor\r\n":5505,"▁inver":5506,"▁incon":5507,"▁caj":5508,"▁pa',":5509,"▁sola,":5510,"▁sobran":5511,"▁perros":5512,"▁chil":5513,"▁pib":5514,"▁pio":5515,"▁pico":5516,"▁traes":5517,"▁track\r\n":5518,"▁pues\r\n":5519,"▁vag":5520,"▁pude":5521,"▁ganado":5522,"▁seria":5523,"▁peca":5524,"▁cop":5525,"▁calent":5526,"én,":5527,"én\r\n":5528,"▁liga\r\n":5529,"▁'tan":5530,"sion":5531,"▁mota":5532,"▁solita":5533,"▁boo\r\n":5534,"▁cosa'":5535,"carme":5536,"▁juro,":5537,"▁cash":5538,"▁cash\r\n":5539,"▁muera":5540,"ble,":5541,"▁hop,":5542,"▁dudas\r\n":5543,"▁cabeza,":5544,"lan\r\n":5545,"▁abar":5546,"▁maría,":5547,"▁paredes":5548,"▁muerto,":5549,"▁doctor":5550,"▁espera,":5551,"▁expor":5552,"▁buscándote\r\n":5553,"▁feka":5554,"▁improvisar\r\n":5555,"▁improvisando\r\n":5556,"▁nene,":5557,"▁puesta":5558,"▁freestyler":5559,"▁banda":5560,"▁bandido":5561,"▁chile":5562,"▁sueña":5563,"dores":5564,"▁obser":5565,"▁baila\r\n":5566,"▁encima,":5567,"▁wow":5568,"▁agua\r\n":5569,"▁encontrar\r\n":5570,"▁cintura":5571,"▁micro,":5572,"h-eh,":5573,"▁dejarlo":5574,"h-oh-oh\r\n":5575,"▁acei":5576,"▁llevó":5577,"▁off":5578,"▁fresco":5579,"▁fresco\r\n":5580,"▁fresco,":5581,"▁oye\r\n":5582,"▁cien\r\n":5583,"▁salida":5584,"▁extraño":5585,"▁brillar\r\n":5586,"▁terminan":5587,"▁robé\r\n":5588,"▁pinto":5589,"▁desaf":5590,"▁vampi":5591,"▁levanto":5592,"▁afuera,":5593,"▁novia":5594,"▁wannab":5595,"▁sky":5596,"▁skrr":5597,"▁ojo'":5598,"▁ojos\r\n":5599,"▁perfecto":5600,"▁responde":5601,"▁soñar\r\n":5602,"▁flashe":5603,"▁historia\r\n":5604,"▁sientes":5605,"▁comprar\r\n":5606,"▁brincando":5607,"▁bum,":5608,"tic\r\n":5609,"▁cuesta":5610,"▁mensaje":5611,"▁sexo":5612,"▁cerebro\r\n":5613,"▁humilde":5614,"▁rumor":5615,"▁tinta":5616,"▁zapas":5617,"▁jurado":5618,"▁heridas":5619,"▁damn,":5620,"▁enemigos":5621,"▁-ína\r\n":5622,"▁fluidez\r\n":5623,"▁sufrir\r\n":5624,"▁area":5625,"▁anoche":5626,"▁quavo\r\n":5627,"▁actitud":5628,"▁págame,":5629,"▁memoria\r\n":5630,"▁pprrumm\r\n":5631,"▁ventana":5632,"▁ilumina":5633,"▁colecti":5634,"▁ház":5635,"▁duki,":5636,"▁inspira":5637,"▁avís":5638,"▁easy":5639,"▁aburri":5640,"▁document":5641,"▁¡wuh!\r\n":5642,"▁stigma":5643,"▁tucun,":5644,"▁lamentable":5645,"▁suici":5646,"▁shout-out":5647,"▁aveni":5648,"▁nanananan":5649,"▁groupi":5650,"'re":5651,"-po":5652,".i":5653,"b\r\n":5654,"cri":5655,"cción":5656,"dá":5657,"darme":5658,"ee":5659,"gor":5660,"ger\r\n":5661,"ito,":5662,"jando":5663,"kin'":5664,"lu":5665,"miendo":5666,"no'":5667,"ron":5668,"tó\r\n":5669,"var":5670,"zos\r\n":5671,"ír":5672,"▁7":5673,"▁emo":5674,"▁ple":5675,"▁ty":5676,"▁aero":5677,"▁na,":5678,"▁name":5679,"anza":5680,"▁detal":5681,"▁hos":5682,"▁meet":5683,"▁miami":5684,"rado\r\n":5685,"▁fe,":5686,"▁siti":5687,"▁sill":5688,"ami\r\n":5689,"▁hay\r\n":5690,"leg":5691,"leta\r\n":5692,"▁ojo":5693,"▁otro\r\n":5694,"▁otra\r\n":5695,"la'\r\n":5696,"▁pago":5697,"▁toal":5698,"▁tener\r\n":5699,"tir\r\n":5700,"ón?\r\n":5701,"▁ileg":5702,"▁retro":5703,"▁retras":5704,"dia\r\n":5705,"is,":5706,"▁descu":5707,"▁despa":5708,"▁nadar":5709,"▁na-na-na\r\n":5710,"▁caga":5711,"llos\r\n":5712,"▁perse":5713,"▁vere":5714,"▁pasaj":5715,"▁pasar,":5716,"▁quiere\r\n":5717,"ela\r\n":5718,"▁ando\r\n":5719,"▁anteri":5720,"tros\r\n":5721,"▁ring":5722,"▁rimo,":5723,"▁aroma":5724,"▁llevo\r\n":5725,"▁llega\r\n":5726,"▁aclar":5727,"▁manera\r\n":5728,"▁coje":5729,"ran\r\n":5730,"▁calenti":5731,"▁calor,":5732,"▁caliente":5733,"▁ama,":5734,"▁ulti":5735,"tarme\r\n":5736,"▁escab":5737,"▁escol":5738,"▁cantan":5739,"▁cantando":5740,"▁dejan":5741,"▁dejando":5742,"▁lib":5743,"▁never":5744,"▁move":5745,"▁pongas":5746,"▁solas\r\n":5747,"▁diste":5748,"▁thu":5749,"▁preci":5750,"▁cima":5751,"▁cima\r\n":5752,"▁fallar":5753,"▁juro\r\n":5754,"▁caser":5755,"▁beba":5756,"▁mueva":5757,"▁hola":5758,"▁cabo":5759,"▁vuelva":5760,"▁puedo,":5761,"▁pensás":5762,"▁escrito":5763,"jeme":5764,"▁orig":5765,"▁cuentas":5766,"amo',":5767,"▁fuck\r\n":5768,"▁valen":5769,"▁pesos":5770,"▁santo":5771,"▁voces":5772,"▁pues,":5773,"▁some":5774,"▁sombra":5775,"▁\"el":5776,"▁bang":5777,"▁ustedes\r\n":5778,"▁corazon":5779,"▁cuero\r\n":5780,"▁papá,":5781,"▁suelo,":5782,"▁daría":5783,"▁panas":5784,"▁pierde":5785,"▁pierdes":5786,"▁vista":5787,"▁autor":5788,"▁prendi":5789,"▁prender":5790,"▁tumbar":5791,"▁fama,":5792,"▁estupi":5793,"▁mentira,":5794,"▁tres,":5795,"▁sobrevi":5796,"▁aparezco":5797,"▁baile\r\n":5798,"▁minutos":5799,"iones\r\n":5800,"▁defor":5801,"▁intento\r\n":5802,"▁trueno,":5803,"▁borr":5804,"▁pienso,":5805,"▁controlo":5806,"▁vamos\r\n":5807,"▁ceba":5808,"▁sacarte":5809,"▁drippin'\r\n":5810,"▁bols":5811,"▁'tamos":5812,"▁mc\r\n":5813,"▁campeón,":5814,"▁digan\r\n":5815,"▁hambre\r\n":5816,"▁copia":5817,"▁gil\r\n":5818,"▁transfor":5819,"▁realidad,":5820,"▁full\r\n":5821,"▁cielo,":5822,"▁interesa\r\n":5823,"▁perreo":5824,"▁merece":5825,"▁gargan":5826,"▁mensaje\r\n":5827,"▁dice:\r\n":5828,"▁aceptar":5829,"▁millonario":5830,"▁enfrent":5831,"▁metido":5832,"▁herida":5833,"▁orgullo":5834,"▁madre\r\n":5835,"▁leyenda,":5836,"▁prometo":5837,"▁decime:":5838,"▁artista\r\n":5839,"▁pegué":5840,"▁joven,":5841,"-rum":5842,"-no-no":5843,"▁guerrero":5844,"▁escapar\r\n":5845,"▁línea":5846,"▁refle":5847,"▁vacilando":5848,"▁jarab":5849,"▁power\r\n":5850,"▁conviene":5851,"h-yeah\r\n":5852,"▁concierto'":5853,"▁interior":5854,"▁espalda":5855,"▁again\r\n":5856,"▁blesse":5857,"▁jajaja\r\n":5858,"▁cazzu,":5859,"▁público":5860,"▁vergüenza":5861,"▁conexión\r\n":5862,".a.":5863,"▁házmelo":5864,"-f":5865,"-pi":5866,"bur":5867,"có":5868,"cina\r\n":5869,"dé":5870,"fal":5871,"ió":5872,"ky":5873,"rendo":5874,"tía":5875,"▁‘":5876,"▁echo":5877,"▁mm":5878,"▁mas\r\n":5879,"▁pás":5880,"▁sta":5881,"▁sni":5882,"▁ta'":5883,"▁aus":5884,"▁abi":5885,"▁atiendo":5886,"▁queres":5887,"▁queremos":5888,"▁decapi":5889,"ono":5890,"ona,":5891,"▁lag":5892,"▁elim":5893,"▁hust":5894,"▁b\r\n":5895,"▁mia":5896,"▁miento":5897,"alá":5898,"almente":5899,"ink":5900,"ra!\r\n":5901,"▁fina":5902,"▁temor":5903,"▁siga":5904,"▁sigan":5905,"▁conch":5906,"▁contras":5907,"▁yo'":5908,"da?\r\n":5909,"▁sei'":5910,"cido,":5911,"ria\r\n":5912,"rimi":5913,"▁diría":5914,"▁ocho":5915,"▁oje":5916,"lada":5917,"▁tuviste":5918,"▁patr":5919,"▁toa":5920,"▁tocan":5921,"▁quita":5922,"▁pare\r\n":5923,"▁partir":5924,"▁alre":5925,"▁if":5926,"▁revis":5927,"olver":5928,"▁vip\r\n":5929,"▁vivo,":5930,"▁tiro,":5931,"▁nacer":5932,"▁nacen":5933,"▁nacion":5934,"▁na-n":5935,"▁porquería":5936,"▁mata\r\n":5937,"▁sabes\r\n":5938,"▁inyec":5939,"llita":5940,"▁perras":5941,"▁perro,":5942,"▁ve'":5943,"▁veas":5944,"▁chin":5945,"▁wana":5946,"▁wuh":5947,"▁verde":5948,"▁pido\r\n":5949,"▁pif,":5950,"▁tragos":5951,"▁quieres,":5952,"▁anali":5953,"▁rin":5954,"▁¿es":5955,"▁asa":5956,"▁saltar":5957,"▁salva":5958,"▁carg":5959,"▁carros":5960,"quito\r\n":5961,"▁venís":5962,"▁pupi":5963,"▁sonido":5964,"▁sonris":5965,"pac":5966,"paña":5967,"▁pecado":5968,"▁coco,":5969,"▁tiene\r\n":5970,"▁ambi":5971,"▁ken":5972,"▁kri":5973,"teres":5974,"▁crecer\r\n":5975,"▁quédate":5976,"▁prácti":5977,"▁escamp":5978,"▁roque":5979,"▁rola\r\n":5980,"▁dejaste":5981,"▁mama\r\n":5982,"▁ella,":5983,"▁'ca":5984,"▁hablando\r\n":5985,"▁busco,":5986,"▁sapo":5987,"▁modu":5988,"▁hecho,":5989,"▁prohibi":5990,"▁soltando":5991,"▁bobo\r\n":5992,"▁falle":5993,"den,":5994,"▁sha":5995,"▁bajen":5996,"▁bajame":5997,"▁hola,":5998,"▁viento":5999,"▁pala,":6000,"▁escup":6001,"▁going":6002,"talo":6003,"can,":6004,"▁abs":6005,"▁abraz":6006,"▁maría\r\n":6007,"▁fría\r\n":6008,"▁parecen":6009,"▁-s":6010,"▁gusto":6011,"▁explos":6012,"▁cambié":6013,"▁joder":6014,"▁voa'":6015,"▁improviso":6016,"▁chav":6017,"▁chapo":6018,"▁weá":6019,"▁zona":6020,"▁\"a":6021,"rr,":6022,"▁preso":6023,"▁trá":6024,"▁irse":6025,"▁problema,":6026,"▁pusi":6027,"▁grito":6028,"▁respeta":6029,"▁palabras\r\n":6030,"▁guerre":6031,"▁polvo":6032,"▁perdiste":6033,"▁drogado":6034,"▁mentiras\r\n":6035,"▁traigan":6036,"▁dani":6037,"mo,\r\n":6038,"▁entiendo\r\n":6039,"▁confor":6040,"▁revent":6041,"▁reviento":6042,"▁déjeme":6043,"▁minu',":6044,"▁chees":6045,"▁mesa\r\n":6046,"▁recuerdos\r\n":6047,"éndome\r\n":6048,"▁consu":6049,"▁just":6050,"▁argentina,":6051,"▁molly":6052,"aron,":6053,"▁terminó":6054,"▁maricón\r\n":6055,"▁apache":6056,"▁frenar":6057,"▁cuantos":6058,"▁cansado":6059,"▁pienso\r\n":6060,"▁salir\r\n":6061,"▁contacto":6062,"▁sentí":6063,"▁cadena\r\n":6064,"▁pasado,":6065,"▁cristo":6066,"▁uoh-":6067,"ght":6068,"▁completo":6069,"▁billetes":6070,"▁ojalá":6071,"▁will":6072,"▁mental\r\n":6073,"▁agresi":6074,"▁records":6075,"▁autoesti":6076,"▁microphone":6077,"▁alcanz":6078,"▁cuántas":6079,"▁ciego\r\n":6080,"▁venir\r\n":6081,"▁haters\r\n":6082,"▁acepto":6083,"tiendo\r\n":6084,"▁diamantes":6085,"▁201":6086,"▁bailarlo":6087,"▁padre,":6088,"▁enloquecer\r\n":6089,"▁vacío\r\n":6090,"▁coger":6091,"▁pelícu":6092,"▁pistola":6093,"▁c.r.o":6094,"▁jordan":6095,"▁distinto":6096,"▁apunto":6097,"▁leyenda":6098,"-na-na,":6099,"▁about":6100,"▁quieto,":6101,"▁weed,":6102,"▁break":6103,"▁criminal":6104,"▁venezuela":6105,"▁locura":6106,"▁ruido\r\n":6107,"▁sufrimiento":6108,"▁hagá":6109,"▁mundial":6110,"▁gratis\r\n":6111,"▁hitboy\r\n":6112,"▁suficiente\r\n":6113,"▁nosotros,":6114,"▁oscuridad\r\n":6115,"▁mojada":6116,"▁crack":6117,"▁poesía\r\n":6118,"▁éste":6119,"▁stuar":6120,"▁ticket":6121,"▁durmiendo":6122,"▁crazy":6123,"▁café\r\n":6124,"▁hacés":6125,"▁karma":6126,"▁gaviota":6127,"▁experiencia\r\n":6128,"▁riquelme":6129,"▁¡dímelo!\r\n":6130,"▁treinta":6131,"la-lola-lo":6132,"▁nananau,nananau,nananau\r\n":6133,"▁tussi,":6134,"▁instagra":6135,"▁champagne\r\n":6136,"▁ricardo":6137,"▁aerop":6138,"'s\r\n":6139,"bla":6140,"came,":6141,"dan,":6142,"gs":6143,"hion":6144,"ji":6145,"más":6146,"mento\r\n":6147,"ny,":6148,"ps":6149,"ros,":6150,"rone":6151,"tía\r\n":6152,"uch":6153,"uble":6154,"vando":6155,"vas\r\n":6156,"ára":6157,"▁o\r\n":6158,"▁ej":6159,"▁po,":6160,"uelo":6161,"▁tamos":6162,"▁duela\r\n":6163,"▁aro":6164,"▁aument":6165,"ere\r\n":6166,"eros\r\n":6167,"enas":6168,"▁quedes":6169,"▁espi":6170,"▁detener":6171,"▁not":6172,"▁noti":6173,"▁la\r\n":6174,"▁ens":6175,"▁bin":6176,"▁bás":6177,"▁but":6178,"▁braz":6179,"ine,":6180,"▁fle":6181,"tao":6182,"tamos":6183,"tados":6184,"▁una,":6185,"▁concent":6186,"row":6187,"cidad":6188,"▁gr":6189,"rimas":6190,"ientos":6191,"▁difi":6192,"▁dibu":6193,"▁ok,":6194,"laz":6195,"▁paci":6196,"▁toas":6197,"▁toda\r\n":6198,"▁to',":6199,"▁estal":6200,"▁alma,":6201,"tita":6202,"▁repor":6203,"▁refer":6204,"▁pero,":6205,"▁jimm":6206,"ismo":6207,"entro,":6208,"▁yea,":6209,"▁time":6210,"▁tiré":6211,"▁suba":6212,"o's":6213,"▁desar":6214,"▁destino\r\n":6215,"▁nacho":6216,"▁radio":6217,"▁porque,":6218,"▁una'":6219,"▁mato,":6220,"▁mata,":6221,"▁incre":6222,"▁caja":6223,"vir":6224,"▁niño,":6225,"▁wuh,":6226,"gado\r\n":6227,"▁piz":6228,"▁pila":6229,"▁trape":6230,"▁pases":6231,"▁quieras\r\n":6232,"culo\r\n":6233,"culos":6234,"▁mismos":6235,"bia\r\n":6236,"▁podri":6237,"▁salva\r\n":6238,"▁carita":6239,"▁venas\r\n":6240,"pa'":6241,"▁pega\r\n":6242,"▁lleve":6243,"▁mantu":6244,"▁coo":6245,"tud\r\n":6246,"▁creas":6247,"tarse":6248,"guas":6249,"▁prr":6250,"▁escas":6251,"▁rode":6252,"▁rojo":6253,"▁canal":6254,"▁canto\r\n":6255,"▁can't":6256,"▁lim":6257,"▁bay":6258,"▁busque":6259,"▁saca,":6260,"▁sapo,":6261,"▁moj":6262,"▁moda\r\n":6263,"▁mochi":6264,"enso":6265,"▁provo":6266,"▁protes":6267,"▁profe":6268,"▁solu":6269,"▁solos":6270,"▁soldado":6271,"mas,":6272,"▁tiene'":6273,"▁juan":6274,"▁esa'":6275,"▁apu":6276,"▁plaza":6277,"▁placer\r\n":6278,"▁mueka":6279,"▁how":6280,"▁hoes":6281,"▁llamas":6282,"▁llames":6283,"▁llamar\r\n":6284,"▁viendo\r\n":6285,"▁dudo\r\n":6286,"▁cabro":6287,"▁sabemo'":6288,"es,\r\n":6289,"▁bill":6290,"▁pensaba":6291,"▁tomó":6292,"ador":6293,"▁esperar":6294,"▁cuenta,":6295,"▁pasa?\r\n":6296,"▁gracias\r\n":6297,"▁conocí":6298,"▁feo":6299,"▁dímelo":6300,"▁fie":6301,"▁fiel":6302,"▁zona\r\n":6303,"▁\"s":6304,"▁who's":6305,"▁banda\r\n":6306,"▁clave":6307,"▁cuerpo,":6308,"▁colora":6309,"▁fuimo'":6310,"▁gira,":6311,"▁fuman":6312,"▁presente":6313,"▁obs":6314,"▁pierda":6315,"▁13":6316,"▁trom":6317,"▁trunk":6318,"▁mucho,":6319,"▁irme":6320,"▁demás":6321,"▁woh,":6322,"▁interpre":6323,"▁pene\r\n":6324,"▁nigh":6325,"sapp":6326,"▁necesario":6327,"▁estuvo":6328,"▁diabla,":6329,"▁homi":6330,"▁mentiras":6331,"gia\r\n":6332,"▁señora":6333,"▁vivimos":6334,"▁ritmo\r\n":6335,"▁eyes":6336,"▁llegando":6337,"▁batalla\r\n":6338,"▁plan\r\n":6339,"▁llenar":6340,"▁odian":6341,"▁odio\r\n":6342,"▁kid":6343,"▁kilo":6344,"▁dracula":6345,"▁aprendi":6346,"▁eleva":6347,"▁buta":6348,"▁seguís":6349,"▁ofen":6350,"▁fresh":6351,"▁fresca":6352,"▁fresh,":6353,"▁cruz\r\n":6354,"▁ustedes,":6355,"▁molesta":6356,"▁hicimo'":6357,"▁defen":6358,"-e-e":6359,"▁ves?\r\n":6360,"▁blanca":6361,"▁cuantas":6362,"▁control":6363,"▁pasó?\r\n":6364,"▁brega":6365,"▁sigues":6366,"▁peligro":6367,"▁palabras,":6368,"▁enseñar\r\n":6369,"▁bolsi":6370,"▁segunda":6371,"▁cadena,":6372,"▁prefiere":6373,"▁fácil,":6374,"▁uoh\r\n":6375,"▁encanta\r\n":6376,"▁empezar":6377,"▁largo":6378,"▁rubi":6379,"▁beat,":6380,"▁whatsapp":6381,"▁oscuro":6382,"▁invito":6383,"▁espejo":6384,"▁sienten":6385,"▁viola":6386,"▁movimiento":6387,"▁rebota\r\n":6388,"▁ciego":6389,"▁error\r\n":6390,"▁ocupa":6391,"▁fashion":6392,"▁títu":6393,"▁evento":6394,"▁evento\r\n":6395,"▁comprendo\r\n":6396,"▁lengua":6397,"▁convier":6398,"▁consegu":6399,"▁funeral,":6400,"▁salamandra,":6401,"▁alcohol\r\n":6402,"▁eviden":6403,"▁trucos":6404,"▁depende":6405,"▁preocup":6406,"▁suerte\r\n":6407,"▁boss\r\n":6408,"▁contento\r\n":6409,"▁murió\r\n":6410,"▁gangsta":6411,"▁inteligencia\r\n":6412,"-ta-ta":6413,"▁comienza":6414,"▁remix\r\n":6415,"▁abrir":6416,"▁guerrero\r\n":6417,"▁ocasiones":6418,"▁piernas":6419,"▁viniste":6420,"▁padre\r\n":6421,"▁paliza":6422,"▁ghetto":6423,"▁arruin":6424,"▁años\r\n":6425,"▁ángeles":6426,"▁lírica":6427,"▁delincuente\r\n":6428,"▁sencillo\r\n":6429,"▁situación":6430,"▁gonna":6431,"▁sufrimiento\r\n":6432,"▁canserbero\r\n":6433,"▁estrella'\r\n":6434,"▁receta":6435,"▁elegante\r\n":6436,"▁fortnite\r\n":6437,"▁maradona":6438,"▁engañ":6439,"▁contenido\r\n":6440,"▁dólar":6441,"▁contrario\r\n":6442,"▁kelowa,":6443,"▁zorra":6444,"▁sistema":6445,"▁hello":6446,"▁world":6447,"▁brother\r\n":6448,"▁próxima":6449,"▁arrepenti":6450,"▁ansie":6451,"▁efec":6452,".i.":6453,"▁wanak":6454,"árame\r\n":6455,"-es":6456,"-o\r\n":6457,":\r\n":6458,"bb":6459,"bras":6460,"bando\r\n":6461,"ct":6462,"col":6463,"cero,":6464,"come":6465,"cán\r\n":6466,"dre\r\n":6467,"fan":6468,"form":6469,"game":6470,"ita,":6471,"jas,":6472,"mera\r\n":6473,"ny":6474,"ps\r\n":6475,"uf":6476,"xe":6477,"ído":6478,"—\r\n":6479,"▁#":6480,"▁mk":6481,"▁mario":6482,"▁ps":6483,"▁pent":6484,"▁sen":6485,"▁sense":6486,"▁clo":6487,"▁cic":6488,"▁torm":6489,"▁ago":6490,"▁apo":6491,"▁aki":6492,"▁agi":6493,"▁atras":6494,"▁awe":6495,"erá":6496,"enle":6497,"▁espar":6498,"▁deal":6499,"▁vini":6500,"▁now":6501,"▁lados\r\n":6502,"▁hal":6503,"▁hues":6504,"▁entier":6505,"▁mia\r\n":6506,"▁miras":6507,"▁fing":6508,"▁fino":6509,"▁fé\r\n":6510,"▁techo":6511,"▁conv":6512,"▁con\r\n":6513,"▁conde":6514,"▁conge":6515,"amas":6516,"dado\r\n":6517,"da',":6518,"▁separ":6519,"▁sepas":6520,"▁pors":6521,"▁hat":6522,"▁g,":6523,"▁ger":6524,"▁game":6525,"ritu":6526,"le'":6527,"la'":6528,"▁pac":6529,"chas":6530,"▁too":6531,"▁paran":6532,"▁parto\r\n":6533,"queta":6534,"▁alta":6535,"tió":6536,"▁iv":6537,"▁ira":6538,"▁revi":6539,"▁rell":6540,"dis":6541,"▁vieron":6542,"▁villa":6543,"▁yaoh\r\n":6544,"▁tiemb":6545,"▁supe":6546,"▁desi":6547,"▁nave\r\n":6548,"▁ratch":6549,"▁inj":6550,"▁inmor":6551,"▁cate":6552,"▁socie":6553,"▁ching":6554,"▁pieza":6555,"▁pase\r\n":6556,"▁quiera'":6557,"▁mur":6558,"tral":6559,"▁mismo,":6560,"▁¿ent":6561,"▁rich":6562,"▁míos\r\n":6563,"▁podía":6564,"▁asom":6565,"▁salsa":6566,"▁carre":6567,"▁caram":6568,"▁hija":6569,"▁ganga":6570,"▁acci":6571,"▁man,":6572,"▁llame":6573,"deras":6574,"▁americ":6575,"▁khe":6576,"▁creci":6577,"▁crema":6578,"gulo":6579,"▁prens":6580,"▁prra\r\n":6581,"▁ex\r\n":6582,"▁hablar,":6583,"▁fur":6584,"▁corra":6585,"▁corren":6586,"▁head":6587,"▁barcel":6588,"ica,":6589,"▁progres":6590,"▁disc":6591,"▁throw":6592,"▁buena\r\n":6593,"▁pregún":6594,"▁precis":6595,"▁luci":6596,"▁luch":6597,"▁fals":6598,"▁shh,":6599,"▁monte":6600,"▁mueve\r\n":6601,"ten,":6602,"tencia":6603,"▁gota":6604,"▁toman":6605,"▁uso":6606,"▁parece\r\n":6607,"▁face,":6608,"▁-e":6609,"▁-o":6610,"qué\r\n":6611,"▁quería\r\n":6612,"▁querían":6613,"▁gusta\r\n":6614,"torio":6615,"▁fin,":6616,"▁mori":6617,"▁buscando\r\n":6618,"▁gramos":6619,"▁gramm":6620,"▁conoz":6621,"▁conoces":6622,"▁jode":6623,"▁joder,":6624,"▁puesto\r\n":6625,"▁huy":6626,"▁fif":6627,"▁zombi":6628,"▁banco":6629,"▁decir,":6630,"▁papa\r\n":6631,"▁pappo":6632,"▁insul":6633,"▁panza":6634,"▁antes,":6635,"▁tarje":6636,"▁tarde,":6637,"▁repárame\r\n":6638,"▁shop,":6639,"▁termino":6640,"▁termina\r\n":6641,"▁momento,":6642,"▁basura":6643,"▁juntos\r\n":6644,"▁fuera\r\n":6645,"▁perdió":6646,"▁dispara\r\n":6647,"▁disparar\r\n":6648,"▁mañana,":6649,"▁dolor,":6650,"▁huevo\r\n":6651,"erno,":6652,"▁entiendes":6653,"▁confío":6654,"▁encuentra":6655,"▁encuentran":6656,"▁meses":6657,"▁meses\r\n":6658,"▁drama":6659,"▁cuader":6660,"▁cuatro\r\n":6661,"▁aceler":6662,"▁roncando":6663,"▁gold":6664,"▁recuerdos":6665,"▁seguro\r\n":6666,"▁matamos,\r\n":6667,"▁ayud":6668,"▁ayudo":6669,"▁ayuda\r\n":6670,"▁vesti":6671,"▁alguien\r\n":6672,"▁cuidau":6673,"▁freno\r\n":6674,"▁blancos":6675,"▁llegaron":6676,"▁pienses":6677,"▁controla":6678,"▁cele":6679,"▁sentirme":6680,"▁guarda":6681,"▁esconder":6682,"▁adicto":6683,"▁adidas,":6684,"▁domino":6685,"▁dale\r\n":6686,"▁larga":6687,"▁preparadas\r\n":6688,"▁copilo":6689,"▁giles":6690,"▁asesino":6691,"▁flotando":6692,"▁quizá":6693,"▁rostro\r\n":6694,"▁entiendo,":6695,"▁agár":6696,"▁ninguno\r\n":6697,"▁trofe":6698,"▁violo":6699,"▁music,":6700,"▁music\r\n":6701,"▁saluda":6702,"▁espada":6703,"▁bum\r\n":6704,"▁cálla":6705,"▁trappin'":6706,"▁comida,":6707,"▁descono":6708,"▁minutito\r\n":6709,"▁colores\r\n":6710,"▁avisa":6711,"▁botella\r\n":6712,"▁estructuras":6713,"▁hood":6714,"leros":6715,"▁nueva,":6716,"▁humildad":6717,"neces":6718,"▁quinto":6719,"▁rengl":6720,"▁¿será":6721,"▁funeral":6722,"▁metió":6723,"▁burn":6724,"▁tendría":6725,"▁libertad":6726,"▁marihuana\r\n":6727,"▁policía":6728,"▁corriente":6729,"▁pistola\r\n":6730,"▁jorna":6731,"▁fantasme":6732,"▁cuello\r\n":6733,"▁lluvia\r\n":6734,"▁cocaine\r\n":6735,"▁inteligente\r\n":6736,"▁comienzo":6737,"▁bobo,":6738,"▁mostrar":6739,"▁virus":6740,"▁killah":6741,"▁mandé":6742,"▁piernas\r\n":6743,"▁necesitas":6744,"▁padres":6745,"▁principio":6746,"▁culiao":6747,"▁aprieta":6748,"▁celular\r\n":6749,"▁twer":6750,"▁súbe":6751,"▁feka'":6752,"▁canserbero":6753,"▁receta\r\n":6754,"▁jose":6755,"▁rifles":6756,"▁rimar\r\n":6757,"▁uuuh":6758,"▁hitboy,":6759,"▁oportunidad\r\n":6760,"▁vacía\r\n":6761,"▁juzgar":6762,"▁beef\r\n":6763,"▁plug\r\n":6764,"-wo-wo":6765,"▁famoso":6766,"▁cacerio\r\n":6767,"▁terrible":6768,"▁pablo":6769,"▁recuper":6770,"▁mafia":6771,"▁gansta\r\n":6772,"▁¿querés":6773,"▁móntate":6774,"-pro-pro":6775,"▁cumplea":6776,"▁incluso":6777,"▁mediocre\r\n":6778,"▁champion":6779,"▁saiyaj":6780,"▁heavy,":6781,"▁ere'":6782,"▁teore":6783,"▁religi":6784,"▁destreza\r\n":6785,"▁vocabulario\r\n":6786,"▁aeropuer":6787,"▁jimmy":6788,"▁aweona":6789,"-m":6790,"-co":6791,"??":6792,"ah":6793,"ao\r\n":6794,"com":6795,"dente":6796,"dul":6797,"fer\r\n":6798,"ion\r\n":6799,"ific":6800,"ju":6801,"ko\r\n":6802,"mero":6803,"mera":6804,"mul":6805,"no'\r\n":6806,"pal":6807,"pol":6808,"pis":6809,"sto":6810,"tari":6811,"té\r\n":6812,"té,":6813,"va,":6814,"ves\r\n":6815,"▁ma\r\n":6816,"▁sno":6817,"▁stri":6818,"▁ston":6819,"▁da\r\n":6820,"▁dado":6821,"▁a,":6822,"▁ame":6823,"eres":6824,"▁nin":6825,"▁quema,":6826,"anos,":6827,"osos":6828,"▁de,":6829,"aso":6830,"ono\r\n":6831,"▁noto\r\n":6832,"▁lao'":6833,"▁el\r\n":6834,"uno":6835,"▁boni":6836,"rea\r\n":6837,"alta":6838,"ino,":6839,"▁fan\r\n":6840,"▁tema\r\n":6841,"ome\r\n":6842,"▁hací":6843,"▁gán":6844,"rito":6845,"iente\r\n":6846,"▁dió":6847,"▁die\r\n":6848,"▁oi":6849,"▁opera":6850,"lace\r\n":6851,"able,":6852,"▁pai":6853,"▁pais":6854,"▁pares":6855,"▁parque":6856,"▁partes\r\n":6857,"tivo":6858,"óni":6859,"dito":6860,"▁vimos":6861,"▁viva":6862,"▁vicio":6863,"▁vidri":6864,"▁tira\r\n":6865,"▁suce":6866,"▁na-na-na":6867,"▁rata":6868,"▁rapi":6869,"▁raya":6870,"▁parado":6871,"▁maqui":6872,"▁into":6873,"▁pa'ca,":6874,"vidad":6875,"ll\r\n":6876,"▁perra,":6877,"▁niña":6878,"▁vea":6879,"▁vemos":6880,"▁chino":6881,"▁verga":6882,"▁verga\r\n":6883,"▁pico\r\n":6884,"orado\r\n":6885,"▁trak":6886,"▁pasen":6887,"▁pasos":6888,"▁paso\r\n":6889,"cua":6890,"▁este,":6891,"▁este\r\n":6892,"▁rut":6893,"▁¿me":6894,"▁yeah-eh\r\n":6895,"▁sale,":6896,"▁carlos":6897,"▁careta\r\n":6898,"quita":6899,"▁veneno":6900,"▁puñ":6901,"▁ser,":6902,"papa":6903,"▁pedi":6904,"umar":6905,"▁mansión":6906,"tro,":6907,"▁malos\r\n":6908,"▁coche":6909,"▁coge":6910,"▁calles":6911,"▁tienes\r\n":6912,"▁rodi":6913,"▁ropa\r\n":6914,"▁cantor":6915,"▁cantar\r\n":6916,"▁canciones\r\n":6917,"▁cantón\r\n":6918,"▁dejen":6919,"▁exig":6920,"▁'tás":6921,"▁bat":6922,"▁clon":6923,"▁habla\r\n":6924,"▁mota,":6925,"▁hecho\r\n":6926,"▁resto,":6927,"▁bardo":6928,"▁barras":6929,"▁propues":6930,"▁soltar":6931,"▁bot":6932,"▁dispues":6933,"cen\r\n":6934,"▁falta,":6935,"ganme":6936,"▁guan":6937,"▁bajan":6938,"▁baja'":6939,"▁hoe,":6940,"cione'":6941,"▁llama,":6942,"▁palos":6943,"noti":6944,"▁bici":6945,"▁pensando\r\n":6946,"▁pensaste":6947,"▁davi":6948,"▁daño\r\n":6949,"▁rompa":6950,"▁rapea,":6951,"mo',":6952,"▁muertos":6953,"▁barrios":6954,"▁-n":6955,"▁empu":6956,"▁piense":6957,"▁cambio,":6958,"▁ay-ay":6959,"▁miento\r\n":6960,"▁reales\r\n":6961,"▁vale\r\n":6962,"▁morena\r\n":6963,"▁peso\r\n":6964,"▁pese\r\n":6965,"▁peste\r\n":6966,"▁dicen:":6967,"▁jodiendo":6968,"▁hura":6969,"▁\"¿":6970,"▁who":6971,"▁why":6972,"▁whis":6973,"▁bandi":6974,"▁escuchame":6975,"▁clave\r\n":6976,"▁wah\r\n":6977,"▁panam":6978,"▁presum":6979,"▁presión\r\n":6980,"▁ahí,":6981,"▁obli":6982,"▁16":6983,"▁demues":6984,"▁demás\r\n":6985,"▁repro":6986,"▁interno":6987,"▁respeta\r\n":6988,"▁nuestros":6989,"▁nuestro\r\n":6990,"▁basta,":6991,"▁disparar":6992,"▁flexing\r\n":6993,"▁home":6994,"gico":6995,"▁pegao'\r\n":6996,"▁chico\r\n":6997,"▁dijo:":6998,"▁argum":6999,"▁kiero":7000,"▁revol":7001,"▁reventar":7002,"▁aprende":7003,"▁buscarte":7004,"▁ronal":7005,"▁foto\r\n":7006,"▁subesti":7007,"▁mujeres,":7008,"▁jefe,":7009,"▁duelo":7010,"▁enamora\r\n":7011,"▁enseño":7012,"▁obvio\r\n":7013,"▁representar":7014,"▁olvidarme":7015,"▁viajando":7016,"ármelo\r\n":7017,"▁vivas":7018,"▁freno":7019,"▁gira\r\n":7020,"▁listo\r\n":7021,"aliza":7022,"▁cualquiera,":7023,"▁chambe":7024,"▁want":7025,"▁concier":7026,"▁lugar,":7027,"▁duerme":7028,"▁perderme":7029,"▁aquella":7030,"▁piel,":7031,"▁ñe":7032,"▁entramos":7033,"▁empezó":7034,"▁completa\r\n":7035,"▁beats\r\n":7036,"▁causo":7037,"▁acuerdes":7038,"▁frase":7039,"▁rolling":7040,"▁recordar\r\n":7041,"▁tropi":7042,"▁instrumentales\r\n":7043,"▁espada\r\n":7044,"▁españa":7045,"▁partido\r\n":7046,"▁error,":7047,"▁combusti":7048,"▁prrrum!!\r\n":7049,"▁códi":7050,"tiene\r\n":7051,"▁miran\r\n":7052,"▁preocupa":7053,"▁dientes\r\n":7054,"▁ah-ah-ah\r\n":7055,"▁murió":7056,"▁corriendo\r\n":7057,"▁c.r.o\r\n":7058,"▁tren\r\n":7059,"▁compañero":7060,"▁suave\r\n":7061,"▁veinte":7062,"▁distinto\r\n":7063,"▁aveces":7064,"▁despertar\r\n":7065,"▁nubes":7066,"▁secreto\r\n":7067,"▁acompaña":7068,"▁negocio":7069,"▁atención\r\n":7070,"▁sufrir":7071,"▁street":7072,"▁street\r\n":7073,"▁textos":7074,"▁escribir\r\n":7075,"▁locura\r\n":7076,"▁culito":7077,"▁gatita":7078,"▁competir\r\n":7079,"▁blood,":7080,"▁dámelo\r\n":7081,"▁limpi":7082,"▁cotto,":7083,"▁novato\r\n":7084,"▁aseguro":7085,"▁trappers":7086,"▁fortnite,":7087,"▁0-":7088,"▁circo":7089,"▁desastre":7090,"▁nosotros\r\n":7091,"▁oscuridad":7092,"▁moviendo":7093,"▁down,":7094,"▁llave\r\n":7095,"▁mercedes":7096,"▁warrior":7097,"▁bandolero\r\n":7098,"▁excusas":7099,"▁triunf":7100,"▁evapor":7101,"▁númer":7102,"▁estrés\r\n":7103,"▁au-au\r\n":7104,"▁esfuer":7105,"▁lóg":7106,"▁punchline":7107,"▁colchón,":7108,"▁pidiéndome":7109,"▁frustra":7110,"▁egocentrismo\r\n":7111,"▁cuestión":7112,"▁hollywoo":7113,"▁calentita,":7114,"▁origin":7115,"▁abier":7116,"▁'cause":7117,"▁escupiendo":7118,"▁mochila":7119,"▁snoo":7120,"?\"\r\n":7121,"cra":7122,"gin":7123,"je,":7124,"nea":7125,"pando":7126,"pla":7127,"pel":7128,"phon":7129,"ry\r\n":7130,"rar,":7131,"se,":7132,"tina\r\n":7133,"vame":7134,"zca":7135,"úch":7136,"▁eck":7137,"▁ego\r\n":7138,"▁mes\r\n":7139,"▁mero\r\n":7140,"▁muestra":7141,"▁sar":7142,"▁sco":7143,"▁spe":7144,"▁lenta":7145,"▁tv":7146,"▁tat":7147,"▁tío":7148,"▁dorm":7149,"▁año,":7150,"ers\r\n":7151,"eran\r\n":7152,"▁nis":7153,"▁nari":7154,"▁quere":7155,"▁quebra":7156,"▁es,":7157,"anth":7158,"one\r\n":7159,"one,":7160,"dodiab":7161,"▁la,":7162,"▁ello":7163,"▁elec":7164,"estes":7165,"▁ender":7166,"▁enven":7167,"▁enfo":7168,"und,":7169,"▁bd":7170,"▁ber":7171,"▁bam":7172,"▁bye":7173,"re,":7174,"▁mix":7175,"alo\r\n":7176,"▁fú":7177,"tag":7178,"▁locos":7179,"▁tel":7180,"▁teñ":7181,"▁temas\r\n":7182,"▁sis":7183,"▁siga\r\n":7184,"▁conte":7185,"go'":7186,"uir\r\n":7187,"▁semi":7188,"▁sex\r\n":7189,"▁sepan":7190,"▁hay,":7191,"▁comun":7192,"▁coma\r\n":7193,"▁comuna":7194,"▁ofer":7195,"abas\r\n":7196,"▁paque":7197,"▁paté":7198,"chos\r\n":7199,"▁todas\r\n":7200,"▁tocando":7201,"▁tocar\r\n":7202,"▁parto,":7203,"▁tengan":7204,"▁tenia":7205,"▁tenido":7206,"tita,":7207,"▁cub":7208,"▁ital":7209,"▁igles":7210,"dito\r\n":7211,"▁lejos\r\n":7212,"▁estoy,":7213,"▁suyo":7214,"▁desin":7215,"▁desam":7216,"▁nace":7217,"▁nadando":7218,"▁radam":7219,"▁max":7220,"▁max\r\n":7221,"▁making":7222,"▁cagu":7223,"▁capo":7224,"▁cazar":7225,"llas,":7226,"lloso":7227,"▁nike\r\n":7228,"▁ve'\r\n":7229,"▁verás":7230,"▁pibi":7231,"▁pidas":7232,"▁pipp":7233,"▁pieza\r\n":7234,"▁traen":7235,"▁pasé":7236,"▁pasión":7237,"▁quieras,":7238,"▁muriendo":7239,"el,":7240,"▁rra,":7241,"▁ron\r\n":7242,"▁rand":7243,"pir":7244,"mododiab":7245,"▁¿en":7246,"▁está\r\n":7247,"▁poco,":7248,"mica\r\n":7249,"▁asu":7250,"▁habían":7251,"▁ganás":7252,"▁seres":7253,"▁arte,":7254,"▁arcan":7255,"▁arde\r\n":7256,"▁sonido\r\n":7257,"▁pego,":7258,"▁llegaste":7259,"uma\r\n":7260,"▁mansión\r\n":7261,"▁maltra":7262,"▁coco":7263,"▁cobra":7264,"▁calidad\r\n":7265,"▁amari":7266,"▁amé,":7267,"▁king":7268,"▁creía":7269,"tarte":7270,"ándose":7271,"▁escúch":7272,"▁rolex":7273,"▁cansa":7274,"▁cantante\r\n":7275,"▁dejado":7276,"▁dejame":7277,"▁hacerlo\r\n":7278,"▁bati":7279,"▁clás":7280,"▁motor":7281,"▁coro":7282,"▁hechi":7283,"▁hechos":7284,"▁poniendo":7285,"▁flows":7286,"▁prop":7287,"cencia":7288,"▁babe\r\n":7289,"car,":7290,"▁city\r\n":7291,"▁cierto":7292,"▁guat":7293,"▁bebe":7294,"▁play\r\n":7295,"cion\r\n":7296,"ciones,":7297,"▁viene\r\n":7298,"▁viene,":7299,"▁palos\r\n":7300,"▁nadie,":7301,"▁cabi":7302,"▁vuelta\r\n":7303,"▁vueltas\r\n":7304,"▁abor":7305,"▁date":7306,"do,\r\n":7307,"▁pareci":7308,"▁muerte,":7309,"▁forj":7310,"▁forty":7311,"▁dog\r\n":7312,"▁organ":7313,"▁empe":7314,"▁eres\r\n":7315,"▁contrato\r\n":7316,"▁expan":7317,"etumar":7318,"torio\r\n":7319,"▁grave\r\n":7320,"▁dicen,":7321,"▁juegan":7322,"▁conoc":7323,"▁sueno\r\n":7324,"▁¡no":7325,"▁¡wo":7326,"▁voces\r\n":7327,"▁improvisado\r\n":7328,"▁cerra":7329,"▁blin":7330,"▁onda\r\n":7331,"▁escuché":7332,"▁clavo\r\n":7333,"▁claras\r\n":7334,"▁sueltan":7335,"▁besos\r\n":7336,"▁tag":7337,"▁pana,":7338,"▁matar,":7339,"▁matarno":7340,"▁fui\r\n":7341,"▁importar":7342,"▁giro":7343,"▁fumo,":7344,"▁mucho'":7345,"▁tonto\r\n":7346,"▁demuestra":7347,"▁hipnoti":7348,"▁palabra\r\n":7349,"▁nuestras":7350,"▁shot":7351,"▁má'\r\n":7352,"▁basta\r\n":7353,"▁fuerte,":7354,"▁disparan":7355,"▁disparos\r\n":7356,"gido":7357,"▁seguimo'":7358,"▁señor,":7359,"▁llegamos":7360,"▁batallar":7361,"ernos":7362,"▁planeta\r\n":7363,"▁broche":7364,"▁chupar":7365,"▁jah\r\n":7366,"▁hablai":7367,"▁ronda\r\n":7368,"▁haría":7369,"▁buzo":7370,"▁mujeres\r\n":7371,"▁tirote":7372,"▁justi":7373,"▁cruzar":7374,"pongo":7375,"pone\r\n":7376,"▁brillan":7377,"▁gastando":7378,"▁superar":7379,"▁dije:":7380,"▁escribes":7381,"▁escribiendo":7382,"▁bomba\r\n":7383,"▁negro'":7384,"▁¿quieren":7385,"▁entrando":7386,"▁musica":7387,"▁blanco,":7388,"▁compartir":7389,"▁celos\r\n":7390,"▁sirven":7391,"▁dormir,":7392,"▁brego":7393,"▁abajo,":7394,"▁adicta":7395,"▁enseñarte":7396,"▁conciencia":7397,"▁exploto":7398,"▁capitán":7399,"oooo":7400,"▁ándate":7401,"▁x2\r\n":7402,"▁choco":7403,"▁infin":7404,"▁clase\r\n":7405,"▁entramo'":7406,"▁ponerte":7407,"▁rostro":7408,"▁enamorar\r\n":7409,"▁diga'":7410,"▁acerca":7411,"▁shorty":7412,"▁favorito":7413,"▁favorito\r\n":7414,"▁erís":7415,"▁paz,":7416,"▁cuarto\r\n":7417,"▁trappin'\r\n":7418,"▁errores":7419,"▁lana,":7420,"▁ocurri":7421,"▁haters":7422,"▁garan":7423,"wn\r\n":7424,"▁prrrum\r\n":7425,"▁hood\r\n":7426,"▁ahoga":7427,"▁quintan":7428,"▁silencio,":7429,"▁típi":7430,"▁descom":7431,"▁cazar,":7432,"▁calientita,":7433,"ta'o,":7434,"▁consecuen":7435,"▁motherfucker,":7436,"▁varias":7437,"▁opción":7438,"▁preguntan,":7439,"▁flaco":7440,"▁enrola,":7441,"▁orgullo\r\n":7442,"▁orgulloso":7443,"▁posible":7444,"▁converti":7445,"▁vacío":7446,"▁jugada":7447,"▁mover,":7448,"▁cuero":7449,"▁explicarte\r\n":7450,"▁50":7451,"▁artistas":7452,"▁destruir":7453,"▁dedico":7454,"▁glock":7455,"▁quieto\r\n":7456,"▁killah\r\n":7457,"▁24\r\n":7458,"▁semana":7459,"▁venezuela\r\n":7460,"▁twent":7461,"▁ventana\r\n":7462,"▁matemá":7463,"▁skrt,":7464,"▁blood\r\n":7465,"▁bizarrap":7466,"▁every":7467,"----":7468,"▁sonrisa":7469,"▁decían":7470,"▁reír":7471,"▁entendiste":7472,"▁fiesta,":7473,"▁phone,":7474,"▁vámonos":7475,"▁montana\r\n":7476,"▁cobarde\r\n":7477,"▁ánimo":7478,"▁continente\r\n":7479,"▁sonrío":7480,"▁heart":7481,"▁desmayo":7482,"▁permiso,":7483,"▁llévame":7484,"▁demonio":7485,"▁dirty":7486,"▁estúpi":7487,"▁criterio\r\n":7488,"▁cuchillo":7489,"▁avísenle":7490,"▁lamentablemente":7491,"▁retroce":7492,"▁conchetumar":7493,"▁dificil":7494,"▁conseguí":7495,"▁pregúntale":7496,"▁combustible":7497,"▁radamanth":7498,"-v":7499,"-to":7500,"-ch":7501,"-ma":7502,"-mi":7503,"ach":7504,"ao'":7505,"ben":7506,"bas\r\n":7507,"bres\r\n":7508,"cta\r\n":7509,"cén":7510,"cino":7511,"clip":7512,"ding":7513,"ds\r\n":7514,"ff":7515,"gia":7516,"ila":7517,"jado":7518,"mes":7519,"ne\r\n":7520,"pper":7521,"rro":7522,"tí\r\n":7523,"uta":7524,"wa":7525,"y-":7526,"y!\r\n":7527,"á',":7528,"éli":7529,"ómo,":7530,"▁em":7531,"▁eo,":7532,"▁era\r\n":7533,"▁mv":7534,"▁ph":7535,"▁pón":7536,"▁sy":7537,"▁sty":7538,"▁lor":7539,"▁cár":7540,"▁cena\r\n":7541,"▁cúl":7542,"▁tas":7543,"▁dy":7544,"▁damo'":7545,"▁ara":7546,"▁air":7547,"▁aver":7548,"▁alex":7549,"ería":7550,"▁num":7551,"▁queden":7552,"▁quema\r\n":7553,"anza\r\n":7554,"aron\r\n":7555,"▁vu":7556,"▁vuela":7557,"onces":7558,"ones,":7559,"▁lao'\r\n":7560,"▁lacos":7561,"▁meto\r\n":7562,"▁metes":7563,"▁metí":7564,"▁bando\r\n":7565,"▁miami\r\n":7566,"ramos":7567,"tada\r\n":7568,"▁unsto":7569,"▁te-":7570,"amo":7571,"ama\r\n":7572,"▁sea,":7573,"▁seis\r\n":7574,"ciente\r\n":7575,"cidad\r\n":7576,"▁gras":7577,"▁di\r\n":7578,"▁dia\r\n":7579,"▁ov":7580,"▁paul":7581,"▁patada":7582,"chos,":7583,"▁quito":7584,"▁estaria":7585,"ques\r\n":7586,"▁alar":7587,"▁ten\r\n":7588,"▁teniendo":7589,"ti,":7590,"timi":7591,"titu":7592,"▁reemp":7593,"▁revelo":7594,"ásti":7595,"▁lean":7596,"▁jet":7597,"▁yeh-eh-eh\r\n":7598,"▁tibur":7599,"▁sudando":7600,"▁desgra":7601,"▁naz":7602,"▁mapa":7603,"▁madu":7604,"▁maté":7605,"▁inm":7606,"▁inci":7607,"▁inva":7608,"▁inneces":7609,"llar":7610,"▁soci":7611,"▁estaban":7612,"▁nick":7613,"▁vean":7614,"▁chale":7615,"▁pille":7616,"▁trama":7617,"▁pasamos":7618,"▁ah;":7619,"▁anestes":7620,"tros,":7621,"▁puede\r\n":7622,"▁ras":7623,"pi\r\n":7624,"▁¿ha":7625,"▁¿ves":7626,"billo":7627,"▁aspi":7628,"▁aspe":7629,"▁asado":7630,"▁salta":7631,"▁caras":7632,"▁carol":7633,"▁cartas":7634,"▁putas\r\n":7635,"▁ganaste":7636,"▁serán":7637,"lito":7638,"▁pedo\r\n":7639,"▁pego\r\n":7640,"▁peke":7641,"▁peine":7642,"▁pew,":7643,"▁llego\r\n":7644,"▁acces":7645,"▁manz":7646,"▁mano,":7647,"▁camuf":7648,"▁malas\r\n":7649,"....":7650,"aria,":7651,"bay":7652,"▁creciendo":7653,"▁nose":7654,"▁promo":7655,"▁rol":7656,"▁roca\r\n":7657,"▁cancha":7658,"▁dejas":7659,"▁clona":7660,"▁hablás":7661,"▁satis":7662,"▁moto":7663,"▁corta\r\n":7664,"▁corona":7665,"▁corté":7666,"tancia\r\n":7667,"▁resu":7668,"▁resto\r\n":7669,"▁barco":7670,"ir,":7671,"▁solas":7672,"▁distri":7673,"▁thing":7674,"▁buenas\r\n":7675,"da,\r\n":7676,"▁lucho,":7677,"▁fallas":7678,"▁menos\r\n":7679,"fico":7680,"ficio\r\n":7681,"▁volve":7682,"▁compon":7683,"▁verdadero":7684,"▁montón":7685,"▁aprendo":7686,"▁plato":7687,"▁playa":7688,"▁mueven":7689,"▁mueka\r\n":7690,"▁llama\r\n":7691,"▁vaso,":7692,"▁goles":7693,"▁duda":7694,"▁old":7695,"▁hermana":7696,"▁hermanos\r\n":7697,"▁bicho\r\n":7698,"▁biza,":7699,"▁vuelvas":7700,"▁nuevos":7701,"▁nueva\r\n":7702,"▁marti":7703,"▁maría":7704,"▁otra,":7705,"▁day\r\n":7706,"▁frág":7707,"▁rapear,":7708,"encias":7709,"▁doing":7710,"▁double":7711,"▁-ar\r\n":7712,"▁ore":7713,"▁empece":7714,"▁día'":7715,"▁cuento,":7716,"▁tercer":7717,"▁cambié\r\n":7718,"ándolo":7719,"ción?\r\n":7720,"▁buscándome":7721,"▁cuales":7722,"▁puta',":7723,"▁cómo?":7724,"▁conocido":7725,"▁¡ya":7726,"▁mil,":7727,"▁volverme":7728,"▁medio\r\n":7729,"▁escuche":7730,"▁clavos":7731,"▁corazones":7732,"▁suelte":7733,"▁amigas":7734,"▁wachos":7735,"venta":7736,"▁tenerme":7737,"▁matarnos\r\n":7738,"▁fumar\r\n":7739,"▁fumándome":7740,"▁critic":7741,"▁visa":7742,"▁irri":7743,"▁irón":7744,"▁pregunta\r\n":7745,"▁preguntes":7746,"vela\r\n":7747,"▁demente":7748,"▁gris":7749,"drá":7750,"▁prendí":7751,"▁basa":7752,"▁juntando":7753,"▁cultura":7754,"▁tumbarme":7755,"▁necesario\r\n":7756,"▁perdida":7757,"▁cintura\r\n":7758,"▁balas\r\n":7759,"▁mentir\r\n":7760,"▁agarrar":7761,"▁apare":7762,"▁aparte\r\n":7763,"▁nivel,":7764,"▁odia":7765,"▁jap":7766,"▁revés\r\n":7767,"tria":7768,"▁check":7769,"▁¿cómo,":7770,"▁haré":7771,"▁suben":7772,"▁llevamo'":7773,"▁consum":7774,"▁justin":7775,"▁ciento":7776,"▁escapa":7777,"▁estrellas":7778,"▁defien":7779,"▁robé":7780,"▁apag":7781,"▁olvidé":7782,"▁aires\r\n":7783,"▁cuida'o":7784,"▁personal\r\n":7785,"▁personaje":7786,"▁borrar":7787,"▁borré":7788,"▁puerta\r\n":7789,"▁vamon":7790,"▁sirve\r\n":7791,"▁habilidad\r\n":7792,"▁pasó,":7793,"▁normal\r\n":7794,"▁cierra":7795,"▁tortura":7796,"▁duermo,":7797,"▁caigo,":7798,"▁amarte\r\n":7799,"▁deseas\r\n":7800,"▁papeles\r\n":7801,"▁armado,":7802,"▁asesina":7803,"▁maldita":7804,"▁mental":7805,"▁soñando":7806,"▁incom":7807,"▁roll\r\n":7808,"▁diez\r\n":7809,"▁alcanza\r\n":7810,"▁entera,":7811,"▁shorty,":7812,"▁luna,":7813,"▁ferra\r\n":7814,"▁tirar\r\n":7815,"▁tirarme":7816,"▁regalo\r\n":7817,"▁sacó":7818,"▁discote":7819,"▁tuyo\r\n":7820,"▁tuya,":7821,"▁sexo,":7822,"▁ahog":7823,"▁silencio\r\n":7824,"▁evolu":7825,"▁rencor":7826,"▁derrite":7827,"▁convir":7828,"▁evitar":7829,"▁202":7830,"▁criticar":7831,"▁eterno,":7832,"▁marihuana":7833,"▁convertir":7834,"▁'tá'":7835,"▁policía,":7836,"▁compañero\r\n":7837,"▁respuesta\r\n":7838,"▁respuestas":7839,"▁arrogan":7840,"▁abogado":7841,"▁friend":7842,"▁pills":7843,"▁pegó":7844,"▁mai'\r\n":7845,"▁motivo":7846,"▁arranco":7847,"▁tiraste":7848,"▁actitud\r\n":7849,"▁labios":7850,"▁diego":7851,"▁blunts":7852,"▁pelotudo":7853,"▁memoria":7854,"▁ruido":7855,"ucris":7856,"▁destroy\r\n":7857,"▁súper":7858,"▁búscame":7859,"▁jesucris":7860,"▁concepto":7861,"▁tocó":7862,"▁alejand":7863,"▁televis":7864,"▁conviene\r\n":7865,"▁imita":7866,"▁rifle":7867,"▁interior\r\n":7868,"▁querido":7869,"▁suficiente":7870,"▁construyo":7871,"▁clavar":7872,"▁nervios":7873,"▁crack\r\n":7874,"▁oportunidad":7875,"▁piedra":7876,"▁mercedes\r\n":7877,"▁pájar":7878,"▁peace":7879,"▁promes":7880,"▁septum":7881,"▁cinturón\r\n":7882,"▁aprovecha":7883,"▁número":7884,"▁paca'":7885,"▁repeti":7886,"▁rockstar\r\n":7887,"▁pronto":7888,"▁festej":7889,"▁comenz":7890,"▁madrid\r\n":7891,"▁kush":7892,"▁temprano":7893,"▁hennessy\r\n":7894,"▁perdedor\r\n":7895,"▁ventaja":7896,"▁colombiana,":7897,"▁báj":7898,"▁licor,":7899,"▁shortcito":7900,"▁rally,":7901,"▁sorpresa":7902,"▁blass":7903,"▁significa":7904,"▁líneas":7905,"▁vampiros":7906,"▁tyrone":7907,"▁estupide":7908,"▁jarabe":7909,"▁fiebre":7910,"▁#mododiab":7911,"▁sensei\r\n":7912,"▁inmortal":7913,"▁stone\r\n":7914,"▁david":7915,"▁piense'":7916,"▁homegro":7917,"phone\r\n":7918,"▁cúlpable":7919,"▁unstopp":7920,"-1":7921,"-w":7922,"-re":7923,"-car":7924,"-ina":7925,"-dad\r\n":7926,"-ina\r\n":7927,"-mor":7928,"7\r\n":7929,"ag":7930,"cé\r\n":7931,"dy":7932,"dus":7933,"ex":7934,"ho\r\n":7935,"hab":7936,"h!!\r\n":7937,"ko,":7938,"kes\r\n":7939,"ki\r\n":7940,"king\r\n":7941,"lá":7942,"men\r\n":7943,"rán":7944,"tones\r\n":7945,"tés\r\n":7946,"wi":7947,"ys\r\n":7948,"zando\r\n":7949,"zan\r\n":7950,"óp":7951,"—,":7952,"▁—":7953,"▁eh-eh-eh\r\n":7954,"▁eclip":7955,"▁mar,":7956,"▁ss":7957,"▁samp":7958,"▁lásti":7959,"▁cy":7960,"▁cán":7961,"▁damos":7962,"▁do'\r\n":7963,"▁diente":7964,"▁dándole":7965,"▁ach":7966,"▁amp":7967,"eno,":7968,"end\r\n":7969,"▁dedos":7970,"onas\r\n":7971,"▁lados":7972,"esto":7973,"unto":7974,"▁metra":7975,"▁mete\r\n":7976,"▁by":7977,"▁bun":7978,"tel":7979,"teando":7980,"▁mio\r\n":7981,"▁fel":7982,"▁fli":7983,"▁lot,":7984,"▁loki":7985,"▁lobo\r\n":7986,"▁tea":7987,"▁cond":7988,"▁see":7989,"▁sea\r\n":7990,"logía":7991,"cias,":7992,"▁gla":7993,"▁gps\r\n":7994,"▁como,":7995,"▁dilo\r\n":7996,"▁diario":7997,"▁diré":7998,"▁dicie":7999,"▁dipl":8000,"▁oeste":8001,"lado\r\n":8002,"▁turu":8003,"▁tuve,":8004,"▁patas\r\n":8005,"▁quis":8006,"mp\r\n":8007,"que,":8008,"tili":8009,"tica,":8010,"▁cucu":8011,"usto":8012,"▁rey,":8013,"▁vici":8014,"▁vibe\r\n":8015,"▁leo":8016,"▁sul":8017,"▁desqui":8018,"▁desli":8019,"▁naf":8020,"▁nacido":8021,"▁raja":8022,"▁saber\r\n":8023,"▁inde":8024,"▁ina,":8025,"▁ingen":8026,"▁intimi":8027,"▁in-mor":8028,"▁cata":8029,"▁caís":8030,"▁cacha,":8031,"▁estado\r\n":8032,"▁estamos\r\n":8033,"▁vel":8034,"▁china\r\n":8035,"▁was":8036,"▁wall":8037,"▁verde\r\n":8038,"ma'":8039,"▁pida":8040,"▁pides":8041,"▁pasaron":8042,"▁pasaje":8043,"▁ahi":8044,"▁quieran\r\n":8045,"▁puedas":8046,"▁vaque":8047,"▁vaca":8048,"▁ring\r\n":8049,"▁ring,":8050,"▁río\r\n":8051,"▁misil":8052,"▁¿pa'":8053,"▁cuando\r\n":8054,"cero\r\n":8055,"▁rio":8056,"▁podí":8057,"▁sala":8058,"▁carro\r\n":8059,"▁vení":8060,"▁venden":8061,"▁put":8062,"▁putos":8063,"▁ganarte":8064,"▁serte":8065,"▁sincero,":8066,"▁armo":8067,"▁arena":8068,"▁pela":8069,"▁llevan":8070,"▁acz":8071,"▁acaso":8072,"▁mandar":8073,"▁camale":8074,"▁cogo":8075,"▁coca\r\n":8076,"ters":8077,"termin":8078,"tud":8079,"▁crew\r\n":8080,"▁rola":8081,"▁rotos":8082,"▁roque\r\n":8083,"▁deja\r\n":8084,"▁neo":8085,"illa":8086,"▁bañ":8087,"▁habló":8088,"▁hablo\r\n":8089,"▁saquen":8090,"▁fuí":8091,"▁mozar":8092,"▁cortar":8093,"tan,":8094,"▁resca":8095,"▁barro":8096,"▁barbi":8097,"▁nunca,":8098,"▁boun":8099,"▁boki":8100,"▁dise":8101,"▁disque":8102,"▁discan":8103,"▁discos":8104,"▁city":8105,"▁lucha":8106,"▁luces\r\n":8107,"rup":8108,"▁jugue":8109,"▁herir":8110,"▁menos,":8111,"▁cash,":8112,"ficio":8113,"▁compás\r\n":8114,"▁baje":8115,"▁mongo":8116,"▁apor":8117,"▁apenas":8118,"▁llamen":8119,"▁llamando":8120,"▁llamar,":8121,"▁escupir":8122,"▁golos":8123,"▁cabe":8124,"cano":8125,"▁biza\r\n":8126,"▁bibli":8127,"▁vuelvo\r\n":8128,"▁abus":8129,"▁abuela":8130,"▁abismo\r\n":8131,"▁mare":8132,"▁tambien":8133,"▁fría":8134,"▁escritas\r\n":8135,"▁formas":8136,"▁doc":8137,"▁-e,":8138,"▁esperes":8139,"▁maso":8140,"▁flu":8141,"▁andá":8142,"▁despre":8143,"▁terra":8144,"▁cambiando":8145,"▁pasapor":8146,"▁vale,":8147,"▁valor\r\n":8148,"▁more":8149,"▁morena,":8150,"▁pesado\r\n":8151,"▁buscaba":8152,"▁grada\r\n":8153,"▁grabo":8154,"▁estaré":8155,"▁entrego":8156,"▁entreten":8157,"▁joh":8158,"▁joker":8159,"▁fea":8160,"▁sanar":8161,"▁¡p":8162,"▁días,":8163,"▁dígame":8164,"▁nenes\r\n":8165,"▁cerrá":8166,"▁huye":8167,"▁weón,":8168,"▁zan":8169,"▁volvería":8170,"▁medicina":8171,"▁bandera\r\n":8172,"▁dime\r\n":8173,"▁noche-e-e\r\n":8174,"▁clap\r\n":8175,"▁cuerda":8176,"▁chick":8177,"▁insom":8178,"▁instin":8179,"▁ta-na-na\r\n":8180,"▁taka,":8181,"▁2pac":8182,"▁tener,":8183,"▁quedado":8184,"▁panor":8185,"▁panas\r\n":8186,"▁matarme":8187,"▁fui,":8188,"▁fuimos\r\n":8189,"▁importa,":8190,"▁preso\r\n":8191,"▁presid":8192,"you":8193,"▁11":8194,"▁12\r\n":8195,"▁grande,":8196,"▁grandes\r\n":8197,"▁vistiendo":8198,"▁tony,":8199,"▁parece,":8200,"▁repla":8201,"▁woo":8202,"▁poder,":8203,"▁respetar":8204,"▁puntos":8205,"▁puntos\r\n":8206,"▁prenda,":8207,"▁prendido":8208,"▁adentro\r\n":8209,"▁adentro,":8210,"▁estamos,":8211,"▁encontrar,":8212,"▁mág":8213,"▁bastante":8214,"▁entendí":8215,"▁junta":8216,"▁cultura,":8217,"▁pollo":8218,"▁merezco\r\n":8219,"▁cine\r\n":8220,"mbre\r\n":8221,"▁dolce,":8222,"▁derrum":8223,"▁balencia":8224,"▁hands":8225,"▁morirme,":8226,"▁eh;":8227,"▁sobreval":8228,"▁danza":8229,"▁broma\r\n":8230,"▁seguir\r\n":8231,"▁llamada\r\n":8232,"▁señora\r\n":8233,"▁ey;":8234,"▁jack":8235,"▁confía":8236,"▁déjate":8237,"▁ganarle":8238,"▁buscarme":8239,"▁ronca":8240,"▁llevar\r\n":8241,"▁explicar\r\n":8242,"▁recorr":8243,"▁constante\r\n":8244,"▁consciente":8245,"▁escapo":8246,"▁argentino":8247,"-eh\r\n":8248,"▁apago":8249,"puesto\r\n":8250,"▁viajo":8251,"▁viaje\r\n":8252,"▁comparar":8253,"ampamp":8254,"▁aguanto\r\n":8255,"▁aguanta\r\n":8256,"▁celu":8257,"▁levanta":8258,"▁levanta\r\n":8259,"▁levantar":8260,"▁¿cómo?\r\n":8261,"▁whit":8262,"▁white,":8263,"▁plom":8264,"▁tempora":8265,"▁encontrarlo\r\n":8266,"coro\r\n":8267,"▁prima":8268,"▁escondi":8269,"▁competencia\r\n":8270,"▁bolsa":8271,"▁todavía\r\n":8272,"▁mc,":8273,"▁segundos":8274,"▁déjame,":8275,"▁pastillita":8276,"▁prefiero\r\n":8277,"▁fácil\r\n":8278,"▁nena;":8279,"▁aquellos":8280,"▁tiran\r\n":8281,"▁uoh!!\r\n":8282,"▁infar":8283,"▁trem":8284,"▁what's":8285,"▁invierno":8286,"▁enamoré,":8287,"▁frases,":8288,"▁comerte":8289,"▁incomo":8290,"▁rollin\r\n":8291,"▁recordarte":8292,"mán\r\n":8293,"▁esquivando":8294,"▁comprom":8295,"▁brind":8296,"▁jaja":8297,"ticas\r\n":8298,"▁gelato\r\n":8299,"-pla":8300,"urai,":8301,"▁conoce-no":8302,"▁versos\r\n":8303,"▁chapi\r\n":8304,"▁aviso\r\n":8305,"▁combin":8306,"▁cueste":8307,"▁estructura":8308,"▁despierta":8309,"▁millone'":8310,"▁firme":8311,"▁estilos":8312,"▁descal":8313,"kers\r\n":8314,"uhh!\r\n":8315,"▁renc":8316,"▁caliente,":8317,"▁crí":8318,"▁complicado":8319,"▁salamandra":8320,"▁pagamo'":8321,"▁jurado,":8322,"▁herida\r\n":8323,"▁bailarlo\r\n":8324,"▁piedad\r\n":8325,"▁dama":8326,"▁cayó":8327,"▁manejo":8328,"▁maneje":8329,"▁tendrás":8330,"▁eterna\r\n":8331,"▁castigo\r\n":8332,"▁marihuana,":8333,"▁enloquezco":8334,"▁ina-ina":8335,"▁experto":8336,"▁visiones\r\n":8337,"▁lastim":8338,"-sco":8339,"-ta-li":8340,"▁nube":8341,"▁secreto":8342,"▁chistes":8343,"▁plakata,":8344,"▁stick":8345,"▁filoso":8346,"▁corona,":8347,"▁zigzag\r\n":8348,"▁neru":8349,"▁pateo":8350,"▁reparto":8351,"▁apuesta":8352,"▁nació":8353,"▁pendejo\r\n":8354,"▁messi,":8355,"▁semana\r\n":8356,"▁animal\r\n":8357,"▁pelotudo\r\n":8358,"▁pelotudos":8359,"▁pegarte":8360,"▁a.k":8361,"▁a.p":8362,"▁dámelo":8363,"▁gonz":8364,"________":8365,"▁sport,":8366,"▁lloví":8367,"▁concepto\r\n":8368,"▁gallo":8369,"▁vayan":8370,"▁recordarte\r\n":8371,"▁selva\r\n":8372,"▁tesoro\r\n":8373,"▁desastre\r\n":8374,"▁uao\r\n":8375,"-i-e-":8376,"▁samurai,":8377,"▁mové\r\n":8378,"▁revienta":8379,"▁phone\r\n":8380,"▁natural":8381,"▁soledad":8382,"▁embargo":8383,"▁warrior\r\n":8384,"▁lebron,":8385,"▁cocina\r\n":8386,"▁ubicación":8387,"▁supuesto\r\n":8388,"▁promet":8389,"▁xanax,":8390,"▁jodiéndome\r\n":8391,"▁adrenalina\r\n":8392,"▁pastel\r\n":8393,"▁angusti":8394,"▁liricis":8395,"▁jefe\r\n":8396,"▁noqueo":8397,"▁costumbre":8398,"▁guacho'":8399,"▁internacional\r\n":8400,"rututu":8401,"ruturututu":8402,"▁vídeo":8403,"ibles\r\n":8404,"▁fms":8405,"▁wosito":8406,"▁izquierda\r\n":8407,"▁terreno\r\n":8408,"▁zasko":8409,"▁paguen,":8410,"▁almohada\r\n":8411,"▁sky's":8412,"▁skrrt\r\n":8413,"▁brincando!\r\n":8414,"▁aburrido\r\n":8415,"▁hospi":8416,"▁meeting":8417,"-rum-rum":8418,"▁alrede":8419,"▁na-na,":8420,"▁escampaba,":8421,"▁pusieron":8422,"▁hagámos":8423,"▁stuart,":8424,"▁ejemp":8425,"▁detenerme":8426,"▁toas'":8427,"▁butaca":8428,"▁pentág":8429,"▁pacqui":8430,"▁copiloto,":8431,"▁agárrame,":8432,"▁batman":8433,"▁números":8434,"▁empecemos":8435,"▁unstoppable,":8436,"▁lokita":8437,"▁tururuturututu":8438,"▁in-mor-ta-li":8439,"▁ina-ina-ina\r\n":8440,"▁in-mor-ta-li-dad\r\n":8441,"-d":8442,"-me":8443,"-ja":8444,"-ya":8445,"600":8446,"aa\r\n":8447,"ao'\r\n":8448,"cé,":8449,"dra":8450,"ela":8451,"ete\r\n":8452,"etas":8453,"fico\r\n":8454,"gelo":8455,"hh":8456,"ker,":8457,"lero":8458,"m-":8459,"my":8460,"mina\r\n":8461,"rom":8462,"rá\r\n":8463,"son":8464,"sa,":8465,"s3\r\n":8466,"tf":8467,"ucin":8468,"vado":8469,"wh":8470,"yo\r\n":8471,"yal":8472,"ú\r\n":8473,"▁om":8474,"▁ora":8475,"▁um":8476,"▁ed":8477,"▁edad\r\n":8478,"▁even":8479,"▁mora":8480,"▁mues":8481,"▁pom":8482,"▁stor":8483,"▁lante\r\n":8484,"▁cero,":8485,"▁duelo\r\n":8486,"▁ds3\r\n":8487,"▁afi":8488,"▁yor":8489,"▁yes":8490,"▁non":8491,"▁nal":8492,"▁que?":8493,"▁quebr":8494,"▁quebrar":8495,"▁demo":8496,"▁vv":8497,"▁vino\r\n":8498,"do'":8499,"▁lament":8500,"▁ela":8501,"eses":8502,"▁ende":8503,"▁entro\r\n":8504,"▁mex":8505,"▁metro":8506,"▁bú":8507,"▁bul":8508,"▁miel":8509,"▁mienta":8510,"ini,":8511,"rame":8512,"▁fós":8513,"tate,":8514,"todo":8515,"▁loui":8516,"▁loto\r\n":8517,"▁tetas":8518,"omba":8519,"▁sién":8520,"▁siente\r\n":8521,"▁concha":8522,"▁yoh\r\n":8523,"▁yo!\r\n":8524,"ro'":8525,"▁se\r\n":8526,"▁sell":8527,"▁hacé":8528,"▁gam":8529,"▁coman":8530,"▁como\r\n":8531,"▁comba":8532,"▁common":8533,"oy\r\n":8534,"leo":8535,"leando":8536,"ientos\r\n":8537,"▁diri":8538,"▁disi":8539,"▁divis":8540,"▁ox":8541,"▁opa":8542,"▁over":8543,"▁pañ":8544,"▁pain,":8545,"chando":8546,"▁toos":8547,"▁total":8548,"▁parano":8549,"▁pararme,":8550,"▁alca":8551,"▁alic":8552,"▁alucin":8553,"▁tenis":8554,"▁tenían":8555,"ticos":8556,"▁cura\r\n":8557,"▁cucara":8558,"▁cupido":8559,"▁ido":8560,"▁reun":8561,"▁reto":8562,"dill":8563,"▁vira":8564,"▁vibra":8565,"▁jer":8566,"▁tiro\r\n":8567,"▁time\r\n":8568,"▁tiró":8569,"▁nav":8570,"▁rata\r\n":8571,"▁porquer":8572,"▁sabés\r\n":8573,"▁cañ":8574,"▁caja\r\n":8575,"▁caño,":8576,"▁cacha\r\n":8577,"vidad\r\n":8578,"lling":8579,"▁soi":8580,"▁sou":8581,"▁pera\r\n":8582,"▁perri":8583,"▁permi":8584,"▁niño\r\n":8585,"▁vea\r\n":8586,"▁vela":8587,"▁ve',":8588,"▁chas":8589,"▁che,":8590,"▁verte,":8591,"▁verga,":8592,"▁pil":8593,"▁traer":8594,"▁traté":8595,"▁trayec":8596,"▁pase,":8597,"▁pasando\r\n":8598,"▁quieres\r\n":8599,"▁pueda\r\n":8600,"▁vacía":8601,"▁¿v":8602,"▁¿vos":8603,"▁¿tú":8604,"ajo\r\n":8605,"▁rico,":8606,"▁rival":8607,"▁poquito\r\n":8608,"▁sala\r\n":8609,"▁caro,":8610,"▁puño":8611,"▁seri":8612,"▁serp":8613,"▁servi":8614,"▁sintiendo":8615,"▁sinies":8616,"▁entro,":8617,"lio":8618,"lia\r\n":8619,"▁ped":8620,"▁pelo,":8621,"▁pecho,":8622,"▁acru":8623,"▁mano',":8624,"▁manito\r\n":8625,"▁camar":8626,"▁campo":8627,"▁maldad":8628,"▁copa\r\n":8629,"▁amarte":8630,"▁kan":8631,"▁kon":8632,"▁uy\r\n":8633,"▁utili":8634,"turas":8635,"▁creo,":8636,"▁tanto,":8637,"ándon":8638,"▁escar":8639,"▁roja":8640,"▁cande":8641,"▁cantante":8642,"▁dejo,":8643,"▁dejamos":8644,"▁exci":8645,"▁extin":8646,"▁hacerle":8647,"▁bien?\r\n":8648,"▁así?\r\n":8649,"▁hablé":8650,"▁hablarme":8651,"▁hablaste":8652,"▁busqué":8653,"▁busines":8654,"▁sad":8655,"▁don,":8656,"▁hemos":8657,"▁impac":8658,"daste":8659,"▁ponme":8660,"▁barra":8661,"▁bares\r\n":8662,"ira\r\n":8663,"zada\r\n":8664,"ic\r\n":8665,"▁probar":8666,"▁solit":8667,"▁boz":8668,"▁cose":8669,"▁cosa,":8670,"▁costa\r\n":8671,"▁thre":8672,"▁think":8673,"▁preten":8674,"h-ch":8675,"▁cia\r\n":8676,"▁fallan":8677,"▁mene":8678,"▁meno'":8679,"▁mirada,":8680,"key":8681,"▁compas":8682,"▁compran":8683,"▁verdades":8684,"▁guz":8685,"▁bajamos":8686,"▁placa\r\n":8687,"ezca":8688,"▁escupe":8689,"▁duran":8690,"▁to'as":8691,"lante":8692,"▁perdámon":8693,"▁tambor":8694,"▁dates\r\n":8695,"▁dadd":8696,"▁frías\r\n":8697,"▁rapea\r\n":8698,"▁use":8699,"▁pared,":8700,"▁trapa,":8701,"▁fake\r\n":8702,"▁forre":8703,"▁doce":8704,"▁-e\r\n":8705,"▁frecuen":8706,"▁masac":8707,"▁estás?":8708,"▁estás?\r\n":8709,"▁queré'":8710,"▁contrato":8711,"▁expl":8712,"▁cambian":8713,"▁olvida\r\n":8714,"ándoles":8715,"▁mienten\r\n":8716,"▁fino,":8717,"▁drogas":8718,"▁están\r\n":8719,"▁pese":8720,"▁buscando,":8721,"▁buscándote":8722,"▁guay":8723,"▁guagua":8724,"▁guaguas":8725,"▁sana\r\n":8726,"▁¡b":8727,"▁susur":8728,"▁quedar\r\n":8729,"▁quedaron":8730,"▁nenes":8731,"▁chaqueta":8732,"▁cerrar":8733,"▁fier":8734,"▁fijo":8735,"▁zo":8736,"▁puede,":8737,"▁escuchando\r\n":8738,"▁después\r\n":8739,"▁cuerpos":8740,"▁chiqui":8741,"▁amigos,":8742,"▁bese\r\n":8743,"▁beber":8744,"▁beber\r\n":8745,"▁gim":8746,"▁fuma,":8747,"▁presión":8748,"cuenta":8749,"▁crip":8750,"▁try":8751,"▁pregunto\r\n":8752,"▁doy\r\n":8753,"▁encier":8754,"▁hipó":8755,"▁repli":8756,"▁woo\r\n":8757,"tino,":8758,"tina,":8759,"▁aguante":8760,"▁intern":8761,"▁penas\r\n":8762,"▁guerra,":8763,"▁cabros":8764,"▁adn\r\n":8765,"▁fueran":8766,"▁polí":8767,"▁mercen":8768,"▁necesidad":8769,"▁disparos":8770,"▁flexin'":8771,"▁morirme":8772,"▁equili":8773,"▁knock":8774,"▁brr\r\n":8775,"▁aparien":8776,"cheta":8777,"▁llegamo'":8778,"▁vieja\r\n":8779,"▁entienda":8780,"▁entiendas":8781,"▁confus":8782,"▁draco\r\n":8783,"▁drama,":8784,"▁aleja":8785,"▁elef":8786,"▁trabaja":8787,"▁trabajando":8788,"▁trabajo,":8789,"▁golden":8790,"▁sigue\r\n":8791,"▁segura":8792,"▁llevamos":8793,"▁despiér":8794,"éndole":8795,"▁raperos\r\n":8796,"▁raperos,":8797,"▁miedo,":8798,"▁caminar\r\n":8799,"▁mediocre":8800,"▁terminar\r\n":8801,"▁horario\r\n":8802,"▁olvidarte":8803,"▁escribo,":8804,"▁viví":8805,"▁personas\r\n":8806,"▁entraste":8807,"▁borro":8808,"▁piensas":8809,"▁lista\r\n":8810,"▁paseo":8811,"▁pasó?":8812,"igh":8813,"tá'":8814,"▁entonces,":8815,"▁novio,":8816,"▁humor\r\n":8817,"▁escondido":8818,"▁pelea\r\n":8819,"▁explotando":8820,"▁xan":8821,"▁luego,":8822,"▁domina":8823,"▁podré":8824,"▁torre":8825,"▁digan,":8826,"▁pastillas\r\n":8827,"allas\r\n":8828,"▁cristal\r\n":8829,"-bla":8830,"▁infor":8831,"▁amargo\r\n":8832,"▁señores\r\n":8833,"▁tre'":8834,"▁deseo\r\n":8835,"▁completo\r\n":8836,"▁ponerle":8837,"▁hambri":8838,"▁genu":8839,"▁genero":8840,"▁duki\r\n":8841,"▁demostrando":8842,"▁quisieron":8843,"▁perfecta":8844,"▁40":8845,"▁44":8846,"-oh\r\n":8847,"▁caps":8848,"▁mentalidad":8849,"▁soñar":8850,"▁transform":8851,"▁atraves":8852,"▁guitar":8853,"▁activa":8854,"▁primera,":8855,"▁trope":8856,"▁ataco":8857,"▁esquivo\r\n":8858,"▁kilos,":8859,"▁movida":8860,"▁that's":8861,"▁instrumental":8862,"▁uhh":8863,"▁problemas,":8864,"▁confianza":8865,"▁oh-oh,":8866,"▁rebota":8867,"ficiente\r\n":8868,"▁fronteando":8869,"▁sacri":8870,"▁mensaje,":8871,"▁deben":8872,"▁tuya\r\n":8873,"▁idea":8874,"▁ideo":8875,"▁despierta\r\n":8876,"▁cór":8877,"▁pagan,":8878,"▁descanse":8879,"▁descansa":8880,"▁nuevos\r\n":8881,"▁mantener":8882,"▁millonario\r\n":8883,"▁swing":8884,"▁firmar":8885,"▁lenn":8886,"▁existen":8887,"▁burla":8888,"▁contarte":8889,"▁jugar,":8890,"▁enrolando":8891,"▁rapper'":8892,"▁molesta\r\n":8893,"▁egoís":8894,"▁mezclando":8895,"▁escapar,":8896,"▁muriendo\r\n":8897,"▁pudiste":8898,"▁skill\r\n":8899,"▁c.r.o,":8900,"▁bandoleros":8901,"▁suave,":8902,"▁oír":8903,"▁cocaine":8904,"▁rezando":8905,"▁chistes\r\n":8906,"▁habitación,":8907,"▁friend\r\n":8908,"▁nací\r\n":8909,"▁insistas\r\n":8910,"▁street,":8911,"▁atento":8912,"▁vino,":8913,"▁gritan:":8914,"▁adelante,":8915,"▁reggaetón\r\n":8916,"▁enfermo\r\n":8917,"▁años,":8918,"▁blood":8919,"▁ilumin":8920,"▁líricas":8921,"▁philip":8922,"▁situación\r\n":8923,"▁riqueza":8924,"▁empresa\r\n":8925,"▁fekas":8926,"▁representando":8927,"▁hardcore":8928,"▁hagamos":8929,"▁mitad\r\n":8930,"▁creyeron":8931,"▁clicka":8932,"▁descansar":8933,"▁rimar,":8934,"▁retirar":8935,"▁ríe":8936,"▁hierba":8937,"▁pedirte":8938,"▁prueba":8939,"▁hubiese":8940,"▁yandel":8941,"▁encerra":8942,"▁poesía":8943,"▁fiesta\r\n":8944,"▁fracaso\r\n":8945,"▁lambor":8946,"▁soledad\r\n":8947,"▁lebron\r\n":8948,"▁dembow":8949,"▁dembow\r\n":8950,"▁engancho":8951,"▁g's\r\n":8952,"▁g's,":8953,"▁idiota\r\n":8954,"▁caíste":8955,"▁pensamiento":8956,"▁underground":8957,"▁underground\r\n":8958,"▁norte":8959,"▁camarada\r\n":8960,"▁coloca":8961,"▁sueñan":8962,"▁desapare":8963,"▁especial":8964,"▁secund":8965,"▁amenaza\r\n":8966,"▁au-au,":8967,"▁rockstar,":8968,"▁clandes":8969,"▁perfume\r\n":8970,"▁aplaud":8971,"▁kobe":8972,"▁victoria":8973,"▁west":8974,"▁sonidos":8975,"▁mereces\r\n":8976,"▁casualidad\r\n":8977,"▁brujería\r\n":8978,"▁living":8979,"▁heladera\r\n":8980,"▁atrope":8981,"▁lapiz":8982,"▁temor,":8983,"▁letras\r\n":8984,"▁incons":8985,"▁pibes":8986,"▁wannabe\r\n":8987,"▁flasheando":8988,"▁nananananananau,":8989,"▁pleas":8990,"▁cheese,":8991,"▁13,":8992,"▁ivy":8993,"▁khea,":8994,"▁cumpleañ":8995,"▁gángs":8996,"▁ay-ay-ay":8997,"▁0-600":8998,"▁hollywood\r\n":8999,"▁snoop":9000,"▁lentamente":9001,"▁tv\r\n":9002,"▁conocés,":9003,"▁resuci":9004,"▁homegrown":9005,"▁louis":9006,"-ta\r\n":9007,"-gua":9008,"7,":9009,"a!\r\n":9010,"a-a":9011,"ah!\r\n":9012,"b,":9013,"ban\r\n":9014,"bra,":9015,"bando,":9016,"bala":9017,"biente":9018,"cy":9019,"cón":9020,"co'":9021,"dame":9022,"gran":9023,"ide":9024,"les,":9025,"rus":9026,"son\r\n":9027,"ts":9028,"ton\r\n":9029,"tbol":9030,"vent":9031,"éc":9032,"éis":9033,"íb":9034,"ír\r\n":9035,"íste":9036,"ñas\r\n":9037,"еn":9038,"▁8":9039,"▁!\r\n":9040,"▁ea\r\n":9041,"▁e'\r\n":9042,"▁emer":9043,"▁ebay":9044,"▁sle":9045,"▁snea":9046,"▁line":9047,"▁lío\r\n":9048,"▁cd":9049,"▁cens":9050,"▁cír":9051,"▁das\r\n":9052,"▁do',":9053,"▁ada":9054,"▁aci":9055,"▁ape":9056,"▁aum":9057,"▁a-l":9058,"▁ysy,":9059,"▁que-":9060,"▁quej":9061,"▁quedo\r\n":9062,"▁queman":9063,"▁esencia":9064,"anas":9065,"ares\r\n":9066,"▁vom":9067,"▁vo'\r\n":9068,"ordin":9069,"do?\r\n":9070,"▁nobo":9071,"▁latino":9072,"▁enciendo":9073,"▁ensa":9074,"▁enser":9075,"▁bras":9076,"▁mio,":9077,"iny":9078,"inando":9079,"▁fet":9080,"▁low":9081,"▁un,":9082,"▁tequi":9083,"om,":9084,"▁congel":9085,"ami,":9086,"dado,":9087,"uida":9088,"▁se,":9089,"▁semb":9090,"▁secuen":9091,"▁sedu":9092,"▁porta":9093,"logía\r\n":9094,"cientos":9095,"▁gü":9096,"▁gun":9097,"▁gro":9098,"▁glow":9099,"▁gat":9100,"▁gár":9101,"▁game,":9102,"ero!\r\n":9103,"▁comiste":9104,"le'\r\n":9105,"▁dias":9106,"▁dici":9107,"▁dicta":9108,"▁og":9109,"▁ok":9110,"▁ooo":9111,"▁ok\r\n":9112,"▁oah,":9113,"▁ozon":9114,"lada,":9115,"▁paj":9116,"▁pay":9117,"▁paco":9118,"▁paper":9119,"▁patri":9120,"▁patru":9121,"ches":9122,"char\r\n":9123,"chi\r\n":9124,"▁toco,":9125,"▁estes":9126,"▁parra":9127,"▁parque\r\n":9128,"dembo":9129,"▁alas":9130,"▁tené":9131,"▁tene'":9132,"til":9133,"tilla":9134,"tion\r\n":9135,"tivo,":9136,"▁cum":9137,"▁culos":9138,"▁cup\r\n":9139,"usa":9140,"▁io":9141,"▁recha":9142,"▁retor":9143,"▁rezar":9144,"▁relá":9145,"dios":9146,"dies":9147,"▁vieron\r\n":9148,"▁lego":9149,"▁león\r\n":9150,"▁lejos,":9151,"metros":9152,"iste,":9153,"▁yee":9154,"▁yea\r\n":9155,"▁yeez":9156,"▁sup":9157,"▁desvis":9158,"▁racis":9159,"▁rabia":9160,"▁paraís":9161,"▁mach":9162,"▁inven":9163,"▁ingl":9164,"▁indus":9165,"▁cagando":9166,"▁cadá":9167,"▁perver":9168,"▁perico":9169,"▁perdemos":9170,"▁estación\r\n":9171,"▁nice\r\n":9172,"▁vemo'":9173,"▁vela\r\n":9174,"▁chris":9175,"▁wel":9176,"▁verano":9177,"▁verano\r\n":9178,"▁pie\r\n":9179,"▁picar":9180,"▁pija":9181,"▁pibas":9182,"▁trapi":9183,"▁pasas":9184,"▁paso,":9185,"▁muñ":9186,"cuando":9187,"cull":9188,"cuzz":9189,"▁ano\r\n":9190,"▁anillo":9191,"▁estemos":9192,"▁run\r\n":9193,"▁miser":9194,"▁misión":9195,"▁misil\r\n":9196,"▁riding":9197,"▁yeah-e":9198,"▁yeah-yea":9199,"▁míos,":9200,"▁mírame,":9201,"▁pode":9202,"▁asal":9203,"▁asfi":9204,"▁asan\r\n":9205,"▁asi\r\n":9206,"▁habrá":9207,"▁carri":9208,"▁vender\r\n":9209,"▁vender,":9210,"▁pur":9211,"▁pura\r\n":9212,"▁hice\r\n":9213,"▁ganó":9214,"▁sincero":9215,"▁arti":9216,"▁arder\r\n":9217,"▁son,":9218,"▁sonriendo":9219,"▁peo":9220,"▁pegando":9221,"▁peines":9222,"▁llegas":9223,"▁acari":9224,"▁mancha":9225,"▁malo'":9226,"▁cock":9227,"▁coba":9228,"▁cobro":9229,"....\r\n":9230,"▁am,":9231,"▁amas":9232,"▁ambiente":9233,"▁klan":9234,"▁ul":9235,"▁ute":9236,"▁crean":9237,"▁royal":9238,"▁canta\r\n":9239,"▁dejá":9240,"▁mambo\r\n":9241,"▁licencia":9242,"▁nell":9243,"▁netf":9244,"il,":9245,"▁hablés":9246,"▁modo\r\n":9247,"▁mota\r\n":9248,"▁mocos":9249,"▁modul":9250,"▁corran":9251,"▁hecha":9252,"▁impul":9253,"▁resol":9254,"uesto":9255,"▁barder":9256,"garme":9257,"ices\r\n":9258,"▁proce":9259,"▁boque":9260,"▁bobol":9261,"▁distra":9262,"▁distancia":9263,"▁cosa\r\n":9264,"▁costa":9265,"▁that\r\n":9266,"▁babe":9267,"▁precio\r\n":9268,"▁city,":9269,"▁fallo":9270,"▁juh\r\n":9271,"▁juh,":9272,"▁volumen":9273,"▁volcán\r\n":9274,"▁comprando":9275,"▁guía":9276,"▁bajo,":9277,"▁mono\r\n":9278,"▁monto":9279,"▁plaka\r\n":9280,"▁hot":9281,"▁hoe\r\n":9282,"cionar":9283,"▁llame\r\n":9284,"ezas":9285,"▁tiempos\r\n":9286,"▁vaso\r\n":9287,"▁god":9288,"▁dura\r\n":9289,"▁olví":9290,"▁cable":9291,"▁cable\r\n":9292,"chate":9293,"▁bicho,":9294,"▁abrí":9295,"▁marmo":9296,"▁martin":9297,"▁pensar,":9298,"▁perdés":9299,"mbo\r\n":9300,"▁data":9301,"▁rompa\r\n":9302,"▁rapeo,":9303,"la,\r\n":9304,"▁escritor":9305,"▁muera\r\n":9306,"▁doce\r\n":9307,"▁doin'":9308,"▁free,":9309,"▁orden":9310,"▁querer\r\n":9311,"▁gusano\r\n":9312,"ats":9313,"▁quieren\r\n":9314,"etas\r\n":9315,"ándolos":9316,"▁reales":9317,"▁fina\r\n":9318,"▁mordiendo":9319,"▁están?":9320,"▁échate":9321,"▁pesa\r\n":9322,"▁pesca":9323,"▁grabar":9324,"▁juegue":9325,"▁jodí":9326,"▁fecha":9327,"▁quien\r\n":9328,"▁cerca\r\n":9329,"▁zi":9330,"▁zum":9331,"▁zion":9332,"▁\"es":9333,"▁\"lo":9334,"▁banco\r\n":9335,"▁blon":9336,"▁blis":9337,"▁only":9338,"▁clack":9339,"▁dinami":9340,"▁decirme":9341,"▁papo\r\n":9342,"▁papo,":9343,"▁brillo\r\n":9344,"▁2,":9345,"▁¿qué?":9346,"▁gato\r\n":9347,"▁matarme\r\n":9348,"▁fuimos":9349,"▁importante\r\n":9350,"▁cria":9351,"▁14":9352,"▁17":9353,"▁18":9354,"▁quiénes":9355,"▁bailan":9356,"▁visten":9357,"▁mucho\r\n":9358,"▁pussy,":9359,"▁gritando":9360,"▁allí":9361,"urt":9362,"▁trippin'\r\n":9363,"▁hipho":9364,"▁respetan":9365,"▁palabra,":9366,"▁prendida":9367,"▁tranquila,":9368,"▁vamos,":9369,"▁niggas,":9370,"ga,\r\n":9371,"▁entendes":9372,"▁jung":9373,"▁juno\r\n":9374,"▁perdida\r\n":9375,"▁perdieron":9376,"▁cine,":9377,"▁cinco,":9378,"▁cincuenta":9379,"▁estuviste":9380,"▁diabla":9381,"▁diabla\r\n":9382,"▁huev":9383,"▁huevo,":9384,"▁lloran":9385,"▁traigo\r\n":9386,"▁espí":9387,"▁agarró":9388,"▁dejaré":9389,"▁pega'o":9390,"▁dijo\r\n":9391,"▁dije\r\n":9392,"▁vivido\r\n":9393,"cheo":9394,"▁niveles\r\n":9395,"▁bailo":9396,"▁chupan":9397,"▁viejo,":9398,"▁jacuzz":9399,"▁revuel":9400,"▁encuentr":9401,"▁escena\r\n":9402,"▁escenario,":9403,"▁aprender\r\n":9404,"▁mente,":9405,"▁ron,":9406,"▁ronda":9407,"miento,":9408,"▁suban":9409,"▁sube\r\n":9410,"▁golpes":9411,"▁recuerdo\r\n":9412,"▁jefa":9413,"▁explique":9414,"▁explica":9415,"▁dueña":9416,"▁duele,":9417,"▁vamo'a":9418,"▁justamente":9419,"▁cien,":9420,"▁cruda\r\n":9421,"▁entonce'":9422,"▁extraña":9423,"▁extraordin":9424,"▁defini":9425,"▁brillante":9426,"▁apagar":9427,"▁apague":9428,"▁gastar":9429,"▁supera\r\n":9430,"▁intenso\r\n":9431,"▁diferenci":9432,"▁represento\r\n":9433,"▁ayudar":9434,"▁pinche":9435,"▁viaje,":9436,"▁escribiste":9437,"▁bombo":9438,"▁mirando\r\n":9439,"▁¿quien":9440,"▁compara":9441,"▁ganai":9442,"▁orodembo":9443,"▁improvisación,":9444,"▁almacen":9445,"▁pasear\r\n":9446,"▁cuatro,":9447,"▁celesti":9448,"ctivo\r\n":9449,"▁dormido":9450,"▁dormido\r\n":9451,"▁rocke":9452,"▁pleno":9453,"▁razones":9454,"▁benito":9455,"▁rompemo'":9456,"▁priva":9457,"▁escondo":9458,"▁frente,":9459,"▁peleábamos":9460,"▁demostra":9461,"▁chanel\r\n":9462,"▁segundo\r\n":9463,"▁cierto,":9464,"▁cadenas":9465,"-n\r\n":9466,"▁infeli":9467,"▁clica":9468,"▁rubia":9469,"▁papel,":9470,"▁armado":9471,"▁invas":9472,"▁inventar":9473,"▁acabe":9474,"▁acabó":9475,"▁perfecto,":9476,"▁4am\r\n":9477,"▁contestar\r\n":9478,"▁jamas":9479,"▁soñar,":9480,"weat":9481,"▁putas,":9482,"▁rollin'":9483,"▁flasha":9484,"▁records\r\n":9485,"▁historias":9486,"▁comprendo":9487,"▁comprarme":9488,"▁confundi":9489,"▁confundas":9490,"▁that,":9491,"bulan":9492,"▁espacio":9493,"▁alcanza":9494,"▁partido":9495,"▁parties":9496,"▁partici":9497,"▁regalarte":9498,"▁frontea":9499,"▁erí":9500,"▁chapiad":9501,"▁ocupar":9502,"▁combo,":9503,"▁desespero\r\n":9504,"▁tuyos":9505,"▁despierto,":9506,"▁cómo\r\n":9507,"▁cógelo":9508,"▁mayores":9509,"▁toy\r\n":9510,"▁además":9511,"▁rumor,":9512,"▁rumores":9513,"▁cazar\r\n":9514,"▁eventos\r\n":9515,"▁consigo":9516,"▁convierto":9517,"▁complica":9518,"▁motherfucker\r\n":9519,"▁deprimi":9520,"▁goteo":9521,"fica\r\n":9522,"ko!\r\n":9523,"▁mezclo,":9524,"▁disfra":9525,"▁jugador":9526,"▁leyenda\r\n":9527,"▁meterte":9528,"▁desperté":9529,"▁hablemos":9530,"▁cocaín":9531,"▁gangster\r\n":9532,"▁trampa,":9533,"▁prometo\r\n":9534,"▁menore'":9535,"▁ferrari,":9536,"▁artista":9537,"▁atrevida":9538,"▁chiste\r\n":9539,"▁fluyendo":9540,"▁decís,":9541,"▁subimos":9542,"▁acostumbrando":9543,"▁despedi":9544,"▁rayos":9545,"▁apuesto":9546,"▁feliz,":9547,"▁killah,":9548,"diendo\r\n":9549,"▁wacho'":9550,"▁24,":9551,"▁pendejo":9552,"▁capitalismo":9553,"▁adelante\r\n":9554,"▁reggaeton":9555,"▁tos'":9556,"▁hundí":9557,"▁veloz":9558,"▁resuelve":9559,"▁conocimiento\r\n":9560,"▁agradecer":9561,"▁jaime\r\n":9562,"▁fekas\r\n":9563,"▁domingo":9564,"▁detoke":9565,"▁video'":9566,"▁¿saben":9567,"-lil":9568,"▁imitar":9569,"▁ofrezco":9570,"▁cristalina":9571,"▁actuar":9572,"▁bienveni":9573,"▁maradona,":9574,"▁samo":9575,"▁avent":9576,"▁hubiera":9577,"▁plastic\r\n":9578,"▁sicario\r\n":9579,"▁teníamos":9580,"▁revienta\r\n":9581,"▁dólar\r\n":9582,"▁level\r\n":9583,"▁potente\r\n":9584,"▁llegué,":9585,"▁chequea":9586,"▁páli":9587,"▁inoc":9588,"▁inocent":9589,"▁cocino":9590,"▁montana":9591,"▁descontrola\r\n":9592,"▁desayuno":9593,"-lu":9594,"▁siguiendo":9595,"▁alumbra":9596,"▁idiota,":9597,"▁cigarri":9598,"▁alemán,":9599,"▁detono\r\n":9600,"▁supimos":9601,"▁cacerio":9602,"▁maravi":9603,"▁derramar":9604,"▁alimentar":9605,"▁gobierno":9606,"▁facturando":9607,"▁advertí":9608,"▁ánimo,":9609,"▁negocios":9610,"▁world\r\n":9611,"▁continu":9612,"▁mafia\r\n":9613,"▁polola":9614,"▁camisa":9615,"▁europa\r\n":9616,"▁dividiendo":9617,"▁alerta\r\n":9618,"▁piquete":9619,"▁transpiro":9620,"▁madrugada\r\n":9621,"▁deudas":9622,"▁imán,":9623,"▁decididas":9624,"▁revolución":9625,"▁lenguaje\r\n":9626,"▁puente":9627,"▁school\r\n":9628,"osauri":9629,"▁racek\r\n":9630,"▁arreglábamos":9631,"▁acostumbrado":9632,"▁neuronas":9633,"▁furia":9634,"▁árbol\r\n":9635,"▁delito'":9636,"▁resentido\r\n":9637,"▁princesa\r\n":9638,"▁legendario\r\n":9639,"▁lágrimas":9640,"▁vecind":9641,"▁woman":9642,"▁shooter":9643,"▁mañanas":9644,"▁profundo":9645,"▁temática\r\n":9646,"▁piola":9647,"▁easy...":9648,"▁avenida\r\n":9649,"▁anterior":9650,"-pi-pi":9651,"▁atiendo,":9652,"▁ojete\r\n":9653,"▁práctica\r\n":9654,"▁prohibido":9655,"▁absolu":9656,"▁explosión":9657,"▁chaval\r\n":9658,"▁tráe":9659,"▁autoestima\r\n":9660,"▁espiritu":9661,"▁reporta":9662,"▁trapeando,":9663,"▁mantuve":9664,"▁canalla\r\n":9665,"▁bayam":9666,"▁provoca":9667,"▁profeta":9668,"▁apuñ":9669,"▁obses":9670,"▁night\r\n":9671,"▁fashion,":9672,"▁wanakin\r\n":9673,"▁clock":9674,"▁conozco,":9675,"▁fifty":9676,"▁strike\r\n":9677,"▁na-na-na-na":9678,"▁reprodu":9679,"▁chambeo":9680,"▁original":9681,"▁tatué":9682,"▁enderez":9683,"▁iglesia":9684,"▁organiza":9685,"▁numero":9686,"▁chaleco":9687,"▁accesibles\r\n":9688,"▁satisfe":9689,"▁blunts;":9690,"▁john":9691,"▁instinto":9692,"▁filosof":9693,"▁hacér":9694,"▁hipócri":9695,"▁mercenario\r\n":9696,"▁genuino":9697,"▁adap":9698,"▁a-l-e-":9699,"▁gárgo":9700,"▁industria":9701,"▁cadáver":9702,"▁netfli":9703,"▁acostumbrandome":9704,"!!!\r\n":9705,"-0":9706,"-ar":9707,"-ro":9708,"-con":9709,"-ja\r\n":9710,"800":9711,"ay":9712,"adas":9713,"by":9714,"bo,":9715,"bro\r\n":9716,"ctos\r\n":9717,"cciones":9718,"ctá":9719,"cción,":9720,"eta,":9721,"gué":9722,"gio":9723,"her\r\n":9724,"it\r\n":9725,"itos\r\n":9726,"illa\r\n":9727,"iona":9728,"illo\r\n":9729,"illas":9730,"jo'\r\n":9731,"ky\r\n":9732,"luy":9733,"mina":9734,"nas":9735,"ning":9736,"plo":9737,"pora":9738,"pens":9739,"pame":9740,"rre":9741,"ry,":9742,"rr\r\n":9743,"ss,":9744,"ster\r\n":9745,"tto":9746,"tus":9747,"tty":9748,"tón,":9749,"ula":9750,"ud\r\n":9751,"zos":9752,"zep":9753,"éx":9754,"íg":9755,"ías,":9756," s":9757,"▁?\r\n":9758,"▁ór":9759,"▁mando\r\n":9760,"▁so'":9761,"▁scar":9762,"▁swe":9763,"▁lenta\r\n":9764,"▁léx":9765,"▁cro":9766,"▁da,":9767,"▁daba":9768,"▁ado":9769,"▁ate":9770,"▁ak\r\n":9771,"▁aval":9772,"▁a-c":9773,"ers":9774,"ende\r\n":9775,"endés":9776,"▁yon":9777,"▁yes,":9778,"▁que?\r\n":9779,"▁esa,":9780,"▁esni":9781,"▁esencia\r\n":9782,"anas\r\n":9783,"anza,":9784,"▁debi":9785,"▁detro":9786,"▁detes":9787,"▁vui":9788,"doba":9789,"▁noto":9790,"▁note\r\n":9791,"▁nove":9792,"▁lao":9793,"▁lava":9794,"▁label":9795,"▁ellas":9796,"ese\r\n":9797,"undo":9798,"▁me?\r\n":9799,"▁meta,":9800,"▁metri":9801,"▁bui":9802,"▁bando,":9803,"▁bm\r\n":9804,"tea":9805,"ald":9806,"▁lobo":9807,"▁lomb":9808,"▁low\r\n":9809,"▁uno'":9810,"▁te,":9811,"▁tego":9812,"omen":9813,"▁simi":9814,"▁sigas":9815,"▁yo?\r\n":9816,"▁seven":9817,"cient":9818,"▁gas\r\n":9819,"rica\r\n":9820,"▁coma":9821,"▁comí":9822,"▁coming":9823,"▁común":9824,"▁comer,":9825,"▁comuna\r\n":9826,"ley\r\n":9827,"iento,":9828,"▁o'":9829,"▁ova":9830,"▁og,":9831,"late":9832,"lazo\r\n":9833,"▁tu'":9834,"▁pata":9835,"▁pack":9836,"▁pa!\r\n":9837,"▁pagando":9838,"▁pa-pa":9839,"▁quitar":9840,"▁quieb":9841,"▁estra":9842,"▁parar,":9843,"▁partiendo":9844,"▁parlante\r\n":9845,"▁alm":9846,"▁alza":9847,"▁altos":9848,"▁alber":9849,"▁aliento\r\n":9850,"cel\r\n":9851,"▁tenn":9852,"▁tené'":9853,"tia":9854,"tian":9855,"tis\r\n":9856,"ush\r\n":9857,"▁is\r\n":9858,"▁ibas":9859,"▁retra":9860,"▁recar":9861,"▁redes":9862,"▁rezo":9863,"▁rebaj":9864,"▁rezo\r\n":9865,"▁refu":9866,"▁reac":9867,"▁vig":9868,"▁leer":9869,"▁levi":9870,"▁lealta":9871,"res,":9872,"▁yaoh":9873,"entes,":9874,"▁yei":9875,"▁tim":9876,"▁tigue":9877,"▁titeres":9878,"▁desfi":9879,"▁desha":9880,"▁nah":9881,"▁nah,":9882,"▁rax":9883,"▁ratico,":9884,"▁mada":9885,"▁mack":9886,"▁mate,":9887,"▁mató":9888,"▁materi":9889,"▁sabros":9890,"▁cau":9891,"▁sobres":9892,"▁perco":9893,"▁perten":9894,"▁perique":9895,"ué\r\n":9896,"▁nico":9897,"▁veas\r\n":9898,"▁chala":9899,"▁wante":9900,"▁verde,":9901,"▁vernos":9902,"mate":9903,"▁pira":9904,"▁pican":9905,"▁pillo\r\n":9906,"orado":9907,"▁traque":9908,"▁trapo":9909,"▁traten":9910,"▁ahh":9911,"▁muta":9912,"▁muro\r\n":9913,"▁muñe":9914,"elos":9915,"▁ró":9916,"▁run":9917,"▁rena":9918,"▁¿do":9919,"▁¿con":9920,"dados\r\n":9921,"traje\r\n":9922,"▁rimo\r\n":9923,"▁right":9924,"▁mír":9925,"▁pozo\r\n":9926,"mico\r\n":9927,"mir\r\n":9928,"▁astr":9929,"▁salgo\r\n":9930,"▁salgo,":9931,"▁salen\r\n":9932,"▁caras\r\n":9933,"▁vendi":9934,"▁venido":9935,"▁vendió":9936,"▁puros":9937,"▁pum,":9938,"▁putita":9939,"▁gane,":9940,"▁ganas,":9941,"▁ganador\r\n":9942,"▁sera":9943,"▁serie":9944,"▁arman":9945,"▁sony":9946,"▁peces":9947,"▁pegan":9948,"▁pew\r\n":9949,"▁tún":9950,"umen\r\n":9951,"cka":9952,"▁vos?\r\n":9953,"▁mande":9954,"▁manic":9955,"▁mano'\r\n":9956,"▁mantien":9957,"▁manada\r\n":9958,"▁camp":9959,"▁malgas":9960,"▁codi":9961,"▁coco\r\n":9962,"▁coja":9963,"▁cojo,":9964,"▁calv":9965,"▁calla":9966,"▁hayan":9967,"▁ambulan":9968,"▁king\r\n":9969,"▁kurt":9970,"▁uz":9971,"▁uy,":9972,"tería\r\n":9973,"teria":9974,"▁crecer":9975,"▁crece\r\n":9976,"▁tango\r\n":9977,"▁canto,":9978,"▁cancha,":9979,"▁deje'":9980,"▁lion":9981,"▁liter":9982,"▁liga,":9983,"▁ligh":9984,"▁libre\r\n":9985,"parme":9986,"ila\r\n":9987,"▁bae,":9988,"▁battle":9989,"siones":9990,"▁busca\r\n":9991,"▁saga":9992,"▁sacu":9993,"▁sacaste":9994,"▁moon":9995,"▁motos":9996,"▁cortó":9997,"enso,":9998,"▁ponle":9999},"merges":["\r \n","▁ e","▁ m","▁ p","u e","▁ s","▁ l","▁ c","▁ t","▁ d","▁ a","▁ q","e r","e n","▁ y","▁ n","▁q ue","▁e s","a n","a r","o s","▁d e","a s","▁ v","o n","o r","d o","▁n o","▁ \r\n","▁l a","▁e l","▁ h","e s","▁e n","u n","a \r\n","o \r\n","▁m e","▁ b","t e","r e","▁m i","a l","i n","r a","▁ f","t a","t o","▁l o","▁ un","▁t e","o m","▁s i","▁c on","▁y o","g o","a m","r o","d a","u i","▁s e","▁p or","▁h a","l o","c i","▁ g","r i","er o","▁c om","an do","o y","l e","i en","▁d i","▁ o","l a","a b","▁t u","▁p a","c h","▁t o","▁q ui","▁es t","▁p ar","▁l os","o ,","m p","▁com o","q ue","d e","▁a l","a ,","c e","▁t en","t i","ó n","▁c u","u s","▁ i","▁ re","h \r\n","d i","▁p ero","á s","c a","o l","▁v i","▁l e","m e","▁ j","h ,","▁es to","r es","▁y a","▁s oy","i s","en t","▁y e","▁t i","e \r\n","▁s u","o '","▁de s","▁n a","▁l as","▁ten go","c o","os \r\n","▁ ra","as \r\n","▁por que","▁par a","en te","▁un a","▁m a","▁s ab","▁ in","e mp","▁c a","ue n","▁de l","▁pa '","ar \r\n","do \r\n","v i","l l","▁s o","▁p er","▁m ás","u é","▁es ta","▁n i","▁v e","▁c h","▁ w","ue r","▁v er","m a","es \r\n","g a","▁p i","or a","y ,","▁t ra","▁p as","▁a h","t o\r\n","▁qui er","▁m u","e l","c u","▁a n","t r","▁es te","▁p ue","▁v a","▁ r","p i","▁v oy","▁mi s","m o","▁ ¿","í a","p e","da d","b i","t ra","▁cu ando","▁esto y","a j","c er","y \r\n","▁ ri","te \r\n","▁ye a","▁est á","t a\r\n","▁m í","▁p o","m i","▁a s","▁ha b","▁si emp","▁siemp re","d a\r\n","▁s al","m os","? \r\n","▁c ar","▁qui ero","q ui","▁v en","e ,","▁p u","▁h i","ón \r\n","▁g an","▁s er","▁s in","▁en t","▁to do","▁a r","l i","▁s on","ue l","p a","' \r\n","▁p e","▁s é","▁t ú","▁l le","d os","p er","▁a c","u m","c k","▁v os","▁m an","▁l l","▁c am","▁so lo","t ro","▁m al","▁c o","r an","v e",". .","▁c al","▁es o","ar i","▁t ien","▁ah ora","d er","▁ha y","▁a m","▁ k","b a","▁ u","t er","t u","▁c re","t ar","▁t an","é n","v o","▁q ué","á n","g u","▁n os","▁p r","to ,","▁es c","▁ ro","▁c an","r as","in g","lo w","▁de j","▁e x","▁m am","' ,","▁l i","ien do","c es","g o\r\n","p ar","▁n e","▁ha cer","▁b ien","▁el la","i l","▁ '","▁b a","ta ,","▁c l","s i","▁as í","▁hab l","▁b us","am os","▁ra p","▁s a","▁ha ce","▁d on","ch o","▁f u","▁m o","▁c or","▁h e","en do","▁i mp","t as","b re","m an","p o","t an","▁ res","en s","d as","t es","é s","ue s","en to","▁p on","▁b ar","i r","▁f low","! \r\n","g ar","▁n un","z a","v er","▁to dos","i c","▁f ue","▁h as","▁p ro","▁s ol","▁b o","▁di s","▁c os","c en","or \r\n","os ,","▁t h","▁b ab","▁yea h\r\n","▁nun ca","j o","c ar","▁b uen","da ,","▁p re","▁di ce","h -","m as","lo ,","▁c i","▁ha go","▁quier e","▁h oy","▁l u","r u","▁tien e","▁f al","▁j u","d en","▁h er","er a","▁m en","▁s h","g an","▁c as","q u","b o","f i","▁ve z","▁has ta","▁es a","▁v ol","▁mi ra","k e","r a\r\n","c a\r\n","r en","▁com p","a do","▁me j","al \r\n","s \r\n","s e","am e","▁ver dad","▁g u","▁b aj","▁no ,","▁m on","▁b e","▁a p","▁mi er","t os","▁p la","te ,","▁m ue","d es","b le","▁e y,","▁h o","▁yea h,","er \r\n","t y","ci on","▁ll am","e z","▁v ien","▁mam i","▁p al","▁na di","t en","▁es cu","▁s í","c o\r\n","in a","t \r\n","▁ti emp","n o","▁v as","▁cal le",". \r\n","▁ go","t al","▁d u","▁o l","▁c ab","▁to '","ch a","c an","▁mej or","▁sab e","▁her man","▁no ch","l o\r\n","v is","▁a un","ar me","es ,","▁tu s","▁b i","as ,","ri m","ente \r\n","ar ,","▁es e","▁v uel","v a","▁de ci","▁aun que","▁don de","▁si go","▁mu y","l an","▁pue do","▁a b","▁n ue","▁vi da","▁m ar","▁s os","▁p ens","▁o tra","í a\r\n","r o\r\n","▁per d","▁p is","▁yo u","▁t am","m b","▁d a","ro ,","ó mo","g un","▁sab es","ando \r\n","▁na da","▁r om","▁sab en","▁f r","▁ra pe","▁ac á","c on","en ci","m o'","do ,","ón ,","in o","go ,","▁t om","la ,","qu í","▁ us","▁nadi e","▁par e","▁esc ri","an \r\n","▁tra p","▁m uer","▁con mi","▁mier da","an a","ci ón\r\n","u b","ú n","a d","▁a quí","▁f a","▁f or","▁d o","é \r\n","j e","▁bar ri","▁ -","▁m y","▁es per","▁e y\r\n","▁to da","m a\r\n","▁f re","▁m as","▁ or","g ui","r \r\n","▁est ás","d \r\n","▁e mp","▁p ien","c o,","▁d ía","s o","ñ o","▁e res","q ué","v o\r\n","▁que r","▁a h,","▁m un","▁ven go","▁c uen","de \r\n","▁th e","g a\r\n","▁d os","am o'","▁g us","▁f l","ci endo","a t","▁quier en","j a","▁l es","▁con tra","▁ex p","er o\r\n","▁re c","▁an d","▁des p","▁t er","▁cam bi","n a","▁ol vi","▁ca da","▁a y","l a\r\n","z \r\n","▁p rim","▁pas a","e t","án do","▁fu ck","t or","ar te","▁mi ent","▁re al","▁f in","▁o h,","▁v al","ce \r\n","▁ye h\r\n","g as","▁m or","▁si ento","▁d ro","▁no \r\n","▁está n","▁vien e","▁ é","▁des de","▁cl ub","▁p es","▁ne g","ci ón","s te","▁bus c","▁g ra","▁est ar","▁cu al","▁g ente","▁pu ta","▁ent re","▁o tro","dad \r\n","g ue","▁an do","▁c ómo","▁t ran","b e","▁di cen","▁e h\r\n","▁car a","▁j ue","▁con o","▁gu a","▁j o","▁cre o","▁s uen","▁f e","▁tiemp o","a '","p or","▁s an","▁mu cho","in a\r\n","▁qui en","▁am or","▁e '","▁a h\r\n","▁ ¡","▁s us","▁d í","u l","en ti","▁que d","▁lo '","▁v o","ro vis","▁imp rovis","▁n en","▁pue s","▁ch a","er on","▁é l","▁c er","▁c ora","▁h u","▁f i","▁w e","e c","▁v an","r ar","▁ z",", \r\n","▁s om",".. .\r\n","j os","▁ \"","▁mi l","▁fre es","▁w h","▁vol ver","▁frees ty","en \r\n","▁e h,","▁me di","▁pue de","▁b an","ra ,","el i","r r","▁b l","▁est i","er a\r\n","▁di me","ent o\r\n","l os","z o","i a","▁noch e","▁ on","▁us te","bi én","t ando","▁i gu","▁ha ciendo","▁escu ch","▁desp ué","▁c la","▁ri mas","▁' e","▁d in","▁cora z","▁a f","▁c uer","le \r\n","▁ch i","▁cl ar","▁tam bién","c a,","í n","▁s uel","am ente","▁deci r","ó lo","▁mun do","▁a mi","▁pa p","ó \r\n","▁b es","▁c ol","í s","▁s ue","▁ye h,","▁in s","▁w a","l la","z a\r\n","▁mient ras","v en","▁mami ,","ent ro","▁t a","▁b ri","▁d ar","m o\r\n","▁ 2","▁bab y,","▁t al","▁s ólo","ci l","on \r\n","▁mí \r\n","▁ar ri","▁tan to","re \r\n","▁ten er","me \r\n","▁¿ qué","y a","d or","▁que da","▁g a","p p","▁p an","t ,","▁ma tar","▁f ui","▁imp or","▁be b","ón de","▁cos cu","▁g i","▁f um","l lo","▁p res","▁s enti","▁ah í","▁an tes","ari o\r\n","c uen","▁despué s","y o","▁en con","o' \r\n","▁na da\r\n","▁c ri","▁o b","▁pi er","f er","▁ 1","▁t ar","▁qui én","▁gus ta","▁t r","▁ve o","▁ba il","c as","i \r\n","▁g ran","▁vi s","ero ,","▁mu ch","▁t on","▁i r","▁pre gun","▁esti lo","m m","▁pro ble","▁pare ce","t ar\r\n","▁p us","▁d oy","▁barri o","s ,","t h","v el","▁de m","▁g ri","▁mon e","d as\r\n","▁al l","u r","▁e ra","▁t ri","▁en ci","le x","▁hi p","▁igu al","▁to das","d r","v e\r\n","▁re g","▁mi n","▁hi jo","▁conmi go","t ch","▁re p","▁w o","▁po der","▁es os","t in","▁mi ll","▁a gu","ci a","▁in ter","▁res pe","▁fal ta","▁pal ab","c í","▁p un","▁a u","▁n ues","▁al go","▁p en","▁g uer","in '","é ,","▁pr en","▁sh o","m ente","as te","to y","tr os","▁tran qui","i o","i to","▁bab y","▁po co","▁pien so","▁ter m","j er","▁rap ero","▁cab r","▁v amos","al e","▁a d","▁sal e","c to","k i","▁mis mo","▁ri ma","ando ,","▁ni g","▁ve ces","▁m om","▁esta mos","▁encon tr","t as\r\n","▁m á","▁pa pi","p \r\n","▁d entro","en ta","▁cual qui","▁b as","▁am or\r\n","m a,","w \r\n","or ,","▁' toy","c os","g a,","s a","▁ent en","on es","▁lo co","▁i '","▁j un","▁k e","k a","▁cu l","e '","▁f uer","d os\r\n","▁p ol","▁se a","d u","▁m er","▁vi vo","▁tien en","l \r\n","t os\r\n","▁tu mb","▁ne ces","p ,","▁f am","▁freesty le","b aj","▁per di","▁u h,","▁dis par","t re","▁c in","▁d ónde","▁mi c","▁est u","▁dej o","▁ma ñ","▁mí ,","▁sí ,","▁dro ga","d í","u t","▁f lex","m bre","▁herman o","▁men os","▁bi tch","d ar","▁d ol","▁un o","▁yo ,","▁quier es","▁d er","▁di ab","t es\r\n","▁h om","▁b al","▁o h\r\n","is te","r os","▁i s","▁n ing","▁h an","der \r\n","▁pr in","▁pon go","▁mor ir","v an","▁h ue","▁ll or","▁men ti","▁i' m","d ,","▁e h","▁t res","ab a","▁tra i","▁y o\r\n","o' ,","l es","r ando","á \r\n","▁e qui","▁d ame","▁a y,","▁es p","▁est os","ce ,","▁so bre","▁cos as","in e","h- e","\" \r\n","b a\r\n","▁a gar","▁di go","ll a\r\n","▁k no","▁dej ar","▁d an","ari o","ñ os","▁c ui","on a","▁m ú","▁li ke","g i","▁pe ga","▁habl ar","m os\r\n","or m","▁ch ic","▁buen o,","p o,","▁est as","▁baj o","▁b r","▁se gui","▁o jos","i dad","▁ti ra","▁a par","▁v o'","▁di j","▁pue den","▁llam a","z ar","▁no mbre","▁se ñ","▁vi vi","▁mú si","- a","ci o","▁di os","▁di jo","▁ri t","▁nos o","? ,","p a\r\n","v o,","ch e","h- o","l as","▁e y","▁lle g","▁ba tal","▁arri ba","m o,","or a\r\n","er n","▁ni vel","▁ba i","m ar","ñ a","▁p lan","▁b ro","▁ch u","▁ar g","▁ll en","▁o di","▁vi e","▁man o","▁lu z","ue la","▁j a","▁ent ien","▁con f","▁hab la","▁k i","▁som os","▁re v","▁más \r\n","▁mu cha","▁d é","an ,","an te","▁la '","p o\r\n","or es","in \r\n","▁sal go","▁cas i","' t","b ra","e mos","▁ ún","▁cu lo","▁gan ar","▁min u","er ,","▁per s","▁esta ba","i on","t ri","▁en cuen","▁ti \r\n","▁ch e","▁esc en","▁san g","▁impor ta","▁prin ci","e a","n i","▁si mp","tr as","▁yea h","▁cuen ta","▁m es","▁d ra","▁a le","▁cu a","▁¿ c","e lo","i co","▁el los","▁con ti","▁sh i","▁ap ren","e za","g \r\n","j o\r\n","l ar","▁a ce","▁bus car","▁ju ro","▁club ,","▁m ente","▁r on","▁gan o",".. .","▁tien es","▁nue vo","d re","m ien","▁el e","▁h ar","▁b u","▁f o","▁su b","▁tra baj","▁mu jer","el o\r\n","ing \r\n","▁go l","▁rec uer","▁ os","▁si gue","▁se gu","▁j e","▁ti ro","tr o\r\n","▁lle v","▁exp li","▁busc ando","un g","ll o\r\n","▁coscu ll","w ,","▁d ue","▁ten és","▁des pi","▁v amo'","én do","▁sol amente","▁herman o,","' s","b er","▁q u","▁en am","al ,","▁f eli","▁o f","▁lle ga","▁lle vo","▁habl ando","▁rec or","c ando","▁f res","▁con s","▁ra per","▁enci ma","i ta","▁vi da\r\n","▁j us","a do\r\n","c es\r\n","g ra","i o\r\n","▁ oy","▁c ien","ch o\r\n","de ,","▁an da","▁sal i","u ,","u h\r\n","í o","▁c ru","▁mi e","ci a\r\n","▁i t","▁ent on","▁for ma","p on","▁es ca","▁cam in","▁medi o","▁uste des","▁arg ent","▁m ol","ar on","▁est re","▁hi ci","▁ex tra","▁bien \r\n","d iendo","r é","▁de f","▁en se","▁g or","▁na da,","▁mue ve","▁suen a","▁bri ll","l ti","▁fa v","ñ o\r\n","an o","an a\r\n","▁ma ta","cion es","▁term in","z o\r\n","▁m ari","▁es as","▁yo ung","▁ha cen","▁sé \r\n","▁ro b","▁buen o","enci a","▁ob vi","- e","g ,","g os","á ,","▁a pa","▁g as","▁su per","▁in t","▁dej a","f e","▁di je","▁di fer","me ,","▁pas o","▁clar o","j a\r\n","▁f un","▁hi ce","▁bab y\r\n","▁bl un","un a","▁ci u","▁nues tro","p ues","t é","an d","▁car a\r\n","uel a\r\n","▁u h\r\n","▁rep res","▁tumb ando","h i","▁de mas","▁su f","cer \r\n","▁pu ta,","v os","▁p os","▁h or","▁o h","▁mal \r\n","▁emp i","▁olvi d","▁ay u","▁jue go","▁v es","ti r","▁don 't","▁pon e","▁coraz ón","e d","▁p in","ch o,","▁al gui","▁vi aj","▁hacer \r\n","▁escri b","▁mom ento","á r","▁t ras","▁a i","' o","t y\r\n","▁es qu","▁b om","▁vi v","▁per f","▁cam ino","▁tr uen","er to","ás \r\n","▁des a","▁fu mo","▁fue ra","▁mue ro","ándo me","▁neg ro","í as","▁d or","▁mi r","▁¿ qui","▁cui da","▁pers on","i ,","i ón\r\n","▁en tr","▁f ren","▁com e","▁m us","▁b or","▁hacer lo","▁bo ca","v e,","▁b lan","▁com par","▁cu an","▁lle gar","▁can s","▁conmi go\r\n","▁pien s","u y","on e","▁di re","▁vez \r\n","▁perd ón","á pi","▁v os\r\n","▁en vi","▁g ir","▁i ba","▁gan a","▁cas a","▁or o","▁improvis a","g ar\r\n","▁l is","en to,","am p","▁est an","▁al ma","di o","▁pa' l","▁pas e","▁agu an","▁cua tro","▁c el","en ,","▁con tro","▁bien ,","enci a\r\n","▁din ero","c ti","▁p uer","▁v am","al i","▁si r","▁le van","▁va ya","▁quiero ,","▁lle go","▁pens ar","▁simp le","▁¿c ómo","▁dor mi","▁ha bi","ci as","▁par te","▁re ad","▁in fi","▁pas ó","bi r","▁quer és","▁af ue","r ó","▁c e","▁c uel","al a","al es\r\n","ci o\r\n","▁ar re","▁ro ck","▁ho p","▁rom p","▁wh i","rr um","▁cualqui er","c re","h !\r\n","▁b re","▁si g","am e,","▁much os","! !\r\n","i g","t á","▁p l","on es\r\n","▁la do","▁si ente","▁ra z","▁mal a","▁sang re","pa ñ","arme \r\n","▁nue vo\r\n","▁suel to","▁enton ces","c tu","t ó","▁p eli","an te\r\n","▁no vi","al o","om o","▁g e","▁ya h\r\n","▁pas ar","▁bus ca","▁flow ,","▁senti r","▁algui en","▁d ando","▁h um","▁b en","▁te mp","▁re ci","▁sa car","▁baj a","▁rape ar","▁encontr ar","▁mañ ana","c or","▁mí o","▁gu ar","▁rom pe","▁palab ras","0 0","u \r\n","v a\r\n","á g","í a,","▁p ri","▁me to","▁ti er","▁th is","pp in","▁gi ve","g ando","h a","i li","m or","t iendo","▁d ri","▁n orm","▁pue des","▁gan as","▁esc on","▁ab aj","▁fr ente","▁hu mo","c ta","i do","i to\r\n","m as\r\n","s y","▁d os\r\n","▁a di","▁h mm","▁com pe","▁ma to","▁ch am","▁ver \r\n","▁pi de","▁quier o\r\n","▁pe le","▁val e","▁ense ñ","- na","▁que \r\n","▁b ol","▁f á","▁per man","▁w an","▁' ta","▁sa co","és \r\n","▁pla ta","▁toda v","▁vo z","b r","i m","▁s k","▁a ños","▁de mos","▁si ,","▁con ci","▁ch an","cu l","▁esper ando","▁exp lo","▁respe to","e ta","▁m c","▁se gun","▁tu yo","me lo","▁ca pi","▁sal ir","▁cam pe","▁cos a","▁pens ando","▁pis o,","▁escri bo","th er","▁má '","c in","i a\r\n","o o","▁ án","▁no ta","▁sab er","▁hi zo","▁lu gar","▁sh e","cion es\r\n","▁rape o","▁cuer po","▁dé j","d es\r\n","f on","g ún","▁ x","▁l ue","▁d om","▁si endo","▁con ta","le ,","▁o ke","▁ch o","▁tra je","▁po dr","▁pe lo","▁ci er","▁mira ,","▁tiemp o\r\n","▁envi di","_ _","d an","▁ ú","▁s ent","▁t or","▁h is","▁di gan","▁al gun","▁ca den","▁pas ti","▁pas ado","▁pre fi","▁fum ando","▁noso tros","▁fá cil","- n","á m","ñ o,","▁d uer","al l","am e\r\n","que \r\n","▁per der","▁po ca","▁hab lo","um ent","▁mami \r\n","▁trap ,","▁nen a","▁cri s","▁segui r","▁ún ico","i ón","t on","▁p el","▁a que","es ta","a, \r\n","▁vi da,","▁ti ran","▁más ,","▁pi el","▁u o","▁tan ta","▁pis o","m ando","▁d al","▁v iendo","▁mi \r\n","▁to ca","▁pi do","▁todo '","ck \r\n","▁fu tu","▁nadi e\r\n","▁fr on","▁proble ma","h-e h\r\n","- b","g h","y e","▁ ñ","▁cu mp","di do","▁in f","▁ca i","▁am ar","▁cl as","▁vis to","▁fam ili","n os","▁c li","▁d ale","▁en tra","▁en can","▁as i","▁sé ,","▁cre e","▁flow \r\n","▁fue go","▁emp ez","▁vivi r","k \r\n","▁s low","▁l ar","ien te","ll as","▁r u","ing ,","▁así \r\n","bre \r\n","▁pre par","▁señ or","b as","b o\r\n","e b","í \r\n","▁s or","▁t re","▁des e","▁siempre \r\n","▁vol v","▁comp le","▁verdad ,","▁verdad \r\n","▁be at","▁barri o\r\n","▁prim era","▁pap el","h o","ar a","▁v ino","il le","▁habl an","▁pon er","▁herman o\r\n","▁wh at","▁mone y","▁rit mo","▁os cu","▁demas i","' o\r\n","t um","▁h am","es ti","▁me te","in o\r\n","ci ón,","▁g en","▁ar ma","▁co pi","▁músi ca","▁afue ra","▁ú lti","e '\r\n","an ana","▁b ille","ti s","ma g","▁¿ que","▁cam a","▁du k","▁cul pa","▁todav ía","▁demos tr","f r","m \r\n","▁a tr","▁ha ga","▁o j","▁qui si","▁na '\r\n","▁pi llo","▁así ,","▁sí \r\n","▁muer te","▁equi vo","▁kno w","▁norm al","c ía","j e\r\n","▁mi ro","al es","ch a\r\n","▁le y","is \r\n","▁su be","▁in v","▁in vi","▁ca us","▁¿ y","▁ac ab","▁cor re","▁¿qui én","c tor","d és","g ro","en do\r\n","▁g il","▁re y","me lo\r\n","▁w i","▁as es","▁pu to","das ,","▁buen o\r\n","▁rom po","▁neg ro,","▁chi co","▁pus e","▁perf ec","c to\r\n","g n","t t","x \r\n","í an","om e","▁hab ía","tu r","▁ho us","▁tam po","▁quer ía","▁dí as","▁pier do","▁pun to","▁ 4","▁v ine","▁f lo","▁i mag","▁¿ por","▁ac uer","▁man os","▁calle ,","▁trai go","- o","▁b lo","▁con tes","ri s","▁qui z","▁r os","▁res pon","▁coraz ón\r\n","▁guer ra","▁enam or","- \r\n","b an","▁f ras","▁com er","▁di ga","▁ca p","▁r ápi","▁mal di","▁mam a","▁escu cha","▁vuel vo","▁perd í","▁prim ero","▁sue ño","▁ins tr","d ri","f u","z a,","í o\r\n","▁m ent","▁a cer","er no","▁h ora","ch i","▁j am","▁so ñ","▁ent iendo","▁he y,","▁vuel ve","▁tran s","▁qued ar","▁obvi amente","▁tampo co","g e","w e","▁e mb","▁a g","▁a tra","▁lo ca","ri endo","▁in c","▁mis mo\r\n","▁fin al","▁din ero,","▁tranqui lo","▁bai la","▁shi t\r\n","▁read y","p li","í as\r\n","lo '","▁g ui","▁al gún","▁ten emos","▁pu tas","▁ac ti","▁am an","ez a\r\n","▁prim er","▁fuck ing","▁real idad","▁club \r\n","▁hu mi","f a","▁a tre","▁si l","ent ar","▁ri cto","▁ro ll","▁vuel ta","▁fl as","▁tar de\r\n","▁ning un","▁recor d","▁perman ent","▁his tor","m án","▁t ro","▁a ta","en a","▁es pe","▁es qui","▁si ent","▁di ez","▁o tros","▁vi o","▁k il","▁mam á","▁fu ll","▁comp r","ado ,","▁tom o","▁conmi go,","▁au to","▁mic ro","▁br in","▁conf un","▁mus ic","t os,","▁m ens","▁la do\r\n","▁b oy","▁f an","▁lo co,","▁sal u","▁sin o","▁bus co","▁mo vi","▁th at","▁noch e\r\n","▁tom a","▁aquí \r\n","▁do ble","▁cambi o","▁on e","▁palab ra","▁esp ero","▁coscull uela","▁cuel lo","▁instr ument","b u","r ,","▁m os","▁a ún","▁es pa","▁g ente\r\n","▁di gas","▁par ty","▁al can","▁cu án","▁j aj","▁ser á","▁lle va","▁u h","▁u h-","▁sa ca","ic o\r\n","▁lu z\r\n","▁proble mas","▁dal e,","▁v ue","▁en e","▁b ru","▁un os","▁par ar","▁par ti","▁i l","▁des es","▁pas a,","▁ent er","ter \r\n","▁rap ,","▁buen a","▁sh or","▁flex ,","▁mie do","▁fav or","b li","p e\r\n","▁l un","▁que do","▁b um","▁f er","▁con fi","▁o h-o","ti c","▁re la","▁re bo","▁ti r","▁na '","▁ci e","fi ci","▁reg al","▁inter es","▁ning ún","▁conti go","▁ge la","▁fron te","- p","i dad\r\n","l as\r\n","t ón\r\n","u ra","y as","▁e r","▁c á","▁que ,","▁di f","▁pa z","▁cu ar","cu la","▁va i","▁ent ro","▁ci elo\r\n","▁mue re","▁trap p","▁cono ce","▁fe el","▁uste d","k e\r\n","r .","▁a vi","an o\r\n","on i","▁no '","in a,","▁lo co\r\n","▁com i","▁di ces","ca do","res \r\n","▁des con","ll as\r\n","▁per re","▁ver s","▁can to","▁mo do","▁bo o","▁du ro","▁jue go\r\n","▁amor ,","▁pues to","▁cha pi","▁dar le","▁diab lo","▁minu ti","▁e rr","▁m ando","▁m mm","▁l an","▁a ño","▁es o'","on a\r\n","▁o cu","▁soy \r\n","▁sa c","▁cor ta","▁dis co","▁ci elo","ble \r\n","▁pap á","▁col or","▁beb é\r\n","▁gran de","▁nig ga\r\n","▁mer e","▁ciu dad","p le","▁a vis","ra z","▁te ma","▁com b","ien to","▁est ru","▁car r","▁ven ir","▁gan g","▁mo ther","▁bo te","▁mej or\r\n","▁cin co","▁jus to","▁c ues","en o\r\n","▁ha ter","▁g ar","▁ye h","ck ,","▁u p,","tu ra","▁ay er","▁dro ga,","▁qued an","▁all á","-e -","▁mens aj","▁deses per","▁estru ctu","- tu","h e","i ca","t un","w n","ó ,","▁de b","▁f on","▁tu y","ent a\r\n","▁ti po","▁mí a\r\n","▁ac os","▁ro pa","▁he cho","▁fue go\r\n","▁dice :","▁hom bre","▁ace p","▁oy e","▁truen o","! !","p as","▁d ía\r\n","▁de c","▁cu lo,","▁i de","▁ti rar","co h","▁quier a","▁pr rrum","▁ho o","▁cab eza","▁noch es","▁cha in","▁despi er","▁lue go","▁demasi ado","fu ck","k ,","l er","m ,","m er","▁ 3","▁c ó","en d","os o","▁si qui","▁se x","▁ha ces","▁di o","▁o ut","▁pa gan","▁ten ga","▁des can","▁ma y","▁vos ,","▁mier da\r\n","▁nue v","▁cuen to","▁gra cias","▁din ero\r\n","▁mic ró","▁micró fon",". r.","d or\r\n","g os\r\n","l ,","l y","t ien","▁t ari","▁a z","▁me \r\n","▁b la","ci do","▁esto ,","▁su bir","▁sal am","▁hi jos","▁man ten","▁li ber","si ón\r\n","tes ,","▁noch e,","▁fl or","▁gua po,","▁cer eb","▁fui ste","▁mill on","▁vam o","▁humi l","h u","n e","▁s w","▁t oy","▁a de","▁me ,","▁f as","▁f ir","▁di am","▁ten ía","▁ti ,","▁ma dre","▁ah o","▁r um","▁car a,","▁mier da,","▁ay er\r\n","▁mone y,","▁encuen tro","▁qu in","▁quiz ás","▁sil enci","▁siqui era","& amp","b ar","b ol","e ta\r\n","g l","k a\r\n","o cu","s e\r\n","▁t í","▁t in","▁que das","▁es o,","on ,","▁est il","▁par o","▁al coh","▁vi ve","me lo,","▁des c","▁ca z","▁pas an","▁pu ro","tar ,","▁lu gar\r\n","▁calle \r\n","▁chi ca","▁segu ro","▁feli ci","▁novi o","&amp ;","f e,","g el","j o,","k er","t án","u h","u yo","z co","í cil","▁e v","ue la,","▁con si","▁ya h,","ent ro\r\n","▁na ',","▁ma ',","▁so la","▁ah ora\r\n","▁r en","▁¿ s","▁cal ien","▁pr endo","▁comp ren","▁pes a","▁suen o","▁der ri","▁argent ina","▁int ent","▁simple mente","▁hmm ,","▁dif ícil","▁ &amp;","▁m é","▁s mo","▁l en","▁c r","▁f ra","ta '","▁con vi","▁con se","▁est é","ti ca\r\n","di r","▁ti rando","▁ca pa","▁esta mo'","mos ,","▁car aj","▁mal o","▁ex is","▁pro pi","▁comp li","▁vien en","▁to' a","▁gua po","▁fi esta","▁bes o","▁ahí \r\n","▁pus o","▁cabr ón","▁nig ga","▁dij eron","▁fun er","▁cuan to","▁mother fuck","▁salam and","▁alcoh ol","b a,","j er\r\n","n os\r\n","r as\r\n","▁ za","▁e vi","▁p ú","▁t ru","▁d arte","▁a qui","en a\r\n","▁v ari","▁en fr","▁si ento\r\n","▁o p","ch a,","que n","▁w uh\r\n","▁mu jer\r\n","▁gan ar\r\n","▁ser io","▁man da","▁habl es","tas ,","ues tro","▁pasa do\r\n","▁nen a,","▁2 0","▁bail ando","▁batal la","▁infi erno","w o","▁m ía","▁l in","▁de p","▁me ti","▁b el","▁b ur","▁mi ran","▁yo '\r\n","am os\r\n","lo que","▁pa g","di ó","▁sab és","▁ni e","▁an te","▁sa dor","▁pre ocu","▁ju ra","▁her i","▁go t","▁rape ando","▁qued ó","▁cri ti","▁bail ar","▁much as","▁sho w","▁chic a,","éndo me","▁wan na","▁aman e","d ando","t al\r\n","z c","▁e ch","an an","in i","▁con tar","da '","ab le","▁pa dre","▁ma '","▁ca e","▁ver te","▁pi e","▁hab er","▁tú ,","ens e","▁ju gar","▁tar de","▁pregun tan","▁cualqui era\r\n","▁flex \r\n","▁agar ro","▁recuer do","▁ciu dad\r\n","▁aque l","▁quisi era","e p","j as","m ent","▁d am","an a,","▁f la","▁un i","▁ha gas","▁vi ol","▁in te","▁ca y","▁ni ño","▁pue b","▁po bre","▁sal í","▁man e","tu a","▁pro f","▁sol a\r\n","▁go te","▁pis ta","▁muer to","▁cambi ar","▁cer ca","▁ami gos","▁nivel \r\n","▁empi ez","▁sir ve","-tu -tu","a h\r\n","t y,","u vi","▁s uer","▁c rim","▁d ien","▁en ro","un d","▁b os","▁un der","o, \r\n","▁ten dr","▁vi vo\r\n","▁su bo","▁ah -a","▁pu ta\r\n","li g","▁u p","▁or gu","▁freesty le\r\n","▁clar o\r\n","▁morir \r\n","▁vie ja","▁sor p","anana u,","▁ene mi","▁liber ta","a c","f ic","s o\r\n","u h-","x i","▁ ,","▁e ter","os i","▁b ro\r\n","ta do","▁to do\r\n","▁ma d","▁w ar","▁¿ no","der ,","▁he y","▁res pi","▁sol o\r\n","▁cas ti","▁ol or","▁and amos","▁dime ,","▁ami go","▁mari hu","▁pos i","▁empi eza","ppin ',","▁podr ía","▁famili a","▁l í","en o","▁en loque","▁mi rar","▁ha z","ch os","▁par ty\r\n","di do\r\n","ás ,","▁des ta","▁mis ma","▁pu ra","▁hi t","▁sin cer","▁man era","▁li bre","▁rap per","▁pon en","▁fal l","▁bi g","▁nue va","▁we ón","▁tal ento","▁arri ba\r\n","▁ga ta","pp in'","▁papi ,","▁chu pa","▁it 's","▁mol es","▁encan ta","▁demostr ar","f or","i o,","k o","n o\r\n","▁e go","▁me zc","▁con ver","da te","de mos","▁quier as","▁va cí","▁¿ d","qui to","▁ven ga","▁todo ,","▁co g","ari o,","▁' tá","tan \r\n","▁bo ca\r\n","▁dis f","▁ju ga","▁perd iendo","▁perd ón,","▁pis o\r\n","▁- ín","▁quer er","▁olvi dar","ki ll","▁pol ic","▁conti go\r\n","▁esca par","▁esqu ina","▁improvisa ción\r\n","▁pel í","c ent","k e,","u ra\r\n","▁l una","▁que mando","▁te mas","▁con t","am \r\n","ch e\r\n","▁ma tar\r\n","▁in a","uer a\r\n","▁mu ri","▁pu di","▁ex per","▁cor ri","▁cas a\r\n","▁pis to","▁rom per","▁igu al\r\n","▁decir te","▁estu di","▁escen ario\r\n","▁ningun o","v ien","ñ a\r\n","▁m ente\r\n","▁s kill","▁c .r.","▁t ren","▁de be","▁b ando","▁f ar","ci s","▁com pañ","ab an","▁pa ,","▁re lo","▁re al\r\n","ol u","▁vi si","▁j or","▁su a","ll os","▁per der\r\n","▁ve in","▁pi diendo","▁ar k","▁tú \r\n","▁man o\r\n","▁mo ver","▁dis tin","▁mira da","▁ap un","▁ho te","▁and amo'","ín \r\n","▁guer ra\r\n","▁cans er","▁abaj o","▁ley en","▁fan tas","▁minuti to,","▁smo ke","b ri","c ar\r\n","h on","j ar","r ari","v os\r\n","ú s","▁c ue","▁c ero","▁a co","▁a ve","▁a gra","▁el lo'","▁me ter","▁di ciendo","▁o í","▁tu ve","▁to que","de '","ce p","▁vi ste","▁le '","▁des per","▁las ti","ll i","▁hab le","▁lle gan","▁ll uvi","▁mal ,","▁co ca","gu a","▁rap \r\n","tan te\r\n","▁buen os","▁perd on","▁barri o,","▁beb é,","▁ton y","▁cabr ón\r\n","▁neces ito","▁gol pe","▁blun t,","▁tier ra","-na -n","▁'ta mo'","▁chapi ,","▁gang s","▁micrófon o","b oy","l es\r\n","v al","… \r\n","▁v í","un ,","▁un as","▁yo ',","▁g et","▁tu m","▁ten es","▁ver ,","▁tra mp","▁cam a\r\n","▁tan tas","▁pr ome","▁ne ed","▁bus can","▁ju gando","▁men or","▁vol vi","▁mon ta","▁escu cho","▁tiemp o,","arme ,","▁deci me","▁muer te\r\n","▁val or","▁volver \r\n","▁ton to,","▁pun ta","▁ad entro","h-o h\r\n","▁expli car","▁futu ro","▁fer rari","▁boo ty","▁inte lig","- s","- ta","d ero","e te","m á","p an","r ía","t í","y ea","▁ 5","▁n ub","▁mi '","▁mi rando","in ',","▁se cre","▁com ien","▁o u","▁to car","ce '","▁vi ern","▁ra to","ente ,","▁sab e\r\n","▁ver me","▁ri co","▁ar tis","▁son ando","▁ac om","▁co de",".. \r\n","▁ne go","▁res pues","▁improvis ando","▁z ig","▁af uera\r\n","▁clar o,","▁pregun ta","▁fam a","▁bitch \r\n","▁vie jo","▁despi erto","▁hici ste","▁esqu ina\r\n","ám on","▁atre vi","▁vue lo","▁fon do","▁estil o\r\n","\" ,","g as\r\n","r á","á l","▁el la\r\n","in ,","▁ha cia","▁o ka","▁re z","▁re mi","▁vi \r\n","▁des tr","▁na ve","▁ch is","▁pue da","▁voy \r\n","▁¿ a","▁mí a,","▁sal v","▁ar ro","li dad","▁pe go","dos ,","▁tan tos","▁mam á\r\n","ens a","▁sol \r\n","▁quiere '","▁pla ka","▁tom ar","▁trap \r\n","▁or o\r\n","▁fl ui","▁fl uy","▁cono cen","▁gua po\r\n","▁z ar","▁esti lo,","▁nues tra","▁kno w\r\n","▁lleg ó","▁har d","▁fo to","▁mie do\r\n","▁habi ta","▁slow \r\n","▁dec ís","▁¿d ónde","c ab","c os\r\n","f ,","u h,","▁p ra","▁a bo","▁es o\r\n","▁de di","▁de tr","▁h on","▁f ri","▁lo ca\r\n","▁g lo","ien to\r\n","▁qui e","▁vi ,","▁na cí","▁ah or","▁¿ cu","▁mí o\r\n","▁siempre ,","▁ser \r\n","▁lle gue","▁dej ó","▁bo b","▁dice ,","h- ye","▁vez ,","▁pla y","ez co","ad as\r\n","▁mone y\r\n","▁mañ ana\r\n","▁bitch ,","ern o\r\n","▁llen o","▁ben di","- po,","l ar,","v es","▁s ti","▁l ento\r\n","▁a ten","▁en v","▁en er","▁f il","▁si do","▁g h","▁su bi","▁ca er","▁per ra","▁pi ll","▁pe g","ter a","▁can ta","▁li fe,","il lo","▁habl as","▁hace mos","▁cor on","▁he y\r\n","den \r\n","▁ab ri","▁dro ga\r\n","▁busc ar\r\n","▁jo ven","▁we e","▁escuch ando","▁cuer po\r\n","▁wa cho","▁diab lo\r\n","▁ace l","mien to\r\n","▁raper os","▁reci én","▁mos tr","▁acos tum","ananau, n","▁zig za","- r","- no","a t\r\n","b amos","l ando","▁ 6","▁d os,","er e","▁n er","▁mi ,","om a","ci o,","▁di cho","ab a\r\n","▁pa te","▁i gn","▁re par","▁le y\r\n","▁su r","▁des pe","▁ma i","▁ca er\r\n","▁¿ o","▁ser ía","tu ra\r\n","▁ba ck","▁cor to","▁sol d","▁hago ,","vis te","▁you r","▁rape a","▁pien sa","▁and ar","▁también \r\n","▁bri llo","▁enci ma\r\n","▁reg ga","▁guer r","▁pren de","▁equi po","▁chic o,","▁dij iste","▁gor do","▁difer encia","▁ayu da","▁dormi r\r\n","▁bre a","▁prefi ero","k ing","▁t é","▁y \r\n","ar le","▁v a,","es te","am i","▁di le","▁di os\r\n","que s","▁ten go\r\n","▁vi r","▁le t","▁ra y","▁ma t","▁ni ke","▁ve o\r\n","▁ver so","▁pi den","▁sal en","▁ven gan","▁mal a,","▁pr ó","▁ex iste","par a","▁habl ar\r\n","▁mo ti","▁ap ues","▁mejor es","▁sabe '","▁bi zar","▁prim ero\r\n","▁vo z\r\n","▁medi a","▁af ter","▁ins is","▁jun to","▁odi o","▁luz ,","▁suf ri","▁sig uen","c ci","e ',","m in","r os\r\n","s te\r\n","▁d as","▁y sy","ar te\r\n","▁me ta","ra '","▁lo ve","▁di go\r\n","▁j oy","▁tra ta","tr a\r\n","▁po -po,","▁ar ran","▁can ciones","▁fu ma","▁cor te","tan te","és ,","▁escu po","▁mar ci","▁tam o'","▁toda '","▁fl uyo","▁suel ta","▁bri lla","▁fuer te","▁hue vos","▁nombre \r\n","▁feli z","▁esca p","▁extra ñ","▁romp iendo","▁algun a","▁kil la","▁instrument al\r\n","▁crim in","d ien","l lo,","í s\r\n","▁p p","▁s tre","▁d to","▁d entro\r\n","▁a re","▁b on","▁f ol","▁si \r\n","▁o cas","▁est o\r\n","▁par to","us t","▁re d","▁ti ras","▁na ci","▁w or","▁tra go","▁an o","▁ri mas\r\n","▁gan ando","▁man d","án \r\n","▁habl amos","▁pro b","▁comp ro","▁mon o","▁cab eza\r\n","ándo te\r\n","▁dí a,","▁nen e","▁som o'","▁cla vo","▁wa ch","▁2 4","▁pier n","▁pen de","▁sho w\r\n","▁term ina","▁neces i","▁der ro","▁agar ra","▁mes si","▁buscar ,","▁qu a","▁wi th","▁jam ás","▁acti tu","- c","a a","a v","g ía","i do\r\n","l é","m is","n es","n o,","p a,","z as","▁p ág","▁s enta","▁l ín","▁c en","▁a t","er as","an tes","▁v in","▁la bi","▁te x","▁se man","▁ha go\r\n","▁di e","▁tu r","▁pa d","ti ca","▁cu ra","▁i ce,","▁re f","ol a\r\n","▁le tras","▁del in","▁so bra","▁an im","aj e","aj e\r\n","▁sal e\r\n","▁car ga","▁ven ez","▁gan g\r\n","▁ar te","ve lo","ter i","ter a\r\n","▁cre en","▁don t","▁cor ro","▁bar dero","▁ap ro","▁pal i","▁bi za","▁deci r\r\n","▁nue vo,","▁escri bi","▁muer to\r\n","▁olvi do","▁1 0","▁gri tan","▁tri ple","▁agu a","▁enten der","▁perdi do","▁princi pi","▁mujer es","▁blun t","▁ai re","▁segun do","▁capi tal","▁pelo tu","▁ade lan","▁disf ru","▁tum ba","▁gh et","▁regga et","b e\r\n","b ran","d ía","e t\r\n","f \r\n","s a\r\n","▁t os","▁y a\r\n","▁h un","▁en fer","▁me mor","in as","ta te","▁lo cu","▁par te\r\n","▁ten e","▁cu li","ent os","▁ve lo","▁va '","▁r ui","dad es","▁mí o'","qui s","▁ar ru","▁pe gar","▁cre er","▁esc uela\r\n","▁hacer te","si ón","▁res uel","▁bar de","▁fue go,","▁pro du","▁fal tan","▁comp ra","▁ap ri","▁pla ta,","▁esper an","▁cono ci","▁ga ti","▁hue le","▁coscull uela\r\n","▁argent ina\r\n","▁dire cto","▁cel ul","▁abaj o\r\n","▁compe ti","▁oke y\r\n","▁relo j","▁ark ano","▁viern es","▁pp rrum","2 \r\n","b ro","b el","g as,","h er","p os","r ar\r\n","s er","t ino","u c","▁t w","▁d j","▁a .","▁a ñ","▁v ent","▁v as\r\n","or o","▁con e","▁con tando","la do","▁des tro","▁ma g","▁ma te","▁ve ces\r\n","▁pi es\r\n","▁va cil","▁car i","▁hi elo","▁son ar","▁co de,","der a\r\n","▁mam á,","▁hacer ,","▁buen as","▁baj ar","▁pal o","▁to' s","▁vuel tas","▁mun do\r\n","▁exp res","por tun","▁dí melo\r\n","▁dí melo,","▁escuch ar","▁sue lo","▁pus sy","tin o\r\n","▁enten dés","▁apar te,","▁entien de","▁shi t","▁enam ora","▁oy e,","▁tier ra\r\n","▁hmm \r\n","▁sk r","▁án gel","▁déj ame","▁envidi a","▁acuer do","▁blo o","▁rápi do","▁cuán to","▁il um","▁lí ri","▁agra de","▁bizar ra","▁delin cuen","c é","c al","e ce","x ,","▁e ver","▁p hi","▁s enci","▁d r","▁d á","▁la m","▁b ra","▁mi ra\r\n","in e\r\n","▁f e\r\n","▁lo ve\r\n","om bi","▁si tua","▁con den","da do","ci a,","▁g on","▁pa pa","▁pa yas","▁cu r","▁i t\r\n","▁des n","▁ca go","▁esta do","▁pas ar\r\n","▁r an","▁ri que","▁pu l","▁pe da","▁cal ma","tar me","▁can ción\r\n","▁dej e","▁li mp","▁cor r","▁gu cci","▁tiemp os","▁fr om","▁emp res","▁real ,","▁gente ,","▁bes os","▁pan tal","▁senti mien","▁gri ta","▁tri ste","▁mill ion","▁ja i","▁demas ia","▁suf rim","▁ai re\r\n","▁peli g","__ __","▁últi mo","▁atr ás","- -","- ho","3 \r\n","c us","f o","m ente\r\n","o h\r\n","p u","á '\r\n","▁m y,","▁s ú","▁s por","▁a j","▁a y\r\n","▁es \r\n","▁no mb","▁b ús","▁un a\r\n","▁si ento,","ci to","▁pa gar","▁pa z\r\n","▁to a'","▁al to","ti \r\n","▁re y\r\n","▁j es","▁ye h-ye","tr u","▁va por","▁r é","▁son ri","▁pe or","▁co t","▁co le","▁cre o\r\n","to, \r\n","amos ,","▁res ul","▁llam o","▁for t","▁ter r","ándo le","▁mient ra'","▁fe k","▁volver te","▁fum ar","▁senti do\r\n","▁cualqui era","▁dol or\r\n","▁der e","▁bai la,","▁escen ario","▁due le","▁raper o\r\n","▁fav or,","▁repres ent","▁bom ba","▁dire cta","▁infi erno\r\n","▁explo ta","▁dom in","▁ham bre","▁tari ma\r\n","▁az ul","▁canser b","▁hard cor","▁bardero $","a o","b al","c as\r\n","c ón\r\n","j os\r\n","l la,","p ero","t ando\r\n","t re\r\n","u h!\r\n","v í","▁e u","▁e ran","▁e h-eh\r\n","▁l lo","▁y a,","▁que ma","os o\r\n","▁de to","▁de cí","▁no va","▁h á","▁b ro,","▁con cep","▁ha g","▁g al","▁g ru","▁to c","▁to '\r\n","▁cu ad","di o\r\n","▁vi de","▁le g","▁j ar","▁j a\r\n","tr an","▁va y","▁po w","▁po dés","ari os\r\n","▁tan to\r\n","▁can \r\n","il \r\n","▁imp er","▁du ki","▁vuel ve,","▁pens ar\r\n","▁fr ente\r\n","▁escri bir","▁cuen ta\r\n","▁jue go,","▁cha in\r\n","▁cla p","▁ami go\r\n","▁ins pi","▁ga to","▁reg res","▁wo h\r\n","▁má ',","▁cul pa\r\n","▁tres \r\n","▁chic os","▁noso tro","▁ale j","▁llev ar","▁recor dar","▁estre lla","▁brill ar","▁gir l\r\n","▁ñ en","▁flas h","▁vers os","▁¿s ab","▁tene mo'","- li","e gu","i e","n \r\n","u d","▁ ...\r\n","▁m ero","▁s na","▁c ero\r\n","▁d o'","▁n ar","▁de v","▁en o","▁mi ta","al es,","ta do\r\n","▁te le","▁con vien","am a","▁se l","▁com pi","▁com bo","▁o la","ch u","▁to ca\r\n","▁par arme","us ti","▁i mi","▁re ce","▁re con","▁ti ren","▁ma to\r\n","ga do","▁pi be","▁tra je\r\n","▁pas a\r\n","cer ,","▁gan é","▁mal a\r\n","▁cal l","ter o\r\n","▁cre y","▁pr r\r\n","▁' tán","▁don \r\n","▁imp osi","h- yea","▁vol ando","▁llam an","▁calle j","▁du ro,","▁fa cil","▁esper a","▁mun di","▁cambi a","eron \r\n","▁ban g,","▁2 1","▁wo w,","▁tranqui lo,","▁mom ento\r\n","▁estu dio","▁ning una","▁trai cion","▁agar re","▁dra ma\r\n","▁ele gan","▁bu ll","▁cru z","▁blun t\r\n","▁hor as\r\n","▁viaj e","▁conci erto","▁campe ón","▁déj à","▁ñ er","▁cli ck","▁uh- uh-","▁descan s","▁cereb ro","▁ign or","- y","a da","a da\r\n","n a\r\n","p able","r í","t ón","▁e ras","▁l ento","▁t es","▁d en","▁a bre","as te\r\n","▁lo g","▁con ec","▁se pa","▁ha ci","ci e","▁g \r\n","▁to dos\r\n","de z\r\n","▁re í","ca do\r\n","ol \r\n","▁le y,","▁j os","▁j a,","is mo\r\n","▁des car","▁ma es","▁per o\r\n","▁esta i","▁r ar","▁ri f","▁ri m","▁ri mar","▁po quito","▁as egu","▁gan g,","▁man os\r\n","▁u u","▁dej é","▁pon ga","▁comp rar","▁mon tón\r\n","ten \r\n","tal e","can \r\n","▁perd ón\r\n","▁acá ,","▁acá \r\n","▁tom ando","▁trap per","▁fin de\r\n","▁pes ar","▁gra ti","▁beb é","▁gi ra","▁inter i","▁ke ep","▁fuer za","▁neces ito\r\n","▁dol or","▁esp al","h-e h-eh\r\n","▁kno w,","▁apar te","▁dij o,","▁apren dí","▁due ño","▁of re","▁lis ta","▁dri ppin'","▁oke y,","▁cris tal","▁cump li","▁cai go","tt le","▁mama ci","▁gela to,","▁cá mar","▁cuar to","▁hit boy","▁-ín a,","▁pelí cula","▁fort ni","- lo","r ía\r\n","y ec","▁ 0","▁m uestro","▁p ana","▁l ápi","▁c ir","▁t ab","▁a ma","▁a ga","▁que ri","▁que de","es e","re mos","▁f ran","▁est ar\r\n","▁re ti","di da","▁su fici","▁des as","▁per ro","▁per si","▁w al","▁pi ca","▁tra to","▁quier a\r\n","▁an i","▁r í","▁r ío","▁ri co\r\n","▁po cos","▁as us","▁hi er","▁gan ar,","▁ent ero","▁ar te\r\n","▁pe dir","▁ac tu","ari os","▁u a","▁pr ue","▁ro tt","▁can ción","▁bien ven","▁imp res","▁res to","▁fal so","▁mira da\r\n","▁pal '","▁mar ca","▁mar ad","▁pis ta\r\n","▁olvi do\r\n","ándo te","▁qued arme","▁coraz ón,","▁enten di","▁diab lo,","▁menti ra","▁noso tr","▁minu to","▁trabaj o\r\n","▁feli z\r\n","▁cons tr","▁mol l","▁hici mos","▁cuida do","▁oscu ri","▁inv ent","▁ases in","▁salamand ra\r\n","▁amane cer\r\n","▁sincer o\r\n","▁lluvi a","-na-n a\r\n","▁detr ás","- i","d d","d on","n ic","á '","▁ á","▁s am","▁l ento,","▁a v","▁n ana","▁es co","▁en ga","▁f ues","om a\r\n","▁si m","▁si enta","▁con ten","▁ha cía","▁g ame\r\n","▁pa u","▁pa ís","▁to p","▁qui se","▁i ce\r\n","▁ma tando","▁sab or","▁sab e,","▁per ra\r\n","▁ver te\r\n","▁quier an","▁an ti","▁ven do","▁gan o\r\n","▁ent era\r\n","▁son \r\n","dos e","▁mal o\r\n","▁cal or","▁hay a","▁am ar\r\n","▁u p\r\n","▁qué \r\n","▁can ,","▁hace \r\n","▁mo ja","▁res is","▁pre cio","▁cas a,","▁vol ar","ez a,","▁ab ra","▁tom é","▁prim era\r\n","▁pes o","▁neg ro\r\n","▁hu bi","▁mil \r\n","▁mil es","▁bl es","▁uste de'","▁cla v","▁ta tu","▁ton to","▁hip -ho","▁poder \r\n","▁bas ta","▁dol lar,","▁han der","▁br on","▁músi ca,","▁sang re\r\n","▁qu í","▁apa ga","▁gas to","▁tras h,","▁desa y","▁mir ar\r\n","▁arre ba","▁últi ma","▁duk o","▁caus a","▁imag in","▁permanent ,","▁histor ia","▁carr era","▁pueb lo","▁ner vi",") \r\n","g en","j a,","l am","p h","í na","▁ (","▁m ué","▁p las","▁c ra","▁y an","▁en cer","▁b low","▁b ir","▁f o\r\n","▁si c","ci r","▁o portun","ce l","▁ten í","▁re pi","▁le jos","▁ma '\r\n","▁sab iendo","▁ca ch","▁pa' ca\r\n","vi o","▁va c","▁ri mo","▁ri ma,","▁po es","▁gan as\r\n","▁ll an","▁habl en","▁mo v","▁pro te","os, \r\n","▁dice \r\n","▁fr ío","▁muer en","▁do wn","et ,","▁fi es","▁rimas ,","▁wa cho,","▁tener te","▁encon tra","▁mill ón\r\n","▁enten der\r\n","▁ke lo","baj o","▁menti ra\r\n","▁llen a","▁rev ien","▁escen a","▁dra co,","▁estre llas\r\n","▁viv iendo","▁aguan to","▁raz ón","▁pri sión\r\n","▁compe tir","▁caden a","▁famili a\r\n","▁fras es","▁inc l","▁manten go","▁fra cas","▁suer te","▁directa mente","▁sna p","▁rott we","▁fues e","- u","b l","b res","d am","g ü","i '","i tos","j as\r\n","l le","é '","í si","▁ és","▁p hon","▁s ana","▁s ensa","▁l la","▁d ó","▁v ámon","▁la mb","ra me,","▁lo ca,","▁se as","▁o tras","▁par a\r\n","▁le tra","▁le vel","▁na tur","▁tengo ,","▁ra to\r\n","▁in ten","▁so le","▁pi ed","▁po t","▁ven eno\r\n","▁hi g","▁qué ,","▁esc al","▁esc uela","▁dej es","▁pon es","▁bo om","▁ju z","▁cas o","▁be e","▁ap oy","▁ho p\r\n","enci a,","▁muer o\r\n","▁aquí ,","▁fuck in'","a' o,","▁cla va","▁2 00","▁arri ba,","dor a\r\n","▁dem oni","▁jun tos","▁pol i","▁mer ce","▁músi ca\r\n","▁lleg ué","▁che que","▁sub iendo","▁coscull uela,","▁def iendo","▁rob ar","▁obvi o","▁repres ento","▁olvid ar\r\n","▁person as","▁pl u","-na -na","▁algun os","▁duer mo","▁emb ar","▁boy \r\n","▁silenci o","▁pú r","▁empiez o","▁dien tes","▁war ri","▁bando l","▁¿cu án","▁recon o","▁uh-uh- uh\r\n","- wo","a ',","c as,","d iente","g er","i d","i ón,","m en","p l","▁e e","▁e as","▁p á","▁p elo\r\n","▁s tu","▁q e","▁n u","▁de bajo","▁h en","▁h ora\r\n","▁en ca","in es","ra te","▁un o\r\n","▁si ete","▁con tr","ro u","▁se an","ci as\r\n","▁di os,","▁di eron","ch e,","▁to co","us e","▁le br","▁soy ,","▁ti re","▁ti ck","▁ma qu","▁in o","▁ca g","▁esta bas","▁ch ar","▁pi es","bi a","▁po co\r\n","▁po demos","▁car ro","▁ven diendo","▁pu re","li p","▁pe a","▁co c","ari a","▁u bi","▁ro to","ues tra","▁nun ca\r\n","▁dis co\r\n","▁lu ces","▁ju g","▁mon tan","▁ap re","▁du r","▁mejor es\r\n","▁herman os","▁ab ur","▁emp a","▁cuen to\r\n","▁and an","gas te","▁dí as\r\n","▁nen e\r\n","▁freesty l","▁1 5","▁gran de\r\n","▁dem bo","▁pun ch","▁cabr ón,","▁ke low","▁bitch es","▁segui mos","▁ún ica","▁buscar te\r\n","▁je fe","▁pin ta","▁piens an","▁habi lidad","▁raz ón\r\n","▁guar do","ppin '\r\n","▁cham pa","▁esqui vo,","▁uh- uh\r\n","▁descon tro","▁mmm ,","▁hoo d,","▁cay endo","▁prof es","▁ah-a h\r\n","▁hote l\r\n","▁té c","▁peda zo","▁ré pli","▁nosotro '","▁ñen go","▁imposi ble","▁desay un","- l","b or","i ones","m u","p en","p ura","t ero","z qui","▁ 9","▁c raz","▁a k","▁a ca","▁a mo","▁a ter","er an","▁y endo","▁de bo","▁v a\r\n","▁en car","▁en gan","▁me tal","▁mi re","▁si gui","▁con quis","▁ha gan","▁g '","▁tu ya","▁pa ís\r\n","▁al as\r\n","▁al um","ti co\r\n","▁cu ál","▁i dio","ent os\r\n","▁su pues","▁ca í","▁del i","▁tra e","▁pas ó\r\n","el \r\n","▁voy ,","▁¿ de","dad ,","▁gan arme","▁ser io,","▁ar m","uel o\r\n","pa do","▁man \r\n","▁solo ,","▁mal o,","▁co j","▁pr om","▁ro ba","ras ,","▁ex cus","▁hacer me","▁hacer lo,","▁sa cando","▁todos ,","ic a\r\n","▁dis cul","▁bab e,","▁ci gar","▁hoy ,","▁men \r\n","▁be at\r\n","▁pla ca","▁pla ta\r\n","▁pens é","▁pens am","▁do g","▁fre e","▁suen e","a' o","▁él ,","▁z or","▁cla p,","▁tal ento\r\n","▁tri un","▁nig ga,","▁dispar o","▁ale mán","▁ele g","▁camin ando","▁termin ar","hi on\r\n","▁hor as","▁romp e\r\n","▁rompe ,","▁x ana","▁hous e\r\n","▁jaj aj","▁il us","▁er re","▁sw ing\r\n","▁fas hion\r\n","▁under gro","▁desn u","▁púr pura","▁ater ri","d s","d al","e a\r\n","i a,","l os\r\n","l ar\r\n","n ,","p re","s y\r\n","t res","t or\r\n","v as","v in","z ,","▁e du","▁d re","▁a la","▁y ,","▁n or","▁que mar","▁de ton","un d\r\n","▁mi o","in '\r\n","▁f amos","▁te c","▁si ste","▁se p","ien do\r\n","▁di ver","▁est és","▁ten gas","ti do","▁cu lo\r\n","ent es\r\n","▁su pi","▁ca f","▁ca en","▁ca cer","▁ni ñ","▁mu lti","▁va ci","▁r ue","▁está '","▁ven i","▁ent era","▁ll ám","▁cam ina","▁cam ara","▁co lo","ter ,","▁cre er\r\n","én de","ic o,","▁dis cu","h- ah\r\n","▁hoy \r\n","▁men cion","ren al","▁comp ré","▁mar a","▁you \r\n","▁do cu","▁fl ores","▁ter ri","▁fin \r\n","▁neg ra","▁jo di","▁¡ a","▁improvis ar","▁cer ve","▁despué '","ín ,","▁sue ñ","▁ga tas","▁proble ma\r\n","▁mill ones","▁inter na","▁pen a\r\n","▁ad renal","▁bas e","▁fuer on","▁cin tur","▁der ra","▁rit mos","▁pers ona","▁shi t,","mien to","▁trabaj o","▁sali da\r\n","▁bom b","▁truen o\r\n","▁desa par","ali dad\r\n","▁pasti lla","▁hous e","▁rápi do,","▁espe ci","▁jaj a\r\n","▁gela to","▁fronte arle","▁prrrum !!","▁quedas te","▁caz z","▁propi a","▁pú bli","▁sorp ren","▁volvi ó","▁remi x","▁habita ción\r\n","▁apro ve","▁moll y,","a '\r\n","g os,","m on","t ás","y s","á bamos","é r","▁e va","▁p ab","▁s p","▁d ru","▁a van","er to\r\n","▁n ú","▁de ber","▁h el","un a\r\n","▁b ha","▁mi na","ta da","▁lo c","da '\r\n","▁se c","▁por ro","▁ha c","▁com iendo","▁com er\r\n","▁di a","▁o cul","ab a,","▁pa ca","▁est r","▁al im","ce '\r\n","▁re pe","▁j al","▁esto '","▁ma tan","▁ma ke","▁sab es,","▁ni ños","▁tra tando","▁pas te","▁an g","▁mí o,","▁ent ero\r\n","▁co cin","▁co bar","▁am ena","▁k a","▁k ar","tar on","▁pr os","▁pr ín","▁can a,","▁li ri","ta, \r\n","▁sa y","▁pon te","ru ga","ez co\r\n","ten cia\r\n","▁go bi","▁saben ,","▁fa ctu","▁emp ec","▁quer í","ja te","▁gua cho","▁suen an","a' o\r\n","▁¡ w","▁sus pi","▁ami gos\r\n","▁wa cha","dor ,","▁ga vio","▁gri tar","▁all á\r\n","▁au -a","▁ad ver","▁bas ura\r\n","▁perdi do\r\n","▁estu ve","▁llor ar","▁ki ll","▁compar to","▁gir l","▁rock s","▁chan ce\r\n","▁án i","▁cai ga","▁volv í","▁volv iendo","▁imag ina","▁maldi to","▁rebo ta,","▁bote lla","▁bel la","▁acom pañ","▁nego ci","▁sti g","▁wor l","gü en","▁bha vi","▁prín ci","a h,","c ero","c to,","e o\r\n","g ía\r\n","r y","á cti","▁d arme","er en","▁es f","an os\r\n","▁de \r\n","▁de do","▁de por","▁no ta\r\n","te o","▁con tin","▁g all","▁com ent","▁di ario\r\n","▁tu c","▁qui so","ti vo\r\n","▁re cu","is ta","ent es","▁ma fi","▁sab ía","▁ca cha","▁so por","▁so cio","▁ve ce'","▁ver güen","▁tra jo","▁pas ando","▁pas ión\r\n","▁r un,","pe ,","▁mí os","▁po lo","▁car go","▁ven gas","▁gan s","▁gan o,","▁ac ción\r\n","▁ac aba","▁man i","▁cam is","▁mal os","▁co la","▁cal i","▁cal ma\r\n","tu ra,","▁pr on","▁pr r,","▁cl an","▁mo da","ver \r\n","fi t","▁pla cer","▁vien es","▁vas ,","ad or\r\n","▁fa ce\r\n","▁fre e\r\n","▁estás \r\n","▁cono cer","▁fe o\r\n","▁vo cab","▁matar nos","▁impor ta\r\n","▁papi \r\n","▁estu vi","▁tira do","▁bro th","▁simp le\r\n","▁recuer da","▁je f","▁expli co","▁anda ba","▁camin ar","▁camin o\r\n","▁brill ando","▁perf u","▁blan co","▁perdón ame","▁puer ta","▁hum o\r\n","▁temp o\r\n","▁dri ppin',","▁cump l","▁clas e","▁¿que r","▁hous e,","▁lun a\r\n","▁felici dad","▁funer al\r\n","▁liberta d\r\n","▁exper ien","▁acel era","▁eu ro","▁sim ón","- ,","0 \r\n","b rar","c ame","e o","e ce\r\n","g re","g res","g ues","i t","r ri","s o,","í ,","▁ ár","▁m ón","▁p a\r\n","▁s á","▁l ó","▁c le","▁d ora","▁a \r\n","▁es pañ","▁v e\r\n","▁la dr","▁h ol","es o","un k","▁b ar\r\n","al idad","ra do","▁f en","▁f ru","▁f este","▁lo o","▁com en","▁di vi","▁o jer","ab as","▁pa ga","▁est ando","de l","▁al er","▁al ma\r\n","▁cu ándo","▁i den","▁i t,","res i","▁ya h","▁su po","▁na h\r\n","▁ma dri","▁in di","▁ca er,","▁pi que","▁pi ola\r\n","▁an tes\r\n","▁¿ para","▁ven \r\n","▁ven der","▁son r","▁ll ora","▁cam a,","▁co pa","▁k h","▁k us","▁cre es","▁cre cí","▁li mi","car a","▁lu ce","▁fal ta\r\n","▁mon s","▁llam ar","▁vas o","▁du ra","▁ol a\r\n","▁sabe mos","as, \r\n","▁rom pi","▁fr ío\r\n","▁fa ce","▁or o,","ándo me\r\n","▁real mente","▁real idad\r\n","▁neg ros","▁cono zco","▁quien es","▁¡ dí","▁escuch an","▁ami ga","▁sue ño,","▁gran des","▁vis to\r\n","▁dem uestro","▁tranqui lo\r\n","▁cabr on","▁ad mi","▁má qu","▁fuer te\r\n","▁hue vos\r\n","▁menti r","-a y","▁mes a","▁conti go,","▁apren der","▁fun cion","▁mir á","▁contro l\r\n","▁whi te","▁hum o,","▁conci encia\r\n","▁piel \r\n","▁dese o","▁atr ás\r\n","▁perfec to\r\n","▁trans pi","▁interes a","-p ro","▁feel ing","▁deb es","▁calien te\r\n","▁caraj o","▁za pa","▁mad ruga","▁destr uy","▁ahor a,","▁env uel","▁pró xi","▁cone x","▁rique l","▁corr er","▁spor t\r\n","▁cumpli r","▁mamaci ta,","▁impres ion","▁punch l","▁téc nic","▁iden ti","▁¡dí melo","' o,","b ando","d an\r\n","g uen","i as","y a\r\n","z an","z on","ó s","▁e di","▁m era","▁p é","▁a dor","er as\r\n","er ic","an os","▁de u","▁no que","al a\r\n","▁f is","to '","▁lo t","▁un o,","▁te lé","▁g ue","▁com pa","ch ar","▁est res","▁est én","▁par ar\r\n","▁cu le","▁i mán","ca te","ca ción","ca tri","▁in se","▁ca gar","▁ve te","▁pue do\r\n","▁va yas","▁estoy \r\n","▁ri ma\r\n","e, \r\n","▁gan an","li dad\r\n","▁pe cho\r\n","▁lle go,","▁ac or","▁mal dades","▁co jo","▁cal or\r\n","▁' el","▁sa i","▁sa que","▁sa qué","tas te","▁pon gan","▁fue \r\n","▁bo bo","▁cos tum","▁ci catri","fi ca","▁ap la","te, \r\n","▁mejor ,","▁deci di","▁rape ar\r\n","▁esper ar,","▁gus tan","▁olvi da","▁jue ga","▁gua ch","▁suen a\r\n","▁gi gan","▁ob je","▁1 00","▁tar ado\r\n","▁bail ar\r\n","▁wo w\r\n","▁bal l","▁pega o'","▁vo' a","▁rit mo,","▁plan eta","▁rev olu","▁la' o\r\n","▁¿c omo","▁mujer ,","▁difer ente","▁repres enta","▁escrib o\r\n","▁dormi r","▁read y\r\n","▁arre p","▁temp ran","▁bol u","▁campe ón\r\n","▁cier ro","▁futu ro\r\n","▁cump le","▁tre in","▁rey es","-e- e\r\n","▁out fit","▁diam ante","▁consi go\r\n","▁len gu","▁motherfuck er","▁enfr ente","▁uni ver","▁code ína","▁ener gía","▁zigza g,","▁let 's","▁mag ia","▁lam enta","▁resul ta","▁imper io","▁incl us","▁hen nes","▁interna cion","▁ojer as","▁telé fon","b ra\r\n","c cion","e mb","h h\r\n","k er\r\n","l as,","m ento","n ab","n y\r\n","r um","u ri","z z","ó r","▁m ar\r\n","▁p uen","▁s cho","▁d ense","▁n a\r\n","▁n ame\r\n","▁n ananau,n","▁que mo","os a","or o\r\n","▁me tas","▁me ten","▁me tiendo","▁mi ren","in as\r\n","▁f o,","ta mente","▁lo ve,","▁te mo","▁con c","▁con ven","▁con tar\r\n","▁se d","ci do\r\n","la -lo","▁tu vi","ch \r\n","▁est ri","ti co","▁i r\r\n","▁re bel","▁le tal","▁des en","▁ra ce","▁in i","▁del ante","▁per de","▁tra tar","▁an si","▁¿ te","▁po p","▁sal iendo","▁car n","▁car o","▁car o\r\n","▁car ne","▁ven ta","▁hi gh","▁pe que","▁pe cho","▁pe dí","per a","▁ll ue","▁mal e","▁mal as","ari a\r\n","▁k o","▁cre a","▁qué ?\r\n","▁ro to\r\n","▁can tar","▁li ttle","▁ba d","▁rap ero,","▁hace mo'","▁he ar","▁imp a","▁sol ,","ru tu","▁baj ando","▁be bi","▁ap las","▁pla za\r\n","▁llam arte","▁du l","▁vuel o\r\n","▁deci le","▁for m","▁esper a\r\n","▁mun do,","▁the y","amo' \r\n","▁desp ues","▁fin al\r\n","▁nen a\r\n","▁él \r\n","▁volver ,","▁ban g\r\n","▁haciendo ,","▁suel o\r\n","▁ami go,","▁col ch","▁col ombi","▁sue ño\r\n","▁ta ke","▁pan a\r\n","▁matar on","▁pres u","cas te","▁all á,","▁pen diente","▁encontr é","▁bal a","▁esp an","▁bro ke","▁entien den","▁medio c","▁hici eron","▁difer ente\r\n","▁suf re","▁ai res","▁bor ra","▁lis to","▁puer to","▁arre gl","▁sacar me","▁escon de","▁cham pi","▁pele a","▁voz ,","▁gen era","▁duk o\r\n","▁duk o,","▁perre a,","▁err or","▁3 0","▁capa z","▁ante '","▁gote o\r\n","▁respi rar\r\n","▁sua ve","▁ví de","▁acostum bra","ananau,n anana","▁qua vo,","▁phi lli","▁terr or","▁kh ea","▁sai y","▁nananau,n ananau,nanana","! ,","a i","b ien","c \r\n","c os,","d in","f as","i b","i ta\r\n","m bo","p es","v en\r\n","w oo","ñ e","▁s ui","▁c ent","▁t esti","er os","▁no ta,","▁la d","▁el i","▁h uel","▁b á","▁f ísi","ab ri","▁al to\r\n","▁al mo","▁al go\r\n","▁ten ta","us \r\n","▁i ce","▁re co","ca da","▁vi ctor","▁j an","is te\r\n","is ta\r\n","▁des ma","▁des tino","▁in ta","▁pa' \r\n","▁ve ,","▁w es","▁pi dió","▁tra tan","▁quier e,","▁está ,","▁ven ,","▁ven de","▁ven go,","▁pu bli","▁son i","▁ac omo","▁co her","der a","ba -","▁dej arte","▁li c","▁li l","▁ne ur","▁hace ,","▁fu ri","tan cia","▁bo ca,","gan \r\n","▁be bo","▁mue res","▁mue vo","ten er","▁cab al","▁tus si","▁vuel to","lan te\r\n","▁nue ve","▁us a","▁pare d\r\n","▁escri be","▁fa ke","▁dos is","▁pasa ?","▁cha vos","▁we ed","▁som os\r\n","▁bl ing","▁ins ta","▁¿qué ?\r\n","dor es\r\n","▁beb iendo","▁bail amos","▁ton y\r\n","▁reg alo","▁respe to\r\n","▁pen a","▁cul pable","▁mer ec","▁fam a\r\n","▁is la","▁llor ando","▁pega do","▁vivi r\r\n","▁batal las\r\n","▁plan e","▁princi pe","▁segu í","▁sali ó","▁def ec","▁gor ra","▁cuida o'","▁entr ar","▁fren o,","▁aguan ta","▁raz ón,","▁ben de","▁chan ce,","▁cier to\r\n","▁sent ía","▁pasti llas","▁cli ck,","▁slow ,","▁papel \r\n","▁equivo ca","▁gil ,","▁blo que","▁respon do","▁permanent \r\n","▁shor t","▁trapp in',","▁ide as","▁may or","▁bla ck","▁mé tri","▁caraj o\r\n","-tu-tu -tu-tu","▁polic ía\r\n","▁ferrari \r\n","▁ou t,","▁oka y\r\n","▁pra cti","▁wee d\r\n","▁ghet to\r\n","▁celul ar","▁payas o","▁bienven ido","▁hip-ho p","▁mué velo","▁hig h\r\n","▁freestyl er\r\n","▁champa gn","▁dre f","▁dru g","▁ár bol","▁máqu ina","- de","b rando","c ción\r\n","d ente\r\n","d ía\r\n","e lo,","i mm","j o'","j os,","s te,","▁e je","▁p si","▁s to","▁a cu","er a,","▁que riendo","▁es que","▁v es,","▁no w\r\n","▁en cen","▁mi res","al o,","▁f m","am ente\r\n","ui r","ci endo\r\n","le y","▁par ezco","▁al qui","ti er","ti co,","ti va\r\n","▁i zqui","▁re me","di ab","ca pi","▁porque \r\n","▁del ito","▁per mis","▁ch or","▁w os","▁ver sa","▁pi di","▁va ina","▁r all","pi do","▁ri v","▁ri mando","▁po des","▁po eta","▁sal ga","▁car ame","▁pu do","▁hi elo,","▁ar tes","▁son re","per \r\n","▁ll é","▁mal i","▁u r","ter a,","▁esc uela,","▁ro bo","▁can cion","▁li t","▁li ma","▁li ga","▁ne w","▁ba c","▁mo de","▁cor o\r\n","▁cor riendo","▁he av","▁res enti","▁ju gar\r\n","▁her mos","▁men ores","▁cas u","▁baj ar\r\n","▁du ro\r\n","▁bi cho","▁you ,","▁saben \r\n","▁fr í","▁fr us","mo' \r\n","ad \r\n","▁fa ctor","▁estás ,","▁quer ías","▁fl y","▁cambi ar\r\n","▁fin de","▁busc as","▁gra ve","▁jo da","▁san ta","▁we on","▁escuch en","▁cuer vo","▁bes ti","▁col ores","▁pres ente\r\n","▁1 3\r\n","▁vis ta\r\n","▁pregun to","▁proble mas\r\n","▁dem on","▁tri ste\r\n","▁mill ón","▁sho ut","▁tranqui li","▁veces ,","▁hom bre\r\n","▁bal as","▁prin ces","▁la' o","▁encuen tro\r\n","▁princi pe\r\n","▁fo tos","▁sali mos","▁extra ño\r\n","▁entr en","▁arre g","▁whi ppin","▁whi ppin',","▁sangre ,","▁temp o","▁cham a","▁lue go\r\n","▁oke y","▁envidi a\r\n","▁sent ís","▁futu ro,","-b l","▁prepar a","▁arma da","▁bille te","▁acab o","-o ut","▁sient as","▁bru jer","▁oh-o h-oh\r\n","▁avi ón","▁comi da","▁comi da\r\n","▁mmm \r\n","▁nuev as","▁tari ma","▁diam an","▁propi o","▁alcohol ,","▁vari os","▁lin da","▁sorp res","▁ego cent","▁zar pa","▁pali za\r\n","▁pprrum m","▁enamora da","▁skr t\r\n","▁pelig ros","▁yeh-ye h\r\n","▁cot to\r\n","▁hardcor e\r\n","▁gru po","▁leg end","▁cámar a","▁lápi z","ph one","▁kelo ke,","▁demoni os","▁multi pli","▁llám ame","▁prínci pe","▁izqui er","▁whippin ,","▁egocent ris","- qué",". a","c ina","i es","i za","k a,","l os,","s y,","t ándome","u u","z o,","ñ as","▁e re","▁p í","▁s es","▁l ui","▁l ág","▁d ar\r\n","▁a ven","en de","en a,","▁n as","▁n anan","▁que m","▁v es\r\n","▁v u,","▁me lo","▁f aj","▁f abri","ta me","▁te or","▁con di","am ,","▁se is","ci ar","▁g re","le ta","▁di r","▁di v","▁di go,","la 'o\r\n","▁tu \r\n","▁tu vo","▁pa cto","▁to ca,","▁est ú","▁al i","▁i m","▁re li","▁re ina","di a","ol ,","▁vi ven","▁ti ki","▁su '","▁des or","▁des tre","▁del ante\r\n","▁esta ba\r\n","▁ve cin","▁w om","▁tra b","▁tra ck","▁tra ba","▁quier a,","▁r us","▁ri car","▁po cas","▁sal es","mos ,\r\n","▁hi elo\r\n","▁gan e","▁gan a\r\n","▁ser io\r\n","um en","▁co ño","der o\r\n","▁cre w","▁cre ar","tar le","▁qué ?","án ,","▁li v","▁ne gar","▁cor te\r\n","▁he la","man \r\n","▁res t","ens o\r\n","▁bar a","ir \r\n","za do","▁bo la","▁vol ar\r\n","▁baj e\r\n","▁llam ó","▁vien to\r\n","▁go o","▁sigo ,","▁ab ro","▁ab and","▁da y","▁da ño","▁us ar","▁pare cer","ad os\r\n","▁mas ta","▁ter ren","▁olvi des","▁val go","▁gra ba","gue \r\n","▁jo dido","▁z as","▁wh en","▁bl ue","▁bl as","▁af ec","▁chi ll","▁pap á\r\n","▁col or\r\n","▁sue ños","▁beb a,","▁senti do","▁cri ter","▁1 2","▁igual ,","▁pren das","▁sho o","▁sho w,","▁mom entos","▁neces ita","▁freestyle ,","▁dispar a","▁mañ an","▁llor ar\r\n","▁batal las","▁bro ther","▁chu p","▁princi \r\n","▁ale g","▁fav or\r\n","▁mata mos\r\n","▁int ento","hi bi","▁person a\r\n","▁cans é","▁gir l,","▁improvisa ciones\r\n","▁¿cómo ?","▁cuel lo,","▁sig ni","gh t\r\n","▁clas es","▁contes ta","▁confun das\r\n","▁salu do","▁movi e","▁vue lo,","▁shor ty\r\n","▁oh-o h\r\n","▁rela ja","▁avi ón\r\n","▁carr era\r\n","▁cues ti","▁desesper a\r\n","▁despier to\r\n","▁pesa di","▁conse gui","▁pag uen","▁prof un","▁pudi era","▁vein ti","▁oí do","▁tramp a","▁oka y,","▁senta do","▁lín e","▁bizarra p\r\n","▁sentimien tos","▁jai me","▁¿sab es","▁mita d","▁haci éndo","▁tatu aj","▁rottwe il","▁répli ca","▁empec é","▁vocab ul","▁hol ly","▁mons tru","▁almo ha","▁eje cu","- 4","- g","- pa","b os","g les","i que","j an","l or","o h","t ú","t ing","t ina","v é","y e\r\n","z ando","z as\r\n","é ri","ú l","▁e f","▁e dad","▁m d","▁m ero,","▁s tar","▁l ana\r\n","▁a tro","▁a ño\r\n","an o,","▁de la","▁de cía","▁v ar","on as","▁la pi","▁la do,","▁h ones","un \r\n","▁me l","▁mi ?\r\n","▁mi ente\r\n","▁f ern","▁lo t\r\n","▁te m","▁te am\r\n","▁te má","▁si go\r\n","▁con du","▁se ca","▁se d\r\n","ci ente","▁g rou","▁com bi","ab le\r\n","▁par a,","▁par ty,","ti do\r\n","▁cu ch","di \r\n","▁le tr","▁j ui","▁ra da","▁porque ría\r\n","▁ma de","▁sab or\r\n","▁in ver","▁in con","▁ca j","▁pa' ,","▁so la,","▁so bran","▁per ros","▁ch il","▁pi b","▁pi o","▁pi co","▁tra es","▁tra ck\r\n","▁pue s\r\n","▁va g","▁pu de","▁gan ado","▁ser ia","▁pe ca","▁co p","▁cal ent","én ,","én \r\n","▁li ga\r\n","▁' tan","si on","▁mo ta","▁sol ita","▁bo o\r\n","▁cos a'","car me","▁ju ro,","▁cas h","▁cas h\r\n","▁mue ra","ble ,","▁ho p,","▁du das\r\n","▁cab eza,","lan \r\n","▁ab ar","▁mar ía,","▁pare des","▁muer to,","▁do ctor","▁esper a,","▁exp or","▁busc ándote\r\n","▁fe ka","▁improvis ar\r\n","▁improvis ando\r\n","▁nen e,","▁pues ta","▁freesty ler","▁ban da","▁ban dido","▁chi le","▁sue ña","dor es","▁ob ser","▁bail a\r\n","▁enci ma,","▁wo w","▁agu a\r\n","▁encontr ar\r\n","▁cin tura","▁mic ro,","h-e h,","▁dejar lo","h-o h-oh\r\n","▁ace i","▁llev ó","▁of f","▁fres co","▁fres co\r\n","▁fres co,","▁oy e\r\n","▁cien \r\n","▁sali da","▁extra ño","▁brill ar\r\n","▁termin an","▁rob é\r\n","▁pin to","▁desa f","▁vam pi","▁levan to","▁afue ra,","▁novi a","▁wan nab","▁sk y","▁sk rr","▁oj o'","▁oj os\r\n","▁perfec to","▁respon de","▁soñ ar\r\n","▁flas he","▁histor ia\r\n","▁sient es","▁compr ar\r\n","▁brin cando","▁bum ,","tic \r\n","▁cues ta","▁mensaj e","▁sex o","▁cereb ro\r\n","▁humil de","▁rum or","▁tin ta","▁za pas","▁jura do","▁heri das","▁dam n,","▁enemi gos","▁-ín a\r\n","▁flui dez\r\n","▁sufri r\r\n","▁are a","▁ano che","▁qua vo\r\n","▁actitu d","▁pág ame,","▁memor ia\r\n","▁pprrum m\r\n","▁vent ana","▁ilum ina","▁cole cti","▁há z","▁duki ,","▁inspi ra","▁av ís","▁eas y","▁abur ri","▁docu ment","▁¡w uh!\r\n","▁stig ma","▁tuc un,","▁lamenta ble","▁sui ci","▁shout -out","▁aven i","▁nanan anan","▁grou pi","' re","- po",". i","b \r\n","c ri","c ción","d á","d arme","e e","g or","g er\r\n","i to,","j ando","k in'","l u","m iendo","n o'","r on","t ó\r\n","v ar","z os\r\n","í r","▁ 7","▁e mo","▁p le","▁t y","▁a ero","▁n a,","▁n ame","an za","▁de tal","▁h os","▁me et","▁mi ami","ra do\r\n","▁f e,","▁si ti","▁si ll","am i\r\n","▁ha y\r\n","le g","le ta\r\n","▁o jo","▁o tro\r\n","▁o tra\r\n","la '\r\n","▁pa go","▁to al","▁ten er\r\n","ti r\r\n","ón ?\r\n","▁i leg","▁re tro","▁re tras","di a\r\n","is ,","▁des cu","▁des pa","▁na dar","▁na -na-na\r\n","▁ca ga","ll os\r\n","▁per se","▁ver e","▁pas aj","▁pas ar,","▁quier e\r\n","el a\r\n","▁an do\r\n","▁an teri","tr os\r\n","▁r ing","▁ri mo,","▁ar oma","▁lle vo\r\n","▁lle ga\r\n","▁ac lar","▁man era\r\n","▁co je","ran \r\n","▁cal enti","▁cal or,","▁cal iente","▁am a,","▁u lti","tar me\r\n","▁esc ab","▁esc ol","▁can tan","▁can tando","▁dej an","▁dej ando","▁li b","▁ne ver","▁mo ve","▁pon gas","▁sol as\r\n","▁dis te","▁th u","▁pre ci","▁ci ma","▁ci ma\r\n","▁fal lar","▁ju ro\r\n","▁cas er","▁be ba","▁mue va","▁ho la","▁cab o","▁vuel va","▁puedo ,","▁pens ás","▁escri to","je me","▁or ig","▁cuen tas","amo' ,","▁fuck \r\n","▁val en","▁pes os","▁san to","▁vo ces","▁pues ,","▁som e","▁som bra","▁\" el","▁ban g","▁uste des\r\n","▁coraz on","▁cuer o\r\n","▁pap á,","▁sue lo,","▁dar ía","▁pan as","▁pier de","▁pier des","▁vis ta","▁au tor","▁pren di","▁pren der","▁tumb ar","▁fam a,","▁estu pi","▁menti ra,","▁tres ,","▁sobre vi","▁apar ezco","▁bai le\r\n","▁minu tos","ion es\r\n","▁def or","▁int ento\r\n","▁truen o,","▁bor r","▁piens o,","▁contro lo","▁vam os\r\n","▁ce ba","▁sacar te","▁dri ppin'\r\n","▁bol s","▁'ta mos","▁mc \r\n","▁campe ón,","▁digan \r\n","▁ham bre\r\n","▁copi a","▁gil \r\n","▁trans for","▁realidad ,","▁full \r\n","▁cie lo,","▁interes a\r\n","▁perre o","▁mere ce","▁gar gan","▁mensaj e\r\n","▁dice: \r\n","▁acep tar","▁millon ario","▁enfr ent","▁meti do","▁heri da","▁orgu llo","▁mad re\r\n","▁leyen da,","▁prome to","▁decime :","▁artis ta\r\n","▁peg ué","▁joven ,","-r um","-no -no","▁guerr ero","▁escap ar\r\n","▁lín ea","▁ref le","▁vacil ando","▁jar ab","▁pow er\r\n","▁convien e","h-yea h\r\n","▁concierto '","▁interi or","▁espal da","▁aga in\r\n","▁bles se","▁jajaj a\r\n","▁cazz u,","▁públi co","▁vergüen za","▁conex ión\r\n",".a .","▁ház melo","- f","- pi","b ur","c ó","c ina\r\n","d é","f al","i ó","k y","r endo","t ía","▁ ‘","▁e cho","▁m m","▁m as\r\n","▁p ás","▁s ta","▁s ni","▁t a'","▁a us","▁a bi","▁a tiendo","▁que res","▁que remos","▁de capi","on o","on a,","▁la g","▁el im","▁h ust","▁b \r\n","▁mi a","▁mi ento","al á","al mente","in k","ra !\r\n","▁f ina","▁te mor","▁si ga","▁si gan","▁con ch","▁con tras","▁yo '","da ?\r\n","▁se i'","ci do,","ri a\r\n","ri mi","▁di ría","▁o cho","▁o je","la da","▁tu viste","▁pa tr","▁to a","▁to can","▁qui ta","▁par e\r\n","▁par tir","▁al re","▁i f","▁re vis","ol ver","▁vi p\r\n","▁vi vo,","▁ti ro,","▁na cer","▁na cen","▁na cion","▁na -n","▁porque ría","▁ma ta\r\n","▁sab es\r\n","▁in yec","ll ita","▁per ras","▁per ro,","▁ve '","▁ve as","▁ch in","▁w ana","▁w uh","▁ver de","▁pi do\r\n","▁pi f,","▁tra gos","▁quier es,","▁an ali","▁r in","▁¿ es","▁as a","▁sal tar","▁sal va","▁car g","▁car ros","qui to\r\n","▁ven ís","▁pu pi","▁son ido","▁son ris","pa c","pa ña","▁pe cado","▁co co,","▁tien e\r\n","▁am bi","▁k en","▁k ri","ter es","▁cre cer\r\n","▁qué date","▁pr ácti","▁esc amp","▁ro que","▁ro la\r\n","▁dej aste","▁mam a\r\n","▁ella ,","▁' ca","▁habl ando\r\n","▁bus co,","▁sa po","▁mo du","▁he cho,","▁pro hibi","▁sol tando","▁bo bo\r\n","▁fal le","den ,","▁sh a","▁baj en","▁baj ame","▁ho la,",
[...]
