{"version":"1.0","truncation":null,"padding":null,"added_tokens":[{"id":0,"special":true,"content":"[UNK]","single_word":false,"lstrip":false,"rstrip":false,"normalized":false},{"id":1,"special":true,"content":"[SEP]","single_word":false,"lstrip":false,"rstrip":false,"normalized":false}],"normalizer":null,"pre_tokenizer":{"type":"Metaspace","replacement":"▁","str_rep":"▁","add_prefix_space":true},"post_processor":{"type":"TemplateProcessing","single":[{"Sequence":{"id":"A","type_id":0}},{"SpecialToken":{"id":"[SEP]","type_id":0}}],"pair":[{"Sequence":{"id":"A","type_id":0}},{"Sequence":{"id":"B","type_id":1}}],"special_tokens":{"[SEP]":{"id":"[SEP]","ids":[1],"tokens":["[SEP]"]}}},"decoder":null,"model":{"type":"BPE","dropout":null,"unk_token":"[UNK]","continuing_subword_prefix":null,"end_of_word_suffix":null,"fuse_unk":false,"vocab":{"[UNK]":0,"[SEP]":1,"\n":2,"\r":3,"!":4,"\"":5,"#":6,"&":7,"'":8,"(":9,")":10,",":11,"-":12,".":13,"/":14,"0":15,"1":16,"2":17,"3":18,"4":19,"5":20,"6":21,"7":22,"8":23,"9":24,":":25,";":26,"?":27,"_":28,"a":29,"b":30,"c":31,"d":32,"e":33,"f":34,"g":35,"h":36,"i":37,"j":38,"k":39,"l":40,"m":41,"n":42,"o":43,"p":44,"q":45,"r":46,"s":47,"t":48,"u":49,"v":50,"w":51,"x":52,"y":53,"z":54,"":55,"":56,"":57,"¡":58,"¿":59,"à":60,"á":61,"é":62,"í":63,"ñ":64,"ó":65,"ú":66,"ü":67,"е":68," ":69,"—":70,"‘":71,"‚":72,"…":73," ":74,"▁":75,"\r\n":76,"▁e":77,"▁m":78,"▁p":79,"ue":80,"▁s":81,"▁l":82,"▁c":83,"▁t":84,"▁d":85,"▁a":86,"▁q":87,"er":88,"en":89,"▁y":90,"▁n":91,"▁que":92,"▁es":93,"an":94,"ar":95,"os":96,"▁de":97,"as":98,"▁v":99,"on":100,"or":101,"do":102,"▁no":103,"▁\r\n":104,"▁la":105,"▁el":106,"▁h":107,"es":108,"▁en":109,"un":110,"a\r\n":111,"o\r\n":112,"▁me":113,"▁b":114,"te":115,"re":116,"▁mi":117,"al":118,"in":119,"ra":120,"▁f":121,"ta":122,"to":123,"▁lo":124,"▁un":125,"▁te":126,"om":127,"▁si":128,"▁con":129,"▁yo":130,"go":131,"am":132,"ro":133,"da":134,"ui":135,"▁se":136,"▁por":137,"▁ha":138,"lo":139,"ci":140,"▁g":141,"ri":142,"ero":143,"▁com":144,"ando":145,"oy":146,"le":147,"ien":148,"▁di":149,"▁o":150,"ab":151,"la":152,"▁pa":153,"▁tu":154,"ch":155,"▁to":156,"▁qui":157,"▁est":158,"▁par":159,"o,":160,"▁los":161,"mp":162,"▁como":163,"que":164,"de":165,"▁al":166,"a,":167,"ce":168,"▁ten":169,"ti":170,"ón":171,"▁cu":172,"us":173,"▁i":174,"▁re":175,"h\r\n":176,"di":177,"▁pero":178,"ás":179,"ca":180,"ol":181,"▁vi":182,"▁le":183,"me":184,"▁j":185,"h,":186,"▁esto":187,"▁ya":188,"res":189,"▁soy":190,"is":191,"ent":192,"▁ye":193,"▁ti":194,"e\r\n":195,"▁su":196,"o'":197,"▁des":198,"▁na":199,"▁tengo":200,"▁las":201,"co":202,"os\r\n":203,"▁ra":204,"as\r\n":205,"▁porque":206,"▁para":207,"ente":208,"▁una":209,"▁ma":210,"▁sab":211,"▁in":212,"emp":213,"▁ca":214,"uen":215,"▁del":216,"▁pa'":217,"ar\r\n":218,"do\r\n":219,"vi":220,"▁per":221,"▁so":222,"▁más":223,"ué":224,"el":225,"▁ni":226,"▁esta":227,"▁ch":228,"il":229,"uer":230,"▁w":231,"▁ver":232,"▁ve":233,"es\r\n":234,"ga":235,"ma":236,"ora":237,"y,":238,"▁tra":239,"▁pas":240,"▁ah":241,"to\r\n":242,"▁quier":243,"▁mu":244,"▁an":245,"tr":246,"▁este":247,"▁pue":248,"▁va":249,"▁r":250,"▁voy":251,"um":252,"▁mis":253,"▁¿":254,"ía":255,"▁pi":256,"pi":257,"dad":258,"▁esc":259,"pe":260,"tra":261,"▁cuando":262,"▁estoy":263,"▁hab":264,"cer":265,"aj":266,"▁ri":267,"te\r\n":268,"y\r\n":269,"▁yea":270,"▁está":271,"ta\r\n":272,"▁mí":273,"▁po":274,"▁as":275,"▁siemp":276,"▁siempre":277,"▁am":278,"da\r\n":279,"bi":280,"▁sal":281,"mos":282,"?\r\n":283,"▁car":284,"▁quiero":285,"qui":286,"▁ven":287,"e,":288,"ón\r\n":289,"▁gan":290,"mo":291,"▁ser":292,"▁sin":293,"▁pu":294,"▁hi":295,"▁todo":296,"▁ent":297,"▁ar":298,"ic":299,"▁son":300,"ll":301,"'\r\n":302,"▁pe":303,"pa":304,"uel":305,"▁ac":306,"▁sé":307,"▁tú":308,"▁lle":309,"dos":310,"per":311,"▁vos":312,"▁man":313,"▁ll":314,"▁cam":315,"tro":316,"▁solo":317,"▁mal":318,"ran":319,"ve":320,"▁eso":321,"▁cal":322,"▁co":323,"▁tien":324,"▁ahora":325,"der":326,"▁hay":327,"tar":328,"▁k":329,"ck":330,"ba":331,"▁u":332,"ter":333,"▁cre":334,"▁tan":335,"..":336,"én":337,"▁qué":338,"vo":339,"án":340,"gu":341,"▁nos":342,"ari":343,"tu":344,"to,":345,"▁ro":346,"▁pr":347,"▁cl":348,"▁can":349,"ras":350,"mi":351,"ing":352,"low":353,"▁dej":354,"▁ex":355,"▁mam":356,"',":357,"iendo":358,"ces":359,"go\r\n":360,"cu":361,"par":362,"▁bien":363,"▁hacer":364,"▁ella":365,"▁ne":366,"▁ba":367,"ta,":368,"▁'":369,"▁habl":370,"▁así":371,"▁bus":372,"amos":373,"▁rap":374,"▁hace":375,"▁sa":376,"▁li":377,"▁don":378,"cho":379,"▁mo":380,"▁cor":381,"endo":382,"▁he":383,"ens":384,"▁imp":385,"tas":386,"bre":387,"ir":388,"po":389,"man":390,"tan":391,"▁res":392,"das":393,"és":394,"tes":395,"ues":396,"ento":397,"▁pon":398,"▁bar":399,"▁flow":400,"gar":401,"▁nun":402,"ver":403,"za":404,"▁dis":405,"li":406,"▁todos":407,"▁fue":408,"▁sol":409,"▁pro":410,"▁has":411,"▁bo":412,"si":413,"os,":414,"!\r\n":415,"▁yeah\r\n":416,"or\r\n":417,"▁th":418,"▁bab":419,"▁nunca":420,"cen":421,"jo":422,"▁buen":423,"da,":424,"▁pre":425,"▁dice":426,"h-":427,"▁fu":428,"mas":429,"▁ci":430,"▁hago":431,"lo,":432,"▁quiere":433,"▁hoy":434,"▁lu":435,"▁tiene":436,"▁fal":437,"den":438,"▁ju":439,"▁her":440,"era":441,"▁men":442,"gan":443,"▁sh":444,"▁cas":445,"qu":446,"car":447,"▁hasta":448,"bo":449,"▁esa":450,"▁vez":451,"▁vol":452,"▁mira":453,"ke":454,"fi":455,"ra\r\n":456,"ru":457,"ren":458,"▁comp":459,"ado":460,"▁mej":461,"al\r\n":462,"se":463,"s\r\n":464,"ame":465,"▁verdad":466,"▁gu":467,"▁baj":468,"▁ap":469,"▁no,":470,"▁mon":471,"▁mier":472,"tos":473,"▁pla":474,"te,":475,"▁mue":476,"des":477,"▁ey,":478,"ble":479,"▁ho":480,"▁yeah,":481,"▁be":482,"er\r\n":483,"enci":484,"lo\r\n":485,"ty":486,"▁cos":487,"▁llam":488,"ez":489,"▁vien":490,"▁pal":491,"▁nadi":492,"▁mami":493,"▁escu":494,"▁sí":495,"ina":496,"ca\r\n":497,"cion":498,"▁tiemp":499,"t\r\n":500,"no":501,"▁vas":502,"▁calle":503,"▁go":504,"tal":505,"▁ol":506,"▁du":507,"▁cab":508,"▁to'":509,"▁mar":510,"cha":511,"▁mejor":512,"▁sabe":513,"arme":514,"▁herman":515,"▁noch":516,"vis":517,"es,":518,"▁enc":519,"▁tus":520,"▁aun":521,"an\r\n":522,".\r\n":523,"as,":524,"rim":525,"ente\r\n":526,"▁vuel":527,"▁ese":528,"▁deci":529,"va":530,"co\r\n":531,"ar,":532,"▁bi":533,"▁sigo":534,"▁donde":535,"▁muy":536,"▁aunque":537,"▁puedo":538,"▁ab":539,"▁nue":540,"▁vida":541,"▁sos":542,"▁pens":543,"▁otra":544,"ía\r\n":545,"▁perd":546,"ro\r\n":547,"▁pis":548,"▁tam":549,"▁da":550,"mb":551,"▁you":552,"ro,":553,"ómo":554,"gun":555,"ando\r\n":556,"▁nada":557,"▁saben":558,"▁rom":559,"▁sabes":560,"▁fr":561,"▁rape":562,"▁acá":563,"lan":564,"mo'":565,"ten":566,"do,":567,"ón,":568,"ino":569,"go,":570,"▁tom":571,"quí":572,"▁us":573,"▁nadie":574,"▁pare":575,"▁escri":576,"▁trap":577,"ana":578,"▁muer":579,"▁mierda":580,"▁conmi":581,"ub":582,"ún":583,"▁aquí":584,"ad":585,"▁for":586,"▁fa":587,"▁-":588,"▁do":589,"je":590,"é\r\n":591,"▁barri":592,"la\r\n":593,"▁busc":594,"▁my":595,"▁esper":596,"▁ey\r\n":597,"▁toda":598,"▁fre":599,"ción\r\n":600,"ma\r\n":601,"la,":602,"▁mas":603,"▁rec":604,"gui":605,"▁or":606,"▁estás":607,"d\r\n":608,"▁emp":609,"r\r\n":610,"▁día":611,"▁pien":612,"so":613,"ño":614,"▁eres":615,"qué":616,"vo\r\n":617,"▁quer":618,"▁ah,":619,"▁vengo":620,"▁mun":621,"▁cuen":622,"de\r\n":623,"ga\r\n":624,"▁dos":625,"▁gus":626,"amo'":627,"▁fl":628,"▁the":629,"ciendo":630,"▁fum":631,"at":632,"▁quieren":633,"ja":634,"▁les":635,"▁contra":636,"▁exp":637,"ia":638,"ero\r\n":639,"▁desp":640,"▁cambi":641,"dar":642,"na":643,"▁ter":644,"▁olvi":645,"▁cada":646,"▁ay":647,"▁prim":648,"▁pasa":649,"ándo":650,"▁fuck":651,"z\r\n":652,"tor":653,"▁mient":654,"▁fin":655,"▁oh,":656,"▁real":657,"▁val":658,"ce\r\n":659,"et":660,"▁mor":661,"▁yeh\r\n":662,"▁siento":663,"co,":664,"gas":665,"▁dro":666,"▁club":667,"▁no\r\n":668,"▁están":669,"▁viene":670,"▁é":671,"▁desde":672,"▁pes":673,"▁neg":674,"ste":675,"▁gra":676,"▁cual":677,"▁estar":678,"▁gente":679,"▁puta":680,"idad":681,"▁entre":682,"▁otro":683,"rar":684,"gue":685,"▁ando":686,"▁cómo":687,"ción":688,"▁dicen":689,"▁tran":690,"▁cara":691,"▁eh\r\n":692,"▁jue":693,"be":694,"▁gua":695,"▁cono":696,"ul":697,"▁creo":698,"can":699,"▁suen":700,"▁tiempo":701,"por":702,"▁san":703,"▁dar":704,"▁mucho":705,"ina\r\n":706,"▁amor":707,"▁e'":708,"▁ah\r\n":709,"▁quien":710,"▁jo":711,"▁sus":712,"▁¡":713,"▁dí":714,"enti":715,"▁lo'":716,"rovis":717,"▁improvis":718,"▁fe":719,"▁and":720,"▁nen":721,"▁vo":722,"▁pues":723,"▁cha":724,"eron":725,"▁él":726,"▁cora":727,"▁van":728,",\r\n":729,"ec":730,"▁z":731,"▁cer":732,"a'":733,"▁we":734,"jos":735,"▁\"":736,"▁mil":737,"▁frees":738,"ig":739,"▁som":740,"▁volver":741,"▁freesty":742,"▁wh":743,"en\r\n":744,"▁eh,":745,"▁medi":746,"▁puede":747,"los":748,"▁ban":749,"ra,":750,"▁fi":751,"▁bl":752,"era\r\n":753,"▁esti":754,"ento\r\n":755,"▁hum":756,"▁dime":757,"zo":758,"rr":759,"▁noche":760,"▁on":761,"▁uste":762,"bién":763,"tando":764,"ís":765,"▁igu":766,"▁col":767,"▁haciendo":768,"▁escuch":769,"▁despué":770,"▁cla":771,"▁af":772,"▁rimas":773,"▁'e":774,"▁din":775,"▁pap":776,"▁coraz":777,"...\r\n":778,"▁cuer":779,"▁clar":780,"▁también":781,"▁suel":782,"le\r\n":783,"amente":784,"ín":785,"▁decir":786,"ólo":787,"▁mundo":788,"ó\r\n":789,"▁bes":790,"▁sue":791,"▁yeh,":792,"▁ins":793,"za\r\n":794,"▁mami,":795,"▁mientras":796,"entro":797,"▁ta":798,"▁bri":799,"mo\r\n":800,"ven":801,"▁2":802,"▁baby,":803,"▁wa":804,"▁sólo":805,"cil":806,"▁tal":807,"▁mí\r\n":808,"▁arri":809,"▁tanto":810,"on\r\n":811,"re\r\n":812,"▁tener":813,"▁¿qué":814,"ya":815,"me\r\n":816,"dor":817,"▁queda":818,"▁ga":819,"pp":820,"▁pan":821,"t,":822,"▁matar":823,"ico":824,"▁fui":825,"▁impor":826,"▁beb":827,"ónde":828,"▁pres":829,"▁senti":830,"▁ahí":831,"▁antes":832,"lla":833,"▁después":834,"▁gi":835,"o'\r\n":836,"▁nada\r\n":837,"▁encon":838,"yo":839,"▁cri":840,"▁ob":841,"▁pier":842,"▁bail":843,"fer":844,"▁1":845,"▁tar":846,"ero,":847,"▁quién":848,"▁gusta":849,"▁tr":850,"▁veo":851,"aste":852,"▁gran":853,"i\r\n":854,"▁vis":855,"▁much":856,"ario\r\n":857,"▁ton":858,"arte":859,"▁ir":860,"▁pregun":861,"▁estilo":862,"mm":863,"▁proble":864,"▁parece":865,"das\r\n":866,"▁pus":867,"▁pel":868,"▁doy":869,"▁barrio":870,"s,":871,"th":872,"tar\r\n":873,"ur":874,"vel":875,"▁dem":876,"▁gri":877,"▁mone":878,"▁all":879,"ca,":880,"▁era":881,"▁tri":882,"▁enci":883,"▁hip":884,"▁igual":885,"▁todas":886,"dr":887,"lex":888,"▁reg":889,"ve\r\n":890,"io":891,"▁min":892,"▁hijo":893,"tch":894,"▁rep":895,"▁wo":896,"▁poder":897,"▁conmigo":898,"▁esos":899,"▁mill":900,"▁agu":901,"▁qued":902,"▁inter":903,"▁respe":904,"▁falta":905,"tin":906,"▁palab":907,"cí":908,"▁pun":909,"▁au":910,"▁nues":911,"▁algo":912,"ill":913,"ito":914,"▁guer":915,"▁pen":916,"in'":917,"é,":918,"▁pren":919,"▁sho":920,"toy":921,"▁tranqui":922,"mente":923,"▁poco":924,"▁term":925,"jer":926,"▁rapero":927,"▁pienso":928,"▁vamos":929,"tros":930,"dad\r\n":931,"▁baby":932,"▁cabr":933,"▁ad":934,"ale":935,"▁sale":936,"ka":937,"▁mismo":938,"▁rima":939,"cto":940,"ones":941,"ando,":942,"▁nig":943,"▁veces":944,"▁mom":945,"▁estamos":946,"▁encontr":947,"tas\r\n":948,"▁má":949,"p\r\n":950,"▁dentro":951,"enta":952,"▁cualqui":953,"▁bas":954,"▁amor\r\n":955,"ma,":956,"w\r\n":957,"or,":958,"▁'toy":959,"cas":960,"sa":961,"ita":962,"▁loco":963,"▁i'":964,"▁enten":965,"lic":966,"▁jun":967,"▁cul":968,"e'":969,"▁fuer":970,"dos\r\n":971,"▁pol":972,"▁sea":973,"cia":974,"du":975,"l\r\n":976,"▁mer":977,"▁vivo":978,"▁tienen":979,"▁ke":980,"tos\r\n":981,"▁papi":982,"▁tumb":983,"▁neces":984,"p,":985,"▁fam":986,"aba":987,"▁freestyle":988,"baj":989,"ga,":990,"▁perdi":991,"▁uh,":992,"▁dispar":993,"▁cin":994,"▁dónde":995,"▁mic":996,"▁estu":997,"▁dejo":998,"tre":999,"▁mañ":1000,"▁mí,":1001,"▁sí,":1002,"▁droga":1003,"cos":1004,"dí":1005,"ut":1006,"▁flex":1007,"mbre":1008,"▁hermano":1009,"▁menos":1010,"▁bitch":1011,"▁dol":1012,"▁uno":1013,"▁yo,":1014,"▁quieres":1015,"▁der":1016,"▁diab":1017,"tes\r\n":1018,"▁hom":1019,"▁bal":1020,"▁oh\r\n":1021,"iste":1022,"ros":1023,"▁chic":1024,"igo":1025,"▁han":1026,"▁is":1027,"▁pongo":1028,"▁morir":1029,"van":1030,"▁llor":1031,"der\r\n":1032,"▁menti":1033,"▁i'm":1034,"d,":1035,"▁eh":1036,"▁tres":1037,"▁ning":1038,"▁hue":1039,"▁yo\r\n":1040,"o',":1041,"rando":1042,"á\r\n":1043,"▁equi":1044,"▁dame":1045,"▁ay,":1046,"▁esp":1047,"▁estos":1048,"ce,":1049,"▁sobre":1050,"▁cosas":1051,"les":1052,"ona":1053,"h-e":1054,"\"\r\n":1055,"▁agar":1056,"▁digo":1057,"eli":1058,"▁kno":1059,"▁dejar":1060,"▁dan":1061,"ine":1062,"ños":1063,"▁cui":1064,"▁prin":1065,"▁mú":1066,"▁like":1067,"▁pega":1068,"▁hablar":1069,"mos\r\n":1070,"orm":1071,"▁bueno,":1072,"po,":1073,"▁estas":1074,"ario":1075,"▁bajo":1076,"ba\r\n":1077,"▁br":1078,"▁segui":1079,"▁ojos":1080,"▁tira":1081,"▁apar":1082,"▁vo'":1083,"▁dij":1084,"▁pueden":1085,"▁llama":1086,"zar":1087,"▁nombre":1088,"▁señ":1089,"▁vivi":1090,"-a":1091,"▁dios":1092,"▁rit":1093,"?,":1094,"i,":1095,"vo,":1096,"cio":1097,"▁dijo":1098,"h-o":1099,"che":1100,"▁lleg":1101,"▁batal":1102,"▁arriba":1103,"an,":1104,"mo,":1105,"▁ey":1106,"ora\r\n":1107,"▁noso":1108,"las":1109,"ern":1110,"▁nivel":1111,"mar":1112,"pa\r\n":1113,"ña":1114,"▁bro":1115,"▁chu":1116,"▁arg":1117,"▁llen":1118,"▁odi":1119,"▁vie":1120,"▁mano":1121,"▁bai":1122,"▁luz":1123,"ia\r\n":1124,"illo":1125,"io\r\n":1126,"▁conf":1127,"▁ja":1128,"▁más\r\n":1129,"▁mucha":1130,"▁¿c":1131,"▁entien":1132,"▁dé":1133,"ante":1134,"▁la'":1135,"▁rev":1136,"encia":1137,"▁somos":1138,"po\r\n":1139,"ores":1140,"in\r\n":1141,"▁salgo":1142,"'t":1143,"bra":1144,"ion":1145,"▁ún":1146,"▁culo":1147,"▁ganar":1148,"▁minu":1149,"er,":1150,"▁chi":1151,"▁casi":1152,"emos":1153,"▁int":1154,"▁pers":1155,"▁estaba":1156,"▁che":1157,"▁escen":1158,"▁sang":1159,"▁brill":1160,"▁importa":1161,"ea":1162,"▁sk":1163,"▁simp":1164,"▁ti\r\n":1165,"tras":1166,"▁yeah":1167,"▁cuenta":1168,"tri":1169,"▁mes":1170,"▁ale":1171,"▁cua":1172,"elo":1173,"uy":1174,"▁dra":1175,"▁ellos":1176,"▁conti":1177,"▁apren":1178,"eza":1179,"jo\r\n":1180,"▁due":1181,"▁ace":1182,"▁buscar":1183,"▁juro":1184,"▁shi":1185,"▁club,":1186,"g\r\n":1187,"▁mente":1188,"▁ron":1189,"▁gano":1190,"▁tienes":1191,"▁encuen":1192,"▁nuevo":1193,"dre":1194,"mien":1195,"▁ag":1196,"▁ele":1197,"▁har":1198,"▁fo":1199,"▁sub":1200,"▁trabaj":1201,"▁mujer":1202,"▁habla":1203,"ing\r\n":1204,"▁gol":1205,"▁recuer":1206,"uh\r\n":1207,"▁os":1208,"▁sigue":1209,"▁segu":1210,"▁tiro":1211,"▁llev":1212,"▁buscando":1213,"▁princi":1214,"▁plan":1215,"ung":1216,"w,":1217,"▁tenés":1218,"▁je":1219,"▁despi":1220,"tro\r\n":1221,"éndo":1222,"▁solamente":1223,"▁hermano,":1224,"▁vamo'":1225,"ono":1226,"▁enam":1227,"al,":1228,"▁of":1229,"▁llega":1230,"▁llevo":1231,"▁hablando":1232,"'s":1233,"ber":1234,"lar":1235,"▁qu":1236,"▁bu":1237,"▁fres":1238,"▁cons":1239,"▁raper":1240,"encia\r\n":1241,"▁recor":1242,"▁encima":1243,"▁feli":1244,"▁vida\r\n":1245,"▁jus":1246,"ado\r\n":1247,"▁cien":1248,"cho\r\n":1249,"de,":1250,"▁anda":1251,"▁sali":1252,"ío":1253,"▁oy":1254,"▁cru":1255,"▁mie":1256,"▁it":1257,"▁forma":1258,"ces\r\n":1259,"pon":1260,"u,":1261,"▁esca":1262,"▁enton":1263,"▁camin":1264,"▁medio":1265,"▁ustedes":1266,"▁argent":1267,"▁mol":1268,"▁hici":1269,"▁extra":1270,"▁bien\r\n":1271,"diendo":1272,"▁def":1273,"▁ense":1274,"▁gor":1275,"▁estre":1276,"▁desc":1277,"▁nada,":1278,"...":1279,"▁mueve":1280,"▁suena":1281,"cando":1282,"lti":1283,"ré":1284,"▁fav":1285,"ño\r\n":1286,"ano":1287,"ana\r\n":1288,"▁mata":1289,"▁termin":1290,"zo\r\n":1291,"▁esas":1292,"▁young":1293,"▁hacen":1294,"▁sé\r\n":1295,"▁rob":1296,"▁bueno":1297,"▁obvi":1298,"g,":1299,"á,":1300,"▁apa":1301,"▁gas":1302,"▁super":1303,"▁deja":1304,"-e":1305,"llo":1306,"▁dije":1307,"▁difer":1308,"me,":1309,"▁claro":1310,"ja\r\n":1311,"▁paso":1312,"▁hice":1313,"▁baby\r\n":1314,"ciones":1315,"▁blun":1316,"▁fun":1317,"▁ciu":1318,"▁nuestro":1319,"'o":1320,"pues":1321,"té":1322,"▁cara\r\n":1323,"▁uh\r\n":1324,"▁repres":1325,"▁tumbando":1326,"fe":1327,"ni":1328,"▁demas":1329,"▁suf":1330,"cer\r\n":1331,"▁puta,":1332,"▁pos":1333,"aron":1334,"▁hor":1335,"una":1336,"▁viv":1337,"▁mal\r\n":1338,"▁empi":1339,"▁ayu":1340,"▁juego":1341,"▁pl":1342,"▁ves":1343,"▁oh":1344,"tir":1345,"▁don't":1346,"▁pone":1347,"▁corazón":1348,"ed":1349,"ido":1350,"ión\r\n":1351,"▁pin":1352,"cho,":1353,"▁algui":1354,"▁viaj":1355,"▁hacer\r\n":1356,"▁momento":1357,"ki":1358,"ár":1359,"▁tras":1360,"▁escrib":1361,"idad\r\n":1362,"ty\r\n":1363,"▁esqu":1364,"▁bom":1365,"▁perf":1366,"▁camino":1367,"▁truen":1368,"vos":1369,"▁ai":1370,"erto":1371,"and":1372,"ás\r\n":1373,"▁desa":1374,"▁inc":1375,"▁fuera":1376,"▁muero":1377,"▁fumo":1378,"ándome":1379,"▁negro":1380,"ías":1381,"▁dor":1382,"▁¿qui":1383,"▁cuida":1384,"▁person":1385,"▁cel":1386,"▁entr":1387,"▁fren":1388,"▁come":1389,"▁bor":1390,"▁hacerlo":1391,"▁boca":1392,"▁mus":1393,"▁blan":1394,"▁compar":1395,"▁cuan":1396,"▁llegar":1397,"▁cans":1398,"▁conmigo\r\n":1399,"one":1400,"▁dire":1401,"▁perdón":1402,"ve,":1403,"ápi":1404,"▁vos\r\n":1405,"▁envi":1406,"▁mir":1407,"▁gir":1408,"▁iba":1409,"▁gana":1410,"▁casa":1411,"▁vez\r\n":1412,"▁oro":1413,"▁olvid":1414,"▁improvisa":1415,"gar\r\n":1416,"im":1417,"▁lis":1418,"ento,":1419,"ash":1420,"ones\r\n":1421,"▁estan":1422,"▁alma":1423,"▁pa'l":1424,"elo\r\n":1425,"▁pase":1426,"ument":1427,"▁piens":1428,"▁aguan":1429,"▁cuatro":1430,"▁contro":1431,"till":1432,"▁bien,":1433,"▁dinero":1434,"cti":1435,"▁cuel":1436,"en,":1437,"▁vam":1438,"▁sir":1439,"dio":1440,"▁levan":1441,"▁vaya":1442,"▁quiero,":1443,"▁llego":1444,"▁¿cómo":1445,"▁simple":1446,"▁dormi":1447,"▁puer":1448,"cias":1449,"▁read":1450,"▁infi":1451,"▁pasó":1452,"▁amig":1453,"bir":1454,"▁pensar":1455,"▁querés":1456,"▁afue":1457,"ró":1458,"ala":1459,"ales\r\n":1460,"cia\r\n":1461,"cio\r\n":1462,"▁parte":1463,"▁arre":1464,"▁rock":1465,"▁hop":1466,"▁romp":1467,"rrum":1468,"▁cualquier":1469,"▁bre":1470,"▁sig":1471,"ame,":1472,"▁ki":1473,"▁muchos":1474,"!!\r\n":1475,"tá":1476,"▁ce":1477,"▁lado":1478,"▁siente":1479,"▁raz":1480,"▁mala":1481,"▁sangre":1482,"pañ":1483,"arme\r\n":1484,"▁nuevo\r\n":1485,"▁suelto":1486,"▁entonces":1487,"ctu":1488,"tó":1489,"ante\r\n":1490,"▁novi":1491,"alo":1492,"amp":1493,"▁ge":1494,"▁yah\r\n":1495,"▁pasar":1496,"▁busca":1497,"▁flow,":1498,"▁sentir":1499,"▁alguien":1500,"▁dando":1501,"▁ben":1502,"▁temp":1503,"▁reci":1504,"▁amar":1505,"▁sacar":1506,"▁baja":1507,"▁duk":1508,"▁rapear":1509,"▁encontrar":1510,"▁mañana":1511,"ito\r\n":1512,"ág":1513,"omo":1514,"▁mío":1515,"▁guar":1516,"▁rompe":1517,"▁whi":1518,"▁palabras":1519,"00":1520,"u\r\n":1521,"va\r\n":1522,"ía,":1523,"▁pri":1524,"▁meto":1525,"▁ami":1526,"ppin":1527,"▁give":1528,"gando":1529,"mor":1530,"tiendo":1531,"▁dri":1532,"▁norm":1533,"▁tier":1534,"ille":1535,"▁puedes":1536,"▁escon":1537,"▁ganas":1538,"▁abaj":1539,"▁frente":1540,"▁humo":1541,"cta":1542,"sy":1543,"▁dos\r\n":1544,"▁adi":1545,"▁hmm":1546,"▁compe":1547,"▁mato":1548,"▁cham":1549,"▁ver\r\n":1550,"▁quiero\r\n":1551,"▁pide":1552,"▁pele":1553,"▁this":1554,"▁coscu":1555,"▁vale":1556,"▁enseñ":1557,"-na":1558,"mas\r\n":1559,"▁que\r\n":1560,"▁bol":1561,"▁fá":1562,"▁perman":1563,"▁wan":1564,"▁'ta":1565,"és\r\n":1566,"▁plata":1567,"▁todav":1568,"▁voz":1569,"gi":1570,"ám":1571,"▁mari":1572,"▁años":1573,"▁demos":1574,"▁si,":1575,"▁conci":1576,"▁chan":1577,"▁saco":1578,"▁esperando":1579,"▁explo":1580,"▁respeto":1581,"▁mc":1582,"▁segun":1583,"▁tuyo":1584,"melo":1585,"▁salir":1586,"▁campe":1587,"▁cosa":1588,"▁piso,":1589,"▁escribo":1590,"ther":1591,"▁má'":1592,"br":1593,"eta":1594,"▁án":1595,"▁nota":1596,"▁saber":1597,"▁hizo":1598,"▁lugar":1599,"▁she":1600,"ciones\r\n":1601,"▁pensando":1602,"▁rapeo":1603,"▁cuerpo":1604,"▁famil":1605,"▁déj":1606,"des\r\n":1607,"gún":1608,"▁x":1609,"▁lue":1610,"▁dom":1611,"▁dec":1612,"all":1613,"▁siendo":1614,"▁conta":1615,"▁oke":1616,"▁cho":1617,"▁trai":1618,"▁traje":1619,"▁podr":1620,"▁pelo":1621,"▁cier":1622,"▁mira,":1623,"▁tiempo\r\n":1624,"▁envidi":1625,"-n":1626,"dan":1627,"k\r\n":1628,"▁ú":1629,"▁sent":1630,"▁tor":1631,"▁his":1632,"▁digan":1633,"▁algun":1634,"a,\r\n":1635,"▁caden":1636,"▁pasado":1637,"▁prefi":1638,"▁fácil":1639,"ño,":1640,"▁duer":1641,"le,":1642,"▁ocu":1643,"▁perder":1644,"▁hablo":1645,"▁poca":1646,"▁trap,":1647,"▁fumando":1648,"▁nena":1649,"▁cris":1650,"▁músi":1651,"▁seguir":1652,"▁único":1653,"ión":1654,"▁aque":1655,"esta":1656,"ame\r\n":1657,"que\r\n":1658,"▁vida,":1659,"▁tiran":1660,"▁más,":1661,"▁piel":1662,"▁uo":1663,"▁tanta":1664,"▁mami\r\n":1665,"▁piso":1666,"ha":1667,"mando":1668,"▁dal":1669,"▁viendo":1670,"ino\r\n":1671,"▁toca":1672,"▁capi":1673,"▁pido":1674,"▁todo'":1675,"▁futu":1676,"▁nadie\r\n":1677,"▁fron":1678,"▁problema":1679,"h-eh\r\n":1680,"'o\r\n":1681,"-b":1682,"ton":1683,"▁ñ":1684,"▁mi\r\n":1685,"▁cump":1686,"dido":1687,"▁inf":1688,"▁visto":1689,"▁nosotros":1690,"h!\r\n":1691,"▁dale":1692,"▁quedar":1693,"▁entra":1694,"▁sé,":1695,"▁cree":1696,"▁flow\r\n":1697,"▁fuego":1698,"▁encan":1699,"▁empez":1700,"▁papel":1701,"▁vivir":1702,"nos":1703,"▁slow":1704,"▁lar":1705,"iente":1706,"▁ru":1707,"lla\r\n":1708,"▁clas":1709,"ing,":1710,"▁así\r\n":1711,"bre\r\n":1712,"▁prepar":1713,"▁explic":1714,"▁señor":1715,"cuen":1716,"k,":1717,"í\r\n":1718,"▁tre":1719,"▁dese":1720,"▁asi":1721,"▁siempre\r\n":1722,"▁volv":1723,"▁comple":1724,"▁verdad,":1725,"▁verdad\r\n":1726,"▁beat":1727,"▁barrio\r\n":1728,"▁primera":1729,"bo\r\n":1730,"e'\r\n":1731,"gra":1732,"▁sor":1733,"▁vino":1734,"▁hu":1735,"tis":1736,"▁inv":1737,"▁hablan":1738,"▁poner":1739,"▁hermano\r\n":1740,"▁final":1741,"▁what":1742,"▁money":1743,"▁ritmo":1744,"▁oscu":1745,"cre":1746,"eb":1747,"tum":1748,"▁ham":1749,"esti":1750,"▁mete":1751,"▁gen":1752,"▁gil":1753,"▁copi":1754,"▁afuera":1755,"▁últi":1756,"▁música":1757,"bas":1758,"cor":1759,"ho":1760,"anana":1761,"▁bille":1762,"▁rey":1763,"mag":1764,"▁¿que":1765,"▁arma":1766,"ico\r\n":1767,"▁cama":1768,"▁culpa":1769,"▁todavía":1770,"▁demostr":1771,"cin":1772,"fr":1773,"▁pillo":1774,"▁atr":1775,"▁haga":1776,"ción,":1777,"▁oj":1778,"▁quisi":1779,"▁na'\r\n":1780,"▁cap":1781,"uela\r\n":1782,"ck\r\n":1783,"▁así,":1784,"▁sí\r\n":1785,"▁muerte":1786,"▁equivo":1787,"▁know":1788,"▁normal":1789,"▁vue":1790,"▁miro":1791,"cha\r\n":1792,"▁ley":1793,"is\r\n":1794,"▁sube":1795,"▁invi":1796,"▁caus":1797,"▁¿y":1798,"▁acab":1799,"▁¿quién":1800,"ctor":1801,"dés":1802,"je\r\n":1803,"endo\r\n":1804,"melo\r\n":1805,"▁chico":1806,"▁puto":1807,"ica\r\n":1808,"▁corre":1809,"das,":1810,"▁bueno\r\n":1811,"▁rompo":1812,"▁negro,":1813,"▁puse":1814,"▁perfec":1815,"__":1816,"gn":1817,"x\r\n":1818,"ían":1819,"ome":1820,"illa":1821,"▁había":1822,"tur":1823,"h-y":1824,"▁hous":1825,"▁tampo":1826,"▁quería":1827,"▁días":1828,"▁pierdo":1829,"▁punto":1830,"-o":1831,"ica":1832,"iado":1833,"tt":1834,"▁4":1835,"▁vine":1836,"▁flo":1837,"▁imag":1838,"▁traigo":1839,"▁¿por":1840,"▁ases":1841,"▁acuer":1842,"▁manos":1843,"▁calle,":1844,"m\r\n":1845,"ara":1846,"▁contes":1847,"loque":1848,"ris":1849,"▁quiz":1850,"▁ros":1851,"▁respon":1852,"▁corazón\r\n":1853,"▁guerra":1854,"▁enamor":1855,"wo":1856,"ales":1857,"▁fras":1858,"▁comer":1859,"▁diga":1860,"▁rápi":1861,"▁maldi":1862,"▁mama":1863,"▁sac":1864,"▁escucha":1865,"▁vuelvo":1866,"▁perdí":1867,"▁primero":1868,"▁sueño":1869,"▁instr":1870,"-\r\n":1871,"fu":1872,"za,":1873,"ío\r\n":1874,"▁,":1875,"▁ment":1876,"▁ph":1877,"▁acer":1878,"erno":1879,"▁hora":1880,"▁jam":1881,"▁soñ":1882,"▁entiendo":1883,"▁roll":1884,"▁hey,":1885,"▁vuelve":1886,"▁trans":1887,"▁obviamente":1888,"▁tampoco":1889,"cto\r\n":1890,"dri":1891,"gh":1892,"▁emb":1893,"▁atra":1894,"▁loca":1895,"riendo":1896,"▁mismo\r\n":1897,"▁club\r\n":1898,"▁dinero,":1899,"▁shit\r\n":1900,"▁ready":1901,"ban":1902,"ge":1903,"ías\r\n":1904,"▁gui":1905,"▁algún":1906,"▁aman":1907,"▁putas":1908,"▁acti":1909,"lica":1910,"eza\r\n":1911,"▁primer":1912,"▁fucking":1913,"▁realidad":1914,"▁tranquilo":1915,"fa":1916,"ible":1917,"▁atre":1918,"▁sil":1919,"▁tenemos":1920,"entar":1921,"▁ricto":1922,"▁vuelta":1923,"▁tarde\r\n":1924,"▁ningun":1925,"▁baila":1926,"▁permanent":1927,"▁histor":1928,"▁tro":1929,"▁ata":1930,"▁espe":1931,"▁esqui":1932,"▁sient":1933,"lo'":1934,"▁diez":1935,"▁otros":1936,"tic":1937,"▁mamá":1938,"▁full":1939,"▁tomo":1940,"▁conmigo,":1941,"▁auto":1942,"▁micro":1943,"▁mús":1944,"▁brin":1945,"▁confun":1946,"▁music":1947,"mán":1948,"tos,":1949,"ena":1950,"▁deb":1951,"▁lado\r\n":1952,"▁bel":1953,"▁fan":1954,"▁loco,":1955,"▁salu":1956,"▁sino":1957,"▁busco":1958,"▁movi":1959,"▁that":1960,"▁noche\r\n":1961,"▁toma":1962,"▁aquí\r\n":1963,"▁doble":1964,"▁cambio":1965,"▁palabra":1966,"▁espero":1967,"▁cuello":1968,"▁instrument":1969,"gos":1970,"▁mos":1971,"▁mens":1972,"▁aún":1973,"▁gente\r\n":1974,"▁dif":1975,"▁party":1976,"▁alcan":1977,"▁cuán":1978,"▁vio":1979,"▁será":1980,"▁lleva":1981,"▁uh":1982,"▁saca":1983,"▁luz\r\n":1984,"▁one":1985,"▁problemas":1986,"▁demasiado":1987,"▁dale,":1988,"las\r\n":1989,"r,":1990,"▁espa":1991,"▁ene":1992,"▁bru":1993,"▁unos":1994,"▁digas":1995,"▁parar":1996,"▁parti":1997,"▁il":1998,"▁tirar":1999,"▁deses":2000,"▁pasa,":2001,"▁enter":2002,"ter\r\n":2003,"▁rap,":2004,"▁buena":2005,"▁shor":2006,"▁flex,":2007,"▁miedo":2008,"▁favor":2009,"bu":2010,"we":2011,"▁lun":2012,"▁quedo":2013,"▁boy":2014,"▁bum":2015,"ali":2016,"▁fer":2017,"▁confi":2018,"▁oh-o":2019,"▁rela":2020,"▁rebo":2021,"▁na'":2022,"llo\r\n":2023,"▁uh-":2024,"▁cie":2025,"fici":2026,"▁compr":2027,"▁regal":2028,"▁interes":2029,"▁ningún":2030,"▁contigo":2031,"▁gela":2032,"▁fronte":2033,"-p":2034,"pe\r\n":2035,"tón\r\n":2036,"ura":2037,"yas":2038,"▁er":2039,"▁cá":2040,"▁que,":2041,"ona\r\n":2042,"▁paz":2043,"▁cuar":2044,"▁vai":2045,"▁entro":2046,"▁cielo\r\n":2047,"▁muere":2048,"▁trapp":2049,"▁conoce":2050,"▁feel":2051,"▁usted":2052,"ke\r\n":2053,"r.":2054,"▁avi":2055,"▁no'":2056,"ina,":2057,"▁loco\r\n":2058,"▁comi":2059,"▁dices":2060,"▁perre":2061,"▁vers":2062,"▁canto":2063,"▁modo":2064,"lico":2065,"▁boo":2066,"▁duro":2067,"▁juego\r\n":2068,"▁darle":2069,"▁amor,":2070,"▁puesto":2071,"▁chapi":2072,"▁diablo":2073,"▁minuti":2074,"róf":2075,"▁err":2076,"▁mando":2077,"▁mmm":2078,"▁lan":2079,"▁año":2080,"▁eso'":2081,"ano\r\n":2082,"▁jaj":2083,"▁soy\r\n":2084,"▁corta":2085,"▁disco":2086,"▁cielo":2087,"▁color":2088,"▁papá":2089,"▁bebé\r\n":2090,"▁grande":2091,"▁nigga\r\n":2092,"▁mere":2093,"▁ciudad":2094,"gro":2095,"ly":2096,"ple":2097,"▁at":2098,"▁avis":2099,"oni":2100,"raz":2101,"▁tema":2102,"▁hac":2103,"▁comb":2104,"iento":2105,"▁estru":2106,"▁carr":2107,"▁venir":2108,"▁gang":2109,"cula":2110,"▁mother":2111,"▁bote":2112,"▁mejor\r\n":2113,"▁cinco":2114,"▁justo":2115,"▁cues":2116,"eno\r\n":2117,"▁hater":2118,"chi":2119,"▁yeh":2120,"ilo\r\n":2121,"▁up,":2122,"tura":2123,"ado,":2124,"▁ayer":2125,"▁droga,":2126,"▁humil":2127,"▁allá":2128,"▁quedan":2129,"-e-":2130,"▁desesper":2131,"▁estructu":2132,"-tu":2133,"tun":2134,"ó,":2135,"▁gar":2136,"▁tuy":2137,"res\r\n":2138,"enta\r\n":2139,"▁tipo":2140,"▁mía\r\n":2141,"▁acos":2142,"▁ropa":2143,"▁hecho":2144,"▁fuego\r\n":2145,"sión\r\n":2146,"▁dice:":2147,"▁hombre":2148,"▁acep":2149,"▁oye":2150,"▁trueno":2151,"▁mensaj":2152,"!!":2153,"pas":2154,"wn":2155,"▁día\r\n":2156,"▁culo,":2157,"▁ide":2158,"coh":2159,"▁quiera":2160,"▁prrrum":2161,"cul":2162,"▁hoo":2163,"▁cabeza":2164,"▁noches":2165,"▁flash":2166,"▁chain":2167,"▁despier":2168,"▁luego":2169,"fuck":2170,"mer":2171,"▁3":2172,"▁có":2173,"▁tin":2174,"end":2175,"oso":2176,"▁fon":2177,"▁siqui":2178,"▁sex":2179,"▁haces":2180,"▁dio":2181,"▁out":2182,"▁pagan":2183,"▁tenga":2184,"▁tir":2185,"▁descan":2186,"▁may":2187,"▁vos,":2188,"▁mierda\r\n":2189,"▁cuento":2190,"▁gracias":2191,"▁dinero\r\n":2192,"▁micróf":2193,"▁record":2194,".r.":2195,"dor\r\n":2196,"ka\r\n":2197,"ler":2198,"▁tari":2199,"▁az":2200,"▁me\r\n":2201,"cido":2202,"▁esto,":2203,"▁subir":2204,"▁salam":2205,"▁hijos":2206,"▁liber":2207,"tes,":2208,"lig":2209,"▁noche,":2210,"▁nuev":2211,"▁flor":2212,"▁guapo,":2213,"▁fuiste":2214,"▁millon":2215,"▁vamo":2216,"gl":2217,"hu":2218,"▁sw":2219,"▁toy":2220,"▁ade":2221,"▁me,":2222,"▁fir":2223,"iendo\r\n":2224,"▁diam":2225,"▁tenía":2226,"▁ti,":2227,"▁madre":2228,"▁aho":2229,"▁rum":2230,"▁cara,":2231,"▁manten":2232,"▁mierda,":2233,"▁olvidar":2234,"▁ayer\r\n":2235,"▁money,":2236,"▁encuentro":2237,"▁quizás":2238,"▁silenci":2239,"▁siquiera":2240,"bar":2241,"bol":2242,"eta\r\n":2243,"gel":2244,"ne":2245,"ocu":2246,"se\r\n":2247,"▁tí":2248,"▁quedas":2249,"▁eso,":2250,"▁bla":2251,"▁paro":2252,"▁alcoh":2253,"▁vive":2254,"▁pasan":2255,"▁puro":2256,"tar,":2257,"▁lugar\r\n":2258,"▁cereb":2259,"▁seguro":2260,"▁quin":2261,"▁felici":2262,"▁novio":2263,"fe,":2264,"jo,":2265,"ker":2266,"l,":2267,"tán":2268,"uyo":2269,"zc":2270,"zco":2271,"ícil":2272,"▁ev":2273,"on,":2274,"▁consi":2275,"▁yah,":2276,"entro\r\n":2277,"▁na',":2278,"▁ma',":2279,"▁ahora\r\n":2280,"▁ren":2281,"▁¿s":2282,"▁calien":2283,"▁prendo":2284,"▁compren":2285,"▁calle\r\n":2286,"▁pesa":2287,"▁sueno":2288,"▁derri":2289,"▁chica":2290,"▁intent":2291,"▁argentina":2292,"▁simplemente":2293,"▁hmm,":2294,"▁difícil":2295,"▁mé":2296,"▁smo":2297,"▁len":2298,"▁cr":2299,"▁fra":2300,"ta'":2301,"▁convi":2302,"▁conse":2303,"▁esté":2304,"tica\r\n":2305,"dir":2306,"melo,":2307,"▁tirando":2308,"▁caz":2309,"▁capa":2310,"▁sola":2311,"▁estamo'":2312,"mos,":2313,"▁caraj":2314,"ica,":2315,"▁malo":2316,"▁clic":2317,"▁exis":2318,"▁propi":2319,"▁vienen":2320,"▁to'a":2321,"▁guapo":2322,"▁fiesta":2323,"▁beso":2324,"▁ahí\r\n":2325,"▁puso":2326,"▁cabrón":2327,"▁dijeron":2328,"▁cuanto":2329,"▁motherfuck":2330,"▁salamand":2331,"▁alcohol":2332,"jer\r\n":2333,"nos\r\n":2334,"ras\r\n":2335,"▁za":2336,"▁evi":2337,"▁pú":2338,"uela":2339,"▁tru":2340,"▁aqui":2341,"ena\r\n":2342,"▁enfr":2343,"▁siento\r\n":2344,"▁op":2345,"▁pag":2346,"cha,":2347,"quen":2348,"▁wuh\r\n":2349,"▁pastill":2350,"▁mujer\r\n":2351,"▁ganar\r\n":2352,"▁serio":2353,"▁manda":2354,"▁hables":2355,"tas,":2356,"uestro":2357,"▁pasado\r\n":2358,"▁darte":2359,"▁nena,":2360,"▁20":2361,"▁bailando":2362,"▁nigga":2363,"▁batalla":2364,"▁estrell":2365,"▁funer":2366,"▁infierno":2367,"ba,":2368,"▁mía":2369,"▁lin":2370,"arte\r\n":2371,"▁dep":2372,"▁meti":2373,"▁bur":2374,"▁miran":2375,"▁mirar":2376,"▁yo'\r\n":2377,"amos\r\n":2378,"able":2379,"dió":2380,"▁viol":2381,"▁sabés":2382,"▁cai":2383,"▁nie":2384,"▁wi":2385,"▁ante":2386,"▁sador":2387,"▁preocu":2388,"▁jura":2389,"▁heri":2390,"▁got":2391,"▁rapeando":2392,"▁bailar":2393,"▁muchas":2394,"▁quedó":2395,"▁show":2396,"▁chica,":2397,"éndome":2398,"▁wanna":2399,"▁amane":2400,"ac":2401,"dando":2402,"ep":2403,"tal\r\n":2404,"▁ech":2405,"anan":2406,"▁contar":2407,"da'":2408,"▁padre":2409,"o,\r\n":2410,"▁ma'":2411,"▁cae":2412,"▁verte":2413,"▁pie":2414,"▁haber":2415,"▁tú,":2416,"ense":2417,"▁fall":2418,"▁jugar":2419,"▁tarde":2420,"▁preguntan":2421,"▁cualquiera\r\n":2422,"▁flex\r\n":2423,"▁agarro":2424,"▁recuerdo":2425,"▁ciudad\r\n":2426,"▁aquel":2427,"▁quisiera":2428,"jas":2429,"▁dam":2430,"ana,":2431,"▁blo":2432,"▁fla":2433,"▁uni":2434,"▁hagas":2435,"cado":2436,"▁inte":2437,"▁cay":2438,"▁niño":2439,"▁pueb":2440,"▁pobre":2441,"▁salí":2442,"▁mane":2443,"tua":2444,"▁sola\r\n":2445,"▁prof":2446,"▁gote":2447,"▁pista":2448,"▁muerto":2449,"▁cambiar":2450,"▁cerca":2451,"▁nivel\r\n":2452,"▁empiez":2453,"▁sirve":2454,"▁amigos":2455,"-tu-tu":2456,"m,":2457,"ty,":2458,"uvi":2459,"▁suer":2460,"▁crim":2461,"▁dien":2462,"▁vin":2463,"▁enro":2464,"und":2465,"▁bos":2466,"▁under":2467,"▁tendr":2468,"▁vivo\r\n":2469,"▁subo":2470,"▁ah-a":2471,"▁puta\r\n":2472,"▁up":2473,"▁orgu":2474,"▁freestyle\r\n":2475,"▁claro\r\n":2476,"▁criti":2477,"▁morir\r\n":2478,"▁vieja":2479,"▁descon":2480,"▁sorp":2481,"ananau,":2482,"▁enemi":2483,"▁liberta":2484,"&amp":2485,"ah\r\n":2486,"uh-":2487,"▁eter":2488,"▁bro\r\n":2489,"tado":2490,"▁cont":2491,"cis":2492,"▁todo\r\n":2493,"▁mad":2494,"▁¿no":2495,"▁amigo":2496,"der,":2497,"▁respi":2498,"▁solo\r\n":2499,"▁olor":2500,"▁dime,":2501,"▁empieza":2502,"ppin',":2503,"▁marihu":2504,"▁familia":2505,"▁podría":2506,"&amp;":2507,"hi":2508,"io,":2509,"▁lí":2510,"eno":2511,"▁enloque":2512,"▁haz":2513,"aban":2514,"chos":2515,"▁toc":2516,"▁party\r\n":2517,"dido\r\n":2518,"ás,":2519,"▁desta":2520,"▁misma":2521,"▁sincer":2522,"▁pura":2523,"▁hit":2524,"▁manera":2525,"▁rapper":2526,"▁libre":2527,"▁hey":2528,"▁ponen":2529,"▁big":2530,"▁nueva":2531,"▁weón":2532,"▁arriba\r\n":2533,"▁gata":2534,"ppin'":2535,"▁pelig":2536,"▁papi,":2537,"▁chupa":2538,"▁it's":2539,"▁moles":2540,"▁encanta":2541,"for":2542,"no\r\n":2543,"▁&amp;":2544,"▁ego":2545,"▁mezc":2546,"▁conver":2547,"date":2548,"aba\r\n":2549,"demos":2550,"▁vací":2551,"▁¿d":2552,"quito":2553,"▁venga":2554,"▁todo,":2555,"▁cog":2556,"▁'tá":2557,"tan\r\n":2558,"▁disf":2559,"▁boca\r\n":2560,"▁juga":2561,"▁perdiendo":2562,"▁perdón,":2563,"▁piso\r\n":2564,"▁-ín":2565,"▁querer":2566,"▁andamos":2567,"▁talento":2568,"▁pelí":2569,"▁polic":2570,"▁contigo\r\n":2571,"▁escapar":2572,"▁esquina":2573,"▁improvisación\r\n":2574,"▁demostrar":2575,"cent":2576,"ko":2577,"ke,":2578,"ura\r\n":2579,"▁quemando":2580,"▁temas":2581,"am\r\n":2582,"▁matar\r\n":2583,"▁ina":2584,"uera\r\n":2585,"▁quieras":2586,"▁muri":2587,"arios":2588,"ario,":2589,"▁exper":2590,"▁corri":2591,"sión":2592,"▁casa\r\n":2593,"▁pisto":2594,"▁romper":2595,"▁igual\r\n":2596,"▁decirte":2597,"▁estudi":2598,"▁escenario\r\n":2599,"▁cumpl":2600,"▁ninguno":2601,"-c":2602,"xi":2603,"ña\r\n":2604,"▁mente\r\n":2605,"▁luna":2606,"▁c.r.":2607,"▁tren":2608,"▁debe":2609,"▁bando":2610,"▁compañ":2611,"▁pa,":2612,"che\r\n":2613,"▁real\r\n":2614,"▁sua":2615,"▁perder\r\n":2616,"▁vein":2617,"▁pidiendo":2618,"▁pudi":2619,"▁ark":2620,"▁tú\r\n":2621,"▁mano\r\n":2622,"▁mover":2623,"▁distin":2624,"▁mirada":2625,"▁apun":2626,"▁hote":2627,"▁andamo'":2628,"ín\r\n":2629,"▁skill":2630,"▁demasia":2631,"▁canser":2632,"▁abajo":2633,"▁leyen":2634,"▁fantas":2635,"▁minutito,":2636,"▁smoke":2637,"bri":2638,"ete":2639,"rari":2640,"so\r\n":2641,"uh":2642,"val":2643,"vos\r\n":2644,"ús":2645,"▁cue":2646,"▁cero":2647,"▁aco":2648,"▁ave":2649,"▁ello'":2650,"▁meter":2651,"▁conv":2652,"▁diciendo":2653,"▁oí":2654,"▁tuve":2655,"de'":2656,"cep":2657,"▁relo":2658,"olu":2659,"▁viste":2660,"▁le'":2661,"▁desper":2662,"▁lasti":2663,"▁hable":2664,"▁llegan":2665,"▁lluvi":2666,"▁mal,":2667,"▁coca":2668,"gua":2669,"▁rap\r\n":2670,"tante\r\n":2671,"▁buenos":2672,"▁barrio,":2673,"▁bebé,":2674,"▁tony":2675,"▁guerra\r\n":2676,"▁cabrón\r\n":2677,"▁necesito":2678,"▁agra":2679,"▁golpe":2680,"▁blunt,":2681,"▁tierra":2682,"-na-n":2683,"▁'tamo'":2684,"▁chapi,":2685,"▁gangs":2686,"▁micrófono":2687,"boy":2688,"ph":2689,"▁ví":2690,"un,":2691,"▁unas":2692,"▁yo',":2693,"▁get":2694,"▁tum":2695,"▁toque":2696,"▁tenes":2697,"▁jor":2698,"▁ver,":2699,"▁tramp":2700,"▁cama\r\n":2701,"▁tantas":2702,"▁prome":2703,"▁need":2704,"▁jugando":2705,"▁menor":2706,"▁volvi":2707,"▁monta":2708,"▁escucho":2709,"▁tiempo,":2710,"arme,":2711,"▁decime":2712,"▁muerte\r\n":2713,"▁valor":2714,"▁volver\r\n":2715,"▁tonto,":2716,"▁punta":2717,"▁adentro":2718,"h-oh\r\n":2719,"▁futuro":2720,"▁ferrari":2721,"▁booty":2722,"▁intelig":2723,"-s":2724,"-ta":2725,"jar":2726,"má":2727,"ría":2728,"tí":2729,"ál":2730,"▁5":2731,"▁nub":2732,"▁lam":2733,"▁mi'":2734,"▁mirando":2735,"in',":2736,"▁estilo\r\n":2737,"ce'":2738,"▁viern":2739,"▁rato":2740,"ente,":2741,"▁sabe\r\n":2742,"▁verme":2743,"▁rico":2744,"▁artis":2745,"▁sonando":2746,"▁acom":2747,"▁code":2748,"▁nego":2749,"▁respues":2750,"ble\r\n":2751,"▁improvisando":2752,"▁zig":2753,"▁afuera\r\n":2754,"▁claro,":2755,"▁pregunta":2756,"▁fama":2757,"▁bitch\r\n":2758,"▁viejo":2759,"▁despierto":2760,"▁escap":2761,"▁hiciste":2762,"▁esquina\r\n":2763,"ámon":2764,"▁vuelo":2765,"▁atrevi":2766,"▁fondo":2767,"\",":2768,"e',":2769,"lando":2770,"rá":2771,"▁pill":2772,"arle":2773,"▁ella\r\n":2774,"in,":2775,"▁far":2776,"▁secre":2777,"▁hacia":2778,"▁oka":2779,"▁tocar":2780,"▁rez":2781,"▁remi":2782,"▁vi\r\n":2783,"▁destr":2784,"▁nave":2785,"▁ray":2786,"▁chis":2787,"▁war":2788,"▁pueda":2789,"▁voy\r\n":2790,"▁¿a":2791,"▁habita":2792,"▁mía,":2793,"▁salv":2794,"▁arro":2795,"▁pego":2796,"dos,":2797,"▁tantos":2798,"▁mamá\r\n":2799,"▁back":2800,"ensa":2801,"▁sol\r\n":2802,"▁quiere'":2803,"▁plaka":2804,"▁tomar":2805,"▁trap\r\n":2806,"▁oro\r\n":2807,"▁flui":2808,"▁fluy":2809,"▁guapo\r\n":2810,"▁conocen":2811,"▁zar":2812,"▁estilo,":2813,"▁nuestra":2814,"▁know\r\n":2815,"▁llegó":2816,"▁hard":2817,"▁foto":2818,"▁recordar":2819,"▁miedo\r\n":2820,"▁decís":2821,"▁slow\r\n":2822,"h-ye":2823,"▁¿dónde":2824,"bl":2825,"f,":2826,"he":2827,"uh,":2828,"…\r\n":2829,"▁pra":2830,"▁abo":2831,"▁eso\r\n":2832,"▁detr":2833,"▁hon":2834,"▁fri":2835,"▁loca\r\n":2836,"▁glo":2837,"iento\r\n":2838,"▁quie":2839,"▁vi,":2840,"▁nací":2841,"▁ahor":2842,"▁¿cu":2843,"▁habil":2844,"▁mío\r\n":2845,"▁siempre,":2846,"▁ser\r\n":2847,"▁peg":2848,"▁llegue":2849,"..\r\n":2850,"▁dejó":2851,"▁bob":2852,"▁dice,":2853,"▁casti":2854,"▁vez,":2855,"▁play":2856,"ezco":2857,"▁money\r\n":2858,"▁mañana\r\n":2859,"▁bitch,":2860,"erno\r\n":2861,"▁lleno":2862,"▁bendi":2863,"-po,":2864,"king":2865,"ves":2866,"▁lento\r\n":2867,"▁dedi":2868,"▁env":2869,"▁ener":2870,"▁fil":2871,"▁sido":2872,"▁gh":2873,"▁ou":2874,"▁subi":2875,"▁caer":2876,"▁perra":2877,"tera":2878,"▁canta":2879,"▁hablas":2880,"▁hacemos":2881,"▁life,":2882,"▁coron":2883,"▁hey\r\n":2884,"den\r\n":2885,"▁abri":2886,"▁buscar\r\n":2887,"▁droga\r\n":2888,"▁joven":2889,"▁wee":2890,"▁escuchando":2891,"▁cuerpo\r\n":2892,"▁wacho":2893,"▁diablo\r\n":2894,"▁acel":2895,"miento\r\n":2896,"▁raperos":2897,"▁recién":2898,"▁mostr":2899,"▁acostum":2900,"ananau,n":2901,"▁zigza":2902,"-r":2903,"-y":2904,"-no":2905,"at\r\n":2906,"bamos":2907,"ita\r\n":2908,"ion\r\n":2909,"lar,":2910,"▁6":2911,"▁dos,":2912,"ere":2913,"▁ner":2914,"▁mi,":2915,"▁fash":2916,"oma":2917,"cio,":2918,"▁dicho":2919,"▁pate":2920,"▁ign":2921,"▁repar":2922,"▁ley\r\n":2923,"▁sur":2924,"▁despe":2925,"▁mag":2926,"▁mai":2927,"▁caer\r\n":2928,"▁andar":2929,"▁¿o":2930,"▁sería":2931,"tura\r\n":2932,"▁corto":2933,"▁sold":2934,"▁hago,":2935,"viste":2936,"▁rapea":2937,"adas\r\n":2938,"▁piensa":2939,"▁también\r\n":2940,"▁brillo":2941,"▁encima\r\n":2942,"▁regga":2943,"▁guerr":2944,"▁prende":2945,"▁chico,":2946,"▁equipo":2947,"▁dijiste":2948,"▁gordo":2949,"▁diferencia":2950,"▁ayuda":2951,"▁dormir\r\n":2952,"▁brea":2953,"▁prefiero":2954,"cab":2955,"dero":2956,"▁té":2957,"▁y\r\n":2958,"▁va,":2959,"ono\r\n":2960,"one\r\n":2961,"este":2962,"▁comien":2963,"▁dile":2964,"▁dios\r\n":2965,"▁tengo\r\n":2966,"▁vir":2967,"▁visi":2968,"entos":2969,"▁mat":2970,"▁nike":2971,"▁verso":2972,"▁veo\r\n":2973,"▁piden":2974,"▁salen":2975,"▁vengan":2976,"▁mala,":2977,"▁pró":2978,"▁existe":2979,"para":2980,"▁hablar\r\n":2981,"▁moti":2982,"▁apues":2983,"▁mejores":2984,"▁sabe'":2985,"▁bizar":2986,"▁your":2987,"▁primero\r\n":2988,"▁voz\r\n":2989,"▁media":2990,"▁after":2991,"▁insis":2992,"▁junto":2993,"▁odio":2994,"▁luz,":2995,"▁sufri":2996,"▁siguen":2997,"bel":2998,"cci":2999,"min":3000,"pos":3001,"ros\r\n":3002,"ste\r\n":3003,"▁sti":3004,"▁lic":3005,"▁das":3006,"▁ysy":3007,"▁meta":3008,"ra'":3009,"▁sep":3010,"▁digo\r\n":3011,"▁let":3012,"▁joy":3013,"▁trata":3014,"tra\r\n":3015,"▁po-po,":3016,"▁arran":3017,"▁call":3018,"án\r\n":3019,"▁canciones":3020,"▁corte":3021,"tante":3022,"és,":3023,"▁fuma":3024,"▁escupo":3025,"▁marci":3026,"▁tamo'":3027,"▁doc":3028,"▁buscan":3029,"▁toda'":3030,"▁fluyo":3031,"▁suelta":3032,"▁fuerte":3033,"▁huevos":3034,"▁nombre\r\n":3035,"▁chup":3036,"▁feliz":3037,"▁extrañ":3038,"▁rompiendo":3039,"▁alguna":3040,"▁instrumental\r\n":3041,"▁crimin":3042,"ido\r\n":3043,"iza":3044,"ís\r\n":3045,"▁pp":3046,"▁stre":3047,"▁dto":3048,"▁dentro\r\n":3049,"▁are":3050,"oso\r\n":3051,"▁bon":3052,"▁fol":3053,"▁si\r\n":3054,"▁ocas":3055,"▁parto":3056,"ques":3057,"ust":3058,"▁red":3059,"▁ref":3060,"▁naci":3061,"illa\r\n":3062,"▁wor":3063,"▁trago":3064,"▁ano":3065,"▁vac":3066,"▁rimas\r\n":3067,"▁ganando":3068,"▁killa":3069,"▁hablamos":3070,"▁prob":3071,"▁compro":3072,"▁mono":3073,"▁cabeza\r\n":3074,"ándote\r\n":3075,"▁día,":3076,"▁nene":3077,"▁somo'":3078,"▁clavo":3079,"▁brilla":3080,"▁24":3081,"▁wach":3082,"▁piern":3083,"▁pende":3084,"▁show\r\n":3085,"▁termina":3086,"▁derro":3087,"▁agarra":3088,"▁messi":3089,"▁buscar,":3090,"▁qua":3091,"▁jamás":3092,"▁actitu":3093,"▁with":3094,"gía":3095,"mis":3096,"nes":3097,"no,":3098,"oh\r\n":3099,"▁pág":3100,"▁senta":3101,"▁lín":3102,"▁cen":3103,"oro":3104,"▁labi":3105,"▁seman":3106,"▁hago\r\n":3107,"▁die":3108,"▁pad":3109,"▁tur":3110,"tica":3111,"▁cura":3112,"▁ice,":3113,"ola\r\n":3114,"▁letras":3115,"▁delin":3116,"▁sobra":3117,"▁anim":3118,"aje":3119,"aje\r\n":3120,"▁sale\r\n":3121,"▁carga":3122,"▁venez":3123,"▁gang\r\n":3124,"▁pul":3125,"▁arte":3126,"velo":3127,"tera\r\n":3128,"▁creen":3129,"arios\r\n":3130,"▁dont":3131,"▁corro":3132,"▁apro":3133,"▁decir\r\n":3134,"▁biza":3135,"▁nuevo,":3136,"▁escribi":3137,"▁muerto\r\n":3138,"▁olvido":3139,"▁10":3140,"▁gritan":3141,"▁triple":3142,"▁agua":3143,"▁entender":3144,"▁perdido":3145,"▁mujeres":3146,"▁principi":3147,"▁blunt":3148,"▁aire":3149,"▁segundo":3150,"▁pelotu":3151,"▁capital":3152,"▁adelan":3153,"▁disfru":3154,"▁tumba":3155,"▁ghet":3156,"▁reggaet":3157,"bran":3158,"cos\r\n":3159,"día":3160,"et\r\n":3161,"f\r\n":3162,"sa\r\n":3163,"tien":3164,"uc":3165,"zas":3166,"eras":3167,"▁ya\r\n":3168,"antes":3169,"▁hun":3170,"▁enfer":3171,"▁memor":3172,"inas":3173,"tate":3174,"▁love":3175,"▁locu":3176,"▁parte\r\n":3177,"▁tene":3178,"▁culi":3179,"▁tiras":3180,"▁destro":3181,"illi":3182,"▁velo":3183,"▁va'":3184,"▁rui":3185,"dades":3186,"▁escuela\r\n":3187,"▁mío'":3188,"quis":3189,"▁arru":3190,"ico,":3191,"▁pegar":3192,"ck,":3193,"teri":3194,"▁creer":3195,"▁hacerte":3196,"▁resuel":3197,"▁barde":3198,"▁fuego,":3199,"▁produ":3200,"▁faltan":3201,"▁compra":3202,"▁apri":3203,"▁plata,":3204,"▁esperan":3205,"▁conoci":3206,"▁huele":3207,"▁argentina\r\n":3208,"▁celul":3209,"▁directo":3210,"▁abajo\r\n":3211,"▁competi":3212,"▁okey\r\n":3213,"▁arkano":3214,"▁reloj":3215,"▁viernes":3216,"▁pprrum":3217,"2\r\n":3218,"bro":3219,"gas\r\n":3220,"pl":3221,"rar\r\n":3222,"ser":3223,"tino":3224,"▁tw":3225,"▁a.":3226,"▁añ":3227,"▁vent":3228,"▁vas\r\n":3229,"▁tex":3230,"▁cone":3231,"▁contando":3232,"▁esto\r\n":3233,"▁mate":3234,"illo\r\n":3235,"▁veces\r\n":3236,"▁vacil":3237,"▁pies\r\n":3238,"▁hielo":3239,"▁sonar":3240,"▁code,":3241,"dera\r\n":3242,"▁mamá,":3243,"▁hacer,":3244,"▁buenas":3245,"▁bajar":3246,"▁palo":3247,"▁to's":3248,"▁vueltas":3249,"▁mundo\r\n":3250,"▁expres":3251,"portun":3252,"▁dímelo\r\n":3253,"▁escuchar":3254,"▁suelo":3255,"▁pussy":3256,"tino\r\n":3257,"▁entendés":3258,"▁aparte,":3259,"▁skr":3260,"▁shit":3261,"▁enamora":3262,"▁hmm\r\n":3263,"▁ángel":3264,"▁déjame":3265,"▁domin":3266,"▁envidia":3267,"▁acuerdo":3268,"▁rápido":3269,"▁cuánto":3270,"▁ilum":3271,"▁bloo":3272,"▁líri":3273,"▁agrade":3274,"▁bizarra":3275,"▁delincuen":3276,"-l":3277,"av":3278,"be\r\n":3279,"dam":3280,"ece":3281,"x,":3282,"▁ever":3283,"▁senci":3284,"▁tos":3285,"▁dr":3286,"▁dá":3287,"▁vel":3288,"▁bra":3289,"▁mira\r\n":3290,"ine\r\n":3291,"▁fe\r\n":3292,"▁love\r\n":3293,"ombi":3294,"▁sim":3295,"▁situa":3296,"▁conden":3297,"dado":3298,"▁sel":3299,"▁hag":3300,"lado":3301,"▁payas":3302,"▁it\r\n":3303,"▁desn":3304,"▁cago":3305,"▁estado":3306,"▁pasar\r\n":3307,"▁ran":3308,"▁rique":3309,"▁cari":3310,"▁peda":3311,"tarme":3312,"▁canción\r\n":3313,"▁deje":3314,"▁limp":3315,"▁corr":3316,"▁impos":3317,"▁comprar":3318,"▁gucci":3319,"▁tiempos":3320,"▁from":3321,"▁empres":3322,"▁real,":3323,"▁gente,":3324,"▁besos":3325,"▁pantal":3326,"▁sentimien":3327,"▁grita":3328,"▁triste":3329,"▁million":3330,"▁oye,":3331,"▁sufrim":3332,"▁aire\r\n":3333,"▁tierra\r\n":3334,"▁último":3335,"▁atrás":3336,"--":3337,"-ho":3338,"3\r\n":3339,"cus":3340,"fo":3341,"fic":3342,"ie":3343,"mente\r\n":3344,"pu":3345,"á'\r\n":3346,"▁...\r\n":3347,"▁my,":3348,"▁sú":3349,"▁spor":3350,"▁dj":3351,"▁aj":3352,"▁ay\r\n":3353,"▁es\r\n":3354,"▁nomb":3355,"▁bús":3356,"ales,":3357,"▁una\r\n":3358,"▁tel":3359,"▁siento,":3360,"cito":3361,"▁pagar":3362,"▁paz\r\n":3363,"▁toa'":3364,"▁alto":3365,"ti\r\n":3366,"tilla":3367,"▁cur":3368,"▁rey\r\n":3369,"▁leg":3370,"▁jes":3371,"▁yeh-ye":3372,"tru":3373,"▁vapor":3374,"▁ré":3375,"▁pot":3376,"▁sonri":3377,"▁peor":3378,"▁calma":3379,"▁cot":3380,"▁cole":3381,"▁creo\r\n":3382,"to,\r\n":3383,"amos,":3384,"▁resul":3385,"▁llamo":3386,"▁perdon":3387,"▁fort":3388,"▁fumar":3389,"ándole":3390,"▁mientra'":3391,"▁dímelo,":3392,"▁fek":3393,"▁volverte":3394,"▁sentido\r\n":3395,"▁peli":3396,"▁cualquiera":3397,"▁necesi":3398,"▁dolor\r\n":3399,"▁dere":3400,"▁baila,":3401,"▁jai":3402,"▁entiende":3403,"▁escenario":3404,"▁alej":3405,"▁duele":3406,"▁rapero\r\n":3407,"▁favor,":3408,"▁represent":3409,"▁bomba":3410,"▁directa":3411,"▁infierno\r\n":3412,"▁explota":3413,"▁hambre":3414,"▁tarima\r\n":3415,"▁azul":3416,"▁canserb":3417,"▁hardcor":3418,"aa":3419,"ao":3420,"bal":3421,"pero":3422,"tando\r\n":3423,"tre\r\n":3424,"ví":3425,"ér":3426,"▁eu":3427,"▁eran":3428,"▁eh-eh\r\n":3429,"▁llo":3430,"▁ya,":3431,"▁nar":3432,"▁quema":3433,"▁deto":3434,"▁decí":3435,"▁há":3436,"▁bro,":3437,"▁concep":3438,"▁gal":3439,"▁gru":3440,"▁papa":3441,"▁to'\r\n":3442,"▁cuad":3443,"dio\r\n":3444,"▁vide":3445,"▁jar":3446,"▁ja\r\n":3447,"il\r\n":3448,"tran":3449,"▁vay":3450,"▁pow":3451,"▁podés":3452,"▁tanto\r\n":3453,"▁can\r\n":3454,"▁imper":3455,"▁bardero":3456,"▁vuelve,":3457,"▁pensar\r\n":3458,"▁frente\r\n":3459,"▁escribir":3460,"▁cuenta\r\n":3461,"▁juego,":3462,"▁chain\r\n":3463,"▁clap":3464,"▁inspi":3465,"▁gato":3466,"▁regres":3467,"▁woh\r\n":3468,"▁má',":3469,"▁culpa\r\n":3470,"▁chicos":3471,"▁tres\r\n":3472,"▁nosotro":3473,"▁brillar":3474,"▁llevar":3475,"▁estrella":3476,"▁girl\r\n":3477,"▁amigo\r\n":3478,"▁ñen":3479,"h-yea":3480,"▁versos":3481,"▁¿sab":3482,"▁tenemo'":3483,"egu":3484,"gos\r\n":3485,"jos\r\n":3486,"ly,":3487,"n\r\n":3488,"▁mero":3489,"▁sna":3490,"▁cero\r\n":3491,"▁do'":3492,"▁dev":3493,"▁eno":3494,"▁mita":3495,"▁miam":3496,"tado\r\n":3497,"▁log":3498,"▁tele":3499,"ama":3500,"▁compi":3501,"▁combo":3502,"▁ola":3503,"chu":3504,"▁toca\r\n":3505,"▁pararme":3506,"usti":3507,"▁imi":3508,"▁rece":3509,"▁tiren":3510,"▁mato\r\n":3511,"gado":3512,"▁traje\r\n":3513,"▁pasa\r\n":3514,"▁pibe":3515,"cer,":3516,"▁gané":3517,"▁mala\r\n":3518,"tero\r\n":3519,"▁crey":3520,"▁prr\r\n":3521,"▁'tán":3522,"▁don\r\n":3523,"▁volando":3524,"▁complica":3525,"encia,":3526,"▁llaman":3527,"▁callej":3528,"▁duro,":3529,"▁facil":3530,"▁espera":3531,"▁mundi":3532,"▁cambia":3533,"eron\r\n":3534,"▁bang,":3535,"▁21":3536,"▁wow,":3537,"▁tranquilo,":3538,"▁momento\r\n":3539,"▁estudio":3540,"▁agarre":3541,"▁drama\r\n":3542,"▁elegan":3543,"▁bull":3544,"▁cruz":3545,"▁blunt\r\n":3546,"▁horas\r\n":3547,"▁viaje":3548,"▁concierto":3549,"▁campeón":3550,"▁déjà":3551,"▁traicion":3552,"▁ñer":3553,"▁uh-uh-":3554,"▁descans":3555,"▁cerebro":3556,"▁convien":3557,"▁ignor":3558,"ada":3559,"ada\r\n":3560,"her":3561,"na\r\n":3562,"pable":3563,"rí":3564,"tón":3565,"▁eras":3566,"▁lento":3567,"▁tes":3568,"▁den":3569,"▁abre":3570,"aste\r\n":3571,"▁nova":3572,"▁conec":3573,"▁sepa":3574,"▁haci":3575,"cie":3576,"▁g\r\n":3577,"▁gon":3578,"▁todos\r\n":3579,"dez\r\n":3580,"▁reí":3581,"ol\r\n":3582,"▁ley,":3583,"▁jos":3584,"▁ja,":3585,"ismo\r\n":3586,"▁descar":3587,"▁maes":3588,"▁caigo":3589,"▁pero\r\n":3590,"▁estai":3591,"▁rar":3592,"▁rif":3593,"▁rim":3594,"▁rimar":3595,"▁poquito":3596,"▁asegu":3597,"▁gang,":3598,"▁mand":3599,"▁manos\r\n":3600,"▁uu":3601,"▁dejé":3602,"▁ponga":3603,"▁montón\r\n":3604,"tale":3605,"▁perdón\r\n":3606,"▁acá,":3607,"▁acá\r\n":3608,"ten\r\n":3609,"▁tomando":3610,"▁trapper":3611,"▁terr":3612,"▁finde\r\n":3613,"▁pesar":3614,"▁grati":3615,"▁bebé":3616,"▁gira":3617,"▁interi":3618,"▁fuerza":3619,"▁keep":3620,"▁necesito\r\n":3621,"▁dolor":3622,"▁espal":3623,"h-eh-eh\r\n":3624,"▁know,":3625,"▁aparte":3626,"▁dijo,":3627,"▁aprendí":3628,"▁dueño":3629,"▁eleg":3630,"▁ofre":3631,"▁lista":3632,"▁drippin'":3633,"▁okey,":3634,"▁cristal":3635,"ttle":3636,"▁mamaci":3637,"▁historia":3638,"▁gelato,":3639,"▁cámar":3640,"▁cuarto":3641,"▁hitboy":3642,"▁-ína,":3643,"▁película":3644,"▁fortni":3645,"-lo":3646,"cal":3647,"cas\r\n":3648,"gas,":3649,"ión,":3650,"ría\r\n":3651,"ud":3652,"uh!\r\n":3653,"yec":3654,"▁0":3655,"▁muestro":3656,"▁pana":3657,"▁lápi":3658,"▁cir":3659,"▁tab":3660,"▁aga":3661,"▁ama":3662,"▁queri":3663,"▁quede":3664,"ese":3665,"remos":3666,"cia,":3667,"▁estar\r\n":3668,"▁reti":3669,"dida":3670,"▁sufici":3671,"▁perro":3672,"▁persi":3673,"▁trato":3674,"▁quiera\r\n":3675,"▁rí":3676,"▁río":3677,"▁pica":3678,"▁rico\r\n":3679,"▁pocos":3680,"▁ganar,":3681,"▁hier":3682,"▁entero":3683,"▁arte\r\n":3684,"llos":3685,"▁pedir":3686,"▁actu":3687,"▁ua":3688,"▁prue":3689,"▁canción":3690,"▁bienven":3691,"▁mov":3692,"▁impres":3693,"▁resto":3694,"▁falso":3695,"▁mirada\r\n":3696,"▁pal'":3697,"▁marca":3698,"▁marad":3699,"▁pista\r\n":3700,"▁olvido\r\n":3701,"ándote":3702,"▁corazón,":3703,"▁quedarme":3704,"▁entendi":3705,"▁diablo,":3706,"▁mentira":3707,"▁ninguna":3708,"▁nosotr":3709,"▁minuto":3710,"▁trabajo\r\n":3711,"▁constr":3712,"▁feliz\r\n":3713,"▁hicimos":3714,"▁posi":3715,"▁bomb":3716,"▁cuidado":3717,"▁invent":3718,"▁oscuri":3719,"▁salamandra\r\n":3720,"▁amanecer\r\n":3721,"▁sincero\r\n":3722,"▁lluvia":3723,"-na-na\r\n":3724,"▁detrás":3725,"▁imposible":3726,"-i":3727,"don":3728,"lla,":3729,"pa,":3730,"á'":3731,"▁á":3732,"▁sam":3733,"▁lento,":3734,"▁av":3735,"▁nana":3736,"▁esco":3737,"▁enga":3738,"▁fran":3739,"▁fues":3740,"oma\r\n":3741,"▁sienta":3742,"▁conten":3743,"▁game\r\n":3744,"▁pau":3745,"▁país":3746,"▁top":3747,"▁quise":3748,"cel":3749,"▁ice\r\n":3750,"▁desas":3751,"▁matando":3752,"▁sabor":3753,"▁sabe,":3754,"▁perra\r\n":3755,"▁wal":3756,"▁verte\r\n":3757,"▁quieran":3758,"▁asus":3759,"▁amar\r\n":3760,"▁vendo":3761,"▁gano\r\n":3762,"▁entera\r\n":3763,"▁son\r\n":3764,"llas":3765,"dose":3766,"▁malo\r\n":3767,"▁calor":3768,"▁haya":3769,"▁up\r\n":3770,"▁qué\r\n":3771,"▁rott":3772,"▁can,":3773,"▁hace\r\n":3774,"▁moja":3775,"▁resis":3776,"os,\r\n":3777,"▁precio":3778,"▁casa,":3779,"▁volar":3780,"eza,":3781,"▁abra":3782,"▁tomé":3783,"▁primera\r\n":3784,"▁peso":3785,"▁negro\r\n":3786,"▁mil\r\n":3787,"▁miles":3788,"▁bles":3789,"▁ustede'":3790,"▁clav":3791,"▁tatu":3792,"▁tonto":3793,"▁hip-ho":3794,"▁poder\r\n":3795,"▁basta":3796,"▁dollar,":3797,"▁hander":3798,"▁bron":3799,"▁sangre\r\n":3800,"▁quí":3801,"▁apaga":3802,"▁gasto":3803,"▁trash,":3804,"▁desay":3805,"▁mirar\r\n":3806,"▁arreba":3807,"▁duko":3808,"▁hubi":3809,"▁última":3810,"▁causa":3811,"____":3812,"▁imagin":3813,"▁asesin":3814,"▁permanent,":3815,"▁música,":3816,"▁hacía":3817,"▁carrera":3818,"▁pueblo":3819,"▁nervi":3820,")\r\n":3821,"cn":3822,"dien":3823,"gen":3824,"ja,":3825,"lam":3826,"ína":3827,"▁(":3828,"▁mué":3829,"▁plas":3830,"uela,":3831,"▁cra":3832,"▁encer":3833,"▁by":3834,"▁blow":3835,"▁bir":3836,"▁fo\r\n":3837,"▁sic":3838,"cir":3839,"▁oportun":3840,"▁tení":3841,"▁repi":3842,"entos\r\n":3843,"▁ma'\r\n":3844,"▁sabiendo":3845,"▁cach":3846,"▁pa'ca\r\n":3847,"vio":3848,"▁anti":3849,"dad,":3850,"▁rimo":3851,"▁rima,":3852,"▁poes":3853,"▁ganas\r\n":3854,"▁llan":3855,"▁kil":3856,"▁hablen":3857,"▁prote":3858,"▁dice\r\n":3859,"▁frío":3860,"▁mueren":3861,"▁down":3862,"et,":3863,"▁fies":3864,"▁rimas,":3865,"▁wacho,":3866,"▁tenerte":3867,"▁encontra":3868,"▁millón\r\n":3869,"lico\r\n":3870,"▁kelo":3871,"bajo":3872,"▁mentira\r\n":3873,"▁llena":3874,"▁revien":3875,"▁escena":3876,"▁draco,":3877,"▁viviendo":3878,"▁incl":3879,"▁aguanto":3880,"▁razón":3881,"▁prisión\r\n":3882,"▁competir":3883,"▁familia\r\n":3884,"▁cadena":3885,"▁frases":3886,"▁mantengo":3887,"▁fracas":3888,"▁estrellas\r\n":3889,"▁suerte":3890,"▁directamente":3891,"▁snap":3892,"▁fuese":3893,"▁rottwe":3894,"-u":3895,"bres":3896,"dd":3897,"gü":3898,"i'":3899,"itos":3900,"iones":3901,"jas\r\n":3902,"é'":3903,"▁és":3904,"▁sana":3905,"▁sensa":3906,"▁lla":3907,"▁dó":3908,"▁yan":3909,"▁vámon":3910,"▁lamb":3911,"▁hel":3912,"rame,":3913,"▁loca,":3914,"▁seas":3915,"▁otras":3916,"▁para\r\n":3917,"tita":3918,"▁letra":3919,"▁lejos":3920,"▁level":3921,"▁natur":3922,"▁tengo,":3923,"▁rato\r\n":3924,"▁sole":3925,"▁pied":3926,"▁escal":3927,"▁escuela":3928,"▁veneno\r\n":3929,"▁hig":3930,"▁qué,":3931,"▁pros":3932,"▁dejes":3933,"▁pones":3934,"▁boom":3935,"▁juz":3936,"▁caso":3937,"▁apoy":3938,"▁hop\r\n":3939,"▁bee":3940,"▁muero\r\n":3941,"▁aquí,":3942,"▁recono":3943,"▁fuckin'":3944,"▁clava":3945,"▁200":3946,"▁arriba,":3947,"dora\r\n":3948,"▁presum":3949,"▁demoni":3950,"▁entender\r\n":3951,"▁juntos":3952,"▁poli":3953,"▁merce":3954,"▁llegué":3955,"▁cheque":3956,"▁subiendo":3957,"▁defiendo":3958,"▁robar":3959,"▁obvio":3960,"▁represento":3961,"▁plu":3962,"▁personas":3963,"▁olvidar\r\n":3964,"-na-na":3965,"▁algunos":3966,"▁duermo":3967,"▁embar":3968,"▁música\r\n":3969,"▁silencio":3970,"▁púr":3971,"▁empiezo":3972,"▁dientes":3973,"▁bandol":3974,"▁¿cuán":3975,"▁desnu":3976,"▁uh-uh-uh\r\n":3977,"-wo":3978,"a',":3979,"cas,":3980,"diente":3981,"ger":3982,"id":3983,"ia,":3984,"pel":3985,"▁ee":3986,"▁eas":3987,"▁pá":3988,"▁stu":3989,"▁ater":3990,"▁nu":3991,"▁debajo":3992,"▁hen":3993,"▁hora\r\n":3994,"▁enca":3995,"ines":3996,"rate":3997,"▁uno\r\n":3998,"▁siete":3999,"▁contr":4000,"rou":4001,"▁sean":4002,"cias\r\n":4003,"▁dios,":4004,"▁dieron":4005,"che,":4006,"▁toco":4007,"use":4008,"▁lebr":4009,"▁soy,":4010,"▁tire":4011,"▁tick":4012,"▁maqu":4013,"▁ino":4014,"▁cag":4015,"▁estabas":4016,"▁char":4017,"▁pies":4018,"▁poco\r\n":4019,"▁podemos":4020,"bia":4021,"▁carro":4022,"▁vendiendo":4023,"▁pure":4024,"▁pea":4025,"▁coc":4026,"▁ubi":4027,"▁roto":4028,"uestra":4029,"▁nunca\r\n":4030,"▁disco\r\n":4031,"▁luces":4032,"▁jug":4033,"▁apre":4034,"▁montan":4035,"▁dur":4036,"▁maric":4037,"▁mejores\r\n":4038,"▁hermanos":4039,"▁abur":4040,"▁empa":4041,"▁cuento\r\n":4042,"gaste":4043,"▁días\r\n":4044,"▁andan":4045,"▁nene\r\n":4046,"▁freestyl":4047,"▁15":4048,"▁grande\r\n":4049,"▁pelo\r\n":4050,"▁dembo":4051,"▁punch":4052,"▁cabrón,":4053,"▁kelow":4054,"▁bitches":4055,"▁seguimos":4056,"▁única":4057,"▁buscarte\r\n":4058,"▁pinta":4059,"▁piensan":4060,"▁razón\r\n":4061,"▁guardo":4062,"ppin'\r\n":4063,"▁champa":4064,"▁equivoca":4065,"▁esquivo,":4066,"▁uh-uh\r\n":4067,"▁mmm,":4068,"▁hood,":4069,"▁cayendo":4070,"▁profes":4071,"▁ah-ah\r\n":4072,"▁descontro":4073,"▁hotel\r\n":4074,"▁habilidad":4075,"▁pedazo":4076,"▁rép":4077,"▁nosotro'":4078,"▁ñengo":4079,"▁desayun":4080,"imos":4081,"pura":4082,"tero":4083,"zqui":4084,"óg":4085,"▁9":4086,"▁craz":4087,"▁ak":4088,"▁aca":4089,"▁qe":4090,"eran":4091,"▁yendo":4092,"▁debo":4093,"▁var":4094,"▁va\r\n":4095,"one,":4096,"oro\r\n":4097,"▁engan":4098,"▁metal":4099,"▁mire":4100,"▁sigui":4101,"▁conquis":4102,"▁hagan":4103,"▁g'":4104,"▁país\r\n":4105,"▁tuya":4106,"▁alas\r\n":4107,"▁alum":4108,"tico\r\n":4109,"▁cuál":4110,"▁idio":4111,"entes\r\n":4112,"▁supues":4113,"▁caí":4114,"▁deli":4115,"el\r\n":4116,"▁trae":4117,"▁pasó\r\n":4118,"▁voy,":4119,"▁¿de":4120,"▁amo":4121,"▁ganarme":4122,"▁serio,":4123,"▁arm":4124,"pado":4125,"uelo\r\n":4126,"▁man\r\n":4127,"▁solo,":4128,"▁malo,":4129,"▁coj":4130,"aria":4131,"▁roba":4132,"▁prom":4133,"ras,":4134,"▁excus":4135,"▁hacerme":4136,"▁hacerlo,":4137,"▁sacando":4138,"▁discul":4139,"▁todos,":4140,"▁babe,":4141,"▁cigar":4142,"▁hoy,":4143,"▁men\r\n":4144,"▁placa":4145,"▁plata\r\n":4146,"▁beat\r\n":4147,"▁pensé":4148,"▁pensam":4149,"▁dog":4150,"▁free":4151,"▁suene":4152,"▁él,":4153,"▁zor":4154,"▁clap,":4155,"▁talento\r\n":4156,"▁triun":4157,"▁nigga,":4158,"▁disparo":4159,"▁alemán":4160,"▁jefe":4161,"▁caminando":4162,"▁terminar":4163,"▁horas":4164,"▁rompe\r\n":4165,"▁rompe,":4166,"▁bols":4167,"▁xana":4168,"▁house\r\n":4169,"▁ilus":4170,"▁boy\r\n":4171,"▁erre":4172,"▁swing\r\n":4173,"▁undergro":4174,"▁fashion\r\n":4175,"▁púrpura":4176,"▁aterri":4177,"'o,":4178,"cé":4179,"con":4180,"ds":4181,"dal":4182,"ias":4183,"n,":4184,"pre":4185,"sy\r\n":4186,"tor\r\n":4187,"vas":4188,"vin":4189,"z,":4190,"▁edu":4191,"▁lil":4192,"▁dre":4193,"▁y,":4194,"▁nor":4195,"▁quemar":4196,"▁huy":4197,"▁encar":4198,"und\r\n":4199,"▁mio":4200,"in'\r\n":4201,"▁famos":4202,"▁siste":4203,"▁diver":4204,"abas":4205,"aba,":4206,"▁estés":4207,"▁tengas":4208,"tido":4209,"▁culo\r\n":4210,"▁caf":4211,"▁caen":4212,"▁cacer":4213,"▁niñ":4214,"▁pastilla":4215,"▁multi":4216,"▁vaci":4217,"▁rue":4218,"▁está'":4219,"▁entera":4220,"▁llám":4221,"▁camina":4222,"▁camara":4223,"▁colo":4224,"ter,":4225,"▁creer\r\n":4226,"énde":4227,"▁discu":4228,"h-ah\r\n":4229,"▁hoy\r\n":4230,"▁mencion":4231,"renal":4232,"▁compré":4233,"▁mara":4234,"▁flores":4235,"▁terri":4236,"▁fin\r\n":4237,"▁negra":4238,"▁jodi":4239,"▁¡a":4240,"▁improvisar":4241,"▁cerve":4242,"▁despué'":4243,"ín,":4244,"▁sueñ":4245,"▁gatas":4246,"▁problema\r\n":4247,"▁millones":4248,"▁interna":4249,"▁pena\r\n":4250,"▁adrenal":4251,"▁base":4252,"▁fueron":4253,"▁cintur":4254,"▁derra":4255,"▁ritmos":4256,"▁persona":4257,"miento":4258,"▁trabajo":4259,"▁salida\r\n":4260,"▁molly,":4261,"▁trueno\r\n":4262,"▁desapar":4263,"▁house":4264,"▁rápido,":4265,"▁especi":4266,"▁gelato":4267,"▁frontearle":4268,"▁prrrum!!":4269,"▁quedaste":4270,"▁propia":4271,"▁púb":4272,"▁sorpren":4273,"▁volvió":4274,"▁remix":4275,"▁warri":4276,"▁habitación\r\n":4277,"▁técn":4278,"▁aprove":4279,"a'\r\n":4280,"brar":4281,"ea\r\n":4282,"los\r\n":4283,"lar\r\n":4284,"les\r\n":4285,"tás":4286,"ual":4287,"ys":4288,"ábamos":4289,"▁eva":4290,"▁pab":4291,"▁sp":4292,"▁dru":4293,"▁avan":4294,"erto\r\n":4295,"▁nú":4296,"▁deber":4297,"una\r\n":4298,"▁bha":4299,"reí":4300,"▁mina":4301,"tada":4302,"▁loc":4303,"da'\r\n":4304,"▁sec":4305,"▁porro":4306,"▁comiendo":4307,"▁comer\r\n":4308,"▁dia":4309,"▁paca":4310,"▁tuc":4311,"▁estr":4312,"▁alim":4313,"ce'\r\n":4314,"▁cuch":4315,"▁repe":4316,"▁jal":4317,"▁esto'":4318,"entes":4319,"▁supi":4320,"▁matan":4321,"▁make":4322,"▁niños":4323,"▁tratando":4324,"▁paste":4325,"▁ang":4326,"▁mío,":4327,"▁entero\r\n":4328,"▁cocin":4329,"▁cobar":4330,"taron":4331,"▁ka":4332,"▁kar":4333,"▁kill":4334,"▁cana,":4335,"ta,\r\n":4336,"▁say":4337,"▁liri":4338,"▁ponte":4339,"ruga":4340,"ezco\r\n":4341,"▁gobi":4342,"▁saben,":4343,"▁factu":4344,"▁empec":4345,"▁querí":4346,"jate":4347,"▁guacho":4348,"▁suenan":4349,"▁suspi":4350,"a'o,":4351,"▁wacha":4352,"dor,":4353,"▁gavio":4354,"▁gritar":4355,"▁allá\r\n":4356,"▁au-a":4357,"▁adver":4358,"▁basura\r\n":4359,"▁perdido\r\n":4360,"▁estuve":4361,"▁llorar":4362,"▁shit,":4363,"▁comparto":4364,"▁girl":4365,"▁amigos\r\n":4366,"▁rocks":4367,"▁chance\r\n":4368,"▁áni":4369,"▁ocul":4370,"▁volví":4371,"▁volviendo":4372,"▁imagina":4373,"▁maldito":4374,"▁mental":4375,"▁bella":4376,"▁rebota,":4377,"▁jajaj":4378,"▁botella":4379,"▁caiga":4380,"▁cumplir":4381,"▁acompañ":4382,"▁negoci":4383,"▁stig":4384,"▁worl":4385,"güen":4386,"▁bhavi":4387,"-li":4388,"ah,":4389,"bor":4390,"cero":4391,"car\r\n":4392,"cto,":4393,"eo":4394,"eo\r\n":4395,"gía\r\n":4396,"ito,":4397,"llo,":4398,"mon":4399,"ry":4400,"tres":4401,"tencia\r\n":4402,"ácti":4403,"▁darme":4404,"eren":4405,"▁esf":4406,"anos\r\n":4407,"▁de\r\n":4408,"▁dedo":4409,"▁depor":4410,"▁nota\r\n":4411,"teo":4412,"▁tec":4413,"▁contin":4414,"▁gall":4415,"▁coment":4416,"▁diario\r\n":4417,"▁quiso":4418,"tivo\r\n":4419,"▁recu":4420,"ista":4421,"▁mafi":4422,"▁sabía":4423,"▁sabes,":4424,"▁cacha":4425,"▁sopor":4426,"▁socio":4427,"▁vergüen":4428,"▁vece'":4429,"▁trajo":4430,"▁pasando":4431,"▁pasión\r\n":4432,"▁run,":4433,"uma\r\n":4434,"pe,":4435,"▁míos":4436,"▁polo":4437,"▁amena":4438,"▁cargo":4439,"▁vengas":4440,"▁gans":4441,"▁gano,":4442,"▁pub":4443,"▁acción\r\n":4444,"▁acaba":4445,"▁camis":4446,"▁malos":4447,"▁calma\r\n":4448,"dero\r\n":4449,"tura,":4450,"▁pron":4451,"▁prr,":4452,"▁clan":4453,"▁moda":4454,"ver\r\n":4455,"fit":4456,"▁placer":4457,"▁vienes":4458,"▁vas,":4459,"▁you\r\n":4460,"ador\r\n":4461,"▁face\r\n":4462,"▁free\r\n":4463,"▁estás\r\n":4464,"▁explico":4465,"▁conocer":4466,"▁¡w":4467,"▁feo\r\n":4468,"▁vocab":4469,"▁humo\r\n":4470,"▁importa\r\n":4471,"▁tranquili":4472,"lica\r\n":4473,"▁papi\r\n":4474,"▁estuvi":4475,"▁tirado":4476,"▁broth":4477,"▁brillando":4478,"▁simple\r\n":4479,"▁recuerda":4480,"▁jef":4481,"▁andaba":4482,"▁caminar":4483,"▁camino\r\n":4484,"▁blanco":4485,"▁perdóname":4486,"▁puerta":4487,"▁tempo\r\n":4488,"▁drippin',":4489,"▁clase":4490,"▁¿quer":4491,"▁house,":4492,"▁microph":4493,"▁luna\r\n":4494,"▁jaja\r\n":4495,"▁felicidad":4496,"▁cazz":4497,"▁funeral\r\n":4498,"▁libertad\r\n":4499,"▁experien":4500,"▁acelera":4501,"▁simón":4502,"▁euro":4503,"-,":4504,"0\r\n":4505,"cía":4506,"can\r\n":4507,"ece\r\n":4508,"gres":4509,"gues":4510,"so,":4511,"í,":4512,"▁ár":4513,"▁món":4514,"▁pa\r\n":4515,"▁sá":4516,"▁cle":4517,"▁dora":4518,"▁a\r\n":4519,"▁españ":4520,"▁deton":4521,"▁ve\r\n":4522,"ones,":4523,"▁ladr":4524,"▁hol":4525,"eso":4526,"unk":4527,"▁bar\r\n":4528,"rado":4529,"▁fen":4530,"▁fru":4531,"▁feste":4532,"▁loo":4533,"▁comen":4534,"▁divi":4535,"▁ojer":4536,"▁paga":4537,"▁estando":4538,"▁aler":4539,"▁alma\r\n":4540,"▁cuándo":4541,"▁iden":4542,"▁it,":4543,"▁yah":4544,"▁supo":4545,"▁nah\r\n":4546,"▁madri":4547,"▁indi":4548,"▁caer,":4549,"▁wos":4550,"▁ani":4551,"▁antes\r\n":4552,"▁¿para":4553,"▁pique":4554,"▁piola\r\n":4555,"▁ven\r\n":4556,"▁vender":4557,"▁sonr":4558,"▁llora":4559,"▁cama,":4560,"▁copa":4561,"▁kh":4562,"▁kus":4563,"▁crees":4564,"▁crecí":4565,"▁prín":4566,"▁limi":4567,"▁mode":4568,"▁luce":4569,"▁falta\r\n":4570,"cara":4571,"fica":4572,"▁mons":4573,"▁llamar":4574,"▁vaso":4575,"▁ola\r\n":4576,"▁dura":4577,"▁sabemos":4578,"as,\r\n":4579,"▁rompi":4580,"▁frío\r\n":4581,"▁form":4582,"▁oro,":4583,"ándome\r\n":4584,"▁realmente":4585,"▁realidad\r\n":4586,"▁negros":4587,"▁conozco":4588,"▁¡dí":4589,"▁humo,":4590,"▁escuchan":4591,"▁sueño,":4592,"▁matarnos":4593,"▁grandes":4594,"▁visto\r\n":4595,"▁demuestro":4596,"▁tranquilo\r\n":4597,"▁admi":4598,"▁máqu":4599,"▁fuerte\r\n":4600,"▁mentir":4601,"▁huevos\r\n":4602,"-ay":4603,"▁mesa":4604,"▁contigo,":4605,"▁aprender":4606,"▁plane":4607,"▁consum":4608,"▁funcion":4609,"▁mirá":4610,"▁control\r\n":4611,"▁amiga":4612,"▁conciencia\r\n":4613,"▁piel\r\n":4614,"▁explicar":4615,"▁deseo":4616,"▁atrás\r\n":4617,"▁perfecto\r\n":4618,"▁transpi":4619,"▁debes":4620,"▁interesa":4621,"-pro":4622,"▁feeling":4623,"▁caliente\r\n":4624,"▁carajo":4625,"▁zapa":4626,"▁sorpres":4627,"▁madruga":4628,"▁destruy":4629,"▁ahora,":4630,"▁envuel":4631,"▁próxi":4632,"▁conex":4633,"▁riquel":4634,"▁correr":4635,"▁sport\r\n":4636,"▁mamacita,":4637,"▁impresion":4638,"▁punchl":4639,"▁identi":4640,"▁prínci":4641,"▁¡dímelo":4642,"came":4643,"dan\r\n":4644,"guen":4645,"ip":4646,"ite":4647,"iza\r\n":4648,"men":4649,"ment":4650,"zan":4651,"éf":4652,"ós":4653,"▁edi":4654,"▁mera":4655,"▁ps":4656,"▁ador":4657,"eras\r\n":4658,"eric":4659,"anos":4660,"antes\r\n":4661,"▁deu":4662,"▁noque":4663,"▁bloque":4664,"ala\r\n":4665,"▁fis":4666,"to'":4667,"▁lot":4668,"▁uno,":4669,"▁compa":4670,"▁estres":4671,"▁estén":4672,"▁parar\r\n":4673,"▁cule":4674,"▁imán":4675,"cación":4676,"catri":4677,"▁inse":4678,"▁cagar":4679,"▁vete":4680,"▁puedo\r\n":4681,"▁vayas":4682,"▁estoy\r\n":4683,"▁rima\r\n":4684,"e,\r\n":4685,"▁ganan":4686,"▁pecho\r\n":4687,"▁acor":4688,"▁llego,":4689,"▁maldades":4690,"▁calor\r\n":4691,"▁cojo":4692,"▁sai":4693,"▁saque":4694,"▁saqué":4695,"taste":4696,"▁pongan":4697,"▁fue\r\n":4698,"▁bobo":4699,"▁cicatri":4700,"▁apla":4701,"te,\r\n":4702,"▁costum":4703,"▁mejor,":4704,"▁decidi":4705,"▁rapear\r\n":4706,"▁face":4707,"▁esperar,":4708,"▁gustan":4709,"▁olvida":4710,"▁juega":4711,"▁guach":4712,"▁suena\r\n":4713,"▁quienes":4714,"▁gigan":4715,"▁obje":4716,"▁bailar\r\n":4717,"▁100":4718,"▁tarado\r\n":4719,"▁wow\r\n":4720,"▁ball":4721,"▁pegao'":4722,"▁vo'a":4723,"▁ritmo,":4724,"▁la'o\r\n":4725,"▁aleg":4726,"▁mujer,":4727,"▁diferente":4728,"▁representa":4729,"▁escribo\r\n":4730,"▁dormir":4731,"▁ready\r\n":4732,"▁arrep":4733,"▁arregl":4734,"▁tempran":4735,"▁bolu":4736,"▁campeón\r\n":4737,"▁cierro":4738,"▁futuro\r\n":4739,"▁cumple":4740,"▁trein":4741,"▁reyes":4742,"▁atenci":4743,"-e-e\r\n":4744,"▁outfit":4745,"▁diamante":4746,"▁consigo\r\n":4747,"▁lengu":4748,"▁motherfucker":4749,"▁enfrente":4750,"▁univer":4751,"▁lamenta":4752,"▁codeína":4753,"▁energía":4754,"▁zigzag,":4755,"▁magia":4756,"▁teléf":4757,"▁resulta":4758,"▁imperio":4759,"▁inclus":4760,"▁hennes":4761,"▁internacion":4762,"▁ojeras":4763,"bando":4764,"bra\r\n":4765,"ccion":4766,"emb":4767,"hh\r\n":4768,"ker\r\n":4769,"nab":4770,"ny\r\n":4771,"pes":4772,"uri":4773,"ór":4774,"▁mar\r\n":4775,"▁puen":4776,"▁scho":4777,"▁dense":4778,"▁na\r\n":4779,"▁name\r\n":4780,"▁nananau,n":4781,"▁quemo":4782,"osa":4783,"▁huel":4784,"▁metas":4785,"▁meten":4786,"▁metiendo":4787,"▁miren":4788,"inas\r\n":4789,"▁fo,":4790,"tamente":4791,"▁temo":4792,"▁conc":4793,"▁conven":4794,"▁contar\r\n":4795,"▁sed":4796,"cido\r\n":4797,"▁gue":4798,"la-lo":4799,"▁tuvi":4800,"ch\r\n":4801,"▁estri":4802,"tico":4803,"▁ir\r\n":4804,"▁rebel":4805,"▁letal":4806,"▁desen":4807,"▁race":4808,"▁ini":4809,"▁delante":4810,"▁perde":4811,"ell":4812,"▁tratar":4813,"▁ansi":4814,"▁¿te":4815,"▁pop":4816,"▁saliendo":4817,"▁carn":4818,"▁caro":4819,"▁caro\r\n":4820,"▁carne":4821,"▁venta":4822,"▁peque":4823,"▁peca":4824,"▁pecho":4825,"▁pedí":4826,"pera":4827,"▁llue":4828,"▁male":4829,"▁malas":4830,"▁cali":4831,"▁crea":4832,"▁qué?\r\n":4833,"▁roto\r\n":4834,"▁cantar":4835,"▁bad":4836,"▁rapero,":4837,"▁hacemo'":4838,"▁little":4839,"▁hear":4840,"▁impa":4841,"ir\r\n":4842,"▁sol,":4843,"▁bajando":4844,"▁aplas":4845,"▁plaza\r\n":4846,"▁bebi":4847,"▁llamarte":4848,"▁escup":4849,"▁dul":4850,"▁vuelo\r\n":4851,"▁decile":4852,"▁espera\r\n":4853,"▁mundo,":4854,"amo'\r\n":4855,"▁they":4856,"▁despues":4857,"▁final\r\n":4858,"▁nena\r\n":4859,"▁él\r\n":4860,"a'o":4861,"▁volver,":4862,"▁bang\r\n":4863,"▁colch":4864,"▁colombi":4865,"▁haciendo,":4866,"▁suelo\r\n":4867,"▁sueño\r\n":4868,"▁take":4869,"▁pana\r\n":4870,"▁mataron":4871,"▁allá,":4872,"▁pendiente":4873,"▁encontré":4874,"▁bala":4875,"▁espan":4876,"▁broke":4877,"▁¿como":4878,"▁entienden":4879,"▁revolu":4880,"▁planeta":4881,"▁medioc":4882,"▁hicieron":4883,"▁diferente\r\n":4884,"▁sufre":4885,"▁aires":4886,"▁borra":4887,"▁listo":4888,"▁puerto":4889,"▁sacarme":4890,"▁duko\r\n":4891,"▁duko,":4892,"▁white":4893,"▁amigo,":4894,"▁esconde":4895,"▁champi":4896,"▁pelea":4897,"▁voz,":4898,"▁genera":4899,"woo":4900,"▁philli":4901,"▁perrea,":4902,"▁error":4903,"▁30":4904,"▁capaz":4905,"▁ante'":4906,"▁goteo\r\n":4907,"▁respirar\r\n":4908,"▁suave":4909,"▁víde":4910,"▁acostumbra":4911,"ananau,nanana":4912,"▁let's":4913,"▁quavo,":4914,"▁khea":4915,"▁saiy":4916,"▁nananau,nananau,nanana":4917,"!,":4918,"bien":4919,"din":4920,"fas":4921,"ka,":4922,"mbo":4923,"oo":4924,"ting":4925,"ven\r\n":4926,"zz":4927,"ñe":4928,"▁sui":4929,"▁cent":4930,"▁testi":4931,"▁aten":4932,"eros":4933,"ons":4934,"▁nota,":4935,"▁lad":4936,"▁bá":4937,"abri":4938,"▁alto\r\n":4939,"▁almo":4940,"▁algo\r\n":4941,"▁tenta":4942,"us\r\n":4943,"▁ice":4944,"▁reco":4945,"cate":4946,"▁victor":4947,"▁jan":4948,"iste\r\n":4949,"ista\r\n":4950,"▁desma":4951,"▁destino":4952,"▁inta":4953,"▁wes":4954,"▁ve,":4955,"▁tratan":4956,"▁quiere,":4957,"▁pidió":4958,"▁está,":4959,"▁ven,":4960,"▁vende":4961,"▁vengo,":4962,"▁soni":4963,"▁acomo":4964,"▁cop":4965,"▁coher":4966,"dera":4967,"▁ko":4968,"ba-":4969,"aria\r\n":4970,"▁dejarte":4971,"▁neur":4972,"▁bac":4973,"▁hace,":4974,"tancia":4975,"▁boca,":4976,"▁furi":4977,"gan\r\n":4978,"▁mueres":4979,"▁muevo":4980,"▁bebo":4981,"▁cabal":4982,"▁tussi":4983,"▁vuelto":4984,"▁nueve":4985,"lante\r\n":4986,"tener":4987,"▁usa":4988,"▁pared\r\n":4989,"▁escribe":4990,"▁fake":4991,"▁dosis":4992,"▁pasa?":4993,"▁chavos":4994,"a'o\r\n":4995,"▁weed":4996,"▁bling":4997,"▁insta":4998,"▁¿qué?\r\n":4999},"merges":["\r \n","▁ e","▁ m","▁ p","u e","▁ s","▁ l","▁ c","▁ t","▁ d","▁ a","▁ q","e r","e n","▁ y","▁ n","▁q ue","▁e s","a n","a r","o s","▁d e","a s","▁ v","o n","o r","d o","▁n o","▁ \r\n","▁l a","▁e l","▁ h","e s","▁e n","u n","a \r\n","o \r\n","▁m e","▁ b","t e","r e","▁m i","a l","i n","r a","▁ f","t a","t o","▁l o","▁ un","▁t e","o m","▁s i","▁c on","▁y o","g o","a m","r o","d a","u i","▁s e","▁p or","▁h a","l o","c i","▁ g","r i","er o","▁c om","an do","o y","l e","i en","▁d i","▁ o","a b","l a","▁p a","▁t u","c h","▁t o","▁q ui","▁es t","▁p ar","o ,","▁l os","m p","▁com o","q ue","d e","▁a l","a ,","c e","▁t en","t i","ó n","▁c u","u s","▁ i","▁ re","h \r\n","d i","▁p ero","á s","c a","o l","▁v i","▁l e","m e","▁ j","h ,","▁es to","▁y a","r es","▁s oy","i s","en t","▁y e","▁t i","e \r\n","▁s u","o '","▁de s","▁n a","▁ten go","▁l as","c o","os \r\n","▁ ra","as \r\n","▁por que","▁par a","en te","▁un a","▁m a","▁s ab","▁ in","e mp","▁c a","ue n","▁de l","▁pa '","ar \r\n","do \r\n","v i","▁p er","▁s o","▁m ás","u é","e l","▁n i","▁es ta","▁c h","i l","ue r","▁ w","▁v er","▁v e","es \r\n","g a","m a","or a","y ,","▁t ra","▁p as","▁a h","t o\r\n","▁qui er","▁m u","▁a n","t r","▁es te","▁p ue","▁v a","▁ r","▁v oy","u m","▁mi s","▁ ¿","í a","▁p i","p i","da d","▁es c","p e","t ra","▁cu ando","▁esto y","▁ha b","c er","a j","▁ ri","te \r\n","y \r\n","▁ye a","▁est á","t a\r\n","▁m í","▁p o","▁a s","▁si emp","▁siemp re","▁a m","d a\r\n","b i","▁s al","m os","? \r\n","▁c ar","▁qui ero","q ui","▁v en","e ,","ón \r\n","▁g an","m o","▁s er","▁s in","▁p u","▁h i","▁to do","▁en t","▁a r","i c","▁s on","l l","' \r\n","▁p e","p a","ue l","▁a c","▁s é","▁t ú","▁l le","d os","p er","▁v os","▁m an","▁l l","▁c am","t ro","▁so lo","▁m al","r an","v e","▁es o","▁c al","▁c o","▁t ien","▁ah ora","d er","▁ha y","t ar","▁ k","c k","b a","▁ u","t er","▁c re","▁t an",". .","é n","▁q ué","v o","á n","g u","▁n os","ar i","t u","to ,","▁ ro","▁p r","▁c l","▁c an","r as","m i","in g","lo w","▁de j","▁e x","▁m am","' ,","ien do","c es","g o\r\n","c u","p ar","▁b ien","▁ha cer","▁el la","▁n e","▁b a","ta ,","▁ '","▁hab l","▁as í","▁b us","am os","▁ra p","▁ha ce","▁s a","▁l i","▁d on","ch o","▁m o","▁c or","en do","▁h e","en s","▁i mp","t as","b re","i r","p o","m an","t an","▁ res","d as","é s","t es","ue s","en to","▁p on","▁b ar","▁f low","g ar","▁n un","v er","z a","▁di s","l i","▁to dos","▁f ue","▁s ol","▁p ro","▁h as","▁b o","s i","os ,","! \r\n","▁yea h\r\n","or \r\n","▁t h","▁b ab","▁nun ca","c en","j o","▁b uen","da ,","▁p re","▁di ce","h -","▁f u","m as","▁c i","▁ha go","lo ,","▁quier e","▁h oy","▁l u","▁tien e","▁f al","d en","▁j u","▁h er","er a","▁m en","g an","▁s h","▁c as","q u","c ar","▁has ta","b o","▁es a","▁ve z","▁v ol","▁mi ra","k e","f i","r a\r\n","r u","r en","▁com p","a do","▁me j","al \r\n","s e","s \r\n","am e","▁ver dad","▁g u","▁b aj","▁a p","▁no ,","▁m on","▁mi er","t os","▁p la","te ,","▁m ue","d es","▁e y,","b le","▁h o","▁yea h,","▁b e","er \r\n","en ci","l o\r\n","t y","▁c os","▁ll am","e z","▁v ien","▁p al","▁na di","▁mam i","▁esc u","▁s í","in a","c a\r\n","ci on","▁ti emp","t \r\n","n o","▁v as","▁cal le","▁ go","t al","▁o l","▁d u","▁c ab","▁to '","▁m ar","ch a","▁mej or","▁sab e","ar me","▁her man","▁no ch","v is","es ,","▁en c","▁tu s","▁a un","an \r\n",". \r\n","as ,","ri m","ente \r\n","▁v uel","▁es e","▁de ci","v a","c o\r\n","ar ,","▁b i","▁si go","▁don de","▁mu y","▁aun que","▁pue do","▁a b","▁n ue","▁vi da","▁s os","▁p ens","▁o tra","í a\r\n","▁per d","r o\r\n","▁p is","▁t am","▁d a","m b","▁yo u","ro ,","ó mo","g un","ando \r\n","▁na da","▁sab en","▁r om","▁sab es","▁f r","▁ra pe","▁ac á","l an","m o'","t en","do ,","ón ,","in o","go ,","▁t om","qu í","▁ us","▁nadi e","▁par e","▁esc ri","▁tra p","an a","▁m uer","▁mier da","▁con mi","u b","ú n","▁a quí","a d","▁f or","▁f a","▁ -","▁d o","j e","é \r\n","▁bar ri","l a\r\n","▁bus c","▁m y","▁es per","▁e y\r\n","▁to da","▁f re","ci ón\r\n","m a\r\n","la ,","▁m as","▁re c","g ui","▁ or","▁est ás","d \r\n","▁e mp","r \r\n","▁d ía","▁p ien","s o","ñ o","▁e res","q ué","v o\r\n","▁que r","▁a h,","▁ven go","▁m un","▁c uen","de \r\n","g a\r\n","▁d os","▁g us","am o'","▁f l","▁th e","ci endo","▁f um","a t","▁quier en","j a","▁l es","▁con tra","▁ex p","i a","er o\r\n","▁des p","▁cam bi","d ar","n a","▁t er","▁ol vi","▁ca da","▁a y","▁p rim","▁pas a","án do","▁fu ck","z \r\n","t or","▁mi ent","▁f in","▁o h,","▁re al","▁v al","ce \r\n","e t","▁m or","▁ye h\r\n","▁si ento","c o,","g as","▁d ro","▁cl ub","▁no \r\n","▁está n","▁vien e","▁ é","▁des de","▁p es","▁ne g","s te","▁g ra","▁cu al","▁est ar","▁g ente","▁pu ta","i dad","▁ent re","▁o tro","r ar","g ue","▁an do","▁c ómo","ci ón","▁di cen","▁t ran","▁car a","▁e h\r\n","▁j ue","b e","▁gu a","▁con o","u l","▁cre o","c an","▁s uen","▁tiemp o","p or","▁s an","▁d ar","▁mu cho","in a\r\n","▁am or","▁e '","▁a h\r\n","▁qui en","▁j o","▁s us","▁ ¡","▁d í","en ti","▁lo '","ro vis","▁imp rovis","▁f e","▁an d","▁n en","▁v o","▁pue s","▁ch a","er on","▁é l","▁c ora","▁v an",", \r\n","e c","▁ z","▁c er","a '","▁w e","j os","▁ \"","▁mi l","▁fre es","i g","▁s om","▁vol ver","▁frees ty","▁w h","en \r\n","▁e h,","▁me di","▁pue de","l os","▁b an","ra ,","▁f i","▁b l","er a\r\n","▁est i","ent o\r\n","▁h um","▁di me","z o","r r","▁noch e","▁ on","▁us te","bi én","t ando","í s","▁i gu","▁c ol","▁ha ciendo","▁escu ch","▁desp ué","▁c la","▁a f","▁ri mas","▁' e","▁d in","▁pa p","▁cora z",".. .\r\n","▁c uer","▁cl ar","▁tam bién","▁s uel","le \r\n","am ente","í n","▁deci r","ó lo","▁mun do","ó \r\n","▁b es","▁s ue","▁ye h,","▁in s","z a\r\n","▁mami ,","▁mient ras","ent ro","▁t a","▁b ri","m o\r\n","v en","▁ 2","▁bab y,","▁w a","▁s ólo","ci l","▁t al","▁mí \r\n","▁ar ri","▁tan to","on \r\n","re \r\n","▁ten er","▁¿ qué","y a","me \r\n","d or","▁que da","▁g a","p p","▁p an","t ,","▁ma tar","i co","▁f ui","▁imp or","▁be b","ón de","▁p res","▁s enti","▁ah í","▁an tes","l la","▁despué s","▁g i","o' \r\n","▁na da\r\n","▁enc on","y o","▁c ri","▁o b","▁pi er","▁ba il","f er","▁ 1","▁t ar","ero ,","▁qui én","▁gus ta","▁t r","▁ve o","as te","▁g ran","i \r\n","▁vi s","▁mu ch","ari o\r\n","▁t on","ar te","▁i r","▁pre gun","▁esti lo","m m","▁pro ble","▁pare ce","d as\r\n","▁p us","▁p el","▁d oy","▁barri o","s ,","t h","t ar\r\n","u r","v el","▁de m","▁g ri","▁mon e","▁al l","c a,","▁e ra","▁t ri","▁en ci","▁hi p","▁igu al","▁to das","d r","le x","▁re g","v e\r\n","i o","▁mi n","▁hi jo","t ch","▁re p","▁w o","▁po der","▁conmi go","▁es os","▁mi ll","▁a gu","▁que d","▁in ter","▁res pe","▁fal ta","t in","▁pal ab","c í","▁p un","▁a u","▁n ues","▁al go","il l","i to","▁g uer","▁p en","in '","é ,","▁pr en","▁sh o","to y","▁tran qui","m ente","▁po co","▁ter m","j er","▁rap ero","▁pien so","▁v amos","tr os","dad \r\n","▁bab y","▁cab r","▁a d","al e","▁sal e","k a","▁mis mo","▁ri ma","c to","on es","ando ,","▁ni g","▁ve ces","▁m om","▁esta mos","▁encon tr","t as\r\n","▁m á","p \r\n","▁d entro","en ta","▁cual qui","▁b as","▁am or\r\n","m a,","w \r\n","or ,","▁' toy","c as","s a","i ta","▁lo co","▁i '","▁ent en","l ic","▁j un","▁cu l","e '","▁f uer","d os\r\n","▁p ol","▁se a","ci a","d u","l \r\n","▁m er","▁vi vo","▁tien en","▁k e","t os\r\n","▁pa pi","▁tu mb","▁ne ces","p ,","▁f am","ab a","▁freesty le","b aj","g a,","▁per di","▁u h,","▁dis par","▁c in","▁d ónde","▁mi c","▁est u","▁dej o","t re","▁ma ñ","▁mí ,","▁sí ,","▁dro ga","c os","d í","u t","▁f lex","m bre","▁herman o","▁men os","▁bi tch","▁d ol","▁un o","▁yo ,","▁quier es","▁d er","▁di ab","t es\r\n","▁h om","▁b al","▁o h\r\n","is te","r os","▁ch ic","i go","▁h an","▁i s","▁pon go","▁mor ir","v an","▁ll or","der \r\n","▁men ti","▁i' m","d ,","▁e h","▁t res","▁n ing","▁h ue","▁y o\r\n","o' ,","r ando","á \r\n","▁e qui","▁d ame","▁a y,","▁es p","▁est os","ce ,","▁so bre","▁cos as","l es","on a","h- e","\" \r\n","▁a gar","▁di go","el i","▁k no","▁dej ar","▁d an","in e","ñ os","▁c ui","▁pr in","▁m ú","▁li ke","▁pe ga","▁habl ar","m os\r\n","or m","▁buen o,","p o,","▁est as","ari o","▁baj o","b a\r\n","▁b r","▁se gui","▁o jos","▁ti ra","▁a par","▁v o'","▁di j","▁pue den","▁llam a","z ar","▁no mbre","▁se ñ","▁vi vi","- a","▁di os","▁ri t","? ,","i ,","v o,","ci o","▁di jo","h- o","ch e","▁lle g","▁ba tal","▁arri ba","an ,","m o,","▁e y","or a\r\n","▁nos o","l as","er n","▁ni vel","m ar","p a\r\n","ñ a","▁b ro","▁ch u","▁ar g","▁ll en","▁o di","▁vi e","▁man o","▁ba i","▁lu z","i a\r\n","il lo","i o\r\n","▁con f","▁j a","▁más \r\n","▁mu cha","▁¿ c","▁ent ien","▁d é","an te","▁la '","▁re v","enci a","▁som os","p o\r\n","or es","in \r\n","▁sal go","' t","b ra","i on","▁ ún","▁cu lo","▁gan ar","▁min u","er ,","▁ch i","▁cas i","e mos","▁in t","▁per s","▁esta ba","▁ch e","▁esc en","▁san g","▁bri ll","▁impor ta","e a","▁s k","▁si mp","▁ti \r\n","tr as","▁yea h","▁cuen ta","t ri","▁m es","▁a le","▁cu a","e lo","u y","▁d ra","▁el los","▁con ti","▁ap ren","e za","j o\r\n","▁d ue","▁a ce","▁bus car","▁ju ro","▁sh i","▁club ,","g \r\n","▁m ente","▁r on","▁gan o","▁tien es","▁enc uen","▁nue vo","d re","m ien","▁a g","▁el e","▁h ar","▁f o","▁su b","▁tra baj","▁mu jer","▁hab la","ing \r\n","▁go l","▁rec uer","u h\r\n","▁ os","▁si gue","▁se gu","▁ti ro","▁lle v","▁busc ando","▁prin ci","▁p lan","un g","w ,","▁ten és","▁j e","▁des pi","tr o\r\n","én do","▁sol amente","▁herman o,","▁v amo'","on o","▁en am","al ,","▁o f","▁lle ga","▁lle vo","▁habl ando","' s","b er","l ar","▁q u","▁b u","▁f res","▁con s","▁ra per","enci a\r\n","▁rec or","▁enci ma","▁f eli","▁vi da\r\n","▁j us","a do\r\n","▁c ien","ch o\r\n","de ,","▁an da","▁sal i","í o","▁ oy","▁c ru","▁mi e","▁i t","▁for ma","c es\r\n","p on","u ,","▁es ca","▁ent on","▁cam in","▁medi o","▁uste des","▁arg ent","▁m ol","▁hi ci","▁ex tra","▁bien \r\n","d iendo","▁de f","▁en se","▁g or","▁est re","▁des c","▁na da,",".. .","▁mue ve","▁suen a","c ando","l ti","r é","▁fa v","ñ o\r\n","an o","an a\r\n","▁ma ta","▁term in","z o\r\n","▁es as","▁yo ung","▁ha cen","▁sé \r\n","▁ro b","▁buen o","▁ob vi","g ,","á ,","▁a pa","▁g as","▁su per","▁dej a","- e","l lo","▁di je","▁di fer","me ,","▁clar o","j a\r\n","▁pas o","▁hi ce","▁bab y\r\n","cion es","▁bl un","▁f un","▁ci u","▁nues tro","' o","p ues","t é","▁car a\r\n","▁u h\r\n","▁rep res","▁tumb ando","f e","n i","▁de mas","▁su f","cer \r\n","▁pu ta,","▁p os","ar on","▁h or","un a","▁vi v","▁mal \r\n","▁emp i","▁ay u","▁jue go","▁p l","▁v es","▁o h","ti r","▁don 't","▁pon e","▁coraz ón","e d","i do","i ón\r\n","▁p in","ch o,","▁al gui","▁vi aj","▁hacer \r\n","▁mom ento","k i","á r","▁t ras","▁escri b","idad \r\n","t y\r\n","▁es qu","▁b om","▁per f","▁cam ino","▁tr uen","v os","▁a i","er to","an d","ás \r\n","▁des a","▁in c","▁fue ra","▁mue ro","▁fum o","ándo me","▁neg ro","í as","▁d or","▁¿ qui","▁cui da","▁pers on","▁c el","▁en tr","▁f ren","▁com e","▁b or","▁hacer lo","▁bo ca","▁m us","▁b lan","▁com par","▁cu an","▁lle gar","▁can s","▁conmi go\r\n","on e","▁di re","▁perd ón","v e,","á pi","▁v os\r\n","▁en vi","▁mi r","▁g ir","▁i ba","▁gan a","▁cas a","▁vez \r\n","▁or o","▁olvi d","▁improvis a","g ar\r\n","i m","▁l is","en to,","as h","on es\r\n","▁est an","▁al ma","▁pa' l","el o\r\n","▁pas e","um ent","▁pien s","▁agu an","▁cua tro","▁con tro","ti ll","▁bien ,","▁din ero","c ti","▁c uel","en ,","▁v am","▁si r","di o","▁le van","▁va ya","▁quiero ,","▁lle go","▁¿c ómo","▁simp le","▁dor mi","▁p uer","ci as","▁re ad","▁in fi","▁pas ó","▁am ig","bi r","▁pens ar","▁quer és","▁af ue","r ó","al a","al es\r\n","ci a\r\n","ci o\r\n","▁par te","▁ar re","▁ro ck","▁ho p","▁rom p","rr um","▁cualqui er","▁b re","▁si g","am e,","▁k i","▁much os","! !\r\n","t á","▁c e","▁la do","▁si ente","▁ra z","▁mal a","▁sang re","pa ñ","arme \r\n","▁nue vo\r\n","▁suel to","▁enton ces","c tu","t ó","an te\r\n","▁no vi","al o","am p","▁g e","▁ya h\r\n","▁pas ar","▁bus ca","▁flow ,","▁senti r","▁algui en","▁d ando","▁b en","▁te mp","▁re ci","▁am ar","▁sa car","▁baj a","▁du k","▁rape ar","▁encontr ar","▁mañ ana","i to\r\n","á g","om o","▁mí o","▁gu ar","▁rom pe","▁wh i","▁palab ras","0 0","u \r\n","v a\r\n","í a,","▁p ri","▁me to","▁am i","pp in","▁gi ve","g ando","m or","t iendo","▁d ri","▁n orm","▁ti er","il le","▁pue des","▁esc on","▁gan as","▁ab aj","▁fr ente","▁hum o","c ta","s y","▁d os\r\n","▁a di","▁h mm","▁com pe","▁ma to","▁ch am","▁ver \r\n","▁quier o\r\n","▁pi de","▁pe le","▁th is","▁cos cu","▁val e","▁ense ñ","- na","m as\r\n","▁que \r\n","▁b ol","▁f á","▁per man","▁w an","▁' ta","és \r\n","▁pla ta","▁toda v","▁vo z","g i","á m","▁m ari","▁a ños","▁de mos","▁si ,","▁con ci","▁ch an","▁sa co","▁esper ando","▁exp lo","▁respe to","▁m c","▁se gun","▁tu yo","me lo","▁sal ir","▁cam pe","▁cos a","▁pis o,","▁escri bo","th er","▁má '","b r","e ta","▁ án","▁no ta","▁sab er","▁hi zo","▁lu gar","▁sh e","cion es\r\n","▁pens ando","▁rape o","▁cuer po","▁fam il","▁dé j","d es\r\n","g ún","▁ x","▁l ue","▁d om","▁de c","al l","▁si endo","▁con ta","▁o ke","▁ch o","▁tra i","▁tra je","▁po dr","▁pe lo","▁ci er","▁mira ,","▁tiemp o\r\n","▁envi di","- n","d an","k \r\n","▁ ú","▁s ent","▁t or","▁h is","▁di gan","▁al gun","a, \r\n","▁ca den","▁pas ado","▁pre fi","▁fá cil","ñ o,","▁d uer","le ,","▁o cu","▁per der","▁hab lo","▁po ca","▁trap ,","▁fum ando","▁nen a","▁cri s","▁mú si","▁segui r","▁ún ico","i ón","▁a que","es ta","am e\r\n","que \r\n","▁vi da,","▁ti ran","▁más ,","▁pi el","▁u o","▁tan ta","▁mami \r\n","▁pis o","h a","m ando","▁d al","▁v iendo","in o\r\n","▁to ca","▁ca pi","▁pi do","▁todo '","▁fu tu","▁nadi e\r\n","▁fr on","▁proble ma","h-e h\r\n","' o\r\n","- b","t on","▁ ñ","▁mi \r\n","▁cu mp","di do","▁in f","▁vis to","▁noso tros","h !\r\n","▁d ale","▁que dar","▁en tra","▁sé ,","▁cre e","▁flow \r\n","▁fue go","▁enc an","▁emp ez","▁pap el","▁vivi r","n os","▁s low","▁l ar","ien te","▁r u","ll a\r\n","▁cl as","ing ,","▁así \r\n","bre \r\n","▁pre par","▁exp lic","▁señ or","c uen","k ,","í \r\n","▁t re","▁des e","▁as i","▁siempre \r\n","▁vol v","▁comp le","▁verdad ,","▁verdad \r\n","▁be at","▁barri o\r\n","▁prim era","b o\r\n","e '\r\n","g ra","▁s or","▁v ino","▁h u","ti s","▁in v","▁habl an","▁pon er","▁herman o\r\n","▁fin al","▁wh at","▁mone y","▁rit mo","▁os cu","c re","e b","t um","▁h am","es ti","▁me te","▁g en","▁g il","▁co pi","▁afue ra","▁ú lti","▁músi ca","b as","c or","h o","an ana","▁b ille","▁re y","ma g","▁¿ que","▁ar ma","ic o\r\n","▁cam a","▁cul pa","▁todav ía","▁demos tr","c in","f r","▁p illo","▁a tr","▁ha ga","ci ón,","▁o j","▁qui si","▁na '\r\n","▁ca p","uel a\r\n","ck \r\n","▁así ,","▁sí \r\n","▁muer te","▁equi vo","▁kno w","▁norm al","▁v ue","▁mi ro","ch a\r\n","▁le y","is \r\n","▁su be","▁in vi","▁ca us","▁¿ y","▁ac ab","▁¿qui én","c tor","d és","j e\r\n","en do\r\n","me lo\r\n","▁ch ico","▁pu to","ic a\r\n","▁cor re","das ,","▁buen o\r\n","▁rom po","▁neg ro,","▁pus e","▁perf ec","_ _","g n","x \r\n","í an","om e","il la","▁hab ía","tu r","h- y","▁ho us","▁tam po","▁quer ía","▁dí as","▁pier do","▁pun to","- o","i ca","i ado","t t","▁ 4","▁v ine","▁f lo","▁i mag","▁tra igo","▁¿ por","▁as es","▁ac uer","▁man os","▁calle ,","m \r\n","ar a","▁con tes","lo que","ri s","▁qui z","▁r os","▁res pon","▁coraz ón\r\n","▁guer ra","▁enam or","w o","al es","▁f ras","▁com er","▁di ga","▁r ápi","▁mal di","▁mam a","▁sa c","▁escu cha","▁vuel vo","▁perd í","▁prim ero","▁sue ño","▁ins tr","- \r\n","f u","z a,","í o\r\n","▁ ,","▁m ent","▁p h","▁a cer","er no","▁h ora","▁j am","▁so ñ","▁ent iendo","▁ro ll","▁he y,","▁vuel ve","▁tran s","▁obvi amente","▁tampo co","c to\r\n","d ri","g h","▁e mb","▁a tra","▁lo ca","ri endo","▁mis mo\r\n","▁club \r\n","▁din ero,","▁shi t\r\n","▁read y","b an","g e","í as\r\n","▁g ui","▁al gún","▁am an","▁pu tas","▁ac ti","li ca","ez a\r\n","▁prim er","▁fuck ing","▁real idad","▁tranqui lo","f a","i ble","▁a tre","▁si l","▁ten emos","ent ar","▁ri cto","▁vuel ta","▁tar de\r\n","▁ning un","▁bai la","▁perman ent","▁his tor","▁t ro","▁a ta","▁es pe","▁es qui","▁si ent","lo '","▁di ez","▁o tros","ti c","▁mam á","▁fu ll","▁tom o","▁conmi go,","▁au to","▁mic ro","▁mú s","▁br in","▁conf un","▁mus ic","m án","t os,","en a","▁de b","▁la do\r\n","▁b el","▁f an","▁lo co,","▁sal u","▁sin o","▁bus co","▁mo vi","▁th at","▁noch e\r\n","▁tom a","▁aquí \r\n","▁do ble","▁cambi o","▁palab ra","▁esp ero","▁cuel lo","▁instr ument","g os","▁m os","▁m ens","▁a ún","▁g ente\r\n","▁di f","▁par ty","▁al can","▁cu án","▁vi o","▁ser á","▁lle va","▁u h","▁sa ca","▁lu z\r\n","▁on e","▁proble mas","▁demas iado","▁dal e,","l as\r\n","r ,","▁es pa","▁en e","▁b ru","▁un os","▁di gas","▁par ar","▁par ti","▁i l","▁ti rar","▁des es","▁pas a,","▁ent er","ter \r\n","▁rap ,","▁buen a","▁sh or","▁flex ,","▁mie do","▁fav or","b u","w e","▁l un","▁que do","▁b oy","▁b um","al i","▁f er","▁con fi","▁o h-o","▁re la","▁re bo","▁na '","ll o\r\n","▁u h-","▁ci e","fi ci","▁comp r","▁reg al","▁inter es","▁ning ún","▁conti go","▁ge la","▁fron te","- p","p e\r\n","t ón\r\n","u ra","y as","▁e r","▁c á","▁que ,","on a\r\n","▁pa z","▁cu ar","▁va i","▁ent ro","▁ci elo\r\n","▁mue re","▁trap p","▁cono ce","▁fe el","▁uste d","k e\r\n","r .","▁a vi","▁no '","in a,","▁lo co\r\n","▁com i","▁di ces","▁per re","▁ver s","▁can to","▁mo do","li co","▁bo o","▁du ro","▁jue go\r\n","▁dar le","▁amor ,","▁pues to","▁cha pi","▁diab lo","▁minu ti","ró f","▁e rr","▁m ando","▁m mm","▁l an","▁a ño","▁es o'","an o\r\n","▁j aj","▁soy \r\n","▁cor ta","▁dis co","▁ci elo","▁col or","▁pap á","▁beb é\r\n","▁gran de","▁nig ga\r\n","▁mer e","▁ciu dad","g ro","l y","p le","▁a t","▁a vis","on i","ra z","▁te ma","▁ha c","▁com b","ien to","▁est ru","▁car r","▁ven ir","▁gan g","cu la","▁mo ther","▁bo te","▁mej or\r\n","▁cin co","▁jus to","▁c ues","en o\r\n","▁ha ter","ch i","▁ye h","il o\r\n","▁u p,","tu ra","ado ,","▁ay er","▁dro ga,","▁hum il","▁all á","▁qued an","-e -","▁deses per","▁estru ctu","- tu","t un","ó ,","▁g ar","▁tu y","res \r\n","ent a\r\n","▁ti po","▁mí a\r\n","▁ac os","▁ro pa","▁he cho","▁fue go\r\n","si ón\r\n","▁dice :","▁hom bre","▁ace p","▁oy e","▁truen o","▁mens aj","! !","p as","w n","▁d ía\r\n","▁cu lo,","▁i de","co h","▁quier a","▁pr rrum","cu l","▁ho o","▁cab eza","▁noch es","▁fl ash","▁cha in","▁despi er","▁lue go","fu ck","m er","▁ 3","▁c ó","▁t in","en d","os o","▁f on","▁si qui","▁se x","▁ha ces","▁di o","▁o ut","▁pa gan","▁ten ga","▁ti r","▁des can","▁ma y","▁vos ,","▁mier da\r\n","▁cuen to","▁gra cias","▁din ero\r\n","▁mic róf","▁recor d",". r.","d or\r\n","k a\r\n","l er","▁t ari","▁a z","▁me \r\n","ci do","▁esto ,","▁su bir","▁sal am","▁hi jos","▁li ber","tes ,","li g","▁noch e,","▁nue v","▁fl or","▁gua po,","▁fui ste","▁mill on","▁vam o","g l","h u","▁s w","▁t oy","▁a de","▁me ,","▁f ir","ien do\r\n","▁di am","▁ten ía","▁ti ,","▁ma dre","▁ah o","▁r um","▁car a,","▁man ten","▁mier da,","▁olvi dar","▁ay er\r\n","▁mone y,","▁encuen tro","▁quiz ás","▁sil enci","▁siqui era","b ar","b ol","e ta\r\n","g el","n e","o cu","s e\r\n","▁t í","▁que das","▁es o,","▁b la","▁par o","▁al coh","▁vi ve","▁pas an","▁pu ro","tar ,","▁lu gar\r\n","▁cer eb","▁segu ro","▁qu in","▁feli ci","▁novi o","f e,","j o,","k er","l ,","t án","u yo","z c","z co","í cil","▁e v","on ,","▁con si","▁ya h,","ent ro\r\n","▁na ',","▁ma ',","▁ah ora\r\n","▁r en","▁¿ s","▁cal ien","▁pr endo","▁comp ren","▁calle \r\n","▁pes a","▁suen o","▁der ri","▁chi ca","▁int ent","▁argent ina","▁simple mente","▁hmm ,","▁dif ícil","▁m é","▁s mo","▁l en","▁c r","▁f ra","ta '","▁con vi","▁con se","▁est é","ti ca\r\n","di r","me lo,","▁ti rando","▁ca z","▁ca pa","▁so la","▁esta mo'","mos ,","▁car aj","ic a,","▁mal o","▁cl ic","▁ex is","▁pro pi","▁vien en","▁to' a","▁gua po","▁fi esta","▁bes o","▁ahí \r\n","▁pus o","▁cabr ón","▁dij eron","▁cuan to","▁mother fuck","▁salam and","▁alcoh ol","j er\r\n","n os\r\n","r as\r\n","▁ za","▁e vi","▁p ú","ue la","▁t ru","▁a qui","en a\r\n","▁en fr","▁si ento\r\n","▁o p","▁pa g","ch a,","que n","▁w uh\r\n","▁pas till","▁mu jer\r\n","▁gan ar\r\n","▁ser io","▁man da","▁habl es","tas ,","ues tro","▁pasa do\r\n","▁dar te","▁nen a,","▁2 0","▁bail ando","▁nig ga","▁batal la","▁estre ll","▁fun er","▁infi erno","b a,","▁m ía","▁l in","ar te\r\n","▁de p","▁me ti","▁b ur","▁mi ran","▁mi rar","▁yo '\r\n","am os\r\n","ab le","di ó","▁vi ol","▁sab és","▁ca i","▁ni e","▁w i","▁an te","▁sa dor","▁pre ocu","▁ju ra","▁her i","▁go t","▁rape ando","▁bail ar","▁much as","▁qued ó","▁sho w","▁chic a,","éndo me","▁wan na","▁aman e","a c","d ando","e p","t al\r\n","▁e ch","an an","▁con tar","da '","▁pa dre","o, \r\n","▁ma '","▁ca e","▁ver te","▁pi e","▁hab er","▁tú ,","ens e","▁fal l","▁ju gar","▁tar de","▁pregun tan","▁cualqui era\r\n","▁flex \r\n","▁agar ro","▁recuer do","▁ciu dad\r\n","▁aque l","▁quisi era","j as","▁d am","an a,","▁b lo","▁f la","▁un i","▁ha gas","ca do","▁in te","▁ca y","▁ni ño","▁pue b","▁po bre","▁sal í","▁man e","tu a","▁sol a\r\n","▁pro f","▁go te","▁pis ta","▁muer to","▁cambi ar","▁cer ca","▁nivel \r\n","▁empi ez","▁sir ve","▁amig os","-tu -tu","m ,","t y,","u vi","▁s uer","▁c rim","▁d ien","▁v in","▁en ro","un d","▁b os","▁un der","▁ten dr","▁vi vo\r\n","▁su bo","▁ah -a","▁pu ta\r\n","▁u p","▁or gu","▁freesty le\r\n","▁clar o\r\n","▁cri ti","▁morir \r\n","▁vie ja","▁desc on","▁sor p","anana u,","▁ene mi","▁liber ta","& amp","a h\r\n","u h-","▁e ter","▁b ro\r\n","ta do","▁con t","ci s","▁to do\r\n","▁ma d","▁¿ no","▁am igo","der ,","▁res pi","▁sol o\r\n","▁ol or","▁dime ,","▁empi eza","ppin ',","▁mari hu","▁famil ia","▁podr ía","&amp ;","h i","i o,","▁l í","en o","▁en loque","▁ha z","ab an","ch os","▁to c","▁par ty\r\n","di do\r\n","ás ,","▁des ta","▁mis ma","▁sin cer","▁pu ra","▁hi t","▁man era","▁rap per","▁li bre","▁he y","▁pon en","▁bi g","▁nue va","▁we ón","▁arri ba\r\n","▁ga ta","pp in'","▁pel ig","▁papi ,","▁chu pa","▁it 's","▁mol es","▁encan ta","f or","n o\r\n","▁ &amp;","▁e go","▁me zc","▁con ver","da te","ab a\r\n","de mos","▁va cí","▁¿ d","qui to","▁ven ga","▁todo ,","▁co g","▁' tá","tan \r\n","▁dis f","▁bo ca\r\n","▁ju ga","▁perd iendo","▁perd ón,","▁pis o\r\n","▁- ín","▁quer er","▁and amos","▁tal ento","▁pel í","▁pol ic","▁conti go\r\n","▁esca par","▁esqu ina","▁improvisa ción\r\n","▁demostr ar","c ent","k o","k e,","u ra\r\n","▁que mando","▁te mas","am \r\n","▁ma tar\r\n","▁in a","uer a\r\n","▁quier as","▁mu ri","ari os","ari o,","▁ex per","▁cor ri","si ón","▁cas a\r\n","▁pis to","▁rom per","▁igu al\r\n","▁decir te","▁estu di","▁escen ario\r\n","▁cump l","▁ningun o","- c","x i","ñ a\r\n","▁m ente\r\n","▁l una","▁c .r.","▁t ren","▁de be","▁b ando","▁com pañ","▁pa ,","ch e\r\n","▁re al\r\n","▁su a","▁per der\r\n","▁ve in","▁pi diendo","▁pu di","▁ar k","▁tú \r\n","▁man o\r\n","▁mo ver","▁dis tin","▁mira da","▁ap un","▁ho te","▁and amo'","ín \r\n","▁sk ill","▁demas ia","▁cans er","▁abaj o","▁ley en","▁fan tas","▁minuti to,","▁smo ke","b ri","e te","r ari","s o\r\n","u h","v al","v os\r\n","ú s","▁c ue","▁c ero","▁a co","▁a ve","▁el lo'","▁me ter","▁con v","▁di ciendo","▁o í","▁tu ve","de '","ce p","▁re lo","ol u","▁vi ste","▁le '","▁des per","▁las ti","▁hab le","▁lle gan","▁ll uvi","▁mal ,","▁co ca","gu a","▁rap \r\n","tan te\r\n","▁buen os","▁barri o,","▁beb é,","▁ton y","▁guer ra\r\n","▁cabr ón\r\n","▁neces ito","▁ag ra","▁gol pe","▁blun t,","▁tier ra","-na -n","▁'ta mo'","▁chapi ,","▁gang s","▁micróf ono","b oy","p h","▁v í","un ,","▁un as","▁yo ',","▁g et","▁tu m","▁to que","▁ten es","▁j or","▁ver ,","▁tra mp","▁cam a\r\n","▁tan tas","▁pr ome","▁ne ed","▁ju gando","▁men or","▁vol vi","▁mon ta","▁escu cho","▁tiemp o,","arme ,","▁deci me","▁muer te\r\n","▁val or","▁volver \r\n","▁ton to,","▁pun ta","▁ad entro","h-o h\r\n","▁futu ro","▁fer rari","▁boo ty","▁inte lig","- s","- ta","j ar","m á","r ía","t í","á l","▁ 5","▁n ub","▁la m","▁mi '","▁mi rando","in ',","▁est ilo\r\n","ce '","▁vi ern","▁ra to","ente ,","▁sab e\r\n","▁ver me","▁ri co","▁ar tis","▁son ando","▁ac om","▁co de","▁ne go","▁res pues","ble \r\n","▁improvis ando","▁z ig","▁af uera\r\n","▁clar o,","▁pregun ta","▁fam a","▁bitch \r\n","▁vie jo","▁despi erto","▁esca p","▁hici ste","▁esqu ina\r\n","ám on","▁vue lo","▁atre vi","▁fon do","\" ,","e ',","l ando","r á","▁p ill","ar le","▁el la\r\n","in ,","▁f ar","▁se cre","▁ha cia","▁o ka","▁to car","▁re z","▁re mi","▁vi \r\n","▁des tr","▁na ve","▁ra y","▁ch is","▁w ar","▁pue da","▁voy \r\n","▁¿ a","▁hab ita","▁mí a,","▁sal v","▁ar ro","▁pe go","dos ,","▁tan tos","▁mam á\r\n","▁ba ck","ens a","▁sol \r\n","▁quiere '","▁pla ka","▁tom ar","▁trap \r\n","▁or o\r\n","▁fl ui","▁fl uy","▁gua po\r\n","▁cono cen","▁z ar","▁esti lo,","▁nues tra","▁kno w\r\n","▁lleg ó","▁har d","▁fo to","▁recor dar","▁mie do\r\n","▁dec ís","▁slow \r\n","h-y e","▁¿d ónde","b l","f ,","h e","u h,","… \r\n","▁p ra","▁a bo","▁es o\r\n","▁de tr","▁h on","▁f ri","▁lo ca\r\n","▁g lo","ien to\r\n","▁qui e","▁vi ,","▁na cí","▁ah or","▁¿ cu","▁hab il","▁mí o\r\n","▁siempre ,","▁ser \r\n","▁pe g","▁lle gue",".. \r\n","▁dej ó","▁bo b","▁dice ,","▁cas ti","▁vez ,","▁pla y","ez co","▁mone y\r\n","▁mañ ana\r\n","▁bitch ,","ern o\r\n","▁llen o","▁ben di","- po,","k ing","v es","▁l ento\r\n","▁de di","▁en v","▁en er","▁f il","▁si do","▁g h","▁o u","▁su bi","▁ca er","▁per ra","ter a","▁can ta","▁habl as","▁hace mos","▁li fe,","▁cor on","▁he y\r\n","den \r\n","▁ab ri","▁busc ar\r\n","▁dro ga\r\n","▁jo ven","▁we e","▁escuch ando","▁cuer po\r\n","▁wa cho","▁diab lo\r\n","▁ace l","mien to\r\n","▁raper os","▁reci én","▁mos tr","▁acos tum","ananau, n","▁zig za","- r","- y","- no","a t\r\n","b amos","i ta\r\n","i on\r\n","l ar,","▁ 6","▁d os,","er e","▁n er","▁mi ,","▁f ash","om a","ci o,","▁di cho","▁pa te","▁i gn","▁re par","▁le y\r\n","▁su r","▁des pe","▁ma g","▁ma i","▁ca er\r\n","▁an dar","▁¿ o","▁ser ía","tu ra\r\n","▁cor to","▁sol d","▁hago ,","vis te","▁rape a","ad as\r\n","▁pien sa","▁también \r\n","▁bri llo","▁enci ma\r\n","▁reg ga","▁guer r","▁pren de","▁chic o,","▁equi po","▁dij iste","▁gor do","▁difer encia","▁ayu da","▁dormi r\r\n","▁bre a","▁prefi ero","c ab","d ero","▁t é","▁y \r\n","▁v a,","on o\r\n","on e\r\n","es te","▁com ien","▁di le","▁di os\r\n","▁ten go\r\n","▁vi r","▁vi si","ent os","▁ma t","▁ni ke","▁ver so","▁ve o\r\n","▁pi den","▁sal en","▁ven gan","▁mal a,","▁pr ó","▁ex iste","par a","▁habl ar\r\n","▁mo ti","▁ap ues","▁mejor es","▁sabe '","▁bi zar","▁you r","▁prim ero\r\n","▁vo z\r\n","▁medi a","▁af ter","▁ins is","▁jun to","▁odi o","▁luz ,","▁suf ri","▁sig uen","b el","c ci","m in","p os","r os\r\n","s te\r\n","▁s ti","▁l ic","▁d as","▁y sy","▁me ta","ra '","▁se p","▁di go\r\n","▁le t","▁j oy","▁tra ta","tr a\r\n","▁po -po,","▁ar ran","▁cal l","án \r\n","▁can ciones","▁cor te","tan te","és ,","▁fu ma","▁escu po","▁mar ci","▁tam o'","▁do c","▁busc an","▁toda '","▁fl uyo","▁suel ta","▁fuer te","▁hue vos","▁nombre \r\n","▁chu p","▁feli z","▁extra ñ","▁romp iendo","▁algun a","▁instrument al\r\n","▁crim in","i do\r\n","i za","í s\r\n","▁p p","▁s tre","▁d to","▁d entro\r\n","▁a re","os o\r\n","▁b on","▁f ol","▁si \r\n","▁o cas","▁par to","que s","us t","▁re d","▁re f","▁na ci","il la\r\n","▁w or","▁tra go","▁an o","▁va c","▁ri mas\r\n","▁gan ando","▁k illa","▁habl amos","▁pro b","▁comp ro","▁mon o","▁cab eza\r\n","ándo te\r\n","▁dí a,","▁nen e","▁som o'","▁cla vo","▁bri lla","▁2 4","▁wa ch","▁pier n","▁pen de","▁sho w\r\n","▁term ina","▁der ro","▁agar ra","▁mes si","▁buscar ,","▁qu a","▁jam ás","▁acti tu","▁wi th","g ía","m is","n es","n o,","o h\r\n","▁p ág","▁s enta","▁l ín","▁c en","or o","▁la bi","▁se man","▁ha go\r\n","▁di e","▁pa d","▁tu r","ti ca","▁cu ra","▁i ce,","ol a\r\n","▁le tras","▁del in","▁so bra","▁an im","aj e","aj e\r\n","▁sal e\r\n","▁car ga","▁ven ez","▁gan g\r\n","▁pu l","▁ar te","ve lo","ter a\r\n","▁cre en","ari os\r\n","▁don t","▁cor ro","▁ap ro","▁deci r\r\n","▁bi za","▁nue vo,","▁escri bi","▁muer to\r\n","▁olvi do","▁1 0","▁gri tan","▁tri ple","▁agu a","▁enten der","▁perdi do","▁mujer es","▁princi pi","▁blun t","▁ai re","▁segun do","▁pelo tu","▁capi tal","▁ade lan","▁disf ru","▁tum ba","▁gh et","▁regga et","b ran","c os\r\n","d ía","e t\r\n","f \r\n","s a\r\n","t ien","u c","z as","er as","▁y a\r\n","an tes","▁h un","▁en fer","▁me mor","in as","ta te","▁lo ve","▁lo cu","▁par te\r\n","▁ten e","▁cu li","▁ti ras","▁des tro","il li","▁ve lo","▁va '","▁r ui","dad es","▁esc uela\r\n","▁mí o'","qui s","▁ar ru","ic o,","▁pe gar","ck ,","ter i","▁cre er","▁hacer te","▁res uel","▁bar de","▁fue go,","▁pro du","▁fal tan","▁comp ra","▁ap ri","▁pla ta,","▁esper an","▁cono ci","▁hue le","▁argent ina\r\n","▁cel ul","▁dire cto","▁abaj o\r\n","▁compe ti","▁oke y\r\n","▁ark ano","▁relo j","▁viern es","▁pp rrum","2 \r\n","b ro","g as\r\n","p l","r ar\r\n","s er","t ino","▁t w","▁a .","▁a ñ","▁v ent","▁v as\r\n","▁te x","▁con e","▁con tando","▁est o\r\n","▁ma te","il lo\r\n","▁ve ces\r\n","▁va cil","▁pi es\r\n","▁hi elo","▁son ar","▁co de,","der a\r\n","▁mam á,","▁hacer ,","▁buen as","▁baj ar","▁pal o","▁to' s","▁vuel tas","▁mun do\r\n","▁exp res","por tun","▁dí melo\r\n","▁escuch ar","▁sue lo","▁pus sy","tin o\r\n","▁enten dés","▁apar te,","▁sk r","▁shi t","▁enam ora","▁hmm \r\n","▁án gel","▁déj ame","▁dom in","▁envidi a","▁acuer do","▁rápi do","▁cuán to","▁il um","▁blo o","▁lí ri","▁agra de","▁bizar ra","▁delin cuen","- l","a v","b e\r\n","d am","e ce","x ,","▁e ver","▁s enci","▁t os","▁d r","▁d á","▁v el","▁b ra","▁mi ra\r\n","in e\r\n","▁f e\r\n","▁lo ve\r\n","om bi","▁si m","▁si tua","▁con den","da do","▁se l","▁ha g","la do","▁pa yas","▁i t\r\n","▁des n","▁ca go","▁esta do","▁pas ar\r\n","▁r an","▁ri que","▁car i","▁pe da","tar me","▁can ción\r\n","▁dej e","▁li mp","▁cor r","▁imp os","▁comp rar","▁gu cci","▁tiemp os","▁fr om","▁emp res","▁real ,","▁gente ,","▁bes os","▁pan tal","▁senti mien","▁gri ta","▁tri ste","▁mill ion","▁oy e,","▁suf rim","▁ai re\r\n","▁tier ra\r\n","▁últi mo","▁atr ás","- -","- ho","3 \r\n","c us","f o","f ic","i e","m ente\r\n","p u","á '\r\n","▁ ...\r\n","▁m y,","▁s ú","▁s por","▁d j","▁a j","▁a y\r\n","▁es \r\n","▁no mb","▁b ús","al es,","▁un a\r\n","▁te l","▁si ento,","ci to","▁pa gar","▁pa z\r\n","▁to a'","▁al to","ti \r\n","ti lla","▁cu r","▁re y\r\n","▁le g","▁j es","▁ye h-ye","tr u","▁va por","▁r é","▁po t","▁son ri","▁pe or","▁cal ma","▁co t","▁co le","▁cre o\r\n","to, \r\n","amos ,","▁res ul","▁llam o","▁perd on","▁for t","▁fum ar","ándo le","▁mient ra'","▁dí melo,","▁fe k","▁volver te","▁senti do\r\n","▁pel i","▁cualqui era","▁neces i","▁dol or\r\n","▁der e","▁bai la,","▁ja i","▁entien de","▁escen ario","▁ale j","▁due le","▁raper o\r\n","▁fav or,","▁repres ent","▁bom ba","▁dire cta","▁infi erno\r\n","▁explo ta","▁ham bre","▁tari ma\r\n","▁az ul","▁canser b","▁hard cor","a a","a o","b al","p ero","t ando\r\n","t re\r\n","v í","é r","▁e u","▁e ran","▁e h-eh\r\n","▁l lo","▁y a,","▁n ar","▁que ma","▁de to","▁de cí","▁h á","▁b ro,","▁con cep","▁g al","▁g ru","▁pa pa","▁to '\r\n","▁cu ad","di o\r\n","▁vi de","▁j ar","▁j a\r\n","il \r\n","tr an","▁va y","▁po w","▁po dés","▁tan to\r\n","▁can \r\n","▁imp er","▁bar dero","▁vuel ve,","▁pens ar\r\n","▁fr ente\r\n","▁escri bir","▁cuen ta\r\n","▁jue go,","▁cha in\r\n","▁cla p","▁ins pi","▁ga to","▁reg res","▁wo h\r\n","▁má ',","▁cul pa\r\n","▁chic os","▁tres \r\n","▁noso tro","▁brill ar","▁llev ar","▁estre lla","▁gir l\r\n","▁ami go\r\n","▁ñ en","h-y ea","▁vers os","▁¿s ab","▁tene mo'","e gu","g os\r\n","j os\r\n","l y,","n \r\n","▁m ero","▁s na","▁c ero\r\n","▁d o'","▁de v","▁en o","▁mi ta","▁mi am","ta do\r\n","▁lo g","▁te le","am a","▁com pi","▁com bo","▁o la","ch u","▁to ca\r\n","▁par arme","us ti","▁i mi","▁re ce","▁ti ren","▁ma to\r\n","ga do","▁tra je\r\n","▁pas a\r\n","▁pi be","cer ,","▁gan é","▁mal a\r\n","ter o\r\n","▁cre y","▁pr r\r\n","▁' tán","▁don \r\n","▁vol ando","▁comp lica","enci a,","▁llam an","▁calle j","▁du ro,","▁fa cil","▁esper a","▁mun di","▁cambi a","eron \r\n","▁ban g,","▁2 1","▁wo w,","▁tranqui lo,","▁mom ento\r\n","▁estu dio","▁agar re","▁dra ma\r\n","▁ele gan","▁bu ll","▁cru z","▁blun t\r\n","▁hor as\r\n","▁viaj e","▁conci erto","▁campe ón","▁déj à","▁trai cion","▁ñ er","▁uh- uh-","▁descan s","▁cereb ro","▁conv ien","▁ign or","a da","a da\r\n","h er","n a\r\n","p able","r í","t ón","▁e ras","▁l ento","▁t es","▁d en","▁a bre","as te\r\n","▁no va","▁con ec","▁se pa","▁ha ci","ci e","▁g \r\n","▁g on","▁to dos\r\n","de z\r\n","▁re í","ol \r\n","▁le y,","▁j os","▁j a,","is mo\r\n","▁des car","▁ma es","▁ca igo","▁per o\r\n","▁esta i","▁r ar","▁ri f","▁ri m","▁ri mar","▁po quito","▁as egu","▁gan g,","▁man d","▁man os\r\n","▁u u","▁dej é","▁pon ga","▁mon tón\r\n","tal e","▁perd ón\r\n","▁acá ,","▁acá \r\n","ten \r\n","▁tom ando","▁trap per","▁ter r","▁fin de\r\n","▁pes ar","▁gra ti","▁beb é","▁gi ra","▁inter i","▁fuer za","▁ke ep","▁neces ito\r\n","▁dol or","▁esp al","h-e h-eh\r\n","▁kno w,","▁apar te","▁dij o,","▁apren dí","▁due ño","▁ele g","▁of re","▁lis ta","▁dri ppin'","▁oke y,","▁cris tal","tt le","▁mama ci","▁histor ia","▁gela to,","▁cá mar","▁cuar to","▁hit boy","▁-ín a,","▁pelí cula","▁fort ni","- lo","c al","c as\r\n","g as,","i ón,","r ía\r\n","u d","u h!\r\n","y ec","▁ 0","▁m uestro","▁p ana","▁l ápi","▁c ir","▁t ab","▁a ga","▁a ma","▁que ri","▁que de","es e","re mos","ci a,","▁est ar\r\n","▁re ti","di da","▁su fici","▁per ro","▁per si","▁tra to","▁quier a\r\n","▁r í","▁r ío","▁pi ca","▁ri co\r\n","▁po cos","▁gan ar,","▁hi er","▁ent ero","▁ar te\r\n","ll os","▁pe dir","▁ac tu","▁u a","▁pr ue","▁can ción","▁bien ven","▁mo v","▁imp res","▁res to","▁fal so","▁mira da\r\n","▁pal '","▁mar ca","▁mar ad","▁pis ta\r\n","▁olvi do\r\n","ándo te","▁coraz ón,","▁qued arme","▁enten di","▁diab lo,","▁menti ra","▁ning una","▁noso tr","▁minu to","▁trabaj o\r\n","▁cons tr","▁feli z\r\n","▁hici mos","▁pos i","▁bom b","▁cuida do","▁inv ent","▁oscu ri","▁salamand ra\r\n","▁amane cer\r\n","▁sincer o\r\n","▁lluvi a","-na-n a\r\n","▁detr ás","▁impos ible","- i","d on","l la,","p a,","á '","▁ á","▁s am","▁l ento,","▁a v","▁n ana","▁es co","▁en ga","▁f ran","▁f ues","om a\r\n","▁si enta","▁con ten","▁g ame\r\n","▁pa u","▁pa ís","▁to p","▁qui se","ce l","▁i ce\r\n","▁des as","▁ma tando","▁sab or","▁sab e,","▁per ra\r\n","▁w al","▁ver te\r\n","▁quier an","▁as us","▁am ar\r\n","▁ven do","▁gan o\r\n","▁ent era\r\n","▁son \r\n","ll as","dos e","▁mal o\r\n","▁cal or","▁hay a","▁u p\r\n","▁qué \r\n","▁ro tt","▁can ,","▁hace \r\n","▁mo ja","▁res is","os, \r\n","▁pre cio","▁cas a,","▁vol ar","ez a,","▁ab ra","▁tom é","▁prim era\r\n","▁pes o","▁neg ro\r\n","▁mil \r\n","▁mil es","▁bl es","▁uste de'","▁cla v","▁ta tu","▁ton to","▁hip -ho","▁poder \r\n","▁bas ta","▁dol lar,","▁han der","▁br on","▁sang re\r\n","▁qu í","▁apa ga","▁gas to","▁tras h,","▁desa y","▁mir ar\r\n","▁arre ba","▁duk o","▁hu bi","▁últi ma","▁caus a","__ __","▁imag in","▁ases in","▁permanent ,","▁mús ica,","▁hac ía","▁carr era","▁pueb lo","▁ner vi",") \r\n","c n","d ien","g en","j a,","l am","í na","▁ (","▁m ué","▁p las","ue la,","▁c ra","▁en cer","▁b y","▁b low","▁b ir","▁f o\r\n","▁si c","ci r","▁o portun","▁ten í","▁re pi","ent os\r\n","▁ma '\r\n","▁sab iendo","▁ca ch","▁pa' ca\r\n","vi o","▁an ti","dad ,","▁ri mo","▁ri ma,","▁po es","▁gan as\r\n","▁ll an","▁k il","▁habl en","▁pro te","▁dice \r\n","▁fr ío","▁muer en","▁do wn","et ,","▁fi es","▁rimas ,","▁wa cho,","▁tener te","▁encon tra","▁mill ón\r\n","lic o\r\n","▁ke lo","baj o","▁menti ra\r\n","▁llen a","▁rev ien","▁escen a","▁dra co,","▁viv iendo","▁inc l","▁aguan to","▁raz ón","▁pri sión\r\n","▁compe tir","▁famil ia\r\n","▁caden a","▁fras es","▁manten go","▁fra cas","▁estrell as\r\n","▁suer te","▁directa mente","▁sna p","▁fues e","▁rott we","- u","b res","d d","g ü","i '","i tos","i ones","j as\r\n","é '","▁ és","▁s ana","▁s ensa","▁l la","▁d ó","▁y an","▁v ámon","▁la mb","▁h el","ra me,","▁lo ca,","▁se as","▁o tras","▁par a\r\n","ti ta","▁le tra","▁le jos","▁le vel","▁na tur","▁tengo ,","▁ra to\r\n","▁so le","▁pi ed","▁esc al","▁esc uela","▁ven eno\r\n","▁hi g","▁qué ,","▁pr os","▁dej es","▁pon es","▁bo om","▁ju z","▁cas o","▁ap oy","▁ho p\r\n","▁be e","▁muer o\r\n","▁aquí ,","▁rec ono","▁fuck in'","▁cla va","▁2 00","▁arri ba,","dor a\r\n","▁pres um","▁dem oni","▁enten der\r\n","▁jun tos","▁pol i","▁mer ce","▁lleg ué","▁che que","▁sub iendo","▁def iendo","▁rob ar","▁obvi o","▁repres ento","▁pl u","▁person as","▁olvid ar\r\n","-na -na","▁algun os","▁duer mo","▁emb ar","▁mús ica\r\n","▁silenci o","▁pú r","▁empiez o","▁dien tes","▁bando l","▁¿cu án","▁desn u","▁uh-uh- uh\r\n","- wo","a ',","c as,","d iente","g er","i d","i a,","p el","▁e e","▁e as","▁p á","▁s tu","▁a ter","▁n u","▁de bajo","▁h en","▁h ora\r\n","▁en ca","in es","ra te","▁un o\r\n","▁si ete","▁con tr","ro u","▁se an","ci as\r\n","▁di os,","▁di eron","ch e,","▁to co","us e","▁le br","▁soy ,","▁ti re","▁ti ck","▁ma qu","▁in o","▁ca g","▁esta bas","▁ch ar","▁pi es","▁po co\r\n","▁po demos","bi a","▁car ro","▁ven diendo","▁pu re","▁pe a","▁co c","▁u bi","▁ro to","ues tra","▁nun ca\r\n","▁dis co\r\n","▁lu ces","▁ju g","▁ap re","▁mon tan","▁du r","▁mar ic","▁mejor es\r\n","▁herman os","▁ab ur","▁emp a","▁cuen to\r\n","gas te","▁dí as\r\n","▁and an","▁nen e\r\n","▁freesty l","▁1 5","▁gran de\r\n","▁pel o\r\n","▁dem bo","▁pun ch","▁cabr ón,","▁ke low","▁bitch es","▁segui mos","▁ún ica","▁buscar te\r\n","▁pin ta","▁piens an","▁raz ón\r\n","▁guar do","ppin '\r\n","▁cham pa","▁equivo ca","▁esqui vo,","▁uh- uh\r\n","▁mmm ,","▁hoo d,","▁cay endo","▁prof es","▁ah-a h\r\n","▁descon tro","▁hote l\r\n","▁habil idad","▁peda zo","▁ré p","▁nosotro '","▁ñen go","▁desay un","i mos","p ura","t ero","z qui","ó g","▁ 9","▁c raz","▁a k","▁a ca","▁q e","er an","▁y endo","▁de bo","▁v ar","▁v a\r\n","on e,","or o\r\n","▁en gan","▁me tal","▁mi re","▁si gui","▁con quis","▁ha gan","▁g '","▁pa ís\r\n","▁tu ya","▁al as\r\n","▁al um","ti co\r\n","▁cu ál","▁i dio","ent es\r\n","▁su pues","▁ca í","▁del i","el \r\n","▁tra e","▁pas ó\r\n","▁voy ,","▁¿ de","▁am o","▁gan arme","▁ser io,","▁ar m","pa do","uel o\r\n","▁man \r\n","▁solo ,","▁mal o,","▁co j","ari a","▁ro ba","▁pr om","ras ,","▁ex cus","▁hacer me","▁hacer lo,","▁sa cando","▁dis cul","▁todos ,","▁bab e,","▁ci gar","▁hoy ,","▁men \r\n","▁pla ca","▁pla ta\r\n","▁be at\r\n","▁pens é","▁pens am","▁do g","▁fre e","▁suen e","▁él ,","▁z or","▁cla p,","▁tal ento\r\n","▁tri un","▁nig ga,","▁dispar o","▁ale mán","▁je fe","▁camin ando","▁termin ar","▁hor as","▁romp e\r\n","▁rompe ,","▁bol s","▁x ana","▁hous e\r\n","▁il us","▁boy \r\n","▁er re","▁sw ing\r\n","▁under gro","▁fash ion\r\n","▁púr pura","▁ater ri","' o,","c é","c on","d s","d al","i as","n ,","p re","s y\r\n","t or\r\n","v as","v in","z ,","▁e du","▁l il","▁d re","▁y ,","▁n or","▁que mar","▁h uy","▁en car","un d\r\n","▁mi o","in '\r\n","▁f amos","▁si ste","▁di ver","ab as","ab a,","▁est és","▁ten gas","ti do","▁cu lo\r\n","▁ca f","▁ca en","▁ca cer","▁ni ñ","▁pas tilla","▁mu lti","▁va ci","▁r ue","▁está '","▁ent era","▁ll ám","▁cam ina","▁cam ara","▁co lo","ter ,","▁cre er\r\n","én de","▁dis cu","h- ah\r\n","▁hoy \r\n","▁men cion","ren al","▁comp ré","▁mar a","▁fl ores","▁ter ri","▁fin \r\n","▁neg ra","▁jo di","▁¡ a","▁improvis ar","▁cer ve","▁despué '","ín ,","▁sue ñ","▁ga tas","▁proble ma\r\n","▁mill ones","▁inter na","▁pen a\r\n","▁ad renal","▁bas e","▁fuer on","▁cin tur","▁der ra","▁rit mos","▁pers ona","mien to","▁trabaj o","▁sali da\r\n","▁mol ly,","▁truen o\r\n","▁desa par","▁hous e","▁rápi do,","▁espe ci","▁gela to","▁fronte arle","▁prrrum !!","▁quedas te","▁propi a","▁pú b","▁sorp ren","▁volvi ó","▁remi x","▁war ri","▁habita ción\r\n","▁té cn","▁apro ve","a '\r\n","b rar","e a\r\n","l os\r\n","l ar\r\n","l es\r\n","t ás","u al","y s","á bamos","▁e va","▁p ab","▁s p","▁d ru","▁a van","er to\r\n","▁n ú","▁de ber","un a\r\n","▁b ha","re í","▁mi na","ta da","▁lo c","da '\r\n","▁se c","▁por ro","▁com iendo","▁com er\r\n","▁di a","▁pa ca","▁tu c","▁est r","▁al im","ce '\r\n","▁cu ch","▁re pe","▁j al","▁esto '","ent es","▁su pi","▁ma tan","▁ma ke","▁ni ños","▁tra tando","▁pas te","▁an g","▁mí o,","▁ent ero\r\n","▁co cin","▁co bar","tar on","▁k a","▁k ar","▁k ill","▁can a,","ta, \r\n","▁sa y","▁li ri","▁pon te","ru ga","ez co\r\n","▁go bi","▁saben ,","▁fa ctu","▁emp ec","▁quer í","ja te","▁gua cho","▁suen an","▁sus pi","a' o,","▁wa cha","dor ,","▁ga vio","▁gri tar","▁all á\r\n","▁au -a","▁ad ver","▁bas ura\r\n","▁perdi do\r\n","▁estu ve","▁llor ar","▁shi t,","▁compar to","▁gir l","▁amig os\r\n","▁rock s","▁chan ce\r\n","▁án i","▁ocu l","▁volv í","▁volv iendo","▁imag ina","▁maldi to","▁ment al","▁bel la","▁rebo ta,","▁jaj aj","▁bote lla","▁cai ga","▁cumpl ir","▁acom pañ","▁nego ci","▁sti g","▁wor l","gü en","▁bha vi","- li","a h,","b or","c ero","c ar\r\n","c to,","e o","e o\r\n","g ía\r\n","i to,","l lo,","m on","r y","t res","t encia\r\n","á cti","▁d arme","er en","▁es f","an os\r\n","▁de \r\n","▁de do","▁de por","▁no ta\r\n","te o","▁te c","▁con tin","▁g all","▁com ent","▁di ario\r\n","▁qui so","ti vo\r\n","▁re cu","is ta","▁ma fi","▁sab ía","▁sab es,","▁ca cha","▁so por","▁so cio","▁ver güen","▁ve ce'","▁tra jo","▁pas ando","▁pas ión\r\n","▁r un,","um a\r\n","pe ,","▁mí os","▁po lo","▁am ena","▁car go","▁ven gas","▁gan s","▁gan o,","▁pu b","▁ac ción\r\n","▁ac aba","▁cam is","▁mal os","▁cal ma\r\n","der o\r\n","tu ra,","▁pr on","▁pr r,","▁cl an","▁mo da","ver \r\n","fi t","▁pla cer","▁vien es","▁vas ,","▁you \r\n","ad or\r\n","▁fa ce\r\n","▁fre e\r\n","▁estás \r\n","▁exp lico","▁cono cer","▁¡ w","▁fe o\r\n","▁vo cab","▁hum o\r\n","▁impor ta\r\n","▁tranqui li","lic a\r\n","▁papi \r\n","▁estu vi","▁tira do","▁bro th","▁brill ando","▁simp le\r\n","▁recuer da","▁je f","▁anda ba","▁camin ar","▁camin o\r\n","▁blan co","▁perdón ame","▁puer ta","▁temp o\r\n","▁dri ppin',","▁clas e","▁¿que r","▁hous e,","▁micro ph","▁lun a\r\n","▁jaj a\r\n","▁felici dad","▁caz z","▁funer al\r\n","▁liberta d\r\n","▁exper ien","▁acel era","▁sim ón","▁eu ro","- ,","0 \r\n","c ía","c an\r\n","e ce\r\n","g res","g ues","s o,","í ,","▁ ár","▁m ón","▁p a\r\n","▁s á","▁c le","▁d ora","▁a \r\n","▁es pañ","▁de ton","▁v e\r\n","on es,","▁la dr","▁h ol","es o","un k","▁b ar\r\n","ra do","▁f en","▁f ru","▁f este","▁lo o","▁com en","▁di vi","▁o jer","▁pa ga","▁est ando","▁al er","▁al ma\r\n","▁cu ándo","▁i den","▁i t,","▁ya h","▁su po","▁na h\r\n","▁ma dri","▁in di","▁ca er,","▁w os","▁an i","▁an tes\r\n","▁¿ para","▁pi que","▁pi ola\r\n","▁ven \r\n","▁ven der","▁son r","▁ll ora","▁cam a,","▁co pa","▁k h","▁k us","▁cre es","▁cre cí","▁pr ín","▁li mi","▁mo de","▁lu ce","▁fal ta\r\n","car a","fi ca","▁mon s","▁llam ar","▁vas o","▁ol a\r\n","▁du ra","▁sabe mos","as, \r\n","▁rom pi","▁fr ío\r\n","▁for m","▁or o,","ándo me\r\n","▁real mente","▁real idad\r\n","▁neg ros","▁cono zco","▁¡ dí","▁hum o,","▁escuch an","▁sue ño,","▁matar nos","▁gran des","▁vis to\r\n","▁dem uestro","▁tranqui lo\r\n","▁ad mi","▁má qu","▁fuer te\r\n","▁menti r","▁hue vos\r\n","-a y","▁mes a","▁conti go,","▁apren der","▁plan e","▁cons um","▁fun cion","▁mir á","▁contro l\r\n","▁ami ga","▁conci encia\r\n","▁piel \r\n","▁explic ar","▁dese o","▁atr ás\r\n","▁perfec to\r\n","▁trans pi","▁deb es","▁interes a","-p ro","▁feel ing","▁calien te\r\n","▁caraj o","▁za pa","▁sorp res","▁mad ruga","▁destr uy","▁ahor a,","▁env uel","▁pró xi","▁cone x","▁rique l","▁corr er","▁spor t\r\n","▁mamaci ta,","▁impres ion","▁punch l","▁iden ti","▁prín ci","▁¡dí melo","c ame","d an\r\n","g uen","i p","i te","i za\r\n","m en","m ent","z an","é f","ó s","▁e di","▁m era","▁p s","▁a dor","er as\r\n","er ic","an os","an tes\r\n","▁de u","▁no que","▁b loque","al a\r\n","▁f is","to '","▁lo t","▁un o,","▁com pa","▁est res","▁est én","▁par ar\r\n","▁cu le","▁i mán","ca ción","ca tri","▁in se","▁ca gar","▁ve te","▁pue do\r\n","▁va yas","▁estoy \r\n","▁ri ma\r\n","e, \r\n","▁gan an","▁pe cho\r\n","▁ac or","▁lle go,","▁mal dades","▁cal or\r\n","▁co jo","▁sa i","▁sa que","▁sa qué","tas te","▁pon gan","▁fue \r\n","▁bo bo","▁ci catri","▁ap la","te, \r\n","▁cos tum","▁mejor ,","▁deci di","▁rape ar\r\n","▁fa ce","▁esper ar,","▁gus tan","▁olvi da","▁jue ga","▁gua ch","▁suen a\r\n","▁quien es","▁gi gan","▁ob je","▁bail ar\r\n","▁1 00","▁tar ado\r\n","▁wo w\r\n","▁bal l","▁pega o'","▁vo' a","▁rit mo,","▁la' o\r\n","▁ale g","▁mujer ,","▁difer ente","▁repres enta","▁escrib o\r\n","▁dormi r","▁read y\r\n","▁arre p","▁arre gl","▁temp ran","▁bol u","▁campe ón\r\n","▁cier ro","▁futu ro\r\n","▁cump le","▁tre in","▁rey es","▁at enci","-e- e\r\n","▁out fit","▁diam ante","▁consi go\r\n","▁len gu","▁motherfuck er","▁enfr ente","▁uni ver","▁lam enta","▁code ína","▁ener gía","▁zigza g,","▁mag ia","▁tel éf","▁resul ta","▁imper io","▁incl us","▁hen nes","▁interna cion","▁ojer as","b ando","b ra\r\n","c cion","e mb","h h\r\n","k er\r\n","n ab","n y\r\n","p es","u ri","ó r","▁m ar\r\n","▁p uen","▁s cho","▁d ense","▁n a\r\n","▁n ame\r\n","▁n ananau,n","▁que mo","os a","▁h uel","▁me tas","▁me ten","▁me tiendo","▁mi ren","in as\r\n","▁f o,","ta mente","▁te mo","▁con c","▁con ven","▁con tar\r\n","▁se d","ci do\r\n","▁g ue","la -lo","▁tu vi","ch \r\n","▁est ri","ti co","▁i r\r\n","▁re bel","▁le tal","▁des en","▁ra ce","▁in i","▁del ante","▁per de","el l","▁tra tar","▁an si","▁¿ te","▁po p","▁sal iendo","▁car n","▁car o","▁car o\r\n","▁car ne","▁ven ta","▁pe que","▁pe ca","▁pe cho","▁pe dí","per a","▁ll ue","▁mal e","▁mal as","▁cal i","▁cre a","▁qué ?\r\n","▁ro to\r\n","▁can tar","▁ba d","▁rap ero,","▁hace mo'","▁li ttle","▁he ar","▁imp a","ir \r\n","▁sol ,","▁baj ando","▁ap las","▁pla za\r\n","▁be bi","▁llam arte","▁escu p","▁du l","▁vuel o\r\n","▁deci le","▁esper a\r\n","▁mun do,","amo' \r\n","▁the y","▁desp ues","▁fin al\r\n","▁nen a\r\n","▁él \r\n","a' o","▁volver ,","▁ban g\r\n","▁col ch","▁col ombi","▁haciendo ,","▁suel o\r\n","▁sue ño\r\n","▁ta ke","▁pan a\r\n","▁matar on","▁all á,","▁pen diente","▁encontr é","▁bal a","▁esp an","▁bro ke","▁¿c omo","▁entien den","▁rev olu","▁plan eta","▁medio c","▁hici eron","▁difer ente\r\n","▁suf re","▁ai res","▁bor ra","▁lis to","▁puer to","▁sacar me","▁duk o\r\n","▁duk o,","▁whi te","▁ami go,","▁escon de","▁cham pi","▁pele a","▁voz ,","▁gen era","wo o","▁ph illi","▁perre a,","▁err or","▁3 0","▁capa z","▁ante '","▁gote o\r\n","▁respi rar\r\n","▁sua ve","▁ví de","▁acostum bra","ananau,n anana","▁let 's","▁qua vo,","▁kh ea","▁sai y","▁nananau,n ananau,nanana","! ,","b ien","d in","f as","k a,","m bo","o o","t ing","v en\r\n","z z","ñ e","▁s ui","▁c ent","▁t esti","▁a ten","er os","on s","▁no ta,","▁la d","▁b á","ab ri","▁al to\r\n","▁al mo","▁al go\r\n","▁ten ta","us \r\n","▁i ce","▁re co","ca te","▁vi ctor","▁j an","is te\r\n","is ta\r\n","▁des ma","▁des tino","▁in ta","▁w es","▁ve ,","▁tra tan","▁quier e,","▁pi dió","▁está ,","▁ven ,","▁ven de","▁ven go,","▁son i","▁ac omo","▁co p","▁co her","der a","▁k o","ba -","ari a\r\n","▁dej arte","▁ne ur","▁ba c","▁hace ,","tan cia","▁bo ca,","▁fu ri","gan \r\n","▁mue res","▁mue vo","▁be bo","▁cab al","▁tus si","▁vuel to","▁nue ve","lan te\r\n","ten er","▁us a","▁pare d\r\n","▁escri be","▁fa ke","▁dos is","▁pasa ?","▁cha vos","a' o\r\n","▁we ed","▁bl ing","▁ins ta","▁¿qué ?\r\n"]}}