{"version":"1.0","truncation":null,"padding":null,"added_tokens":[{"id":0,"special":true,"content":"[UNK]","single_word":false,"lstrip":false,"rstrip":false,"normalized":false},{"id":1,"special":true,"content":"[SEP]","single_word":false,"lstrip":false,"rstrip":false,"normalized":false}],"normalizer":null,"pre_tokenizer":{"type":"Metaspace","replacement":"▁","str_rep":"▁","add_prefix_space":true},"post_processor":{"type":"TemplateProcessing","single":[{"Sequence":{"id":"A","type_id":0}},{"SpecialToken":{"id":"[SEP]","type_id":0}}],"pair":[{"Sequence":{"id":"A","type_id":0}},{"Sequence":{"id":"B","type_id":1}}],"special_tokens":{"[SEP]":{"id":"[SEP]","ids":[1],"tokens":["[SEP]"]}}},"decoder":null,"model":{"type":"BPE","dropout":null,"unk_token":"[UNK]","continuing_subword_prefix":null,"end_of_word_suffix":null,"fuse_unk":false,"vocab":{"[UNK]":0,"[SEP]":1,"\n":2,"\r":3,"!":4,"\"":5,"#":6,"$":7,"&":8,"'":9,"(":10,")":11,",":12,"-":13,".":14,"/":15,"0":16,"1":17,"2":18,"3":19,"4":20,"5":21,"6":22,"7":23,"8":24,"9":25,":":26,";":27,"?":28,"_":29,"a":30,"b":31,"c":32,"d":33,"e":34,"f":35,"g":36,"h":37,"i":38,"j":39,"k":40,"l":41,"m":42,"n":43,"o":44,"p":45,"q":46,"r":47,"s":48,"t":49,"u":50,"v":51,"w":52,"x":53,"y":54,"z":55,"":56,"":57,"":58,"¡":59,"¿":60,"à":61,"á":62,"é":63,"í":64,"ñ":65,"ó":66,"ú":67,"ü":68,"е":69," ":70,"—":71,"‘":72,"‚":73,"…":74," ":75,"▁":76,"\r\n":77,"▁e":78,"▁m":79,"▁p":80,"ue":81,"▁s":82,"▁l":83,"▁c":84,"▁t":85,"▁d":86,"▁a":87,"▁q":88,"er":89,"en":90,"▁y":91,"▁n":92,"▁que":93,"▁es":94,"an":95,"ar":96,"os":97,"▁de":98,"as":99,"▁v":100,"on":101,"or":102,"do":103,"▁no":104,"▁\r\n":105,"▁la":106,"▁el":107,"▁h":108,"es":109,"▁en":110,"un":111,"a\r\n":112,"o\r\n":113,"▁me":114,"▁b":115,"te":116,"re":117,"▁mi":118,"al":119,"in":120,"ra":121,"▁f":122,"ta":123,"to":124,"▁lo":125,"▁un":126,"▁te":127,"om":128,"▁si":129,"▁con":130,"▁yo":131,"go":132,"am":133,"ro":134,"da":135,"ui":136,"▁se":137,"▁por":138,"▁ha":139,"lo":140,"ci":141,"▁g":142,"ri":143,"ero":144,"▁com":145,"ando":146,"oy":147,"le":148,"ien":149,"▁di":150,"▁o":151,"la":152,"ab":153,"▁tu":154,"▁pa":155,"ch":156,"▁to":157,"▁qui":158,"▁est":159,"▁par":160,"▁los":161,"o,":162,"mp":163,"▁como":164,"que":165,"de":166,"▁al":167,"a,":168,"ce":169,"▁ten":170,"ti":171,"ón":172,"▁cu":173,"us":174,"▁i":175,"▁re":176,"h\r\n":177,"di":178,"▁pero":179,"ás":180,"ca":181,"ol":182,"▁vi":183,"▁le":184,"me":185,"▁j":186,"h,":187,"▁esto":188,"res":189,"▁ya":190,"▁soy":191,"is":192,"ent":193,"▁ye":194,"▁ti":195,"e\r\n":196,"▁su":197,"o'":198,"▁des":199,"▁na":200,"▁las":201,"▁tengo":202,"co":203,"os\r\n":204,"▁ra":205,"as\r\n":206,"▁porque":207,"▁para":208,"ente":209,"▁una":210,"▁ma":211,"▁sab":212,"▁in":213,"emp":214,"▁ca":215,"uen":216,"▁del":217,"▁pa'":218,"ar\r\n":219,"do\r\n":220,"vi":221,"ll":222,"▁so":223,"▁per":224,"▁más":225,"ué":226,"▁esta":227,"▁ni":228,"▁ve":229,"▁ch":230,"▁w":231,"uer":232,"▁ver":233,"ma":234,"es\r\n":235,"ga":236,"▁pi":237,"ora":238,"y,":239,"▁tra":240,"▁pas":241,"▁ah":242,"to\r\n":243,"▁quier":244,"▁mu":245,"el":246,"cu":247,"▁an":248,"tr":249,"▁este":250,"▁pue":251,"▁va":252,"▁r":253,"pi":254,"▁voy":255,"▁mis":256,"mo":257,"▁¿":258,"ía":259,"pe":260,"dad":261,"bi":262,"tra":263,"▁cuando":264,"▁estoy":265,"aj":266,"cer":267,"y\r\n":268,"▁ri":269,"te\r\n":270,"▁yea":271,"▁está":272,"ta\r\n":273,"▁mí":274,"▁po":275,"mi":276,"▁as":277,"▁hab":278,"▁siemp":279,"▁siempre":280,"da\r\n":281,"▁sal":282,"mos":283,"?\r\n":284,"▁car":285,"▁quiero":286,"qui":287,"▁ven":288,"e,":289,"▁pu":290,"▁hi":291,"ón\r\n":292,"▁gan":293,"▁ser":294,"▁sin":295,"▁ent":296,"▁todo":297,"▁ar":298,"li":299,"▁son":300,"uel":301,"pa":302,"'\r\n":303,"▁pe":304,"▁sé":305,"▁tú":306,"▁lle":307,"dos":308,"per":309,"▁ac":310,"um":311,"ck":312,"▁vos":313,"▁man":314,"▁ll":315,"▁cam":316,"▁solo":317,"tro":318,"▁mal":319,"▁co":320,"ran":321,"ve":322,"..":323,"▁cal":324,"▁eso":325,"ari":326,"▁tien":327,"▁ahora":328,"der":329,"▁hay":330,"▁am":331,"▁k":332,"ba":333,"▁u":334,"ter":335,"tu":336,"▁cre":337,"tar":338,"▁tan":339,"én":340,"vo":341,"▁qué":342,"án":343,"gu":344,"▁nos":345,"▁pr":346,"to,":347,"▁esc":348,"▁ro":349,"▁can":350,"ras":351,"ing":352,"low":353,"▁dej":354,"▁ex":355,"▁mam":356,"',":357,"▁li":358,"iendo":359,"ces":360,"go\r\n":361,"par":362,"▁ne":363,"▁hacer":364,"▁bien":365,"▁ella":366,"il":367,"▁'":368,"▁ba":369,"ta,":370,"▁cl":371,"si":372,"▁así":373,"▁habl":374,"▁bus":375,"amos":376,"▁rap":377,"▁sa":378,"▁hace":379,"▁don":380,"cho":381,"▁fu":382,"▁mo":383,"▁cor":384,"▁he":385,"endo":386,"▁imp":387,"tas":388,"bre":389,"man":390,"po":391,"tan":392,"▁res":393,"ens":394,"das":395,"tes":396,"és":397,"ues":398,"ento":399,"▁pon":400,"▁bar":401,"ir":402,"▁flow":403,"!\r\n":404,"gar":405,"▁nun":406,"za":407,"ver":408,"▁todos":409,"ic":410,"▁fue":411,"▁has":412,"▁pro":413,"▁sol":414,"▁bo":415,"▁dis":416,"▁cos":417,"cen":418,"or\r\n":419,"os,":420,"▁th":421,"▁bab":422,"▁yeah\r\n":423,"▁nunca":424,"jo":425,"car":426,"▁buen":427,"da,":428,"▁pre":429,"▁dice":430,"h-":431,"mas":432,"lo,":433,"▁ci":434,"▁hago":435,"▁quiere":436,"▁hoy":437,"▁lu":438,"ru":439,"▁tiene":440,"▁fal":441,"▁ju":442,"den":443,"▁her":444,"era":445,"▁men":446,"▁sh":447,"gan":448,"▁cas":449,"qu":450,"bo":451,"fi":452,"▁vez":453,"▁hasta":454,"▁esa":455,"▁vol":456,"▁mira":457,"ke":458,"ra\r\n":459,"ca\r\n":460,"ren":461,"▁comp":462,"ado":463,"▁mej":464,"al\r\n":465,"s\r\n":466,"se":467,"ame":468,"▁verdad":469,"▁gu":470,"▁baj":471,"▁no,":472,"▁mon":473,"▁be":474,"▁ap":475,"▁mier":476,"tos":477,"▁pla":478,"te,":479,"▁mue":480,"des":481,"ble":482,"▁ey,":483,"▁ho":484,"▁yeah,":485,"er\r\n":486,"ty":487,"cion":488,"▁llam":489,"ez":490,"▁vien":491,"▁mami":492,"▁pal":493,"▁nadi":494,"ten":495,"▁escu":496,"▁sí":497,"co\r\n":498,"ina":499,"t\r\n":500,"▁tiemp":501,"no":502,"▁vas":503,"▁calle":504,".\r\n":505,"▁go":506,"tal":507,"▁du":508,"▁ol":509,"▁cab":510,"▁to'":511,"cha":512,"can":513,"▁mejor":514,"▁sabe":515,"▁herman":516,"▁noch":517,"lo\r\n":518,"vis":519,"▁aun":520,"arme":521,"es,":522,"▁tus":523,"▁bi":524,"as,":525,"rim":526,"ente\r\n":527,"ar,":528,"▁ese":529,"▁vuel":530,"va":531,"▁deci":532,"▁aunque":533,"▁donde":534,"▁sigo":535,"▁muy":536,"lan":537,"▁puedo":538,"▁ab":539,"▁nue":540,"▁vida":541,"▁mar":542,"▁sos":543,"▁pens":544,"▁otra":545,"ía\r\n":546,"ro\r\n":547,"▁perd":548,"▁pis":549,"▁you":550,"▁tam":551,"mb":552,"▁da":553,"ro,":554,"ómo":555,"gun":556,"▁sabes":557,"ando\r\n":558,"▁nada":559,"▁rom":560,"▁saben":561,"▁fr":562,"▁rape":563,"▁acá":564,"con":565,"enci":566,"mo'":567,"do,":568,"ón,":569,"ino":570,"go,":571,"▁tom":572,"la,":573,"quí":574,"▁us":575,"▁nadie":576,"▁pare":577,"▁escri":578,"an\r\n":579,"▁trap":580,"▁muer":581,"▁conmi":582,"▁mierda":583,"ana":584,"ción\r\n":585,"ub":586,"ún":587,"ad":588,"▁aquí":589,"▁fa":590,"▁for":591,"▁do":592,"é\r\n":593,"je":594,"▁barri":595,"▁-":596,"▁my":597,"▁esper":598,"▁ey\r\n":599,"▁toda":600,"ma\r\n":601,"▁fre":602,"▁mas":603,"▁or":604,"gui":605,"r\r\n":606,"▁estás":607,"d\r\n":608,"▁emp":609,"▁pien":610,"co,":611,"▁día":612,"so":613,"ño":614,"▁eres":615,"qué":616,"vo\r\n":617,"▁quer":618,"▁ah,":619,"▁mun":620,"▁vengo":621,"▁cuen":622,"de\r\n":623,"▁the":624,"ga\r\n":625,"▁dos":626,"amo'":627,"▁gus":628,"▁fl":629,"ciendo":630,"at":631,"▁quieren":632,"ja":633,"▁les":634,"▁contra":635,"▁exp":636,"ero\r\n":637,"▁rec":638,"▁and":639,"▁desp":640,"▁ter":641,"▁cambi":642,"na":643,"▁olvi":644,"▁cada":645,"▁ay":646,"la\r\n":647,"z\r\n":648,"▁prim":649,"▁pasa":650,"et":651,"ándo":652,"▁fuck":653,"tor":654,"arte":655,"▁mient":656,"▁real":657,"▁fin":658,"▁oh,":659,"▁val":660,"ce\r\n":661,"▁yeh\r\n":662,"gas":663,"▁mor":664,"▁siento":665,"▁dro":666,"▁no\r\n":667,"▁están":668,"▁viene":669,"▁é":670,"▁desde":671,"▁club":672,"▁pes":673,"▁neg":674,"ción":675,"ste":676,"▁busc":677,"▁gra":678,"▁estar":679,"▁cual":680,"▁gente":681,"▁puta":682,"▁entre":683,"▁otro":684,"dad\r\n":685,"gue":686,"▁ando":687,"▁cómo":688,"▁tran":689,"be":690,"▁dicen":691,"▁eh\r\n":692,"▁cara":693,"▁jue":694,"▁cono":695,"▁gua":696,"▁jo":697,"▁creo":698,"▁suen":699,"▁fe":700,"▁tiempo":701,"a'":702,"por":703,"▁san":704,"▁mucho":705,"ina\r\n":706,"▁quien":707,"▁amor":708,"▁e'":709,"▁ah\r\n":710,"▁¡":711,"▁sus":712,"▁dí":713,"ul":714,"enti":715,"▁qued":716,"▁lo'":717,"▁vo":718,"rovis":719,"▁improvis":720,"▁nen":721,"▁pues":722,"▁cha":723,"eron":724,"▁él":725,"▁cer":726,"▁cora":727,"▁hu":728,"▁fi":729,"▁we":730,"ec":731,"▁van":732,"rar":733,"▁z":734,",\r\n":735,"▁som":736,"...\r\n":737,"jos":738,"▁\"":739,"▁mil":740,"▁frees":741,"▁wh":742,"▁volver":743,"▁freesty":744,"en\r\n":745,"▁eh,":746,"▁medi":747,"▁puede":748,"▁ban":749,"ra,":750,"eli":751,"rr":752,"▁bl":753,"▁esti":754,"era\r\n":755,"▁dime":756,"ento\r\n":757,"los":758,"zo":759,"ia":760,"▁noche":761,"▁on":762,"▁uste":763,"bién":764,"tando":765,"▁igu":766,"▁haciendo":767,"▁escuch":768,"▁despué":769,"▁cla":770,"▁rimas":771,"▁'e":772,"▁din":773,"▁coraz":774,"▁af":775,"▁cuer":776,"le\r\n":777,"▁chi":778,"▁clar":779,"▁también":780,"ca,":781,"ín":782,"▁suel":783,"amente":784,"▁decir":785,"ólo":786,"▁mundo":787,"▁ami":788,"▁pap":789,"ó\r\n":790,"▁bes":791,"▁col":792,"ís":793,"▁sue":794,"▁yeh,":795,"▁ins":796,"▁wa":797,"lla":798,"za\r\n":799,"▁mientras":800,"ven":801,"▁mami,":802,"entro":803,"▁ta":804,"▁bri":805,"▁dar":806,"mo\r\n":807,"▁2":808,"▁baby,":809,"▁tal":810,"▁sólo":811,"cil":812,"on\r\n":813,"▁mí\r\n":814,"▁arri":815,"▁tanto":816,"re\r\n":817,"▁tener":818,"me\r\n":819,"▁¿qué":820,"ya":821,"dor":822,"▁queda":823,"▁ga":824,"pp":825,"▁pan":826,"t,":827,"▁matar":828,"▁fui":829,"▁impor":830,"▁beb":831,"ónde":832,"▁coscu":833,"▁gi":834,"▁fum":835,"llo":836,"▁pres":837,"▁senti":838,"▁ahí":839,"▁antes":840,"ario\r\n":841,"cuen":842,"▁después":843,"yo":844,"▁encon":845,"o'\r\n":846,"▁nada\r\n":847,"▁cri":848,"▁ob":849,"▁pier":850,"fer":851,"▁1":852,"▁tar":853,"▁quién":854,"▁gusta":855,"▁tr":856,"▁veo":857,"▁bail":858,"cas":859,"i\r\n":860,"▁gran":861,"▁vis":862,"ero,":863,"▁much":864,"▁ton":865,"▁ir":866,"▁pregun":867,"▁estilo":868,"mm":869,"▁proble":870,"▁parece":871,"tar\r\n":872,"▁pus":873,"▁doy":874,"▁barrio":875,"s,":876,"th":877,"vel":878,"▁dem":879,"▁gri":880,"▁mone":881,"das\r\n":882,"▁all":883,"ur":884,"▁era":885,"▁tri":886,"▁enci":887,"lex":888,"▁hip":889,"▁igual":890,"▁todas":891,"dr":892,"ve\r\n":893,"▁reg":894,"▁min":895,"▁hijo":896,"▁conmigo":897,"tch":898,"▁rep":899,"▁wo":900,"▁poder":901,"▁esos":902,"tin":903,"▁mill":904,"▁agu":905,"cia":906,"▁inter":907,"▁respe":908,"▁falta":909,"▁palab":910,"cí":911,"▁pun":912,"▁au":913,"▁nues":914,"▁algo":915,"▁pen":916,"▁guer":917,"in'":918,"é,":919,"▁pren":920,"▁sho":921,"mente":922,"aste":923,"toy":924,"tros":925,"▁tranqui":926,"io":927,"ito":928,"▁baby":929,"▁poco":930,"▁pienso":931,"▁term":932,"jer":933,"▁rapero":934,"▁cabr":935,"▁vamos":936,"ale":937,"▁ad":938,"▁sale":939,"cto":940,"ki":941,"▁mismo":942,"▁rima":943,"ando,":944,"▁nig":945,"▁veces":946,"▁mom":947,"▁estamos":948,"▁encontr":949,"tas\r\n":950,"▁má":951,"▁papi":952,"p\r\n":953,"▁dentro":954,"enta":955,"▁cualqui":956,"▁bas":957,"▁amor\r\n":958,"ma,":959,"w\r\n":960,"or,":961,"▁'toy":962,"cos":963,"ga,":964,"sa":965,"▁enten":966,"ones":967,"▁loco":968,"▁i'":969,"▁jun":970,"▁ke":971,"ka":972,"▁cul":973,"e'":974,"▁fuer":975,"dos\r\n":976,"▁pol":977,"▁sea":978,"du":979,"▁mer":980,"▁vivo":981,"▁tienen":982,"l\r\n":983,"tos\r\n":984,"▁tumb":985,"▁neces":986,"p,":987,"▁fam":988,"▁freestyle":989,"baj":990,"▁perdi":991,"▁uh,":992,"▁dispar":993,"tre":994,"▁cin":995,"▁dónde":996,"▁mic":997,"▁estu":998,"▁dejo":999,"▁mañ":1000,"▁mí,":1001,"▁sí,":1002,"▁droga":1003,"dí":1004,"ut":1005,"▁flex":1006,"mbre":1007,"▁hermano":1008,"▁menos":1009,"▁bitch":1010,"dar":1011,"▁dol":1012,"▁uno":1013,"▁yo,":1014,"▁quieres":1015,"▁der":1016,"▁diab":1017,"tes\r\n":1018,"▁hom":1019,"▁bal":1020,"▁oh\r\n":1021,"iste":1022,"ros":1023,"▁is":1024,"▁ning":1025,"▁han":1026,"der\r\n":1027,"▁prin":1028,"▁pongo":1029,"▁morir":1030,"van":1031,"▁hue":1032,"▁llor":1033,"▁menti":1034,"▁i'm":1035,"d,":1036,"▁eh":1037,"▁tres":1038,"aba":1039,"▁trai":1040,"▁yo\r\n":1041,"o',":1042,"les":1043,"rando":1044,"á\r\n":1045,"▁equi":1046,"▁dame":1047,"▁ay,":1048,"▁esp":1049,"▁estos":1050,"ce,":1051,"▁sobre":1052,"▁cosas":1053,"ine":1054,"h-e":1055,"\"\r\n":1056,"ba\r\n":1057,"▁agar":1058,"▁digo":1059,"lla\r\n":1060,"▁kno":1061,"▁dejar":1062,"▁dan":1063,"ario":1064,"ños":1065,"▁cui":1066,"ona":1067,"▁mú":1068,"▁like":1069,"gi":1070,"▁pega":1071,"▁hablar":1072,"mos\r\n":1073,"orm":1074,"▁chic":1075,"▁bueno,":1076,"po,":1077,"▁estas":1078,"▁bajo":1079,"▁br":1080,"▁segui":1081,"▁ojos":1082,"idad":1083,"▁tira":1084,"▁apar":1085,"▁vo'":1086,"▁dij":1087,"▁pueden":1088,"▁llama":1089,"zar":1090,"▁nombre":1091,"▁señ":1092,"▁vivi":1093,"▁músi":1094,"-a":1095,"cio":1096,"▁dios":1097,"▁dijo":1098,"▁rit":1099,"▁noso":1100,"?,":1101,"pa\r\n":1102,"vo,":1103,"che":1104,"h-o":1105,"las":1106,"▁ey":1107,"▁lleg":1108,"▁batal":1109,"▁arriba":1110,"mo,":1111,"ora\r\n":1112,"ern":1113,"▁nivel":1114,"▁bai":1115,"mar":1116,"ña":1117,"▁plan":1118,"▁bro":1119,"▁chu":1120,"▁arg":1121,"▁llen":1122,"▁odi":1123,"▁vie":1124,"▁mano":1125,"▁luz":1126,"uela":1127,"▁ja":1128,"▁entien":1129,"▁conf":1130,"▁habla":1131,"▁ki":1132,"▁somos":1133,"▁rev":1134,"▁más\r\n":1135,"▁mucha":1136,"▁dé":1137,"an,":1138,"ante":1139,"▁la'":1140,"po\r\n":1141,"ores":1142,"in\r\n":1143,"▁salgo":1144,"▁casi":1145,"'t":1146,"bra":1147,"emos":1148,"▁ún":1149,"▁culo":1150,"▁ganar":1151,"▁minu":1152,"er,":1153,"▁pers":1154,"▁estaba":1155,"ion":1156,"tri":1157,"▁encuen":1158,"▁ti\r\n":1159,"▁che":1160,"▁escen":1161,"▁sang":1162,"▁importa":1163,"▁princi":1164,"ea":1165,"ni":1166,"▁simp":1167,"tras":1168,"▁yeah":1169,"▁cuenta":1170,"▁mes":1171,"▁dra":1172,"▁ale":1173,"▁cua":1174,"▁¿c":1175,"elo":1176,"ico":1177,"▁ellos":1178,"▁conti":1179,"▁shi":1180,"▁apren":1181,"eza":1182,"g\r\n":1183,"jo\r\n":1184,"lar":1185,"▁ace":1186,"▁buscar":1187,"▁juro":1188,"▁club,":1189,"▁mente":1190,"▁ron":1191,"▁gano":1192,"...":1193,"▁tienes":1194,"▁nuevo":1195,"dre":1196,"mien":1197,"▁ele":1198,"▁har":1199,"▁bu":1200,"▁fo":1201,"▁sub":1202,"▁trabaj":1203,"▁mujer":1204,"elo\r\n":1205,"ing\r\n":1206,"▁gol":1207,"▁recuer":1208,"▁os":1209,"▁sigue":1210,"▁segu":1211,"▁je":1212,"▁tiro":1213,"tro\r\n":1214,"▁llev":1215,"▁expli":1216,"▁buscando":1217,"ung":1218,"llo\r\n":1219,"▁coscull":1220,"w,":1221,"▁due":1222,"▁tenés":1223,"▁despi":1224,"▁vamo'":1225,"éndo":1226,"▁solamente":1227,"▁hermano,":1228,"'s":1229,"ber":1230,"▁qu":1231,"▁enam":1232,"al,":1233,"▁feli":1234,"▁of":1235,"▁llega":1236,"▁llevo":1237,"▁hablando":1238,"▁recor":1239,"cando":1240,"▁fres":1241,"▁cons":1242,"▁raper":1243,"▁encima":1244,"ita":1245,"▁vida\r\n":1246,"▁jus":1247,"ado\r\n":1248,"ces\r\n":1249,"gra":1250,"io\r\n":1251,"▁oy":1252,"▁cien":1253,"cho\r\n":1254,"de,":1255,"▁anda":1256,"▁sali":1257,"u,":1258,"uh\r\n":1259,"ío":1260,"▁cru":1261,"▁mie":1262,"cia\r\n":1263,"▁it":1264,"▁enton":1265,"▁forma":1266,"pon":1267,"▁esca":1268,"▁camin":1269,"▁medio":1270,"▁ustedes":1271,"▁argent":1272,"▁mol":1273,"aron":1274,"▁estre":1275,"▁hici":1276,"▁extra":1277,"▁bien\r\n":1278,"diendo":1279,"ré":1280,"▁def":1281,"▁ense":1282,"▁gor":1283,"▁nada,":1284,"▁mueve":1285,"▁suena":1286,"▁brill":1287,"lti":1288,"▁fav":1289,"ño\r\n":1290,"ano":1291,"ana\r\n":1292,"▁mata":1293,"ciones":1294,"▁termin":1295,"zo\r\n":1296,"▁mari":1297,"▁esas":1298,"▁young":1299,"▁hacen":1300,"▁sé\r\n":1301,"▁rob":1302,"▁bueno":1303,"encia":1304,"▁obvi":1305,"-e":1306,"g,":1307,"gos":1308,"á,":1309,"▁apa":1310,"▁gas":1311,"▁super":1312,"▁int":1313,"▁deja":1314,"fe":1315,"▁dije":1316,"▁difer":1317,"me,":1318,"▁paso":1319,"▁claro":1320,"ja\r\n":1321,"▁fun":1322,"▁hice":1323,"▁baby\r\n":1324,"▁blun":1325,"una":1326,"▁ciu":1327,"▁nuestro":1328,"pues":1329,"té":1330,"and":1331,"▁cara\r\n":1332,"uela\r\n":1333,"▁uh\r\n":1334,"▁repres":1335,"▁tumbando":1336,"hi":1337,"▁demas":1338,"▁suf":1339,"cer\r\n":1340,"▁puta,":1341,"vos":1342,"▁pos":1343,"▁hor":1344,"▁oh":1345,"▁mal\r\n":1346,"▁empi":1347,"▁olvid":1348,"▁ayu":1349,"▁juego":1350,"▁ves":1351,"tir":1352,"▁don't":1353,"▁pone":1354,"▁corazón":1355,"ed":1356,"▁pin":1357,"cho,":1358,"▁algui":1359,"▁viaj":1360,"▁hacer\r\n":1361,"▁escrib":1362,"▁momento":1363,"ár":1364,"▁tras":1365,"▁ai":1366,"'o":1367,"ty\r\n":1368,"▁esqu":1369,"▁bom":1370,"▁viv":1371,"▁perf":1372,"▁camino":1373,"▁truen":1374,"erto":1375,"ás\r\n":1376,"▁desa":1377,"▁fumo":1378,"▁fuera":1379,"▁muero":1380,"ándome":1381,"▁negro":1382,"ías":1383,"▁dor":1384,"▁mir":1385,"▁¿qui":1386,"▁cuida":1387,"▁person":1388,"i,":1389,"ión\r\n":1390,"▁entr":1391,"▁fren":1392,"▁come":1393,"▁mus":1394,"▁bor":1395,"▁hacerlo":1396,"▁boca":1397,"ve,":1398,"▁blan":1399,"▁compar":1400,"▁cuan":1401,"▁llegar":1402,"▁cans":1403,"▁conmigo\r\n":1404,"▁piens":1405,"uy":1406,"one":1407,"▁dire":1408,"▁vez\r\n":1409,"▁perdón":1410,"ápi":1411,"▁vos\r\n":1412,"▁envi":1413,"▁gir":1414,"▁iba":1415,"▁gana":1416,"▁casa":1417,"▁oro":1418,"▁improvisa":1419,"gar\r\n":1420,"▁lis":1421,"ento,":1422,"amp":1423,"▁estan":1424,"▁alma":1425,"dio":1426,"▁pa'l":1427,"▁pase":1428,"▁aguan":1429,"▁cuatro":1430,"▁cel":1431,"en,":1432,"▁contro":1433,"▁bien,":1434,"encia\r\n":1435,"▁dinero":1436,"cti":1437,"▁puer":1438,"▁vam":1439,"ali":1440,"▁sir":1441,"▁levan":1442,"▁vaya":1443,"▁quiero,":1444,"▁llego":1445,"▁pensar":1446,"▁simple":1447,"▁¿cómo":1448,"▁dormi":1449,"▁habi":1450,"cias":1451,"▁parte":1452,"▁read":1453,"▁infi":1454,"▁pasó":1455,"bir":1456,"▁querés":1457,"▁afue":1458,"ró":1459,"▁ce":1460,"▁cuel":1461,"ala":1462,"ales\r\n":1463,"cio\r\n":1464,"▁arre":1465,"▁rock":1466,"▁hop":1467,"▁romp":1468,"▁whi":1469,"rrum":1470,"▁cualquier":1471,"cre":1472,"h!\r\n":1473,"▁bre":1474,"▁sig":1475,"ame,":1476,"▁muchos":1477,"!!\r\n":1478,"ig":1479,"tá":1480,"▁pl":1481,"ones\r\n":1482,"▁lado":1483,"▁siente":1484,"▁raz":1485,"▁mala":1486,"▁sangre":1487,"pañ":1488,"arme\r\n":1489,"▁nuevo\r\n":1490,"▁suelto":1491,"▁entonces":1492,"ctu":1493,"tó":1494,"▁peli":1495,"ante\r\n":1496,"▁novi":1497,"alo":1498,"omo":1499,"▁ge":1500,"▁yah\r\n":1501,"▁pasar":1502,"▁busca":1503,"▁flow,":1504,"▁sentir":1505,"▁alguien":1506,"▁dando":1507,"▁hum":1508,"▁ben":1509,"▁temp":1510,"▁reci":1511,"▁sacar":1512,"▁baja":1513,"▁rapear":1514,"▁encontrar":1515,"▁mañana":1516,"cor":1517,"▁mío":1518,"▁guar":1519,"▁rompe":1520,"▁palabras":1521,"00":1522,"u\r\n":1523,"va\r\n":1524,"ág":1525,"ía,":1526,"▁pri":1527,"▁meto":1528,"▁tier":1529,"▁this":1530,"ppin":1531,"▁give":1532,"gando":1533,"ha":1534,"ili":1535,"mor":1536,"tiendo":1537,"▁dri":1538,"▁norm":1539,"▁puedes":1540,"▁ganas":1541,"▁escon":1542,"▁abaj":1543,"▁frente":1544,"▁humo":1545,"cta":1546,"ido":1547,"ito\r\n":1548,"mas\r\n":1549,"sy":1550,"▁dos\r\n":1551,"▁adi":1552,"▁hmm":1553,"▁compe":1554,"▁mato":1555,"▁cham":1556,"▁ver\r\n":1557,"▁pide":1558,"▁quiero\r\n":1559,"▁pele":1560,"▁vale":1561,"▁enseñ":1562,"-na":1563,"▁que\r\n":1564,"▁bol":1565,"▁fá":1566,"▁perman":1567,"▁wan":1568,"▁'ta":1569,"▁saco":1570,"és\r\n":1571,"▁plata":1572,"▁todav":1573,"▁voz":1574,"br":1575,"im":1576,"▁sk":1577,"▁años":1578,"▁demos":1579,"▁si,":1580,"▁conci":1581,"▁chan":1582,"cul":1583,"▁esperando":1584,"▁explo":1585,"▁respeto":1586,"eta":1587,"▁mc":1588,"▁segun":1589,"▁tuyo":1590,"melo":1591,"▁capi":1592,"▁salir":1593,"▁campe":1594,"▁cosa":1595,"▁pensando":1596,"▁piso,":1597,"▁escribo":1598,"ther":1599,"▁má'":1600,"cin":1601,"ia\r\n":1602,"oo":1603,"▁án":1604,"▁nota":1605,"▁saber":1606,"▁hizo":1607,"▁lugar":1608,"▁she":1609,"ciones\r\n":1610,"▁rapeo":1611,"▁cuerpo":1612,"▁déj":1613,"des\r\n":1614,"fon":1615,"gún":1616,"▁x":1617,"▁lue":1618,"▁dom":1619,"▁siendo":1620,"▁conta":1621,"le,":1622,"▁oke":1623,"▁cho":1624,"▁traje":1625,"▁podr":1626,"▁pelo":1627,"▁cier":1628,"▁mira,":1629,"▁tiempo\r\n":1630,"▁envidi":1631,"__":1632,"dan":1633,"▁ú":1634,"▁sent":1635,"▁tor":1636,"▁his":1637,"▁digan":1638,"▁algun":1639,"▁caden":1640,"▁pasti":1641,"▁pasado":1642,"▁prefi":1643,"▁fumando":1644,"▁nosotros":1645,"▁fácil":1646,"-n":1647,"ám":1648,"ño,":1649,"▁duer":1650,"all":1651,"ame\r\n":1652,"que\r\n":1653,"▁perder":1654,"▁poca":1655,"▁hablo":1656,"ument":1657,"▁mami\r\n":1658,"▁trap,":1659,"▁nena":1660,"▁cris":1661,"▁seguir":1662,"▁único":1663,"ión":1664,"ton":1665,"▁pel":1666,"▁aque":1667,"esta":1668,"a,\r\n":1669,"▁vida,":1670,"▁tiran":1671,"▁más,":1672,"▁piel":1673,"▁uo":1674,"▁tanta":1675,"▁piso":1676,"mando":1677,"▁dal":1678,"▁viendo":1679,"▁mi\r\n":1680,"▁toca":1681,"▁pido":1682,"▁todo'":1683,"ck\r\n":1684,"▁futu":1685,"▁nadie\r\n":1686,"▁fron":1687,"▁problema":1688,"h-eh\r\n":1689,"-b":1690,"gh":1691,"ye":1692,"▁ñ":1693,"▁cump":1694,"dido":1695,"▁inf":1696,"▁cai":1697,"▁amar":1698,"▁clas":1699,"▁visto":1700,"▁famili":1701,"nos":1702,"▁cli":1703,"▁dale":1704,"▁entra":1705,"▁encan":1706,"▁asi":1707,"▁sé,":1708,"▁cree":1709,"▁flow\r\n":1710,"▁fuego":1711,"▁empez":1712,"▁vivir":1713,"k\r\n":1714,"▁slow":1715,"▁lar":1716,"iente":1717,"llas":1718,"▁ru":1719,"ing,":1720,"▁así\r\n":1721,"bre\r\n":1722,"▁prepar":1723,"▁señor":1724,"bas":1725,"bo\r\n":1726,"eb":1727,"í\r\n":1728,"▁sor":1729,"▁tre":1730,"▁dese":1731,"▁siempre\r\n":1732,"▁volv":1733,"▁comple":1734,"▁verdad,":1735,"▁verdad\r\n":1736,"▁beat":1737,"▁barrio\r\n":1738,"▁primera":1739,"▁papel":1740,"ho":1741,"ara":1742,"▁vino":1743,"ille":1744,"▁hablan":1745,"▁poner":1746,"▁hermano\r\n":1747,"▁what":1748,"▁money":1749,"▁ritmo":1750,"▁oscu":1751,"▁demasi":1752,"'o\r\n":1753,"tum":1754,"▁ham":1755,"esti":1756,"▁mete":1757,"ino\r\n":1758,"ción,":1759,"▁gen":1760,"▁arma":1761,"▁copi":1762,"▁música":1763,"▁afuera":1764,"▁últi":1765,"e'\r\n":1766,"anana":1767,"▁bille":1768,"tis":1769,"mag":1770,"▁¿que":1771,"▁cama":1772,"▁duk":1773,"▁culpa":1774,"▁todavía":1775,"▁demostr":1776,"fr":1777,"m\r\n":1778,"▁atr":1779,"▁haga":1780,"▁oj":1781,"▁quisi":1782,"▁na'\r\n":1783,"▁pillo":1784,"▁así,":1785,"▁sí\r\n":1786,"▁muerte":1787,"▁equivo":1788,"▁know":1789,"▁normal":1790,"cía":1791,"je\r\n":1792,"▁miro":1793,"ales":1794,"cha\r\n":1795,"▁ley":1796,"is\r\n":1797,"▁sube":1798,"▁inv":1799,"▁invi":1800,"▁caus":1801,"▁¿y":1802,"▁acab":1803,"▁corre":1804,"▁¿quién":1805,"ctor":1806,"dés":1807,"gro":1808,"endo\r\n":1809,"▁gil":1810,"▁rey":1811,"melo\r\n":1812,"▁wi":1813,"▁ases":1814,"▁puto":1815,"das,":1816,"▁bueno\r\n":1817,"▁rompo":1818,"▁negro,":1819,"▁chico":1820,"▁puse":1821,"▁perfec":1822,"cto\r\n":1823,"gn":1824,"tt":1825,"x\r\n":1826,"ían":1827,"ome":1828,"▁había":1829,"tur":1830,"▁hous":1831,"▁tampo":1832,"▁quería":1833,"▁días":1834,"▁pierdo":1835,"▁punto":1836,"▁4":1837,"▁vine":1838,"▁flo":1839,"▁imag":1840,"▁¿por":1841,"▁acuer":1842,"▁manos":1843,"▁calle,":1844,"▁traigo":1845,"-o":1846,"▁blo":1847,"▁contes":1848,"ris":1849,"▁quiz":1850,"▁ros":1851,"▁respon":1852,"▁corazón\r\n":1853,"▁guerra":1854,"▁enamor":1855,"-\r\n":1856,"ban":1857,"▁fras":1858,"▁comer":1859,"▁diga":1860,"▁cap":1861,"▁rápi":1862,"▁maldi":1863,"▁mama":1864,"▁escucha":1865,"▁vuelvo":1866,"▁perdí":1867,"▁primero":1868,"▁sueño":1869,"▁instr":1870,"dri":1871,"fu":1872,"za,":1873,"ío\r\n":1874,"▁ment":1875,"▁acer":1876,"erno":1877,"▁hora":1878,"chi":1879,"▁jam":1880,"▁soñ":1881,"▁entiendo":1882,"▁hey,":1883,"▁vuelve":1884,"▁trans":1885,"▁quedar":1886,"▁obviamente":1887,"▁tampoco":1888,"ge":1889,"we":1890,"▁emb":1891,"▁ag":1892,"▁atra":1893,"▁loca":1894,"riendo":1895,"▁inc":1896,"▁mismo\r\n":1897,"▁final":1898,"▁dinero,":1899,"▁tranquilo":1900,"▁baila":1901,"▁shit\r\n":1902,"▁ready":1903,"pli":1904,"ías\r\n":1905,"lo'":1906,"▁gui":1907,"▁algún":1908,"▁tenemos":1909,"▁putas":1910,"▁acti":1911,"▁aman":1912,"eza\r\n":1913,"▁primer":1914,"▁fucking":1915,"▁realidad":1916,"▁club\r\n":1917,"▁humi":1918,"fa":1919,"▁atre":1920,"▁sil":1921,"entar":1922,"▁ricto":1923,"▁roll":1924,"▁vuelta":1925,"▁flas":1926,"▁tarde\r\n":1927,"▁ningun":1928,"▁record":1929,"▁permanent":1930,"▁histor":1931,"mán":1932,"▁tro":1933,"▁ata":1934,"ena":1935,"▁espe":1936,"▁esqui":1937,"▁sient":1938,"▁diez":1939,"▁otros":1940,"▁vio":1941,"▁kil":1942,"▁mamá":1943,"▁full":1944,"▁compr":1945,"ado,":1946,"▁tomo":1947,"▁conmigo,":1948,"▁auto":1949,"▁micro":1950,"▁brin":1951,"▁confun":1952,"▁music":1953,"tos,":1954,"▁mens":1955,"▁lado\r\n":1956,"▁boy":1957,"▁fan":1958,"▁loco,":1959,"▁salu":1960,"▁sino":1961,"▁busco":1962,"▁movi":1963,"▁that":1964,"▁noche\r\n":1965,"▁toma":1966,"▁aquí\r\n":1967,"▁doble":1968,"▁cambio":1969,"▁one":1970,"▁palabra":1971,"▁espero":1972,"▁cosculluela":1973,"▁cuello":1974,"▁instrument":1975,"bu":1976,"r,":1977,"▁mos":1978,"▁aún":1979,"▁espa":1980,"▁gente\r\n":1981,"▁digas":1982,"▁party":1983,"▁alcan":1984,"▁cuán":1985,"▁jaj":1986,"▁será":1987,"▁lleva":1988,"▁uh":1989,"▁uh-":1990,"▁saca":1991,"ico\r\n":1992,"▁luz\r\n":1993,"▁problemas":1994,"▁dale,":1995,"▁vue":1996,"▁ene":1997,"▁bru":1998,"▁unos":1999,"▁parar":2000,"▁parti":2001,"▁il":2002,"▁deses":2003,"▁pasa,":2004,"▁enter":2005,"ter\r\n":2006,"▁rap,":2007,"▁buena":2008,"▁shor":2009,"▁flex,":2010,"▁miedo":2011,"▁favor":2012,"bli":2013,"pe\r\n":2014,"▁lun":2015,"▁quedo":2016,"▁bum":2017,"▁fer":2018,"▁confi":2019,"▁oh-o":2020,"tic":2021,"▁rela":2022,"▁rebo":2023,"▁tir":2024,"▁na'":2025,"▁cie":2026,"fici":2027,"▁regal":2028,"▁interes":2029,"▁ningún":2030,"▁contigo":2031,"▁gela":2032,"▁fronte":2033,"-p":2034,"idad\r\n":2035,"las\r\n":2036,"tón\r\n":2037,"ura":2038,"yas":2039,"▁er":2040,"▁cá":2041,"▁que,":2042,"▁dif":2043,"▁paz":2044,"▁cuar":2045,"cula":2046,"▁vai":2047,"▁entro":2048,"▁cielo\r\n":2049,"▁muere":2050,"▁trapp":2051,"▁conoce":2052,"▁feel":2053,"▁usted":2054,"ke\r\n":2055,"r.":2056,"▁avi":2057,"ano\r\n":2058,"oni":2059,"▁no'":2060,"ina,":2061,"▁loco\r\n":2062,"▁comi":2063,"▁dices":2064,"cado":2065,"res\r\n":2066,"▁descon":2067,"llas\r\n":2068,"▁perre":2069,"▁vers":2070,"▁canto":2071,"▁modo":2072,"▁boo":2073,"▁duro":2074,"▁juego\r\n":2075,"▁amor,":2076,"▁puesto":2077,"▁chapi":2078,"▁darle":2079,"▁diablo":2080,"▁minuti":2081,"▁err":2082,"▁mando":2083,"▁mmm":2084,"▁lan":2085,"▁año":2086,"▁eso'":2087,"ona\r\n":2088,"▁ocu":2089,"▁soy\r\n":2090,"▁sac":2091,"▁corta":2092,"▁disco":2093,"▁cielo":2094,"ble\r\n":2095,"▁papá":2096,"▁color":2097,"▁bebé\r\n":2098,"▁grande":2099,"▁nigga\r\n":2100,"▁mere":2101,"▁ciudad":2102,"ple":2103,"▁avis":2104,"raz":2105,"▁tema":2106,"▁comb":2107,"iento":2108,"▁estru":2109,"▁carr":2110,"▁venir":2111,"▁gang":2112,"▁mother":2113,"▁bote":2114,"▁mejor\r\n":2115,"▁cinco":2116,"▁justo":2117,"▁cues":2118,"eno\r\n":2119,"▁hater":2120,"▁gar":2121,"▁yeh":2122,"ck,":2123,"▁up,":2124,"tura":2125,"▁ayer":2126,"▁droga,":2127,"▁quedan":2128,"▁allá":2129,"-e-":2130,"▁mensaj":2131,"▁desesper":2132,"▁estructu":2133,"-tu":2134,"he":2135,"ica":2136,"tun":2137,"wn":2138,"ó,":2139,"▁deb":2140,"▁fon":2141,"▁tuy":2142,"enta\r\n":2143,"▁tipo":2144,"▁mía\r\n":2145,"▁acos":2146,"▁ropa":2147,"▁hecho":2148,"▁fuego\r\n":2149,"▁dice:":2150,"▁hombre":2151,"▁acep":2152,"▁oye":2153,"▁trueno":2154,"!!":2155,"pas":2156,"▁día\r\n":2157,"▁dec":2158,"▁culo,":2159,"▁ide":2160,"▁tirar":2161,"coh":2162,"▁quiera":2163,"▁prrrum":2164,"▁hoo":2165,"▁cabeza":2166,"▁noches":2167,"▁chain":2168,"▁despier":2169,"▁luego":2170,"▁demasiado":2171,"fuck":2172,"k,":2173,"ler":2174,"m,":2175,"mer":2176,"▁3":2177,"▁có":2178,"end":2179,"oso":2180,"▁siqui":2181,"▁sex":2182,"▁haces":2183,"▁dio":2184,"▁out":2185,"▁pagan":2186,"▁tenga":2187,"▁descan":2188,"▁may":2189,"▁vos,":2190,"▁mierda\r\n":2191,"▁nuev":2192,"▁cuento":2193,"▁gracias":2194,"▁dinero\r\n":2195,"▁micró":2196,"▁micrófon":2197,".r.":2198,"dor\r\n":2199,"gos\r\n":2200,"l,":2201,"ly":2202,"tien":2203,"▁tari":2204,"▁az":2205,"▁me\r\n":2206,"▁bla":2207,"cido":2208,"▁esto,":2209,"▁subir":2210,"▁salam":2211,"▁hijos":2212,"▁manten":2213,"▁liber":2214,"sión\r\n":2215,"tes,":2216,"▁noche,":2217,"▁flor":2218,"▁guapo,":2219,"▁cereb":2220,"▁fuiste":2221,"▁millon":2222,"▁vamo":2223,"▁humil":2224,"hu":2225,"ne":2226,"▁sw":2227,"▁toy":2228,"▁ade":2229,"▁me,":2230,"▁fas":2231,"▁fir":2232,"▁diam":2233,"▁tenía":2234,"▁ti,":2235,"▁madre":2236,"▁aho":2237,"▁rum":2238,"▁cara,":2239,"▁mierda,":2240,"▁ayer\r\n":2241,"▁money,":2242,"▁encuentro":2243,"▁quin":2244,"▁quizás":2245,"▁silenci":2246,"▁siquiera":2247,"&amp":2248,"bar":2249,"bol":2250,"eta\r\n":2251,"gl":2252,"ka\r\n":2253,"ocu":2254,"se\r\n":2255,"▁tí":2256,"▁tin":2257,"▁quedas":2258,"▁eso,":2259,"on,":2260,"▁estil":2261,"▁paro":2262,"▁alcoh":2263,"▁vive":2264,"melo,":2265,"▁desc":2266,"▁caz":2267,"▁pasan":2268,"▁puro":2269,"tar,":2270,"▁lugar\r\n":2271,"▁calle\r\n":2272,"▁chica":2273,"▁seguro":2274,"▁felici":2275,"▁novio":2276,"&amp;":2277,"fe,":2278,"gel":2279,"jo,":2280,"ker":2281,"tán":2282,"uh":2283,"uyo":2284,"zco":2285,"ícil":2286,"▁ev":2287,"uela,":2288,"▁consi":2289,"▁yah,":2290,"entro\r\n":2291,"▁na',":2292,"▁ma',":2293,"▁sola":2294,"▁ahora\r\n":2295,"▁ren":2296,"▁¿s":2297,"▁calien":2298,"▁prendo":2299,"▁compren":2300,"▁pesa":2301,"▁sueno":2302,"▁derri":2303,"▁argentina":2304,"▁intent":2305,"▁simplemente":2306,"▁hmm,":2307,"▁difícil":2308,"▁&amp;":2309,"▁mé":2310,"▁smo":2311,"▁len":2312,"▁cr":2313,"▁fra":2314,"ta'":2315,"▁convi":2316,"▁conse":2317,"▁esté":2318,"tica\r\n":2319,"dir":2320,"▁tirando":2321,"▁capa":2322,"▁estamo'":2323,"mos,":2324,"▁caraj":2325,"▁malo":2326,"▁exis":2327,"▁propi":2328,"▁compli":2329,"▁vienen":2330,"▁to'a":2331,"▁guapo":2332,"▁fiesta":2333,"▁beso":2334,"▁ahí\r\n":2335,"▁puso":2336,"▁cabrón":2337,"▁nigga":2338,"▁dijeron":2339,"▁funer":2340,"▁cuanto":2341,"▁motherfuck":2342,"▁salamand":2343,"▁alcohol":2344,"ba,":2345,"jer\r\n":2346,"nos\r\n":2347,"ras\r\n":2348,"▁za":2349,"▁evi":2350,"▁pú":2351,"▁tru":2352,"▁darte":2353,"▁aqui":2354,"ena\r\n":2355,"▁vari":2356,"▁enfr":2357,"▁siento\r\n":2358,"▁op":2359,"cha,":2360,"quen":2361,"▁wuh\r\n":2362,"▁mujer\r\n":2363,"▁ganar\r\n":2364,"▁serio":2365,"▁manda":2366,"▁hables":2367,"tas,":2368,"uestro":2369,"▁pasado\r\n":2370,"▁nena,":2371,"▁20":2372,"▁bailando":2373,"▁batalla":2374,"▁infierno":2375,"wo":2376,"▁mía":2377,"▁lin":2378,"▁dep":2379,"▁meti":2380,"▁bel":2381,"▁bur":2382,"▁miran":2383,"▁yo'\r\n":2384,"amos\r\n":2385,"loque":2386,"▁pag":2387,"dió":2388,"▁sabés":2389,"▁nie":2390,"▁ante":2391,"▁sador":2392,"▁preocu":2393,"▁jura":2394,"▁heri":2395,"▁got":2396,"▁rapeando":2397,"▁quedó":2398,"▁criti":2399,"▁bailar":2400,"▁muchas":2401,"▁show":2402,"▁chica,":2403,"éndome":2404,"▁wanna":2405,"▁amane":2406,"dando":2407,"tal\r\n":2408,"zc":2409,"▁ech":2410,"anan":2411,"ini":2412,"▁contar":2413,"da'":2414,"able":2415,"▁padre":2416,"▁ma'":2417,"▁cae":2418,"▁verte":2419,"▁pie":2420,"▁haber":2421,"▁tú,":2422,"ense":2423,"▁jugar":2424,"▁tarde":2425,"▁preguntan":2426,"▁cualquiera\r\n":2427,"▁flex\r\n":2428,"▁agarro":2429,"▁recuerdo":2430,"▁ciudad\r\n":2431,"▁aquel":2432,"▁quisiera":2433,"ep":2434,"jas":2435,"ment":2436,"▁dam":2437,"ana,":2438,"▁fla":2439,"▁uni":2440,"▁hagas":2441,"▁viol":2442,"▁inte":2443,"▁cay":2444,"▁niño":2445,"▁pueb":2446,"▁pobre":2447,"▁salí":2448,"▁mane":2449,"tua":2450,"▁prof":2451,"▁sola\r\n":2452,"▁gote":2453,"▁pista":2454,"▁muerto":2455,"▁cambiar":2456,"▁cerca":2457,"▁amigos":2458,"▁nivel\r\n":2459,"▁empiez":2460,"▁sirve":2461,"-tu-tu":2462,"ah\r\n":2463,"ty,":2464,"uvi":2465,"▁suer":2466,"▁crim":2467,"▁dien":2468,"▁enro":2469,"und":2470,"▁bos":2471,"▁under":2472,"o,\r\n":2473,"▁tendr":2474,"▁vivo\r\n":2475,"▁subo":2476,"▁ah-a":2477,"▁puta\r\n":2478,"lig":2479,"▁up":2480,"▁orgu":2481,"▁freestyle\r\n":2482,"▁claro\r\n":2483,"▁morir\r\n":2484,"▁vieja":2485,"▁sorp":2486,"ananau,":2487,"▁enemi":2488,"▁liberta":2489,"ac":2490,"fic":2491,"so\r\n":2492,"uh-":2493,"xi":2494,"▁,":2495,"▁eter":2496,"osi":2497,"▁bro\r\n":2498,"tado":2499,"▁todo\r\n":2500,"▁mad":2501,"▁war":2502,"▁¿no":2503,"der,":2504,"▁hey":2505,"▁respi":2506,"▁solo\r\n":2507,"▁casti":2508,"▁olor":2509,"▁andamos":2510,"▁dime,":2511,"▁amigo":2512,"▁marihu":2513,"▁posi":2514,"▁empieza":2515,"ppin',":2516,"▁podría":2517,"▁familia":2518,"▁lí":2519,"eno":2520,"▁enloque":2521,"▁mirar":2522,"▁haz":2523,"chos":2524,"▁party\r\n":2525,"dido\r\n":2526,"ás,":2527,"▁desta":2528,"▁misma":2529,"▁pura":2530,"▁hit":2531,"▁sincer":2532,"▁manera":2533,"▁libre":2534,"▁rapper":2535,"▁ponen":2536,"▁fall":2537,"▁big":2538,"▁nueva":2539,"▁weón":2540,"▁talento":2541,"▁arriba\r\n":2542,"▁gata":2543,"ppin'":2544,"▁papi,":2545,"▁chupa":2546,"▁it's":2547,"▁moles":2548,"▁encanta":2549,"▁demostrar":2550,"for":2551,"io,":2552,"ko":2553,"no\r\n":2554,"▁ego":2555,"▁mezc":2556,"▁conver":2557,"date":2558,"demos":2559,"▁quieras":2560,"▁vací":2561,"▁¿d":2562,"quito":2563,"▁venga":2564,"▁todo,":2565,"▁cog":2566,"ario,":2567,"▁'tá":2568,"tan\r\n":2569,"▁boca\r\n":2570,"▁disf":2571,"▁juga":2572,"▁perdiendo":2573,"▁perdón,":2574,"▁piso\r\n":2575,"▁-ín":2576,"▁querer":2577,"▁olvidar":2578,"kill":2579,"▁polic":2580,"▁contigo\r\n":2581,"▁escapar":2582,"▁esquina":2583,"▁improvisación\r\n":2584,"▁pelí":2585,"cent":2586,"ke,":2587,"ura\r\n":2588,"▁luna":2589,"▁quemando":2590,"▁temas":2591,"▁cont":2592,"am\r\n":2593,"che\r\n":2594,"▁matar\r\n":2595,"▁ina":2596,"uera\r\n":2597,"▁muri":2598,"▁pudi":2599,"▁exper":2600,"▁corri":2601,"▁casa\r\n":2602,"▁pisto":2603,"▁romper":2604,"▁igual\r\n":2605,"▁decirte":2606,"▁estudi":2607,"▁escenario\r\n":2608,"▁ninguno":2609,"vien":2610,"ña\r\n":2611,"▁mente\r\n":2612,"▁skill":2613,"▁c.r.":2614,"▁tren":2615,"▁debe":2616,"▁bando":2617,"▁far":2618,"cis":2619,"▁compañ":2620,"aban":2621,"▁pa,":2622,"▁relo":2623,"▁real\r\n":2624,"olu":2625,"▁visi":2626,"▁jor":2627,"▁sua":2628,"llos":2629,"▁perder\r\n":2630,"▁vein":2631,"▁pidiendo":2632,"▁ark":2633,"▁tú\r\n":2634,"▁mano\r\n":2635,"▁mover":2636,"▁distin":2637,"▁mirada":2638,"▁apun":2639,"▁hote":2640,"▁andamo'":2641,"ín\r\n":2642,"▁guerra\r\n":2643,"▁canser":2644,"▁abajo":2645,"▁leyen":2646,"▁fantas":2647,"▁minutito,":2648,"▁smoke":2649,"bri":2650,"car\r\n":2651,"hon":2652,"jar":2653,"rari":2654,"vos\r\n":2655,"ús":2656,"▁cue":2657,"▁cero":2658,"▁aco":2659,"▁ave":2660,"▁agra":2661,"▁ello'":2662,"▁meter":2663,"▁diciendo":2664,"▁oí":2665,"▁tuve":2666,"▁toque":2667,"de'":2668,"cep":2669,"▁viste":2670,"▁le'":2671,"▁desper":2672,"▁lasti":2673,"lli":2674,"▁hable":2675,"▁llegan":2676,"▁lluvi":2677,"▁mal,":2678,"▁coca":2679,"gua":2680,"▁rap\r\n":2681,"tante\r\n":2682,"▁buenos":2683,"▁perdon":2684,"▁barrio,":2685,"▁bebé,":2686,"▁tony":2687,"▁cabrón\r\n":2688,"▁necesito":2689,"▁golpe":2690,"▁blunt,":2691,"▁tierra":2692,"-na-n":2693,"▁'tamo'":2694,"▁chapi,":2695,"▁gangs":2696,"▁micrófono":2697,"boy":2698,"les\r\n":2699,"val":2700,"…\r\n":2701,"▁ví":2702,"un,":2703,"▁unas":2704,"▁yo',":2705,"▁get":2706,"▁tum":2707,"▁tenes":2708,"▁ver,":2709,"▁tramp":2710,"▁cama\r\n":2711,"▁tantas":2712,"▁prome":2713,"▁need":2714,"▁buscan":2715,"▁jugando":2716,"▁menor":2717,"▁volvi":2718,"▁monta":2719,"▁escucho":2720,"▁tiempo,":2721,"arme,":2722,"▁decime":2723,"▁muerte\r\n":2724,"▁valor":2725,"▁volver\r\n":2726,"▁tonto,":2727,"▁punta":2728,"▁adentro":2729,"h-oh\r\n":2730,"▁explicar":2731,"▁futuro":2732,"▁ferrari":2733,"▁booty":2734,"▁intelig":2735,"-s":2736,"-ta":2737,"dero":2738,"ete":2739,"má":2740,"pan":2741,"ría":2742,"tí":2743,"yea":2744,"▁5":2745,"▁nub":2746,"▁mi'":2747,"▁mirando":2748,"in',":2749,"▁secre":2750,"▁comien":2751,"▁ou":2752,"▁tocar":2753,"ce'":2754,"▁viern":2755,"▁rato":2756,"ente,":2757,"▁sabe\r\n":2758,"▁verme":2759,"▁rico":2760,"▁artis":2761,"▁sonando":2762,"▁acom":2763,"▁code":2764,"..\r\n":2765,"▁nego":2766,"▁respues":2767,"▁improvisando":2768,"▁zig":2769,"▁afuera\r\n":2770,"▁claro,":2771,"▁pregunta":2772,"▁fama":2773,"▁bitch\r\n":2774,"▁viejo":2775,"▁despierto":2776,"▁hiciste":2777,"▁esquina\r\n":2778,"ámon":2779,"▁atrevi":2780,"▁vuelo":2781,"▁fondo":2782,"▁estilo\r\n":2783,"\",":2784,"gas\r\n":2785,"rá":2786,"ál":2787,"▁ella\r\n":2788,"in,":2789,"▁hacia":2790,"▁oka":2791,"▁rez":2792,"▁remi":2793,"▁vi\r\n":2794,"▁destr":2795,"▁nave":2796,"▁chis":2797,"▁pueda":2798,"▁voy\r\n":2799,"▁¿a":2800,"▁mía,":2801,"▁salv":2802,"▁arro":2803,"lidad":2804,"▁pego":2805,"dos,":2806,"▁tantos":2807,"▁mamá\r\n":2808,"ensa":2809,"▁sol\r\n":2810,"▁quiere'":2811,"▁plaka":2812,"▁tomar":2813,"▁trap\r\n":2814,"▁oro\r\n":2815,"▁flui":2816,"▁fluy":2817,"▁conocen":2818,"▁guapo\r\n":2819,"▁zar":2820,"▁estilo,":2821,"▁nuestra":2822,"▁know\r\n":2823,"▁llegó":2824,"▁hard":2825,"▁foto":2826,"▁miedo\r\n":2827,"▁habita":2828,"▁slow\r\n":2829,"▁decís":2830,"▁¿dónde":2831,"cab":2832,"cos\r\n":2833,"f,":2834,"uh,":2835,"▁pra":2836,"▁abo":2837,"▁eso\r\n":2838,"▁dedi":2839,"▁detr":2840,"▁hon":2841,"▁fri":2842,"▁loca\r\n":2843,"▁glo":2844,"iento\r\n":2845,"▁quie":2846,"▁vi,":2847,"▁nací":2848,"▁ahor":2849,"▁¿cu":2850,"▁mío\r\n":2851,"▁siempre,":2852,"▁ser\r\n":2853,"▁llegue":2854,"▁dejó":2855,"▁bob":2856,"▁dice,":2857,"h-ye":2858,"▁vez,":2859,"▁play":2860,"ezco":2861,"adas\r\n":2862,"▁money\r\n":2863,"▁mañana\r\n":2864,"▁bitch,":2865,"erno\r\n":2866,"▁lleno":2867,"▁bendi":2868,"-po,":2869,"lar,":2870,"ves":2871,"▁sti":2872,"▁lento\r\n":2873,"▁aten":2874,"▁env":2875,"▁ener":2876,"▁fil":2877,"▁sido":2878,"▁gh":2879,"▁subi":2880,"▁caer":2881,"▁perra":2882,"▁pill":2883,"▁peg":2884,"tera":2885,"▁canta":2886,"▁life,":2887,"illo":2888,"▁hablas":2889,"▁hacemos":2890,"▁coron":2891,"▁hey\r\n":2892,"den\r\n":2893,"▁abri":2894,"▁droga\r\n":2895,"▁buscar\r\n":2896,"▁joven":2897,"▁wee":2898,"▁escuchando":2899,"▁cuerpo\r\n":2900,"▁wacho":2901,"▁diablo\r\n":2902,"▁acel":2903,"miento\r\n":2904,"▁raperos":2905,"▁recién":2906,"▁mostr":2907,"▁acostum":2908,"ananau,n":2909,"▁zigza":2910,"-r":2911,"-no":2912,"at\r\n":2913,"bamos":2914,"lando":2915,"▁6":2916,"▁dos,":2917,"ere":2918,"▁ner":2919,"▁mi,":2920,"oma":2921,"cio,":2922,"▁dicho":2923,"aba\r\n":2924,"▁pate":2925,"▁ign":2926,"▁repar":2927,"▁ley\r\n":2928,"▁sur":2929,"▁despe":2930,"▁mai":2931,"▁caer\r\n":2932,"▁¿o":2933,"▁sería":2934,"tura\r\n":2935,"▁back":2936,"▁corto":2937,"▁sold":2938,"▁hago,":2939,"viste":2940,"▁your":2941,"▁rapea":2942,"▁piensa":2943,"▁andar":2944,"▁también\r\n":2945,"▁brillo":2946,"▁encima\r\n":2947,"▁regga":2948,"▁guerr":2949,"▁prende":2950,"▁equipo":2951,"▁chico,":2952,"▁dijiste":2953,"▁gordo":2954,"▁diferencia":2955,"▁ayuda":2956,"▁dormir\r\n":2957,"▁brea":2958,"▁prefiero":2959,"king":2960,"▁té":2961,"▁y\r\n":2962,"arle":2963,"▁va,":2964,"este":2965,"ami":2966,"▁dile":2967,"▁dios\r\n":2968,"ques":2969,"▁tengo\r\n":2970,"▁vir":2971,"▁let":2972,"▁ray":2973,"▁mat":2974,"▁nike":2975,"▁veo\r\n":2976,"▁verso":2977,"▁piden":2978,"▁salen":2979,"▁vengan":2980,"▁mala,":2981,"▁pró":2982,"▁existe":2983,"para":2984,"▁hablar\r\n":2985,"▁moti":2986,"▁apues":2987,"▁mejores":2988,"▁sabe'":2989,"▁bizar":2990,"▁primero\r\n":2991,"▁voz\r\n":2992,"▁media":2993,"▁after":2994,"▁insis":2995,"▁junto":2996,"▁odio":2997,"▁luz,":2998,"▁sufri":2999,"▁siguen":3000,"cci":3001,"e',":3002,"min":3003,"ros\r\n":3004,"ste\r\n":3005,"▁das":3006,"▁ysy":3007,"arte\r\n":3008,"▁meta":3009,"ra'":3010,"▁love":3011,"▁digo\r\n":3012,"▁joy":3013,"▁trata":3014,"tra\r\n":3015,"▁po-po,":3016,"▁arran":3017,"▁canciones":3018,"▁fuma":3019,"▁corte":3020,"tante":3021,"és,":3022,"▁escupo":3023,"▁marci":3024,"▁tamo'":3025,"▁toda'":3026,"▁fluyo":3027,"▁suelta":3028,"▁brilla":3029,"▁fuerte":3030,"▁huevos":3031,"▁nombre\r\n":3032,"▁feliz":3033,"▁escap":3034,"▁extrañ":3035,"▁rompiendo":3036,"▁alguna":3037,"▁killa":3038,"▁instrumental\r\n":3039,"▁crimin":3040,"dien":3041,"llo,":3042,"ís\r\n":3043,"▁pp":3044,"▁stre":3045,"▁dto":3046,"▁dentro\r\n":3047,"▁are":3048,"▁bon":3049,"▁fol":3050,"▁si\r\n":3051,"▁ocas":3052,"▁esto\r\n":3053,"▁parto":3054,"ust":3055,"▁red":3056,"▁tiras":3057,"▁naci":3058,"▁wor":3059,"▁trago":3060,"▁ano":3061,"▁rimas\r\n":3062,"▁ganando":3063,"▁mand":3064,"án\r\n":3065,"▁hablamos":3066,"▁prob":3067,"▁compro":3068,"▁mono":3069,"▁cabeza\r\n":3070,"ándote\r\n":3071,"▁día,":3072,"▁nene":3073,"▁somo'":3074,"▁clavo":3075,"▁wach":3076,"▁24":3077,"▁piern":3078,"▁pende":3079,"▁show\r\n":3080,"▁termina":3081,"▁necesi":3082,"▁derro":3083,"▁agarra":3084,"▁messi":3085,"▁buscar,":3086,"▁qua":3087,"▁with":3088,"▁jamás":3089,"▁actitu":3090,"-c":3091,"aa":3092,"av":3093,"gía":3094,"ido\r\n":3095,"lé":3096,"mis":3097,"nes":3098,"no,":3099,"pa,":3100,"zas":3101,"▁pág":3102,"▁senta":3103,"▁lín":3104,"▁cen":3105,"▁at":3106,"eras":3107,"antes":3108,"▁vin":3109,"▁labi":3110,"▁tex":3111,"▁seman":3112,"▁hago\r\n":3113,"▁die":3114,"▁tur":3115,"▁pad":3116,"tica":3117,"▁cura":3118,"▁ice,":3119,"▁ref":3120,"ola\r\n":3121,"▁letras":3122,"▁delin":3123,"▁sobra":3124,"▁anim":3125,"aje":3126,"aje\r\n":3127,"▁sale\r\n":3128,"▁carga":3129,"▁venez":3130,"▁gang\r\n":3131,"▁arte":3132,"velo":3133,"teri":3134,"tera\r\n":3135,"▁creen":3136,"▁dont":3137,"▁corro":3138,"▁bardero":3139,"▁apro":3140,"▁pali":3141,"▁biza":3142,"▁decir\r\n":3143,"▁nuevo,":3144,"▁escribi":3145,"▁muerto\r\n":3146,"▁olvido":3147,"▁10":3148,"▁gritan":3149,"▁triple":3150,"▁agua":3151,"▁entender":3152,"▁perdido":3153,"▁principi":3154,"▁mujeres":3155,"▁blunt":3156,"▁aire":3157,"▁segundo":3158,"▁capital":3159,"▁pelotu":3160,"▁adelan":3161,"▁disfru":3162,"▁tumba":3163,"▁ghet":3164,"▁reggaet":3165,"be\r\n":3166,"bran":3167,"día":3168,"et\r\n":3169,"f\r\n":3170,"sa\r\n":3171,"▁tos":3172,"▁ya\r\n":3173,"▁hun":3174,"▁enfer":3175,"▁memor":3176,"inas":3177,"tate":3178,"▁locu":3179,"▁parte\r\n":3180,"▁tene":3181,"▁culi":3182,"entos":3183,"▁velo":3184,"▁va'":3185,"▁rui":3186,"dades":3187,"▁mío'":3188,"quis":3189,"▁arru":3190,"▁pegar":3191,"▁creer":3192,"▁escuela\r\n":3193,"▁hacerte":3194,"sión":3195,"▁resuel":3196,"▁barde":3197,"▁fuego,":3198,"▁produ":3199,"▁faltan":3200,"▁compra":3201,"▁apri":3202,"▁plata,":3203,"▁esperan":3204,"▁conoci":3205,"▁gati":3206,"▁huele":3207,"▁cosculluela\r\n":3208,"▁argentina\r\n":3209,"▁directo":3210,"▁celul":3211,"▁abajo\r\n":3212,"▁competi":3213,"▁okey\r\n":3214,"▁reloj":3215,"▁arkano":3216,"▁viernes":3217,"▁pprrum":3218,"2\r\n":3219,"bro":3220,"bel":3221,"gas,":3222,"her":3223,"pos":3224,"rar\r\n":3225,"ser":3226,"tino":3227,"uc":3228,"▁tw":3229,"▁dj":3230,"▁a.":3231,"▁añ":3232,"▁vent":3233,"▁vas\r\n":3234,"oro":3235,"▁cone":3236,"▁contando":3237,"lado":3238,"▁destro":3239,"▁mag":3240,"▁mate":3241,"▁veces\r\n":3242,"▁pies\r\n":3243,"▁vacil":3244,"▁cari":3245,"▁hielo":3246,"▁sonar":3247,"▁code,":3248,"dera\r\n":3249,"▁mamá,":3250,"▁hacer,":3251,"▁buenas":3252,"▁bajar":3253,"▁palo":3254,"▁to's":3255,"▁vueltas":3256,"▁mundo\r\n":3257,"▁expres":3258,"portun":3259,"▁dímelo\r\n":3260,"▁dímelo,":3261,"▁escuchar":3262,"▁suelo":3263,"▁pussy":3264,"tino\r\n":3265,"▁entendés":3266,"▁aparte,":3267,"▁entiende":3268,"▁shit":3269,"▁enamora":3270,"▁oye,":3271,"▁tierra\r\n":3272,"▁hmm\r\n":3273,"▁skr":3274,"▁ángel":3275,"▁déjame":3276,"▁envidia":3277,"▁acuerdo":3278,"▁bloo":3279,"▁rápido":3280,"▁cuánto":3281,"▁ilum":3282,"▁líri":3283,"▁agrade":3284,"▁bizarra":3285,"▁delincuen":3286,"cé":3287,"cal":3288,"ece":3289,"x,":3290,"▁ever":3291,"▁phi":3292,"▁senci":3293,"▁dr":3294,"▁dá":3295,"▁lam":3296,"▁bra":3297,"▁mira\r\n":3298,"ine\r\n":3299,"▁fe\r\n":3300,"▁love\r\n":3301,"ombi":3302,"▁situa":3303,"▁conden":3304,"dado":3305,"cia,":3306,"▁gon":3307,"▁papa":3308,"▁payas":3309,"▁cur":3310,"▁it\r\n":3311,"▁desn":3312,"▁cago":3313,"▁estado":3314,"▁pasar\r\n":3315,"▁ran":3316,"▁rique":3317,"▁pul":3318,"▁peda":3319,"▁calma":3320,"tarme":3321,"▁canción\r\n":3322,"▁deje":3323,"▁limp":3324,"▁corr":3325,"▁gucci":3326,"▁tiempos":3327,"▁from":3328,"▁empres":3329,"▁real,":3330,"▁gente,":3331,"▁besos":3332,"▁pantal":3333,"▁sentimien":3334,"▁grita":3335,"▁triste":3336,"▁million":3337,"▁jai":3338,"▁demasia":3339,"▁sufrim":3340,"▁aire\r\n":3341,"▁pelig":3342,"____":3343,"▁último":3344,"▁atrás":3345,"--":3346,"-ho":3347,"3\r\n":3348,"cus":3349,"fo":3350,"mente\r\n":3351,"oh\r\n":3352,"pu":3353,"á'\r\n":3354,"▁my,":3355,"▁sú":3356,"▁spor":3357,"▁aj":3358,"▁ay\r\n":3359,"▁es\r\n":3360,"▁nomb":3361,"▁bús":3362,"▁una\r\n":3363,"▁siento,":3364,"cito":3365,"▁pagar":3366,"▁paz\r\n":3367,"▁toa'":3368,"▁alto":3369,"ti\r\n":3370,"▁rey\r\n":3371,"▁jes":3372,"▁yeh-ye":3373,"tru":3374,"▁vapor":3375,"▁ré":3376,"▁sonri":3377,"▁peor":3378,"▁cot":3379,"▁cole":3380,"▁creo\r\n":3381,"to,\r\n":3382,"amos,":3383,"▁resul":3384,"▁llamo":3385,"▁fort":3386,"▁terr":3387,"ándole":3388,"▁mientra'":3389,"▁fek":3390,"▁volverte":3391,"▁fumar":3392,"▁sentido\r\n":3393,"▁cualquiera":3394,"▁dolor\r\n":3395,"▁dere":3396,"▁baila,":3397,"▁escenario":3398,"▁duele":3399,"▁rapero\r\n":3400,"▁favor,":3401,"▁represent":3402,"▁bomba":3403,"▁directa":3404,"▁infierno\r\n":3405,"▁explota":3406,"▁domin":3407,"▁hambre":3408,"▁tarima\r\n":3409,"▁azul":3410,"▁canserb":3411,"▁hardcor":3412,"▁bardero$":3413,"ao":3414,"bal":3415,"cas\r\n":3416,"cón\r\n":3417,"jos\r\n":3418,"lla,":3419,"pero":3420,"tando\r\n":3421,"tre\r\n":3422,"uh!\r\n":3423,"ví":3424,"▁eu":3425,"▁eran":3426,"▁eh-eh\r\n":3427,"▁llo":3428,"▁ya,":3429,"▁quema":3430,"oso\r\n":3431,"▁deto":3432,"▁decí":3433,"▁nova":3434,"▁há":3435,"▁bro,":3436,"▁concep":3437,"▁hag":3438,"▁gal":3439,"▁gru":3440,"▁toc":3441,"▁to'\r\n":3442,"▁cuad":3443,"dio\r\n":3444,"▁vide":3445,"▁leg":3446,"▁jar":3447,"▁ja\r\n":3448,"tran":3449,"▁vay":3450,"▁pow":3451,"▁podés":3452,"arios\r\n":3453,"▁tanto\r\n":3454,"▁can\r\n":3455,"il\r\n":3456,"▁imper":3457,"▁duki":3458,"▁vuelve,":3459,"▁pensar\r\n":3460,"▁frente\r\n":3461,"▁escribir":3462,"▁cuenta\r\n":3463,"▁juego,":3464,"▁chain\r\n":3465,"▁clap":3466,"▁amigo\r\n":3467,"▁inspi":3468,"▁gato":3469,"▁regres":3470,"▁woh\r\n":3471,"▁má',":3472,"▁culpa\r\n":3473,"▁tres\r\n":3474,"▁chicos":3475,"▁nosotro":3476,"▁alej":3477,"▁llevar":3478,"▁recordar":3479,"▁estrella":3480,"▁brillar":3481,"▁girl\r\n":3482,"▁ñen":3483,"▁flash":3484,"▁versos":3485,"▁¿sab":3486,"▁tenemo'":3487,"-li":3488,"egu":3489,"ie":3490,"n\r\n":3491,"ud":3492,"▁...\r\n":3493,"▁mero":3494,"▁sna":3495,"▁cero\r\n":3496,"▁do'":3497,"▁nar":3498,"▁dev":3499,"▁eno":3500,"▁mita":3501,"ales,":3502,"tado\r\n":3503,"▁tele":3504,"▁convien":3505,"ama":3506,"▁sel":3507,"▁compi":3508,"▁combo":3509,"▁ola":3510,"chu":3511,"▁toca\r\n":3512,"▁pararme":3513,"usti":3514,"▁imi":3515,"▁rece":3516,"▁recon":3517,"▁tiren":3518,"▁mato\r\n":3519,"gado":3520,"▁pibe":3521,"▁traje\r\n":3522,"▁pasa\r\n":3523,"cer,":3524,"▁gané":3525,"▁mala\r\n":3526,"▁call":3527,"tero\r\n":3528,"▁crey":3529,"▁prr\r\n":3530,"▁'tán":3531,"▁don\r\n":3532,"▁imposi":3533,"h-yea":3534,"▁volando":3535,"▁llaman":3536,"▁callej":3537,"▁duro,":3538,"▁facil":3539,"▁espera":3540,"▁mundi":3541,"▁cambia":3542,"eron\r\n":3543,"▁bang,":3544,"▁21":3545,"▁wow,":3546,"▁tranquilo,":3547,"▁momento\r\n":3548,"▁estudio":3549,"▁ninguna":3550,"▁traicion":3551,"▁agarre":3552,"▁drama\r\n":3553,"▁elegan":3554,"▁bull":3555,"▁cruz":3556,"▁blunt\r\n":3557,"▁horas\r\n":3558,"▁viaje":3559,"▁concierto":3560,"▁campeón":3561,"▁déjà":3562,"▁ñer":3563,"▁click":3564,"▁uh-uh-":3565,"▁descans":3566,"▁cerebro":3567,"▁ignor":3568,"-y":3569,"ada":3570,"ada\r\n":3571,"na\r\n":3572,"pable":3573,"rí":3574,"tón":3575,"▁eras":3576,"▁lento":3577,"▁tes":3578,"▁den":3579,"▁abre":3580,"aste\r\n":3581,"▁log":3582,"▁conec":3583,"▁sepa":3584,"▁haci":3585,"cie":3586,"▁g\r\n":3587,"▁todos\r\n":3588,"dez\r\n":3589,"▁reí":3590,"cado\r\n":3591,"ol\r\n":3592,"▁ley,":3593,"▁jos":3594,"▁ja,":3595,"ismo\r\n":3596,"▁descar":3597,"▁maes":3598,"▁pero\r\n":3599,"▁estai":3600,"▁rar":3601,"▁rif":3602,"▁rim":3603,"▁rimar":3604,"▁poquito":3605,"▁asegu":3606,"▁gang,":3607,"▁manos\r\n":3608,"▁uu":3609,"▁dejé":3610,"▁ponga":3611,"▁comprar":3612,"▁montón\r\n":3613,"ten\r\n":3614,"tale":3615,"can\r\n":3616,"▁perdón\r\n":3617,"▁acá,":3618,"▁acá\r\n":3619,"▁tomando":3620,"▁trapper":3621,"▁finde\r\n":3622,"▁pesar":3623,"▁grati":3624,"▁bebé":3625,"▁gira":3626,"▁interi":3627,"▁keep":3628,"▁fuerza":3629,"▁necesito\r\n":3630,"▁dolor":3631,"▁espal":3632,"h-eh-eh\r\n":3633,"▁know,":3634,"▁aparte":3635,"▁dijo,":3636,"▁aprendí":3637,"▁dueño":3638,"▁ofre":3639,"▁lista":3640,"▁drippin'":3641,"▁okey,":3642,"▁cristal":3643,"▁cumpli":3644,"▁caigo":3645,"ttle":3646,"▁mamaci":3647,"▁gelato,":3648,"▁cámar":3649,"▁cuarto":3650,"▁hitboy":3651,"▁-ína,":3652,"▁película":3653,"▁fortni":3654,"-lo":3655,"ría\r\n":3656,"yec":3657,"▁0":3658,"▁muestro":3659,"▁pana":3660,"▁lápi":3661,"▁cir":3662,"▁tab":3663,"▁ama":3664,"▁aga":3665,"▁queri":3666,"▁quede":3667,"ese":3668,"remos":3669,"▁fran":3670,"▁estar\r\n":3671,"▁reti":3672,"dida":3673,"▁sufici":3674,"▁desas":3675,"▁perro":3676,"▁persi":3677,"▁wal":3678,"▁pica":3679,"▁trato":3680,"▁quiera\r\n":3681,"▁ani":3682,"▁rí":3683,"▁río":3684,"▁rico\r\n":3685,"▁pocos":3686,"▁asus":3687,"▁hier":3688,"▁ganar,":3689,"▁entero":3690,"▁arte\r\n":3691,"▁pedir":3692,"▁actu":3693,"arios":3694,"▁ua":3695,"▁prue":3696,"▁rott":3697,"▁canción":3698,"▁bienven":3699,"▁impres":3700,"▁resto":3701,"▁falso":3702,"▁mirada\r\n":3703,"▁pal'":3704,"▁marca":3705,"▁marad":3706,"▁pista\r\n":3707,"▁olvido\r\n":3708,"ándote":3709,"▁quedarme":3710,"▁corazón,":3711,"▁entendi":3712,"▁diablo,":3713,"▁mentira":3714,"▁nosotr":3715,"▁minuto":3716,"▁trabajo\r\n":3717,"▁feliz\r\n":3718,"▁constr":3719,"▁moll":3720,"▁hicimos":3721,"▁cuidado":3722,"▁oscuri":3723,"▁invent":3724,"▁asesin":3725,"▁salamandra\r\n":3726,"▁amanecer\r\n":3727,"▁sincero\r\n":3728,"▁lluvia":3729,"-na-na\r\n":3730,"▁detrás":3731,"-i":3732,"dd":3733,"don":3734,"nic":3735,"á'":3736,"▁á":3737,"▁sam":3738,"▁lento,":3739,"▁av":3740,"▁nana":3741,"▁esco":3742,"▁enga":3743,"▁fues":3744,"oma\r\n":3745,"▁sim":3746,"▁sienta":3747,"▁conten":3748,"▁hacía":3749,"▁game\r\n":3750,"▁pau":3751,"▁país":3752,"▁top":3753,"▁quise":3754,"▁ice\r\n":3755,"▁matando":3756,"▁sabor":3757,"▁sabe,":3758,"▁perra\r\n":3759,"▁verte\r\n":3760,"▁quieran":3761,"▁anti":3762,"▁vendo":3763,"▁gano\r\n":3764,"▁entera\r\n":3765,"▁son\r\n":3766,"dose":3767,"▁malo\r\n":3768,"▁calor":3769,"▁haya":3770,"▁amar\r\n":3771,"▁up\r\n":3772,"▁qué\r\n":3773,"▁can,":3774,"▁hace\r\n":3775,"▁moja":3776,"▁resis":3777,"▁precio":3778,"▁casa,":3779,"▁volar":3780,"eza,":3781,"▁abra":3782,"▁tomé":3783,"▁primera\r\n":3784,"▁peso":3785,"▁negro\r\n":3786,"▁hubi":3787,"▁mil\r\n":3788,"▁miles":3789,"▁bles":3790,"▁ustede'":3791,"▁clav":3792,"▁tatu":3793,"▁tonto":3794,"▁hip-ho":3795,"▁poder\r\n":3796,"▁basta":3797,"▁dollar,":3798,"▁hander":3799,"▁bron":3800,"▁música,":3801,"▁sangre\r\n":3802,"▁quí":3803,"▁apaga":3804,"▁gasto":3805,"▁trash,":3806,"▁desay":3807,"▁mirar\r\n":3808,"▁arreba":3809,"▁última":3810,"▁duko":3811,"▁causa":3812,"▁imagin":3813,"▁permanent,":3814,"▁historia":3815,"▁carrera":3816,"▁pueblo":3817,"▁nervi":3818,")\r\n":3819,"gen":3820,"ja,":3821,"lam":3822,"ph":3823,"ína":3824,"▁(":3825,"▁mué":3826,"▁plas":3827,"▁cra":3828,"▁yan":3829,"▁encer":3830,"▁blow":3831,"▁bir":3832,"▁fo\r\n":3833,"▁sic":3834,"cir":3835,"▁oportun":3836,"cel":3837,"▁tení":3838,"▁repi":3839,"▁lejos":3840,"▁ma'\r\n":3841,"▁sabiendo":3842,"▁cach":3843,"▁pa'ca\r\n":3844,"vio":3845,"▁vac":3846,"▁rimo":3847,"▁rima,":3848,"▁poes":3849,"▁ganas\r\n":3850,"▁llan":3851,"▁hablen":3852,"▁mov":3853,"▁prote":3854,"os,\r\n":3855,"▁dice\r\n":3856,"▁frío":3857,"▁mueren":3858,"▁down":3859,"et,":3860,"▁fies":3861,"▁rimas,":3862,"▁wacho,":3863,"▁tenerte":3864,"▁encontra":3865,"▁millón\r\n":3866,"▁entender\r\n":3867,"▁kelo":3868,"bajo":3869,"▁mentira\r\n":3870,"▁llena":3871,"▁revien":3872,"▁escena":3873,"▁draco,":3874,"▁estrellas\r\n":3875,"▁viviendo":3876,"▁aguanto":3877,"▁razón":3878,"▁prisión\r\n":3879,"▁competir":3880,"▁cadena":3881,"▁familia\r\n":3882,"▁frases":3883,"▁incl":3884,"▁mantengo":3885,"▁fracas":3886,"▁suerte":3887,"▁directamente":3888,"▁snap":3889,"▁rottwe":3890,"▁fuese":3891,"-u":3892,"bl":3893,"bres":3894,"dam":3895,"gü":3896,"i'":3897,"itos":3898,"jas\r\n":3899,"lle":3900,"é'":3901,"ísi":3902,"▁és":3903,"▁phon":3904,"▁sana":3905,"▁sensa":3906,"▁lla":3907,"▁dó":3908,"▁vámon":3909,"▁lamb":3910,"rame,":3911,"▁loca,":3912,"▁seas":3913,"▁otras":3914,"▁para\r\n":3915,"▁letra":3916,"▁level":3917,"▁natur":3918,"▁tengo,":3919,"▁rato\r\n":3920,"▁inten":3921,"▁sole":3922,"▁pied":3923,"▁pot":3924,"▁veneno\r\n":3925,"▁hig":3926,"▁qué,":3927,"▁escal":3928,"▁escuela":3929,"▁dejes":3930,"▁pones":3931,"▁boom":3932,"▁juz":3933,"▁caso":3934,"▁bee":3935,"▁apoy":3936,"▁hop\r\n":3937,"encia,":3938,"▁muero\r\n":3939,"▁aquí,":3940,"▁fuckin'":3941,"a'o,":3942,"▁clava":3943,"▁200":3944,"▁arriba,":3945,"dora\r\n":3946,"▁demoni":3947,"▁juntos":3948,"▁poli":3949,"▁merce":3950,"▁música\r\n":3951,"▁llegué":3952,"▁cheque":3953,"▁subiendo":3954,"▁cosculluela,":3955,"▁defiendo":3956,"▁robar":3957,"▁obvio":3958,"▁represento":3959,"▁olvidar\r\n":3960,"▁personas":3961,"▁plu":3962,"-na-na":3963,"▁algunos":3964,"▁duermo":3965,"▁embar":3966,"▁boy\r\n":3967,"▁silencio":3968,"▁púr":3969,"▁empiezo":3970,"▁dientes":3971,"▁warri":3972,"▁bandol":3973,"▁¿cuán":3974,"▁recono":3975,"▁uh-uh-uh\r\n":3976,"-wo":3977,"a',":3978,"cas,":3979,"diente":3980,"ger":3981,"id":3982,"ión,":3983,"men":3984,"pl":3985,"▁ee":3986,"▁eas":3987,"▁pá":3988,"▁pelo\r\n":3989,"▁stu":3990,"▁qe":3991,"▁nu":3992,"▁debajo":3993,"▁hen":3994,"▁hora\r\n":3995,"▁enca":3996,"ines":3997,"rate":3998,"▁uno\r\n":3999,"▁siete":4000,"▁contr":4001,"rou":4002,"▁sean":4003,"cias\r\n":4004,"▁dios,":4005,"▁dieron":4006,"che,":4007,"▁toco":4008,"use":4009,"▁lebr":4010,"▁soy,":4011,"▁tire":4012,"▁tick":4013,"▁maqu":4014,"▁ino":4015,"▁cag":4016,"▁estabas":4017,"▁char":4018,"▁pies":4019,"bia":4020,"▁poco\r\n":4021,"▁podemos":4022,"▁carro":4023,"▁vendiendo":4024,"▁pure":4025,"lip":4026,"▁pea":4027,"▁coc":4028,"aria":4029,"▁ubi":4030,"▁roto":4031,"uestra":4032,"▁nunca\r\n":4033,"▁disco\r\n":4034,"▁luces":4035,"▁jug":4036,"▁montan":4037,"▁apre":4038,"▁dur":4039,"▁mejores\r\n":4040,"▁hermanos":4041,"▁abur":4042,"▁empa":4043,"▁cuento\r\n":4044,"▁andan":4045,"gaste":4046,"▁días\r\n":4047,"▁nene\r\n":4048,"▁freestyl":4049,"▁15":4050,"▁grande\r\n":4051,"▁dembo":4052,"▁punch":4053,"▁cabrón,":4054,"▁kelow":4055,"▁bitches":4056,"▁seguimos":4057,"▁única":4058,"▁buscarte\r\n":4059,"▁jefe":4060,"▁pinta":4061,"▁piensan":4062,"▁habilidad":4063,"▁razón\r\n":4064,"▁guardo":4065,"ppin'\r\n":4066,"▁champa":4067,"▁esquivo,":4068,"▁uh-uh\r\n":4069,"▁descontro":4070,"▁mmm,":4071,"▁hood,":4072,"▁cayendo":4073,"▁profes":4074,"▁ah-ah\r\n":4075,"▁hotel\r\n":4076,"▁téc":4077,"▁pedazo":4078,"▁répli":4079,"▁nosotro'":4080,"▁ñengo":4081,"▁imposible":4082,"▁desayun":4083,"-l":4084,"bor":4085,"iones":4086,"mu":4087,"pen":4088,"pura":4089,"tero":4090,"zqui":4091,"▁9":4092,"▁craz":4093,"▁ak":4094,"▁aca":4095,"▁amo":4096,"▁ater":4097,"eran":4098,"▁yendo":4099,"▁debo":4100,"▁va\r\n":4101,"▁encar":4102,"▁engan":4103,"▁metal":4104,"▁mire":4105,"▁sigui":4106,"▁conquis":4107,"▁hagan":4108,"▁g'":4109,"▁tuya":4110,"▁país\r\n":4111,"▁alas\r\n":4112,"▁alum":4113,"tico\r\n":4114,"▁cuál":4115,"▁idio":4116,"entos\r\n":4117,"▁supues":4118,"▁caí":4119,"▁deli":4120,"▁trae":4121,"▁pasó\r\n":4122,"el\r\n":4123,"▁voy,":4124,"▁¿de":4125,"dad,":4126,"▁ganarme":4127,"▁serio,":4128,"▁arm":4129,"uelo\r\n":4130,"pado":4131,"▁man\r\n":4132,"▁solo,":4133,"▁malo,":4134,"▁coj":4135,"▁prom":4136,"▁roba":4137,"ras,":4138,"▁excus":4139,"▁hacerme":4140,"▁hacerlo,":4141,"▁sacando":4142,"▁todos,":4143,"ica\r\n":4144,"▁discul":4145,"▁babe,":4146,"▁cigar":4147,"▁hoy,":4148,"▁men\r\n":4149,"▁beat\r\n":4150,"▁placa":4151,"▁plata\r\n":4152,"▁pensé":4153,"▁pensam":4154,"▁dog":4155,"▁free":4156,"▁suene":4157,"a'o":4158,"▁él,":4159,"▁zor":4160,"▁clap,":4161,"▁talento\r\n":4162,"▁triun":4163,"▁nigga,":4164,"▁disparo":4165,"▁alemán":4166,"▁eleg":4167,"▁caminando":4168,"▁terminar":4169,"hion\r\n":4170,"▁horas":4171,"▁rompe\r\n":4172,"▁rompe,":4173,"▁xana":4174,"▁house\r\n":4175,"▁jajaj":4176,"▁ilus":4177,"▁erre":4178,"▁swing\r\n":4179,"▁fashion\r\n":4180,"▁undergro":4181,"▁desnu":4182,"▁púrpura":4183,"▁aterri":4184,"ds":4185,"dal":4186,"ea\r\n":4187,"ia,":4188,"los\r\n":4189,"lar\r\n":4190,"n,":4191,"pre":4192,"sy\r\n":4193,"tres":4194,"tor\r\n":4195,"vas":4196,"vin":4197,"z,":4198,"▁edu":4199,"▁dre":4200,"▁ala":4201,"▁y,":4202,"▁nor":4203,"▁quemar":4204,"▁deton":4205,"und\r\n":4206,"▁mio":4207,"in'\r\n":4208,"▁famos":4209,"▁tec":4210,"▁siste":4211,"▁sep":4212,"iendo\r\n":4213,"▁diver":4214,"▁estés":4215,"▁tengas":4216,"tido":4217,"▁culo\r\n":4218,"entes\r\n":4219,"▁supi":4220,"▁caf":4221,"▁caen":4222,"▁cacer":4223,"▁niñ":4224,"▁multi":4225,"▁vaci":4226,"▁rue":4227,"▁está'":4228,"▁veni":4229,"▁entera":4230,"▁llám":4231,"▁camina":4232,"▁camara":4233,"▁colo":4234,"ter,":4235,"▁creer\r\n":4236,"énde":4237,"ico,":4238,"▁discu":4239,"h-ah\r\n":4240,"▁hoy\r\n":4241,"▁mencion":4242,"renal":4243,"▁compré":4244,"▁mara":4245,"▁you\r\n":4246,"▁docu":4247,"▁flores":4248,"▁terri":4249,"▁fin\r\n":4250,"▁negra":4251,"▁jodi":4252,"▁¡a":4253,"▁improvisar":4254,"▁cerve":4255,"▁despué'":4256,"ín,":4257,"▁sueñ":4258,"▁gatas":4259,"▁problema\r\n":4260,"▁millones":4261,"▁interna":4262,"▁pena\r\n":4263,"▁adrenal":4264,"▁base":4265,"▁fueron":4266,"▁cintur":4267,"▁derra":4268,"▁ritmos":4269,"▁persona":4270,"▁shit,":4271,"miento":4272,"▁trabajo":4273,"▁salida\r\n":4274,"▁bomb":4275,"▁trueno\r\n":4276,"▁desapar":4277,"alidad\r\n":4278,"▁pastilla":4279,"▁house":4280,"▁rápido,":4281,"▁especi":4282,"▁jaja\r\n":4283,"▁gelato":4284,"▁frontearle":4285,"▁prrrum!!":4286,"▁quedaste":4287,"▁cazz":4288,"▁propia":4289,"▁públi":4290,"▁sorpren":4291,"▁volvió":4292,"▁remix":4293,"▁habitación\r\n":4294,"▁aprove":4295,"▁molly,":4296,"a'\r\n":4297,"gos,":4298,"mon":4299,"tás":4300,"ys":4301,"ábamos":4302,"ér":4303,"▁eva":4304,"▁pab":4305,"▁sp":4306,"▁dru":4307,"▁avan":4308,"erto\r\n":4309,"▁nú":4310,"▁deber":4311,"▁hel":4312,"una\r\n":4313,"▁bha":4314,"▁mina":4315,"tada":4316,"▁loc":4317,"da'\r\n":4318,"▁sec":4319,"▁porro":4320,"▁hac":4321,"▁comiendo":4322,"▁comer\r\n":4323,"▁dia":4324,"▁ocul":4325,"aba,":4326,"▁paca":4327,"▁estr":4328,"▁alim":4329,"ce'\r\n":4330,"▁repe":4331,"▁jal":4332,"▁esto'":4333,"▁matan":4334,"▁make":4335,"▁sabes,":4336,"▁niños":4337,"▁tratando":4338,"▁paste":4339,"▁ang":4340,"▁mío,":4341,"▁entero\r\n":4342,"▁cocin":4343,"▁cobar":4344,"▁amena":4345,"▁ka":4346,"▁kar":4347,"taron":4348,"▁pros":4349,"▁prín":4350,"▁cana,":4351,"▁liri":4352,"ta,\r\n":4353,"▁say":4354,"▁ponte":4355,"ruga":4356,"ezco\r\n":4357,"tencia\r\n":4358,"▁gobi":4359,"▁saben,":4360,"▁factu":4361,"▁empec":4362,"▁querí":4363,"jate":4364,"▁guacho":4365,"▁suenan":4366,"a'o\r\n":4367,"▁¡w":4368,"▁suspi":4369,"▁amigos\r\n":4370,"▁wacha":4371,"dor,":4372,"▁gavio":4373,"▁gritar":4374,"▁allá\r\n":4375,"▁au-a":4376,"▁adver":4377,"▁basura\r\n":4378,"▁perdido\r\n":4379,"▁estuve":4380,"▁llorar":4381,"▁kill":4382,"▁comparto":4383,"▁girl":4384,"▁rocks":4385,"▁chance\r\n":4386,"▁áni":4387,"▁caiga":4388,"▁volví":4389,"▁volviendo":4390,"▁imagina":4391,"▁maldito":4392,"▁rebota,":4393,"▁botella":4394,"▁bella":4395,"▁acompañ":4396,"▁negoci":4397,"▁stig":4398,"▁worl":4399,"güen":4400,"▁bhavi":4401,"▁prínci":4402,"ah,":4403,"cero":4404,"cto,":4405,"eo\r\n":4406,"gía\r\n":4407,"ry":4408,"ácti":4409,"▁darme":4410,"eren":4411,"▁esf":4412,"anos\r\n":4413,"▁de\r\n":4414,"▁dedo":4415,"▁depor":4416,"▁nota\r\n":4417,"teo":4418,"▁contin":4419,"▁gall":4420,"▁coment":4421,"▁diario\r\n":4422,"▁tuc":4423,"▁quiso":4424,"tivo\r\n":4425,"▁recu":4426,"ista":4427,"entes":4428,"▁mafi":4429,"▁sabía":4430,"▁cacha":4431,"▁sopor":4432,"▁socio":4433,"▁vece'":4434,"▁vergüen":4435,"▁trajo":4436,"▁pasando":4437,"▁pasión\r\n":4438,"▁run,":4439,"pe,":4440,"▁míos":4441,"▁polo":4442,"▁cargo":4443,"▁vengas":4444,"▁gans":4445,"▁gano,":4446,"▁acción\r\n":4447,"▁acaba":4448,"▁mani":4449,"▁camis":4450,"▁malos":4451,"▁cola":4452,"▁cali":4453,"▁calma\r\n":4454,"tura,":4455,"▁pron":4456,"▁prr,":4457,"▁clan":4458,"▁moda":4459,"ver\r\n":4460,"fit":4461,"▁placer":4462,"▁vienes":4463,"▁vas,":4464,"ador\r\n":4465,"▁face\r\n":4466,"▁free\r\n":4467,"▁estás\r\n":4468,"▁conocer":4469,"▁feo\r\n":4470,"▁vocab":4471,"▁matarnos":4472,"▁importa\r\n":4473,"▁papi\r\n":4474,"▁estuvi":4475,"▁tirado":4476,"▁broth":4477,"▁simple\r\n":4478,"▁recuerda":4479,"▁jef":4480,"▁explico":4481,"▁andaba":4482,"▁caminar":4483,"▁camino\r\n":4484,"▁brillando":4485,"▁perfu":4486,"▁blanco":4487,"▁perdóname":4488,"▁puerta":4489,"▁humo\r\n":4490,"▁tempo\r\n":4491,"▁drippin',":4492,"▁cumpl":4493,"▁clase":4494,"▁¿quer":4495,"▁house,":4496,"▁luna\r\n":4497,"▁felicidad":4498,"▁funeral\r\n":4499,"▁libertad\r\n":4500,"▁experien":4501,"▁acelera":4502,"▁euro":4503,"▁simón":4504,"-,":4505,"0\r\n":4506,"brar":4507,"came":4508,"eo":4509,"ece\r\n":4510,"gre":4511,"gres":4512,"gues":4513,"it":4514,"rri":4515,"so,":4516,"í,":4517,"▁ár":4518,"▁món":4519,"▁pa\r\n":4520,"▁sá":4521,"▁ló":4522,"▁cle":4523,"▁dora":4524,"▁a\r\n":4525,"▁españ":4526,"▁ve\r\n":4527,"▁ladr":4528,"▁hol":4529,"eso":4530,"unk":4531,"▁bar\r\n":4532,"alidad":4533,"rado":4534,"▁fen":4535,"▁fru":4536,"▁feste":4537,"▁loo":4538,"▁comen":4539,"▁divi":4540,"▁ojer":4541,"abas":4542,"▁paga":4543,"▁estando":4544,"del":4545,"▁aler":4546,"▁alma\r\n":4547,"▁cuándo":4548,"▁iden":4549,"▁it,":4550,"resi":4551,"▁yah":4552,"▁supo":4553,"▁nah\r\n":4554,"▁madri":4555,"▁indi":4556,"▁caer,":4557,"▁pique":4558,"▁piola\r\n":4559,"▁antes\r\n":4560,"▁¿para":4561,"▁ven\r\n":4562,"▁vender":4563,"▁sonr":4564,"▁llora":4565,"▁cama,":4566,"▁copa":4567,"▁kh":4568,"▁kus":4569,"▁crees":4570,"▁crecí":4571,"▁limi":4572,"cara":4573,"▁luce":4574,"▁falta\r\n":4575,"▁mons":4576,"▁llamar":4577,"▁vaso":4578,"▁dura":4579,"▁ola\r\n":4580,"▁sabemos":4581,"as,\r\n":4582,"▁rompi":4583,"▁frío\r\n":4584,"▁face":4585,"▁oro,":4586,"ándome\r\n":4587,"▁realmente":4588,"▁realidad\r\n":4589,"▁negros":4590,"▁conozco":4591,"▁quienes":4592,"▁¡dí":4593,"▁escuchan":4594,"▁amiga":4595,"▁sueño,":4596,"▁grandes":4597,"▁visto\r\n":4598,"▁demuestro":4599,"▁tranquilo\r\n":4600,"▁cabron":4601,"▁admi":4602,"▁máqu":4603,"▁fuerte\r\n":4604,"▁huevos\r\n":4605,"▁mentir":4606,"-ay":4607,"▁mesa":4608,"▁contigo,":4609,"▁aprender":4610,"▁funcion":4611,"▁mirá":4612,"▁control\r\n":4613,"▁white":4614,"▁humo,":4615,"▁conciencia\r\n":4616,"▁piel\r\n":4617,"▁deseo":4618,"▁atrás\r\n":4619,"▁perfecto\r\n":4620,"▁transpi":4621,"▁interesa":4622,"-pro":4623,"▁feeling":4624,"▁debes":4625,"▁caliente\r\n":4626,"▁carajo":4627,"▁zapa":4628,"▁madruga":4629,"▁destruy":4630,"▁ahora,":4631,"▁envuel":4632,"▁próxi":4633,"▁conex":4634,"▁riquel":4635,"▁correr":4636,"▁sport\r\n":4637,"▁cumplir":4638,"▁mamacita,":4639,"▁impresion":4640,"▁punchl":4641,"▁técnic":4642,"▁identi":4643,"▁¡dímelo":4644,"'o,":4645,"bando":4646,"dan\r\n":4647,"guen":4648,"ias":4649,"ya\r\n":4650,"zan":4651,"zon":4652,"ós":4653,"▁edi":4654,"▁mera":4655,"▁pé":4656,"▁ador":4657,"eras\r\n":4658,"eric":4659,"anos":4660,"▁deu":4661,"▁noque":4662,"ala\r\n":4663,"▁fis":4664,"to'":4665,"▁lot":4666,"▁uno,":4667,"▁telé":4668,"▁gue":4669,"▁compa":4670,"char":4671,"▁estres":4672,"▁estén":4673,"▁parar\r\n":4674,"▁cule":4675,"▁imán":4676,"cate":4677,"cación":4678,"catri":4679,"▁inse":4680,"▁cagar":4681,"▁vete":4682,"▁puedo\r\n":4683,"▁vayas":4684,"▁estoy\r\n":4685,"▁rima\r\n":4686,"e,\r\n":4687,"▁ganan":4688,"lidad\r\n":4689,"▁pecho\r\n":4690,"▁llego,":4691,"▁acor":4692,"▁maldades":4693,"▁cojo":4694,"▁calor\r\n":4695,"▁'el":4696,"▁sai":4697,"▁saque":4698,"▁saqué":4699,"taste":4700,"▁pongan":4701,"▁fue\r\n":4702,"▁bobo":4703,"▁costum":4704,"▁cicatri":4705,"fica":4706,"▁apla":4707,"te,\r\n":4708,"▁mejor,":4709,"▁decidi":4710,"▁rapear\r\n":4711,"▁esperar,":4712,"▁gustan":4713,"▁olvida":4714,"▁juega":4715,"▁guach":4716,"▁suena\r\n":4717,"▁gigan":4718,"▁obje":4719,"▁100":4720,"▁tarado\r\n":4721,"▁bailar\r\n":4722,"▁wow\r\n":4723,"▁ball":4724,"▁pegao'":4725,"▁vo'a":4726,"▁ritmo,":4727,"▁planeta":4728,"▁revolu":4729,"▁la'o\r\n":4730,"▁¿como":4731,"▁mujer,":4732,"▁diferente":4733,"▁representa":4734,"▁escribo\r\n":4735,"▁dormir":4736,"▁ready\r\n":4737,"▁arrep":4738,"▁tempran":4739,"▁bolu":4740,"▁campeón\r\n":4741,"▁cierro":4742,"▁futuro\r\n":4743,"▁cumple":4744,"▁trein":4745,"▁reyes":4746,"-e-e\r\n":4747,"▁outfit":4748,"▁diamante":4749,"▁consigo\r\n":4750,"▁lengu":4751,"▁motherfucker":4752,"▁enfrente":4753,"▁univer":4754,"▁codeína":4755,"▁energía":4756,"▁zigzag,":4757,"▁let's":4758,"▁magia":4759,"▁lamenta":4760,"▁resulta":4761,"▁imperio":4762,"▁inclus":4763,"▁hennes":4764,"▁internacion":4765,"▁ojeras":4766,"▁teléfon":4767,"bra\r\n":4768,"ccion":4769,"emb":4770,"hh\r\n":4771,"ker\r\n":4772,"las,":4773,"mento":4774,"nab":4775,"ny\r\n":4776,"rum":4777,"uri":4778,"zz":4779,"ór":4780,"▁mar\r\n":4781,"▁puen":4782,"▁scho":4783,"▁dense":4784,"▁na\r\n":4785,"▁name\r\n":4786,"▁nananau,n":4787,"▁quemo":4788,"osa":4789,"oro\r\n":4790,"▁metas":4791,"▁meten":4792,"▁metiendo":4793,"▁miren":4794,"inas\r\n":4795,"▁fo,":4796,"tamente":4797,"▁love,":4798,"▁temo":4799,"▁conc":4800,"▁conven":4801,"▁contar\r\n":4802,"▁sed":4803,"cido\r\n":4804,"la-lo":4805,"▁tuvi":4806,"ch\r\n":4807,"▁estri":4808,"tico":4809,"▁ir\r\n":4810,"▁rebel":4811,"▁letal":4812,"▁desen":4813,"▁race":4814,"▁ini":4815,"▁delante":4816,"▁perde":4817,"▁tratar":4818,"▁ansi":4819,"▁¿te":4820,"▁pop":4821,"▁saliendo":4822,"▁carn":4823,"▁caro":4824,"▁caro\r\n":4825,"▁carne":4826,"▁venta":4827,"▁high":4828,"▁peque":4829,"▁pecho":4830,"▁pedí":4831,"pera":4832,"▁llue":4833,"▁male":4834,"▁malas":4835,"aria\r\n":4836,"▁ko":4837,"▁crea":4838,"▁qué?\r\n":4839,"▁roto\r\n":4840,"▁cantar":4841,"▁little":4842,"▁bad":4843,"▁rapero,":4844,"▁hacemo'":4845,"▁hear":4846,"▁impa":4847,"▁sol,":4848,"rutu":4849,"▁bajando":4850,"▁bebi":4851,"▁aplas":4852,"▁plaza\r\n":4853,"▁llamarte":4854,"▁dul":4855,"▁vuelo\r\n":4856,"▁decile":4857,"▁form":4858,"▁espera\r\n":4859,"▁mundo,":4860,"▁they":4861,"amo'\r\n":4862,"▁despues":4863,"▁final\r\n":4864,"▁nena\r\n":4865,"▁él\r\n":4866,"▁volver,":4867,"▁bang\r\n":4868,"▁haciendo,":4869,"▁suelo\r\n":4870,"▁amigo,":4871,"▁colch":4872,"▁colombi":4873,"▁sueño\r\n":4874,"▁take":4875,"▁pana\r\n":4876,"▁mataron":4877,"▁presu":4878,"caste":4879,"▁allá,":4880,"▁pendiente":4881,"▁encontré":4882,"▁bala":4883,"▁espan":4884,"▁broke":4885,"▁entienden":4886,"▁medioc":4887,"▁hicieron":4888,"▁diferente\r\n":4889,"▁sufre":4890,"▁aires":4891,"▁borra":4892,"▁listo":4893,"▁puerto":4894,"▁arregl":4895,"▁sacarme":4896,"▁esconde":4897,"▁champi":4898,"▁pelea":4899,"▁voz,":4900,"▁genera":4901,"▁duko\r\n":4902,"▁duko,":4903,"▁perrea,":4904,"▁error":4905,"▁30":4906,"▁capaz":4907,"▁ante'":4908,"▁goteo\r\n":4909,"▁respirar\r\n":4910,"▁suave":4911,"▁víde":4912,"▁acostumbra":4913,"ananau,nanana":4914,"▁quavo,":4915,"▁philli":4916,"▁terror":4917,"▁khea":4918,"▁saiy":4919,"▁nananau,nananau,nanana":4920,"!,":4921,"ai":4922,"bien":4923,"c\r\n":4924,"cos,":4925,"din":4926,"fas":4927,"ib":4928,"ita\r\n":4929,"mbo":4930,"pes":4931,"ven\r\n":4932,"woo":4933,"ñe":4934,"▁sui":4935,"▁cent":4936,"▁testi":4937,"eros":4938,"▁nota,":4939,"▁lad":4940,"▁eli":4941,"▁huel":4942,"▁bá":4943,"▁físi":4944,"abri":4945,"▁alto\r\n":4946,"▁almo":4947,"▁algo\r\n":4948,"▁tenta":4949,"us\r\n":4950,"▁ice":4951,"▁reco":4952,"cada":4953,"▁victor":4954,"▁jan":4955,"iste\r\n":4956,"ista\r\n":4957,"▁desma":4958,"▁destino":4959,"▁inta":4960,"▁pa'\r\n":4961,"▁ve,":4962,"▁wes":4963,"▁pidió":4964,"▁tratan":4965,"▁quiere,":4966,"▁está,":4967,"▁ven,":4968,"▁vende":4969,"▁vengo,":4970,"▁publi":4971,"▁soni":4972,"▁acomo":4973,"▁coher":4974,"dera":4975,"ba-":4976,"▁dejarte":4977,"▁lic":4978,"▁lil":4979,"▁neur":4980,"▁hace,":4981,"▁furi":4982,"tancia":4983,"▁boca,":4984,"gan\r\n":4985,"▁bebo":4986,"▁mueres":4987,"▁muevo":4988,"tener":4989,"▁cabal":4990,"▁tussi":4991,"▁vuelto":4992,"lante\r\n":4993,"▁nueve":4994,"▁usa":4995,"▁pared\r\n":4996,"▁escribe":4997,"▁fake":4998,"▁dosis":4999},"merges":["\r \n","▁ e","▁ m","▁ p","u e","▁ s","▁ l","▁ c","▁ t","▁ d","▁ a","▁ q","e r","e n","▁ y","▁ n","▁q ue","▁e s","a n","a r","o s","▁d e","a s","▁ v","o n","o r","d o","▁n o","▁ \r\n","▁l a","▁e l","▁ h","e s","▁e n","u n","a \r\n","o \r\n","▁m e","▁ b","t e","r e","▁m i","a l","i n","r a","▁ f","t a","t o","▁l o","▁ un","▁t e","o m","▁s i","▁c on","▁y o","g o","a m","r o","d a","u i","▁s e","▁p or","▁h a","l o","c i","▁ g","r i","er o","▁c om","an do","o y","l e","i en","▁d i","▁ o","l a","a b","▁t u","▁p a","c h","▁t o","▁q ui","▁es t","▁p ar","▁l os","o ,","m p","▁com o","q ue","d e","▁a l","a ,","c e","▁t en","t i","ó n","▁c u","u s","▁ i","▁ re","h \r\n","d i","▁p ero","á s","c a","o l","▁v i","▁l e","m e","▁ j","h ,","▁es to","r es","▁y a","▁s oy","i s","en t","▁y e","▁t i","e \r\n","▁s u","o '","▁de s","▁n a","▁l as","▁ten go","c o","os \r\n","▁ ra","as \r\n","▁por que","▁par a","en te","▁un a","▁m a","▁s ab","▁ in","e mp","▁c a","ue n","▁de l","▁pa '","ar \r\n","do \r\n","v i","l l","▁s o","▁p er","▁m ás","u é","▁es ta","▁n i","▁v e","▁c h","▁ w","ue r","▁v er","m a","es \r\n","g a","▁p i","or a","y ,","▁t ra","▁p as","▁a h","t o\r\n","▁qui er","▁m u","e l","c u","▁a n","t r","▁es te","▁p ue","▁v a","▁ r","p i","▁v oy","▁mi s","m o","▁ ¿","í a","p e","da d","b i","t ra","▁cu ando","▁esto y","a j","c er","y \r\n","▁ ri","te \r\n","▁ye a","▁est á","t a\r\n","▁m í","▁p o","m i","▁a s","▁ha b","▁si emp","▁siemp re","d a\r\n","▁s al","m os","? \r\n","▁c ar","▁qui ero","q ui","▁v en","e ,","▁p u","▁h i","ón \r\n","▁g an","▁s er","▁s in","▁en t","▁to do","▁a r","l i","▁s on","ue l","p a","' \r\n","▁p e","▁s é","▁t ú","▁l le","d os","p er","▁a c","u m","c k","▁v os","▁m an","▁l l","▁c am","▁so lo","t ro","▁m al","▁c o","r an","v e",". .","▁c al","▁es o","ar i","▁t ien","▁ah ora","d er","▁ha y","▁a m","▁ k","b a","▁ u","t er","t u","▁c re","t ar","▁t an","é n","v o","▁q ué","á n","g u","▁n os","▁p r","to ,","▁es c","▁ ro","▁c an","r as","in g","lo w","▁de j","▁e x","▁m am","' ,","▁l i","ien do","c es","g o\r\n","p ar","▁n e","▁ha cer","▁b ien","▁el la","i l","▁ '","▁b a","ta ,","▁c l","s i","▁as í","▁hab l","▁b us","am os","▁ra p","▁s a","▁ha ce","▁d on","ch o","▁f u","▁m o","▁c or","▁h e","en do","▁i mp","t as","b re","m an","p o","t an","▁ res","en s","d as","t es","é s","ue s","en to","▁p on","▁b ar","i r","▁f low","! \r\n","g ar","▁n un","z a","v er","▁to dos","i c","▁f ue","▁h as","▁p ro","▁s ol","▁b o","▁di s","▁c os","c en","or \r\n","os ,","▁t h","▁b ab","▁yea h\r\n","▁nun ca","j o","c ar","▁b uen","da ,","▁p re","▁di ce","h -","m as","lo ,","▁c i","▁ha go","▁quier e","▁h oy","▁l u","r u","▁tien e","▁f al","▁j u","d en","▁h er","er a","▁m en","▁s h","g an","▁c as","q u","b o","f i","▁ve z","▁has ta","▁es a","▁v ol","▁mi ra","k e","r a\r\n","c a\r\n","r en","▁com p","a do","▁me j","al \r\n","s \r\n","s e","am e","▁ver dad","▁g u","▁b aj","▁no ,","▁m on","▁b e","▁a p","▁mi er","t os","▁p la","te ,","▁m ue","d es","b le","▁e y,","▁h o","▁yea h,","er \r\n","t y","ci on","▁ll am","e z","▁v ien","▁mam i","▁p al","▁na di","t en","▁es cu","▁s í","c o\r\n","in a","t \r\n","▁ti emp","n o","▁v as","▁cal le",". \r\n","▁ go","t al","▁d u","▁o l","▁c ab","▁to '","ch a","c an","▁mej or","▁sab e","▁her man","▁no ch","l o\r\n","v is","▁a un","ar me","es ,","▁tu s","▁b i","as ,","ri m","ente \r\n","ar ,","▁es e","▁v uel","v a","▁de ci","▁aun que","▁don de","▁si go","▁mu y","l an","▁pue do","▁a b","▁n ue","▁vi da","▁m ar","▁s os","▁p ens","▁o tra","í a\r\n","r o\r\n","▁per d","▁p is","▁yo u","▁t am","m b","▁d a","ro ,","ó mo","g un","▁sab es","ando \r\n","▁na da","▁r om","▁sab en","▁f r","▁ra pe","▁ac á","c on","en ci","m o'","do ,","ón ,","in o","go ,","▁t om","la ,","qu í","▁ us","▁nadi e","▁par e","▁esc ri","an \r\n","▁tra p","▁m uer","▁con mi","▁mier da","an a","ci ón\r\n","u b","ú n","a d","▁a quí","▁f a","▁f or","▁d o","é \r\n","j e","▁bar ri","▁ -","▁m y","▁es per","▁e y\r\n","▁to da","m a\r\n","▁f re","▁m as","▁ or","g ui","r \r\n","▁est ás","d \r\n","▁e mp","▁p ien","c o,","▁d ía","s o","ñ o","▁e res","q ué","v o\r\n","▁que r","▁a h,","▁m un","▁ven go","▁c uen","de \r\n","▁th e","g a\r\n","▁d os","am o'","▁g us","▁f l","ci endo","a t","▁quier en","j a","▁l es","▁con tra","▁ex p","er o\r\n","▁re c","▁an d","▁des p","▁t er","▁cam bi","n a","▁ol vi","▁ca da","▁a y","l a\r\n","z \r\n","▁p rim","▁pas a","e t","án do","▁fu ck","t or","ar te","▁mi ent","▁re al","▁f in","▁o h,","▁v al","ce \r\n","▁ye h\r\n","g as","▁m or","▁si ento","▁d ro","▁no \r\n","▁está n","▁vien e","▁ é","▁des de","▁cl ub","▁p es","▁ne g","ci ón","s te","▁bus c","▁g ra","▁est ar","▁cu al","▁g ente","▁pu ta","▁ent re","▁o tro","dad \r\n","g ue","▁an do","▁c ómo","▁t ran","b e","▁di cen","▁e h\r\n","▁car a","▁j ue","▁con o","▁gu a","▁j o","▁cre o","▁s uen","▁f e","▁tiemp o","a '","p or","▁s an","▁mu cho","in a\r\n","▁qui en","▁am or","▁e '","▁a h\r\n","▁ ¡","▁s us","▁d í","u l","en ti","▁que d","▁lo '","▁v o","ro vis","▁imp rovis","▁n en","▁pue s","▁ch a","er on","▁é l","▁c er","▁c ora","▁h u","▁f i","▁w e","e c","▁v an","r ar","▁ z",", \r\n","▁s om",".. .\r\n","j os","▁ \"","▁mi l","▁fre es","▁w h","▁vol ver","▁frees ty","en \r\n","▁e h,","▁me di","▁pue de","▁b an","ra ,","el i","r r","▁b l","▁est i","er a\r\n","▁di me","ent o\r\n","l os","z o","i a","▁noch e","▁ on","▁us te","bi én","t ando","▁i gu","▁ha ciendo","▁escu ch","▁desp ué","▁c la","▁ri mas","▁' e","▁d in","▁cora z","▁a f","▁c uer","le \r\n","▁ch i","▁cl ar","▁tam bién","c a,","í n","▁s uel","am ente","▁deci r","ó lo","▁mun do","▁a mi","▁pa p","ó \r\n","▁b es","▁c ol","í s","▁s ue","▁ye h,","▁in s","▁w a","l la","z a\r\n","▁mient ras","v en","▁mami ,","ent ro","▁t a","▁b ri","▁d ar","m o\r\n","▁ 2","▁bab y,","▁t al","▁s ólo","ci l","on \r\n","▁mí \r\n","▁ar ri","▁tan to","re \r\n","▁ten er","me \r\n","▁¿ qué","y a","d or","▁que da","▁g a","p p","▁p an","t ,","▁ma tar","▁f ui","▁imp or","▁be b","ón de","▁cos cu","▁g i","▁f um","l lo","▁p res","▁s enti","▁ah í","▁an tes","ari o\r\n","c uen","▁despué s","y o","▁en con","o' \r\n","▁na da\r\n","▁c ri","▁o b","▁pi er","f er","▁ 1","▁t ar","▁qui én","▁gus ta","▁t r","▁ve o","▁ba il","c as","i \r\n","▁g ran","▁vi s","ero ,","▁mu ch","▁t on","▁i r","▁pre gun","▁esti lo","m m","▁pro ble","▁pare ce","t ar\r\n","▁p us","▁d oy","▁barri o","s ,","t h","v el","▁de m","▁g ri","▁mon e","d as\r\n","▁al l","u r","▁e ra","▁t ri","▁en ci","le x","▁hi p","▁igu al","▁to das","d r","v e\r\n","▁re g","▁mi n","▁hi jo","▁conmi go","t ch","▁re p","▁w o","▁po der","▁es os","t in","▁mi ll","▁a gu","ci a","▁in ter","▁res pe","▁fal ta","▁pal ab","c í","▁p un","▁a u","▁n ues","▁al go","▁p en","▁g uer","in '","é ,","▁pr en","▁sh o","m ente","as te","to y","tr os","▁tran qui","i o","i to","▁bab y","▁po co","▁pien so","▁ter m","j er","▁rap ero","▁cab r","▁v amos","al e","▁a d","▁sal e","c to","k i","▁mis mo","▁ri ma","ando ,","▁ni g","▁ve ces","▁m om","▁esta mos","▁encon tr","t as\r\n","▁m á","▁pa pi","p \r\n","▁d entro","en ta","▁cual qui","▁b as","▁am or\r\n","m a,","w \r\n","or ,","▁' toy","c os","g a,","s a","▁ent en","on es","▁lo co","▁i '","▁j un","▁k e","k a","▁cu l","e '","▁f uer","d os\r\n","▁p ol","▁se a","d u","▁m er","▁vi vo","▁tien en","l \r\n","t os\r\n","▁tu mb","▁ne ces","p ,","▁f am","▁freesty le","b aj","▁per di","▁u h,","▁dis par","t re","▁c in","▁d ónde","▁mi c","▁est u","▁dej o","▁ma ñ","▁mí ,","▁sí ,","▁dro ga","d í","u t","▁f lex","m bre","▁herman o","▁men os","▁bi tch","d ar","▁d ol","▁un o","▁yo ,","▁quier es","▁d er","▁di ab","t es\r\n","▁h om","▁b al","▁o h\r\n","is te","r os","▁i s","▁n ing","▁h an","der \r\n","▁pr in","▁pon go","▁mor ir","v an","▁h ue","▁ll or","▁men ti","▁i' m","d ,","▁e h","▁t res","ab a","▁tra i","▁y o\r\n","o' ,","l es","r ando","á \r\n","▁e qui","▁d ame","▁a y,","▁es p","▁est os","ce ,","▁so bre","▁cos as","in e","h- e","\" \r\n","b a\r\n","▁a gar","▁di go","ll a\r\n","▁k no","▁dej ar","▁d an","ari o","ñ os","▁c ui","on a","▁m ú","▁li ke","g i","▁pe ga","▁habl ar","m os\r\n","or m","▁ch ic","▁buen o,","p o,","▁est as","▁baj o","▁b r","▁se gui","▁o jos","i dad","▁ti ra","▁a par","▁v o'","▁di j","▁pue den","▁llam a","z ar","▁no mbre","▁se ñ","▁vi vi","▁mú si","- a","ci o","▁di os","▁di jo","▁ri t","▁nos o","? ,","p a\r\n","v o,","ch e","h- o","l as","▁e y","▁lle g","▁ba tal","▁arri ba","m o,","or a\r\n","er n","▁ni vel","▁ba i","m ar","ñ a","▁p lan","▁b ro","▁ch u","▁ar g","▁ll en","▁o di","▁vi e","▁man o","▁lu z","ue la","▁j a","▁ent ien","▁con f","▁hab la","▁k i","▁som os","▁re v","▁más \r\n","▁mu cha","▁d é","an ,","an te","▁la '","p o\r\n","or es","in \r\n","▁sal go","▁cas i","' t","b ra","e mos","▁ ún","▁cu lo","▁gan ar","▁min u","er ,","▁per s","▁esta ba","i on","t ri","▁en cuen","▁ti \r\n","▁ch e","▁esc en","▁san g","▁impor ta","▁prin ci","e a","n i","▁si mp","tr as","▁yea h","▁cuen ta","▁m es","▁d ra","▁a le","▁cu a","▁¿ c","e lo","i co","▁el los","▁con ti","▁sh i","▁ap ren","e za","g \r\n","j o\r\n","l ar","▁a ce","▁bus car","▁ju ro","▁club ,","▁m ente","▁r on","▁gan o",".. .","▁tien es","▁nue vo","d re","m ien","▁el e","▁h ar","▁b u","▁f o","▁su b","▁tra baj","▁mu jer","el o\r\n","ing \r\n","▁go l","▁rec uer","▁ os","▁si gue","▁se gu","▁j e","▁ti ro","tr o\r\n","▁lle v","▁exp li","▁busc ando","un g","ll o\r\n","▁coscu ll","w ,","▁d ue","▁ten és","▁des pi","▁v amo'","én do","▁sol amente","▁herman o,","' s","b er","▁q u","▁en am","al ,","▁f eli","▁o f","▁lle ga","▁lle vo","▁habl ando","▁rec or","c ando","▁f res","▁con s","▁ra per","▁enci ma","i ta","▁vi da\r\n","▁j us","a do\r\n","c es\r\n","g ra","i o\r\n","▁ oy","▁c ien","ch o\r\n","de ,","▁an da","▁sal i","u ,","u h\r\n","í o","▁c ru","▁mi e","ci a\r\n","▁i t","▁ent on","▁for ma","p on","▁es ca","▁cam in","▁medi o","▁uste des","▁arg ent","▁m ol","ar on","▁est re","▁hi ci","▁ex tra","▁bien \r\n","d iendo","r é","▁de f","▁en se","▁g or","▁na da,","▁mue ve","▁suen a","▁bri ll","l ti","▁fa v","ñ o\r\n","an o","an a\r\n","▁ma ta","cion es","▁term in","z o\r\n","▁m ari","▁es as","▁yo ung","▁ha cen","▁sé \r\n","▁ro b","▁buen o","enci a","▁ob vi","- e","g ,","g os","á ,","▁a pa","▁g as","▁su per","▁in t","▁dej a","f e","▁di je","▁di fer","me ,","▁pas o","▁clar o","j a\r\n","▁f un","▁hi ce","▁bab y\r\n","▁bl un","un a","▁ci u","▁nues tro","p ues","t é","an d","▁car a\r\n","uel a\r\n","▁u h\r\n","▁rep res","▁tumb ando","h i","▁de mas","▁su f","cer \r\n","▁pu ta,","v os","▁p os","▁h or","▁o h","▁mal \r\n","▁emp i","▁olvi d","▁ay u","▁jue go","▁v es","ti r","▁don 't","▁pon e","▁coraz ón","e d","▁p in","ch o,","▁al gui","▁vi aj","▁hacer \r\n","▁escri b","▁mom ento","á r","▁t ras","▁a i","' o","t y\r\n","▁es qu","▁b om","▁vi v","▁per f","▁cam ino","▁tr uen","er to","ás \r\n","▁des a","▁fu mo","▁fue ra","▁mue ro","ándo me","▁neg ro","í as","▁d or","▁mi r","▁¿ qui","▁cui da","▁pers on","i ,","i ón\r\n","▁en tr","▁f ren","▁com e","▁m us","▁b or","▁hacer lo","▁bo ca","v e,","▁b lan","▁com par","▁cu an","▁lle gar","▁can s","▁conmi go\r\n","▁pien s","u y","on e","▁di re","▁vez \r\n","▁perd ón","á pi","▁v os\r\n","▁en vi","▁g ir","▁i ba","▁gan a","▁cas a","▁or o","▁improvis a","g ar\r\n","▁l is","en to,","am p","▁est an","▁al ma","di o","▁pa' l","▁pas e","▁agu an","▁cua tro","▁c el","en ,","▁con tro","▁bien ,","enci a\r\n","▁din ero","c ti","▁p uer","▁v am","al i","▁si r","▁le van","▁va ya","▁quiero ,","▁lle go","▁pens ar","▁simp le","▁¿c ómo","▁dor mi","▁ha bi","ci as","▁par te","▁re ad","▁in fi","▁pas ó","bi r","▁quer és","▁af ue","r ó","▁c e","▁c uel","al a","al es\r\n","ci o\r\n","▁ar re","▁ro ck","▁ho p","▁rom p","▁wh i","rr um","▁cualqui er","c re","h !\r\n","▁b re","▁si g","am e,","▁much os","! !\r\n","i g","t á","▁p l","on es\r\n","▁la do","▁si ente","▁ra z","▁mal a","▁sang re","pa ñ","arme \r\n","▁nue vo\r\n","▁suel to","▁enton ces","c tu","t ó","▁p eli","an te\r\n","▁no vi","al o","om o","▁g e","▁ya h\r\n","▁pas ar","▁bus ca","▁flow ,","▁senti r","▁algui en","▁d ando","▁h um","▁b en","▁te mp","▁re ci","▁sa car","▁baj a","▁rape ar","▁encontr ar","▁mañ ana","c or","▁mí o","▁gu ar","▁rom pe","▁palab ras","0 0","u \r\n","v a\r\n","á g","í a,","▁p ri","▁me to","▁ti er","▁th is","pp in","▁gi ve","g ando","h a","i li","m or","t iendo","▁d ri","▁n orm","▁pue des","▁gan as","▁esc on","▁ab aj","▁fr ente","▁hu mo","c ta","i do","i to\r\n","m as\r\n","s y","▁d os\r\n","▁a di","▁h mm","▁com pe","▁ma to","▁ch am","▁ver \r\n","▁pi de","▁quier o\r\n","▁pe le","▁val e","▁ense ñ","- na","▁que \r\n","▁b ol","▁f á","▁per man","▁w an","▁' ta","▁sa co","és \r\n","▁pla ta","▁toda v","▁vo z","b r","i m","▁s k","▁a ños","▁de mos","▁si ,","▁con ci","▁ch an","cu l","▁esper ando","▁exp lo","▁respe to","e ta","▁m c","▁se gun","▁tu yo","me lo","▁ca pi","▁sal ir","▁cam pe","▁cos a","▁pens ando","▁pis o,","▁escri bo","th er","▁má '","c in","i a\r\n","o o","▁ án","▁no ta","▁sab er","▁hi zo","▁lu gar","▁sh e","cion es\r\n","▁rape o","▁cuer po","▁dé j","d es\r\n","f on","g ún","▁ x","▁l ue","▁d om","▁si endo","▁con ta","le ,","▁o ke","▁ch o","▁tra je","▁po dr","▁pe lo","▁ci er","▁mira ,","▁tiemp o\r\n","▁envi di","_ _","d an","▁ ú","▁s ent","▁t or","▁h is","▁di gan","▁al gun","▁ca den","▁pas ti","▁pas ado","▁pre fi","▁fum ando","▁noso tros","▁fá cil","- n","á m","ñ o,","▁d uer","al l","am e\r\n","que \r\n","▁per der","▁po ca","▁hab lo","um ent","▁mami \r\n","▁trap ,","▁nen a","▁cri s","▁segui r","▁ún ico","i ón","t on","▁p el","▁a que","es ta","a, \r\n","▁vi da,","▁ti ran","▁más ,","▁pi el","▁u o","▁tan ta","▁pis o","m ando","▁d al","▁v iendo","▁mi \r\n","▁to ca","▁pi do","▁todo '","ck \r\n","▁fu tu","▁nadi e\r\n","▁fr on","▁proble ma","h-e h\r\n","- b","g h","y e","▁ ñ","▁cu mp","di do","▁in f","▁ca i","▁am ar","▁cl as","▁vis to","▁fam ili","n os","▁c li","▁d ale","▁en tra","▁en can","▁as i","▁sé ,","▁cre e","▁flow \r\n","▁fue go","▁emp ez","▁vivi r","k \r\n","▁s low","▁l ar","ien te","ll as","▁r u","ing ,","▁así \r\n","bre \r\n","▁pre par","▁señ or","b as","b o\r\n","e b","í \r\n","▁s or","▁t re","▁des e","▁siempre \r\n","▁vol v","▁comp le","▁verdad ,","▁verdad \r\n","▁be at","▁barri o\r\n","▁prim era","▁pap el","h o","ar a","▁v ino","il le","▁habl an","▁pon er","▁herman o\r\n","▁wh at","▁mone y","▁rit mo","▁os cu","▁demas i","' o\r\n","t um","▁h am","es ti","▁me te","in o\r\n","ci ón,","▁g en","▁ar ma","▁co pi","▁músi ca","▁afue ra","▁ú lti","e '\r\n","an ana","▁b ille","ti s","ma g","▁¿ que","▁cam a","▁du k","▁cul pa","▁todav ía","▁demos tr","f r","m \r\n","▁a tr","▁ha ga","▁o j","▁qui si","▁na '\r\n","▁pi llo","▁así ,","▁sí \r\n","▁muer te","▁equi vo","▁kno w","▁norm al","c ía","j e\r\n","▁mi ro","al es","ch a\r\n","▁le y","is \r\n","▁su be","▁in v","▁in vi","▁ca us","▁¿ y","▁ac ab","▁cor re","▁¿qui én","c tor","d és","g ro","en do\r\n","▁g il","▁re y","me lo\r\n","▁w i","▁as es","▁pu to","das ,","▁buen o\r\n","▁rom po","▁neg ro,","▁chi co","▁pus e","▁perf ec","c to\r\n","g n","t t","x \r\n","í an","om e","▁hab ía","tu r","▁ho us","▁tam po","▁quer ía","▁dí as","▁pier do","▁pun to","▁ 4","▁v ine","▁f lo","▁i mag","▁¿ por","▁ac uer","▁man os","▁calle ,","▁trai go","- o","▁b lo","▁con tes","ri s","▁qui z","▁r os","▁res pon","▁coraz ón\r\n","▁guer ra","▁enam or","- \r\n","b an","▁f ras","▁com er","▁di ga","▁ca p","▁r ápi","▁mal di","▁mam a","▁escu cha","▁vuel vo","▁perd í","▁prim ero","▁sue ño","▁ins tr","d ri","f u","z a,","í o\r\n","▁m ent","▁a cer","er no","▁h ora","ch i","▁j am","▁so ñ","▁ent iendo","▁he y,","▁vuel ve","▁tran s","▁qued ar","▁obvi amente","▁tampo co","g e","w e","▁e mb","▁a g","▁a tra","▁lo ca","ri endo","▁in c","▁mis mo\r\n","▁fin al","▁din ero,","▁tranqui lo","▁bai la","▁shi t\r\n","▁read y","p li","í as\r\n","lo '","▁g ui","▁al gún","▁ten emos","▁pu tas","▁ac ti","▁am an","ez a\r\n","▁prim er","▁fuck ing","▁real idad","▁club \r\n","▁hu mi","f a","▁a tre","▁si l","ent ar","▁ri cto","▁ro ll","▁vuel ta","▁fl as","▁tar de\r\n","▁ning un","▁recor d","▁perman ent","▁his tor","m án","▁t ro","▁a ta","en a","▁es pe","▁es qui","▁si ent","▁di ez","▁o tros","▁vi o","▁k il","▁mam á","▁fu ll","▁comp r","ado ,","▁tom o","▁conmi go,","▁au to","▁mic ro","▁br in","▁conf un","▁mus ic","t os,","▁m ens","▁la do\r\n","▁b oy","▁f an","▁lo co,","▁sal u","▁sin o","▁bus co","▁mo vi","▁th at","▁noch e\r\n","▁tom a","▁aquí \r\n","▁do ble","▁cambi o","▁on e","▁palab ra","▁esp ero","▁coscull uela","▁cuel lo","▁instr ument","b u","r ,","▁m os","▁a ún","▁es pa","▁g ente\r\n","▁di gas","▁par ty","▁al can","▁cu án","▁j aj","▁ser á","▁lle va","▁u h","▁u h-","▁sa ca","ic o\r\n","▁lu z\r\n","▁proble mas","▁dal e,","▁v ue","▁en e","▁b ru","▁un os","▁par ar","▁par ti","▁i l","▁des es","▁pas a,","▁ent er","ter \r\n","▁rap ,","▁buen a","▁sh or","▁flex ,","▁mie do","▁fav or","b li","p e\r\n","▁l un","▁que do","▁b um","▁f er","▁con fi","▁o h-o","ti c","▁re la","▁re bo","▁ti r","▁na '","▁ci e","fi ci","▁reg al","▁inter es","▁ning ún","▁conti go","▁ge la","▁fron te","- p","i dad\r\n","l as\r\n","t ón\r\n","u ra","y as","▁e r","▁c á","▁que ,","▁di f","▁pa z","▁cu ar","cu la","▁va i","▁ent ro","▁ci elo\r\n","▁mue re","▁trap p","▁cono ce","▁fe el","▁uste d","k e\r\n","r .","▁a vi","an o\r\n","on i","▁no '","in a,","▁lo co\r\n","▁com i","▁di ces","ca do","res \r\n","▁des con","ll as\r\n","▁per re","▁ver s","▁can to","▁mo do","▁bo o","▁du ro","▁jue go\r\n","▁amor ,","▁pues to","▁cha pi","▁dar le","▁diab lo","▁minu ti","▁e rr","▁m ando","▁m mm","▁l an","▁a ño","▁es o'","on a\r\n","▁o cu","▁soy \r\n","▁sa c","▁cor ta","▁dis co","▁ci elo","ble \r\n","▁pap á","▁col or","▁beb é\r\n","▁gran de","▁nig ga\r\n","▁mer e","▁ciu dad","p le","▁a vis","ra z","▁te ma","▁com b","ien to","▁est ru","▁car r","▁ven ir","▁gan g","▁mo ther","▁bo te","▁mej or\r\n","▁cin co","▁jus to","▁c ues","en o\r\n","▁ha ter","▁g ar","▁ye h","ck ,","▁u p,","tu ra","▁ay er","▁dro ga,","▁qued an","▁all á","-e -","▁mens aj","▁deses per","▁estru ctu","- tu","h e","i ca","t un","w n","ó ,","▁de b","▁f on","▁tu y","ent a\r\n","▁ti po","▁mí a\r\n","▁ac os","▁ro pa","▁he cho","▁fue go\r\n","▁dice :","▁hom bre","▁ace p","▁oy e","▁truen o","! !","p as","▁d ía\r\n","▁de c","▁cu lo,","▁i de","▁ti rar","co h","▁quier a","▁pr rrum","▁ho o","▁cab eza","▁noch es","▁cha in","▁despi er","▁lue go","▁demasi ado","fu ck","k ,","l er","m ,","m er","▁ 3","▁c ó","en d","os o","▁si qui","▁se x","▁ha ces","▁di o","▁o ut","▁pa gan","▁ten ga","▁des can","▁ma y","▁vos ,","▁mier da\r\n","▁nue v","▁cuen to","▁gra cias","▁din ero\r\n","▁mic ró","▁micró fon",". r.","d or\r\n","g os\r\n","l ,","l y","t ien","▁t ari","▁a z","▁me \r\n","▁b la","ci do","▁esto ,","▁su bir","▁sal am","▁hi jos","▁man ten","▁li ber","si ón\r\n","tes ,","▁noch e,","▁fl or","▁gua po,","▁cer eb","▁fui ste","▁mill on","▁vam o","▁humi l","h u","n e","▁s w","▁t oy","▁a de","▁me ,","▁f as","▁f ir","▁di am","▁ten ía","▁ti ,","▁ma dre","▁ah o","▁r um","▁car a,","▁mier da,","▁ay er\r\n","▁mone y,","▁encuen tro","▁qu in","▁quiz ás","▁sil enci","▁siqui era","& amp","b ar","b ol","e ta\r\n","g l","k a\r\n","o cu","s e\r\n","▁t í","▁t in","▁que das","▁es o,","on ,","▁est il","▁par o","▁al coh","▁vi ve","me lo,","▁des c","▁ca z","▁pas an","▁pu ro","tar ,","▁lu gar\r\n","▁calle \r\n","▁chi ca","▁segu ro","▁feli ci","▁novi o","&amp ;","f e,","g el","j o,","k er","t án","u h","u yo","z co","í cil","▁e v","ue la,","▁con si","▁ya h,","ent ro\r\n","▁na ',","▁ma ',","▁so la","▁ah ora\r\n","▁r en","▁¿ s","▁cal ien","▁pr endo","▁comp ren","▁pes a","▁suen o","▁der ri","▁argent ina","▁int ent","▁simple mente","▁hmm ,","▁dif ícil","▁ &amp;","▁m é","▁s mo","▁l en","▁c r","▁f ra","ta '","▁con vi","▁con se","▁est é","ti ca\r\n","di r","▁ti rando","▁ca pa","▁esta mo'","mos ,","▁car aj","▁mal o","▁ex is","▁pro pi","▁comp li","▁vien en","▁to' a","▁gua po","▁fi esta","▁bes o","▁ahí \r\n","▁pus o","▁cabr ón","▁nig ga","▁dij eron","▁fun er","▁cuan to","▁mother fuck","▁salam and","▁alcoh ol","b a,","j er\r\n","n os\r\n","r as\r\n","▁ za","▁e vi","▁p ú","▁t ru","▁d arte","▁a qui","en a\r\n","▁v ari","▁en fr","▁si ento\r\n","▁o p","ch a,","que n","▁w uh\r\n","▁mu jer\r\n","▁gan ar\r\n","▁ser io","▁man da","▁habl es","tas ,","ues tro","▁pasa do\r\n","▁nen a,","▁2 0","▁bail ando","▁batal la","▁infi erno","w o","▁m ía","▁l in","▁de p","▁me ti","▁b el","▁b ur","▁mi ran","▁yo '\r\n","am os\r\n","lo que","▁pa g","di ó","▁sab és","▁ni e","▁an te","▁sa dor","▁pre ocu","▁ju ra","▁her i","▁go t","▁rape ando","▁qued ó","▁cri ti","▁bail ar","▁much as","▁sho w","▁chic a,","éndo me","▁wan na","▁aman e","d ando","t al\r\n","z c","▁e ch","an an","in i","▁con tar","da '","ab le","▁pa dre","▁ma '","▁ca e","▁ver te","▁pi e","▁hab er","▁tú ,","ens e","▁ju gar","▁tar de","▁pregun tan","▁cualqui era\r\n","▁flex \r\n","▁agar ro","▁recuer do","▁ciu dad\r\n","▁aque l","▁quisi era","e p","j as","m ent","▁d am","an a,","▁f la","▁un i","▁ha gas","▁vi ol","▁in te","▁ca y","▁ni ño","▁pue b","▁po bre","▁sal í","▁man e","tu a","▁pro f","▁sol a\r\n","▁go te","▁pis ta","▁muer to","▁cambi ar","▁cer ca","▁ami gos","▁nivel \r\n","▁empi ez","▁sir ve","-tu -tu","a h\r\n","t y,","u vi","▁s uer","▁c rim","▁d ien","▁en ro","un d","▁b os","▁un der","o, \r\n","▁ten dr","▁vi vo\r\n","▁su bo","▁ah -a","▁pu ta\r\n","li g","▁u p","▁or gu","▁freesty le\r\n","▁clar o\r\n","▁morir \r\n","▁vie ja","▁sor p","anana u,","▁ene mi","▁liber ta","a c","f ic","s o\r\n","u h-","x i","▁ ,","▁e ter","os i","▁b ro\r\n","ta do","▁to do\r\n","▁ma d","▁w ar","▁¿ no","der ,","▁he y","▁res pi","▁sol o\r\n","▁cas ti","▁ol or","▁and amos","▁dime ,","▁ami go","▁mari hu","▁pos i","▁empi eza","ppin ',","▁podr ía","▁famili a","▁l í","en o","▁en loque","▁mi rar","▁ha z","ch os","▁par ty\r\n","di do\r\n","ás ,","▁des ta","▁mis ma","▁pu ra","▁hi t","▁sin cer","▁man era","▁li bre","▁rap per","▁pon en","▁fal l","▁bi g","▁nue va","▁we ón","▁tal ento","▁arri ba\r\n","▁ga ta","pp in'","▁papi ,","▁chu pa","▁it 's","▁mol es","▁encan ta","▁demostr ar","f or","i o,","k o","n o\r\n","▁e go","▁me zc","▁con ver","da te","de mos","▁quier as","▁va cí","▁¿ d","qui to","▁ven ga","▁todo ,","▁co g","ari o,","▁' tá","tan \r\n","▁bo ca\r\n","▁dis f","▁ju ga","▁perd iendo","▁perd ón,","▁pis o\r\n","▁- ín","▁quer er","▁olvi dar","ki ll","▁pol ic","▁conti go\r\n","▁esca par","▁esqu ina","▁improvisa ción\r\n","▁pel í","c ent","k e,","u ra\r\n","▁l una","▁que mando","▁te mas","▁con t","am \r\n","ch e\r\n","▁ma tar\r\n","▁in a","uer a\r\n","▁mu ri","▁pu di","▁ex per","▁cor ri","▁cas a\r\n","▁pis to","▁rom per","▁igu al\r\n","▁decir te","▁estu di","▁escen ario\r\n","▁ningun o","v ien","ñ a\r\n","▁m ente\r\n","▁s kill","▁c .r.","▁t ren","▁de be","▁b ando","▁f ar","ci s","▁com pañ","ab an","▁pa ,","▁re lo","▁re al\r\n","ol u","▁vi si","▁j or","▁su a","ll os","▁per der\r\n","▁ve in","▁pi diendo","▁ar k","▁tú \r\n","▁man o\r\n","▁mo ver","▁dis tin","▁mira da","▁ap un","▁ho te","▁and amo'","ín \r\n","▁guer ra\r\n","▁cans er","▁abaj o","▁ley en","▁fan tas","▁minuti to,","▁smo ke","b ri","c ar\r\n","h on","j ar","r ari","v os\r\n","ú s","▁c ue","▁c ero","▁a co","▁a ve","▁a gra","▁el lo'","▁me ter","▁di ciendo","▁o í","▁tu ve","▁to que","de '","ce p","▁vi ste","▁le '","▁des per","▁las ti","ll i","▁hab le","▁lle gan","▁ll uvi","▁mal ,","▁co ca","gu a","▁rap \r\n","tan te\r\n","▁buen os","▁perd on","▁barri o,","▁beb é,","▁ton y","▁cabr ón\r\n","▁neces ito","▁gol pe","▁blun t,","▁tier ra","-na -n","▁'ta mo'","▁chapi ,","▁gang s","▁micrófon o","b oy","l es\r\n","v al","… \r\n","▁v í","un ,","▁un as","▁yo ',","▁g et","▁tu m","▁ten es","▁ver ,","▁tra mp","▁cam a\r\n","▁tan tas","▁pr ome","▁ne ed","▁bus can","▁ju gando","▁men or","▁vol vi","▁mon ta","▁escu cho","▁tiemp o,","arme ,","▁deci me","▁muer te\r\n","▁val or","▁volver \r\n","▁ton to,","▁pun ta","▁ad entro","h-o h\r\n","▁expli car","▁futu ro","▁fer rari","▁boo ty","▁inte lig","- s","- ta","d ero","e te","m á","p an","r ía","t í","y ea","▁ 5","▁n ub","▁mi '","▁mi rando","in ',","▁se cre","▁com ien","▁o u","▁to car","ce '","▁vi ern","▁ra to","ente ,","▁sab e\r\n","▁ver me","▁ri co","▁ar tis","▁son ando","▁ac om","▁co de",".. \r\n","▁ne go","▁res pues","▁improvis ando","▁z ig","▁af uera\r\n","▁clar o,","▁pregun ta","▁fam a","▁bitch \r\n","▁vie jo","▁despi erto","▁hici ste","▁esqu ina\r\n","ám on","▁atre vi","▁vue lo","▁fon do","▁estil o\r\n","\" ,","g as\r\n","r á","á l","▁el la\r\n","in ,","▁ha cia","▁o ka","▁re z","▁re mi","▁vi \r\n","▁des tr","▁na ve","▁ch is","▁pue da","▁voy \r\n","▁¿ a","▁mí a,","▁sal v","▁ar ro","li dad","▁pe go","dos ,","▁tan tos","▁mam á\r\n","ens a","▁sol \r\n","▁quiere '","▁pla ka","▁tom ar","▁trap \r\n","▁or o\r\n","▁fl ui","▁fl uy","▁cono cen","▁gua po\r\n","▁z ar","▁esti lo,","▁nues tra","▁kno w\r\n","▁lleg ó","▁har d","▁fo to","▁mie do\r\n","▁habi ta","▁slow \r\n","▁dec ís","▁¿d ónde","c ab","c os\r\n","f ,","u h,","▁p ra","▁a bo","▁es o\r\n","▁de di","▁de tr","▁h on","▁f ri","▁lo ca\r\n","▁g lo","ien to\r\n","▁qui e","▁vi ,","▁na cí","▁ah or","▁¿ cu","▁mí o\r\n","▁siempre ,","▁ser \r\n","▁lle gue","▁dej ó","▁bo b","▁dice ,","h- ye","▁vez ,","▁pla y","ez co","ad as\r\n","▁mone y\r\n","▁mañ ana\r\n","▁bitch ,","ern o\r\n","▁llen o","▁ben di","- po,","l ar,","v es","▁s ti","▁l ento\r\n","▁a ten","▁en v","▁en er","▁f il","▁si do","▁g h","▁su bi","▁ca er","▁per ra","▁pi ll","▁pe g","ter a","▁can ta","▁li fe,","il lo","▁habl as","▁hace mos","▁cor on","▁he y\r\n","den \r\n","▁ab ri","▁dro ga\r\n","▁busc ar\r\n","▁jo ven","▁we e","▁escuch ando","▁cuer po\r\n","▁wa cho","▁diab lo\r\n","▁ace l","mien to\r\n","▁raper os","▁reci én","▁mos tr","▁acos tum","ananau, n","▁zig za","- r","- no","a t\r\n","b amos","l ando","▁ 6","▁d os,","er e","▁n er","▁mi ,","om a","ci o,","▁di cho","ab a\r\n","▁pa te","▁i gn","▁re par","▁le y\r\n","▁su r","▁des pe","▁ma i","▁ca er\r\n","▁¿ o","▁ser ía","tu ra\r\n","▁ba ck","▁cor to","▁sol d","▁hago ,","vis te","▁you r","▁rape a","▁pien sa","▁and ar","▁también \r\n","▁bri llo","▁enci ma\r\n","▁reg ga","▁guer r","▁pren de","▁equi po","▁chic o,","▁dij iste","▁gor do","▁difer encia","▁ayu da","▁dormi r\r\n","▁bre a","▁prefi ero","k ing","▁t é","▁y \r\n","ar le","▁v a,","es te","am i","▁di le","▁di os\r\n","que s","▁ten go\r\n","▁vi r","▁le t","▁ra y","▁ma t","▁ni ke","▁ve o\r\n","▁ver so","▁pi den","▁sal en","▁ven gan","▁mal a,","▁pr ó","▁ex iste","par a","▁habl ar\r\n","▁mo ti","▁ap ues","▁mejor es","▁sabe '","▁bi zar","▁prim ero\r\n","▁vo z\r\n","▁medi a","▁af ter","▁ins is","▁jun to","▁odi o","▁luz ,","▁suf ri","▁sig uen","c ci","e ',","m in","r os\r\n","s te\r\n","▁d as","▁y sy","ar te\r\n","▁me ta","ra '","▁lo ve","▁di go\r\n","▁j oy","▁tra ta","tr a\r\n","▁po -po,","▁ar ran","▁can ciones","▁fu ma","▁cor te","tan te","és ,","▁escu po","▁mar ci","▁tam o'","▁toda '","▁fl uyo","▁suel ta","▁bri lla","▁fuer te","▁hue vos","▁nombre \r\n","▁feli z","▁esca p","▁extra ñ","▁romp iendo","▁algun a","▁kil la","▁instrument al\r\n","▁crim in","d ien","l lo,","í s\r\n","▁p p","▁s tre","▁d to","▁d entro\r\n","▁a re","▁b on","▁f ol","▁si \r\n","▁o cas","▁est o\r\n","▁par to","us t","▁re d","▁ti ras","▁na ci","▁w or","▁tra go","▁an o","▁ri mas\r\n","▁gan ando","▁man d","án \r\n","▁habl amos","▁pro b","▁comp ro","▁mon o","▁cab eza\r\n","ándo te\r\n","▁dí a,","▁nen e","▁som o'","▁cla vo","▁wa ch","▁2 4","▁pier n","▁pen de","▁sho w\r\n","▁term ina","▁neces i","▁der ro","▁agar ra","▁mes si","▁buscar ,","▁qu a","▁wi th","▁jam ás","▁acti tu","- c","a a","a v","g ía","i do\r\n","l é","m is","n es","n o,","p a,","z as","▁p ág","▁s enta","▁l ín","▁c en","▁a t","er as","an tes","▁v in","▁la bi","▁te x","▁se man","▁ha go\r\n","▁di e","▁tu r","▁pa d","ti ca","▁cu ra","▁i ce,","▁re f","ol a\r\n","▁le tras","▁del in","▁so bra","▁an im","aj e","aj e\r\n","▁sal e\r\n","▁car ga","▁ven ez","▁gan g\r\n","▁ar te","ve lo","ter i","ter a\r\n","▁cre en","▁don t","▁cor ro","▁bar dero","▁ap ro","▁pal i","▁bi za","▁deci r\r\n","▁nue vo,","▁escri bi","▁muer to\r\n","▁olvi do","▁1 0","▁gri tan","▁tri ple","▁agu a","▁enten der","▁perdi do","▁princi pi","▁mujer es","▁blun t","▁ai re","▁segun do","▁capi tal","▁pelo tu","▁ade lan","▁disf ru","▁tum ba","▁gh et","▁regga et","b e\r\n","b ran","d ía","e t\r\n","f \r\n","s a\r\n","▁t os","▁y a\r\n","▁h un","▁en fer","▁me mor","in as","ta te","▁lo cu","▁par te\r\n","▁ten e","▁cu li","ent os","▁ve lo","▁va '","▁r ui","dad es","▁mí o'","qui s","▁ar ru","▁pe gar","▁cre er","▁esc uela\r\n","▁hacer te","si ón","▁res uel","▁bar de","▁fue go,","▁pro du","▁fal tan","▁comp ra","▁ap ri","▁pla ta,","▁esper an","▁cono ci","▁ga ti","▁hue le","▁coscull uela\r\n","▁argent ina\r\n","▁dire cto","▁cel ul","▁abaj o\r\n","▁compe ti","▁oke y\r\n","▁relo j","▁ark ano","▁viern es","▁pp rrum","2 \r\n","b ro","b el","g as,","h er","p os","r ar\r\n","s er","t ino","u c","▁t w","▁d j","▁a .","▁a ñ","▁v ent","▁v as\r\n","or o","▁con e","▁con tando","la do","▁des tro","▁ma g","▁ma te","▁ve ces\r\n","▁pi es\r\n","▁va cil","▁car i","▁hi elo","▁son ar","▁co de,","der a\r\n","▁mam á,","▁hacer ,","▁buen as","▁baj ar","▁pal o","▁to' s","▁vuel tas","▁mun do\r\n","▁exp res","por tun","▁dí melo\r\n","▁dí melo,","▁escuch ar","▁sue lo","▁pus sy","tin o\r\n","▁enten dés","▁apar te,","▁entien de","▁shi t","▁enam ora","▁oy e,","▁tier ra\r\n","▁hmm \r\n","▁sk r","▁án gel","▁déj ame","▁envidi a","▁acuer do","▁blo o","▁rápi do","▁cuán to","▁il um","▁lí ri","▁agra de","▁bizar ra","▁delin cuen","c é","c al","e ce","x ,","▁e ver","▁p hi","▁s enci","▁d r","▁d á","▁la m","▁b ra","▁mi ra\r\n","in e\r\n","▁f e\r\n","▁lo ve\r\n","om bi","▁si tua","▁con den","da do","ci a,","▁g on","▁pa pa","▁pa yas","▁cu r","▁i t\r\n","▁des n","▁ca go","▁esta do","▁pas ar\r\n","▁r an","▁ri que","▁pu l","▁pe da","▁cal ma","tar me","▁can ción\r\n","▁dej e","▁li mp","▁cor r","▁gu cci","▁tiemp os","▁fr om","▁emp res","▁real ,","▁gente ,","▁bes os","▁pan tal","▁senti mien","▁gri ta","▁tri ste","▁mill ion","▁ja i","▁demas ia","▁suf rim","▁ai re\r\n","▁peli g","__ __","▁últi mo","▁atr ás","- -","- ho","3 \r\n","c us","f o","m ente\r\n","o h\r\n","p u","á '\r\n","▁m y,","▁s ú","▁s por","▁a j","▁a y\r\n","▁es \r\n","▁no mb","▁b ús","▁un a\r\n","▁si ento,","ci to","▁pa gar","▁pa z\r\n","▁to a'","▁al to","ti \r\n","▁re y\r\n","▁j es","▁ye h-ye","tr u","▁va por","▁r é","▁son ri","▁pe or","▁co t","▁co le","▁cre o\r\n","to, \r\n","amos ,","▁res ul","▁llam o","▁for t","▁ter r","ándo le","▁mient ra'","▁fe k","▁volver te","▁fum ar","▁senti do\r\n","▁cualqui era","▁dol or\r\n","▁der e","▁bai la,","▁escen ario","▁due le","▁raper o\r\n","▁fav or,","▁repres ent","▁bom ba","▁dire cta","▁infi erno\r\n","▁explo ta","▁dom in","▁ham bre","▁tari ma\r\n","▁az ul","▁canser b","▁hard cor","▁bardero $","a o","b al","c as\r\n","c ón\r\n","j os\r\n","l la,","p ero","t ando\r\n","t re\r\n","u h!\r\n","v í","▁e u","▁e ran","▁e h-eh\r\n","▁l lo","▁y a,","▁que ma","os o\r\n","▁de to","▁de cí","▁no va","▁h á","▁b ro,","▁con cep","▁ha g","▁g al","▁g ru","▁to c","▁to '\r\n","▁cu ad","di o\r\n","▁vi de","▁le g","▁j ar","▁j a\r\n","tr an","▁va y","▁po w","▁po dés","ari os\r\n","▁tan to\r\n","▁can \r\n","il \r\n","▁imp er","▁du ki","▁vuel ve,","▁pens ar\r\n","▁fr ente\r\n","▁escri bir","▁cuen ta\r\n","▁jue go,","▁cha in\r\n","▁cla p","▁ami go\r\n","▁ins pi","▁ga to","▁reg res","▁wo h\r\n","▁má ',","▁cul pa\r\n","▁tres \r\n","▁chic os","▁noso tro","▁ale j","▁llev ar","▁recor dar","▁estre lla","▁brill ar","▁gir l\r\n","▁ñ en","▁flas h","▁vers os","▁¿s ab","▁tene mo'","- li","e gu","i e","n \r\n","u d","▁ ...\r\n","▁m ero","▁s na","▁c ero\r\n","▁d o'","▁n ar","▁de v","▁en o","▁mi ta","al es,","ta do\r\n","▁te le","▁con vien","am a","▁se l","▁com pi","▁com bo","▁o la","ch u","▁to ca\r\n","▁par arme","us ti","▁i mi","▁re ce","▁re con","▁ti ren","▁ma to\r\n","ga do","▁pi be","▁tra je\r\n","▁pas a\r\n","cer ,","▁gan é","▁mal a\r\n","▁cal l","ter o\r\n","▁cre y","▁pr r\r\n","▁' tán","▁don \r\n","▁imp osi","h- yea","▁vol ando","▁llam an","▁calle j","▁du ro,","▁fa cil","▁esper a","▁mun di","▁cambi a","eron \r\n","▁ban g,","▁2 1","▁wo w,","▁tranqui lo,","▁mom ento\r\n","▁estu dio","▁ning una","▁trai cion","▁agar re","▁dra ma\r\n","▁ele gan","▁bu ll","▁cru z","▁blun t\r\n","▁hor as\r\n","▁viaj e","▁conci erto","▁campe ón","▁déj à","▁ñ er","▁cli ck","▁uh- uh-","▁descan s","▁cereb ro","▁ign or","- y","a da","a da\r\n","n a\r\n","p able","r í","t ón","▁e ras","▁l ento","▁t es","▁d en","▁a bre","as te\r\n","▁lo g","▁con ec","▁se pa","▁ha ci","ci e","▁g \r\n","▁to dos\r\n","de z\r\n","▁re í","ca do\r\n","ol \r\n","▁le y,","▁j os","▁j a,","is mo\r\n","▁des car","▁ma es","▁per o\r\n","▁esta i","▁r ar","▁ri f","▁ri m","▁ri mar","▁po quito","▁as egu","▁gan g,","▁man os\r\n","▁u u","▁dej é","▁pon ga","▁comp rar","▁mon tón\r\n","ten \r\n","tal e","can \r\n","▁perd ón\r\n","▁acá ,","▁acá \r\n","▁tom ando","▁trap per","▁fin de\r\n","▁pes ar","▁gra ti","▁beb é","▁gi ra","▁inter i","▁ke ep","▁fuer za","▁neces ito\r\n","▁dol or","▁esp al","h-e h-eh\r\n","▁kno w,","▁apar te","▁dij o,","▁apren dí","▁due ño","▁of re","▁lis ta","▁dri ppin'","▁oke y,","▁cris tal","▁cump li","▁cai go","tt le","▁mama ci","▁gela to,","▁cá mar","▁cuar to","▁hit boy","▁-ín a,","▁pelí cula","▁fort ni","- lo","r ía\r\n","y ec","▁ 0","▁m uestro","▁p ana","▁l ápi","▁c ir","▁t ab","▁a ma","▁a ga","▁que ri","▁que de","es e","re mos","▁f ran","▁est ar\r\n","▁re ti","di da","▁su fici","▁des as","▁per ro","▁per si","▁w al","▁pi ca","▁tra to","▁quier a\r\n","▁an i","▁r í","▁r ío","▁ri co\r\n","▁po cos","▁as us","▁hi er","▁gan ar,","▁ent ero","▁ar te\r\n","▁pe dir","▁ac tu","ari os","▁u a","▁pr ue","▁ro tt","▁can ción","▁bien ven","▁imp res","▁res to","▁fal so","▁mira da\r\n","▁pal '","▁mar ca","▁mar ad","▁pis ta\r\n","▁olvi do\r\n","ándo te","▁qued arme","▁coraz ón,","▁enten di","▁diab lo,","▁menti ra","▁noso tr","▁minu to","▁trabaj o\r\n","▁feli z\r\n","▁cons tr","▁mol l","▁hici mos","▁cuida do","▁oscu ri","▁inv ent","▁ases in","▁salamand ra\r\n","▁amane cer\r\n","▁sincer o\r\n","▁lluvi a","-na-n a\r\n","▁detr ás","- i","d d","d on","n ic","á '","▁ á","▁s am","▁l ento,","▁a v","▁n ana","▁es co","▁en ga","▁f ues","om a\r\n","▁si m","▁si enta","▁con ten","▁ha cía","▁g ame\r\n","▁pa u","▁pa ís","▁to p","▁qui se","▁i ce\r\n","▁ma tando","▁sab or","▁sab e,","▁per ra\r\n","▁ver te\r\n","▁quier an","▁an ti","▁ven do","▁gan o\r\n","▁ent era\r\n","▁son \r\n","dos e","▁mal o\r\n","▁cal or","▁hay a","▁am ar\r\n","▁u p\r\n","▁qué \r\n","▁can ,","▁hace \r\n","▁mo ja","▁res is","▁pre cio","▁cas a,","▁vol ar","ez a,","▁ab ra","▁tom é","▁prim era\r\n","▁pes o","▁neg ro\r\n","▁hu bi","▁mil \r\n","▁mil es","▁bl es","▁uste de'","▁cla v","▁ta tu","▁ton to","▁hip -ho","▁poder \r\n","▁bas ta","▁dol lar,","▁han der","▁br on","▁músi ca,","▁sang re\r\n","▁qu í","▁apa ga","▁gas to","▁tras h,","▁desa y","▁mir ar\r\n","▁arre ba","▁últi ma","▁duk o","▁caus a","▁imag in","▁permanent ,","▁histor ia","▁carr era","▁pueb lo","▁ner vi",") \r\n","g en","j a,","l am","p h","í na","▁ (","▁m ué","▁p las","▁c ra","▁y an","▁en cer","▁b low","▁b ir","▁f o\r\n","▁si c","ci r","▁o portun","ce l","▁ten í","▁re pi","▁le jos","▁ma '\r\n","▁sab iendo","▁ca ch","▁pa' ca\r\n","vi o","▁va c","▁ri mo","▁ri ma,","▁po es","▁gan as\r\n","▁ll an","▁habl en","▁mo v","▁pro te","os, \r\n","▁dice \r\n","▁fr ío","▁muer en","▁do wn","et ,","▁fi es","▁rimas ,","▁wa cho,","▁tener te","▁encon tra","▁mill ón\r\n","▁enten der\r\n","▁ke lo","baj o","▁menti ra\r\n","▁llen a","▁rev ien","▁escen a","▁dra co,","▁estre llas\r\n","▁viv iendo","▁aguan to","▁raz ón","▁pri sión\r\n","▁compe tir","▁caden a","▁famili a\r\n","▁fras es","▁inc l","▁manten go","▁fra cas","▁suer te","▁directa mente","▁sna p","▁rott we","▁fues e","- u","b l","b res","d am","g ü","i '","i tos","j as\r\n","l le","é '","í si","▁ és","▁p hon","▁s ana","▁s ensa","▁l la","▁d ó","▁v ámon","▁la mb","ra me,","▁lo ca,","▁se as","▁o tras","▁par a\r\n","▁le tra","▁le vel","▁na tur","▁tengo ,","▁ra to\r\n","▁in ten","▁so le","▁pi ed","▁po t","▁ven eno\r\n","▁hi g","▁qué ,","▁esc al","▁esc uela","▁dej es","▁pon es","▁bo om","▁ju z","▁cas o","▁be e","▁ap oy","▁ho p\r\n","enci a,","▁muer o\r\n","▁aquí ,","▁fuck in'","a' o,","▁cla va","▁2 00","▁arri ba,","dor a\r\n","▁dem oni","▁jun tos","▁pol i","▁mer ce","▁músi ca\r\n","▁lleg ué","▁che que","▁sub iendo","▁coscull uela,","▁def iendo","▁rob ar","▁obvi o","▁repres ento","▁olvid ar\r\n","▁person as","▁pl u","-na -na","▁algun os","▁duer mo","▁emb ar","▁boy \r\n","▁silenci o","▁pú r","▁empiez o","▁dien tes","▁war ri","▁bando l","▁¿cu án","▁recon o","▁uh-uh- uh\r\n","- wo","a ',","c as,","d iente","g er","i d","i ón,","m en","p l","▁e e","▁e as","▁p á","▁p elo\r\n","▁s tu","▁q e","▁n u","▁de bajo","▁h en","▁h ora\r\n","▁en ca","in es","ra te","▁un o\r\n","▁si ete","▁con tr","ro u","▁se an","ci as\r\n","▁di os,","▁di eron","ch e,","▁to co","us e","▁le br","▁soy ,","▁ti re","▁ti ck","▁ma qu","▁in o","▁ca g","▁esta bas","▁ch ar","▁pi es","bi a","▁po co\r\n","▁po demos","▁car ro","▁ven diendo","▁pu re","li p","▁pe a","▁co c","ari a","▁u bi","▁ro to","ues tra","▁nun ca\r\n","▁dis co\r\n","▁lu ces","▁ju g","▁mon tan","▁ap re","▁du r","▁mejor es\r\n","▁herman os","▁ab ur","▁emp a","▁cuen to\r\n","▁and an","gas te","▁dí as\r\n","▁nen e\r\n","▁freesty l","▁1 5","▁gran de\r\n","▁dem bo","▁pun ch","▁cabr ón,","▁ke low","▁bitch es","▁segui mos","▁ún ica","▁buscar te\r\n","▁je fe","▁pin ta","▁piens an","▁habi lidad","▁raz ón\r\n","▁guar do","ppin '\r\n","▁cham pa","▁esqui vo,","▁uh- uh\r\n","▁descon tro","▁mmm ,","▁hoo d,","▁cay endo","▁prof es","▁ah-a h\r\n","▁hote l\r\n","▁té c","▁peda zo","▁ré pli","▁nosotro '","▁ñen go","▁imposi ble","▁desay un","- l","b or","i ones","m u","p en","p ura","t ero","z qui","▁ 9","▁c raz","▁a k","▁a ca","▁a mo","▁a ter","er an","▁y endo","▁de bo","▁v a\r\n","▁en car","▁en gan","▁me tal","▁mi re","▁si gui","▁con quis","▁ha gan","▁g '","▁tu ya","▁pa ís\r\n","▁al as\r\n","▁al um","ti co\r\n","▁cu ál","▁i dio","ent os\r\n","▁su pues","▁ca í","▁del i","▁tra e","▁pas ó\r\n","el \r\n","▁voy ,","▁¿ de","dad ,","▁gan arme","▁ser io,","▁ar m","uel o\r\n","pa do","▁man \r\n","▁solo ,","▁mal o,","▁co j","▁pr om","▁ro ba","ras ,","▁ex cus","▁hacer me","▁hacer lo,","▁sa cando","▁todos ,","ic a\r\n","▁dis cul","▁bab e,","▁ci gar","▁hoy ,","▁men \r\n","▁be at\r\n","▁pla ca","▁pla ta\r\n","▁pens é","▁pens am","▁do g","▁fre e","▁suen e","a' o","▁él ,","▁z or","▁cla p,","▁tal ento\r\n","▁tri un","▁nig ga,","▁dispar o","▁ale mán","▁ele g","▁camin ando","▁termin ar","hi on\r\n","▁hor as","▁romp e\r\n","▁rompe ,","▁x ana","▁hous e\r\n","▁jaj aj","▁il us","▁er re","▁sw ing\r\n","▁fas hion\r\n","▁under gro","▁desn u","▁púr pura","▁ater ri","d s","d al","e a\r\n","i a,","l os\r\n","l ar\r\n","n ,","p re","s y\r\n","t res","t or\r\n","v as","v in","z ,","▁e du","▁d re","▁a la","▁y ,","▁n or","▁que mar","▁de ton","un d\r\n","▁mi o","in '\r\n","▁f amos","▁te c","▁si ste","▁se p","ien do\r\n","▁di ver","▁est és","▁ten gas","ti do","▁cu lo\r\n","ent es\r\n","▁su pi","▁ca f","▁ca en","▁ca cer","▁ni ñ","▁mu lti","▁va ci","▁r ue","▁está '","▁ven i","▁ent era","▁ll ám","▁cam ina","▁cam ara","▁co lo","ter ,","▁cre er\r\n","én de","ic o,","▁dis cu","h- ah\r\n","▁hoy \r\n","▁men cion","ren al","▁comp ré","▁mar a","▁you \r\n","▁do cu","▁fl ores","▁ter ri","▁fin \r\n","▁neg ra","▁jo di","▁¡ a","▁improvis ar","▁cer ve","▁despué '","ín ,","▁sue ñ","▁ga tas","▁proble ma\r\n","▁mill ones","▁inter na","▁pen a\r\n","▁ad renal","▁bas e","▁fuer on","▁cin tur","▁der ra","▁rit mos","▁pers ona","▁shi t,","mien to","▁trabaj o","▁sali da\r\n","▁bom b","▁truen o\r\n","▁desa par","ali dad\r\n","▁pasti lla","▁hous e","▁rápi do,","▁espe ci","▁jaj a\r\n","▁gela to","▁fronte arle","▁prrrum !!","▁quedas te","▁caz z","▁propi a","▁pú bli","▁sorp ren","▁volvi ó","▁remi x","▁habita ción\r\n","▁apro ve","▁moll y,","a '\r\n","g os,","m on","t ás","y s","á bamos","é r","▁e va","▁p ab","▁s p","▁d ru","▁a van","er to\r\n","▁n ú","▁de ber","▁h el","un a\r\n","▁b ha","▁mi na","ta da","▁lo c","da '\r\n","▁se c","▁por ro","▁ha c","▁com iendo","▁com er\r\n","▁di a","▁o cul","ab a,","▁pa ca","▁est r","▁al im","ce '\r\n","▁re pe","▁j al","▁esto '","▁ma tan","▁ma ke","▁sab es,","▁ni ños","▁tra tando","▁pas te","▁an g","▁mí o,","▁ent ero\r\n","▁co cin","▁co bar","▁am ena","▁k a","▁k ar","tar on","▁pr os","▁pr ín","▁can a,","▁li ri","ta, \r\n","▁sa y","▁pon te","ru ga","ez co\r\n","ten cia\r\n","▁go bi","▁saben ,","▁fa ctu","▁emp ec","▁quer í","ja te","▁gua cho","▁suen an","a' o\r\n","▁¡ w","▁sus pi","▁ami gos\r\n","▁wa cha","dor ,","▁ga vio","▁gri tar","▁all á\r\n","▁au -a","▁ad ver","▁bas ura\r\n","▁perdi do\r\n","▁estu ve","▁llor ar","▁ki ll","▁compar to","▁gir l","▁rock s","▁chan ce\r\n","▁án i","▁cai ga","▁volv í","▁volv iendo","▁imag ina","▁maldi to","▁rebo ta,","▁bote lla","▁bel la","▁acom pañ","▁nego ci","▁sti g","▁wor l","gü en","▁bha vi","▁prín ci","a h,","c ero","c to,","e o\r\n","g ía\r\n","r y","á cti","▁d arme","er en","▁es f","an os\r\n","▁de \r\n","▁de do","▁de por","▁no ta\r\n","te o","▁con tin","▁g all","▁com ent","▁di ario\r\n","▁tu c","▁qui so","ti vo\r\n","▁re cu","is ta","ent es","▁ma fi","▁sab ía","▁ca cha","▁so por","▁so cio","▁ve ce'","▁ver güen","▁tra jo","▁pas ando","▁pas ión\r\n","▁r un,","pe ,","▁mí os","▁po lo","▁car go","▁ven gas","▁gan s","▁gan o,","▁ac ción\r\n","▁ac aba","▁man i","▁cam is","▁mal os","▁co la","▁cal i","▁cal ma\r\n","tu ra,","▁pr on","▁pr r,","▁cl an","▁mo da","ver \r\n","fi t","▁pla cer","▁vien es","▁vas ,","ad or\r\n","▁fa ce\r\n","▁fre e\r\n","▁estás \r\n","▁cono cer","▁fe o\r\n","▁vo cab","▁matar nos","▁impor ta\r\n","▁papi \r\n","▁estu vi","▁tira do","▁bro th","▁simp le\r\n","▁recuer da","▁je f","▁expli co","▁anda ba","▁camin ar","▁camin o\r\n","▁brill ando","▁perf u","▁blan co","▁perdón ame","▁puer ta","▁hum o\r\n","▁temp o\r\n","▁dri ppin',","▁cump l","▁clas e","▁¿que r","▁hous e,","▁lun a\r\n","▁felici dad","▁funer al\r\n","▁liberta d\r\n","▁exper ien","▁acel era","▁eu ro","▁sim ón","- ,","0 \r\n","b rar","c ame","e o","e ce\r\n","g re","g res","g ues","i t","r ri","s o,","í ,","▁ ár","▁m ón","▁p a\r\n","▁s á","▁l ó","▁c le","▁d ora","▁a \r\n","▁es pañ","▁v e\r\n","▁la dr","▁h ol","es o","un k","▁b ar\r\n","al idad","ra do","▁f en","▁f ru","▁f este","▁lo o","▁com en","▁di vi","▁o jer","ab as","▁pa ga","▁est ando","de l","▁al er","▁al ma\r\n","▁cu ándo","▁i den","▁i t,","res i","▁ya h","▁su po","▁na h\r\n","▁ma dri","▁in di","▁ca er,","▁pi que","▁pi ola\r\n","▁an tes\r\n","▁¿ para","▁ven \r\n","▁ven der","▁son r","▁ll ora","▁cam a,","▁co pa","▁k h","▁k us","▁cre es","▁cre cí","▁li mi","car a","▁lu ce","▁fal ta\r\n","▁mon s","▁llam ar","▁vas o","▁du ra","▁ol a\r\n","▁sabe mos","as, \r\n","▁rom pi","▁fr ío\r\n","▁fa ce","▁or o,","ándo me\r\n","▁real mente","▁real idad\r\n","▁neg ros","▁cono zco","▁quien es","▁¡ dí","▁escuch an","▁ami ga","▁sue ño,","▁gran des","▁vis to\r\n","▁dem uestro","▁tranqui lo\r\n","▁cabr on","▁ad mi","▁má qu","▁fuer te\r\n","▁hue vos\r\n","▁menti r","-a y","▁mes a","▁conti go,","▁apren der","▁fun cion","▁mir á","▁contro l\r\n","▁whi te","▁hum o,","▁conci encia\r\n","▁piel \r\n","▁dese o","▁atr ás\r\n","▁perfec to\r\n","▁trans pi","▁interes a","-p ro","▁feel ing","▁deb es","▁calien te\r\n","▁caraj o","▁za pa","▁mad ruga","▁destr uy","▁ahor a,","▁env uel","▁pró xi","▁cone x","▁rique l","▁corr er","▁spor t\r\n","▁cumpli r","▁mamaci ta,","▁impres ion","▁punch l","▁téc nic","▁iden ti","▁¡dí melo","' o,","b ando","d an\r\n","g uen","i as","y a\r\n","z an","z on","ó s","▁e di","▁m era","▁p é","▁a dor","er as\r\n","er ic","an os","▁de u","▁no que","al a\r\n","▁f is","to '","▁lo t","▁un o,","▁te lé","▁g ue","▁com pa","ch ar","▁est res","▁est én","▁par ar\r\n","▁cu le","▁i mán","ca te","ca ción","ca tri","▁in se","▁ca gar","▁ve te","▁pue do\r\n","▁va yas","▁estoy \r\n","▁ri ma\r\n","e, \r\n","▁gan an","li dad\r\n","▁pe cho\r\n","▁lle go,","▁ac or","▁mal dades","▁co jo","▁cal or\r\n","▁' el","▁sa i","▁sa que","▁sa qué","tas te","▁pon gan","▁fue \r\n","▁bo bo","▁cos tum","▁ci catri","fi ca","▁ap la","te, \r\n","▁mejor ,","▁deci di","▁rape ar\r\n","▁esper ar,","▁gus tan","▁olvi da","▁jue ga","▁gua ch","▁suen a\r\n","▁gi gan","▁ob je","▁1 00","▁tar ado\r\n","▁bail ar\r\n","▁wo w\r\n","▁bal l","▁pega o'","▁vo' a","▁rit mo,","▁plan eta","▁rev olu","▁la' o\r\n","▁¿c omo","▁mujer ,","▁difer ente","▁repres enta","▁escrib o\r\n","▁dormi r","▁read y\r\n","▁arre p","▁temp ran","▁bol u","▁campe ón\r\n","▁cier ro","▁futu ro\r\n","▁cump le","▁tre in","▁rey es","-e- e\r\n","▁out fit","▁diam ante","▁consi go\r\n","▁len gu","▁motherfuck er","▁enfr ente","▁uni ver","▁code ína","▁ener gía","▁zigza g,","▁let 's","▁mag ia","▁lam enta","▁resul ta","▁imper io","▁incl us","▁hen nes","▁interna cion","▁ojer as","▁telé fon","b ra\r\n","c cion","e mb","h h\r\n","k er\r\n","l as,","m ento","n ab","n y\r\n","r um","u ri","z z","ó r","▁m ar\r\n","▁p uen","▁s cho","▁d ense","▁n a\r\n","▁n ame\r\n","▁n ananau,n","▁que mo","os a","or o\r\n","▁me tas","▁me ten","▁me tiendo","▁mi ren","in as\r\n","▁f o,","ta mente","▁lo ve,","▁te mo","▁con c","▁con ven","▁con tar\r\n","▁se d","ci do\r\n","la -lo","▁tu vi","ch \r\n","▁est ri","ti co","▁i r\r\n","▁re bel","▁le tal","▁des en","▁ra ce","▁in i","▁del ante","▁per de","▁tra tar","▁an si","▁¿ te","▁po p","▁sal iendo","▁car n","▁car o","▁car o\r\n","▁car ne","▁ven ta","▁hi gh","▁pe que","▁pe cho","▁pe dí","per a","▁ll ue","▁mal e","▁mal as","ari a\r\n","▁k o","▁cre a","▁qué ?\r\n","▁ro to\r\n","▁can tar","▁li ttle","▁ba d","▁rap ero,","▁hace mo'","▁he ar","▁imp a","▁sol ,","ru tu","▁baj ando","▁be bi","▁ap las","▁pla za\r\n","▁llam arte","▁du l","▁vuel o\r\n","▁deci le","▁for m","▁esper a\r\n","▁mun do,","▁the y","amo' \r\n","▁desp ues","▁fin al\r\n","▁nen a\r\n","▁él \r\n","▁volver ,","▁ban g\r\n","▁haciendo ,","▁suel o\r\n","▁ami go,","▁col ch","▁col ombi","▁sue ño\r\n","▁ta ke","▁pan a\r\n","▁matar on","▁pres u","cas te","▁all á,","▁pen diente","▁encontr é","▁bal a","▁esp an","▁bro ke","▁entien den","▁medio c","▁hici eron","▁difer ente\r\n","▁suf re","▁ai res","▁bor ra","▁lis to","▁puer to","▁arre gl","▁sacar me","▁escon de","▁cham pi","▁pele a","▁voz ,","▁gen era","▁duk o\r\n","▁duk o,","▁perre a,","▁err or","▁3 0","▁capa z","▁ante '","▁gote o\r\n","▁respi rar\r\n","▁sua ve","▁ví de","▁acostum bra","ananau,n anana","▁qua vo,","▁phi lli","▁terr or","▁kh ea","▁sai y","▁nananau,n ananau,nanana","! ,","a i","b ien","c \r\n","c os,","d in","f as","i b","i ta\r\n","m bo","p es","v en\r\n","w oo","ñ e","▁s ui","▁c ent","▁t esti","er os","▁no ta,","▁la d","▁el i","▁h uel","▁b á","▁f ísi","ab ri","▁al to\r\n","▁al mo","▁al go\r\n","▁ten ta","us \r\n","▁i ce","▁re co","ca da","▁vi ctor","▁j an","is te\r\n","is ta\r\n","▁des ma","▁des tino","▁in ta","▁pa' \r\n","▁ve ,","▁w es","▁pi dió","▁tra tan","▁quier e,","▁está ,","▁ven ,","▁ven de","▁ven go,","▁pu bli","▁son i","▁ac omo","▁co her","der a","ba -","▁dej arte","▁li c","▁li l","▁ne ur","▁hace ,","▁fu ri","tan cia","▁bo ca,","gan \r\n","▁be bo","▁mue res","▁mue vo","ten er","▁cab al","▁tus si","▁vuel to","lan te\r\n","▁nue ve","▁us a","▁pare d\r\n","▁escri be","▁fa ke","▁dos is"]}}